#version: 0.2 - Trained by `huggingface/tokenizers`
Ġ t
h e
Ġ a
i n
Ġt he
Ġ o
r e
e r
n d
Ġ s
a t
Ġ w
o n
i s
e n
Ġo f
i t
o r
Ġ c
e s
Ġ b
e d
Ġ f
o u
Ġ p
a n
a l
a r
Ġ in
Ġa nd
in g
Ġt o
Ġ m
i on
Ġ d
Ġ h
a s
i c
l e
o m
Ġt h
en t
l l
Ġ n
Ġb e
v e
Ġ e
c t
Ġ re
Ġ is
r o
s t
Ġ l
Ġ y
o t
u t
s e
i d
Ġ g
Ġf or
at ion
u r
i m
c e
Ġw h
a y
l y
a d
v er
Ġy ou
Ġ A
T he
Ġ u
o w
a m
Ġo n
Ġ I
Ġ S
e t
i r
i l
i g
Ġ -
Ġth at
c h
m ent
Ġ he
it h
o l
Ġ it
Ġa s
r a
Ġ M
i ll
Ġa n
o d
Ġo r
i f
Ġn ot
Ġ C
Ġ P
es s
u l
t er
Ġw ith
Ġs t
r i
Ġa re
g e
Ġ (
he r
Ġh a
Ġp ro
Ġd e
Ġ H
at e
Ġc on
l d
Ġs u
Ġw e
a b
r om
Ġs e
re s
â Ģ
t h
o p
er s
Ġ B
Ġ G
a k
n t
is t
Ġb y
Ġ '
Ġc om
h t
Ġs h
p e
a nd
a in
Ġw as
Ġha ve
Ġthe y
Ġf rom
i v
Ġthe m
Ġ 1
al l
Ġw ill
es t
it y
u s
e m
Ġe x
a h
Ġwh o
Ġ D
Ġ R
Ġ v
o re
Ġth is
a c
ic h
i ve
i e
an t
u m
Ġ T
Ġ L
Ġ W
q u
ct ion
Ġh as
Ġ k
p p
u n
i es
ar t
u re
o s
Ġa t
Ġ r
Ġwh ich
i a
or t
ou ld
e l
Ġthe ir
ĠI nd
ar d
o c
re d
ig ht
ou r
Ġn e
Ġh is
or d
in d
Ġ N
Ġa l
p t
ou s
ĠA ll
o se
t e
u st
Ġa ll
t her
Ġ âĢ
Ġ le
Ġd o
Ġc h
on g
Ġw he
a g
u d
Ġ 2
a ge
om e
i al
ĠAll ah
Ġt r
Ġw or
at ed
an ce
c c
ou nt
Ġyou r
Ġ E
Ġ O
Ġ F
a v
Ġm e
i p
e ct
Ġp l
Ġg o
an s
r ou
e ar
as t
Ġd is
Ġs a
Ġa b
Ġ K
id e
o st
r y
Ġu s
ab le
f f
am e
Ġan y
Ġc an
o k
Ġthe re
nd er
n ow
Ġp e
Ġ im
Ġb ut
Ġcom p
is h
A nd
Ġm an
Ġu p
Ġ en
Ġa d
ĠInd ia
a p
ar y
Ġh im
Ġon e
o g
T h
ĠH e
s o
ul t
Ġu n
Ġbe en
ic e
Ġo ther
Ġs o
ou t
Ġp er
on e
op le
r u
p er
Ġwe re
Ġ j
ic al
Ġre s
p l
i k
en ce
a u
ion s
g h
Ġh ad
i b
i re
I n
Ġcon t
0 0
res s
ĠW e
Ġth ose
a re
i z
ve l
Ġ "
Ġsa id
ak e
in e
Ġ U
im e
a il
Ġpe ople
Ġwhe n
Ġa m
Ġa g
ation s
Ġk now
ig n
ver y
Ġsh all
or m
u e
as e
an g
i le
Ġu nder
ad e
H e
ver s
Ġin c
Ġo ut
Ġp art
u b
I t
at h
ing s
en s
Ġin d
Ġn o
Ġ /
Ġ J
r it
a ce
Ġit s
Ġbe l
e p
Ġwh at
a ch
t o
Ġal so
Ġc l
as s
Ġ if
a ct
i an
Ġo ur
Ġa r
b er
Ġc o
Ġe v
ĠG od
i ous
Ġm ay
Ġ1 9
re n
Ġcom m
re at
l ic
is e
Ġ V
Ġt e
ĠL ord
d u
u al
ver n
f ore
Ġ The
p ort
Ġa pp
f e
re e
er v
f ter
or y
it ion
ac k
o ok
id ent
Ġa cc
Ġs c
Ġy ear
ol d
ur n
Ġw ould
ik e
Ġs pe
Ġsu b
o ve
Ġon ly
Ġsu ch
f orm
he d
j ect
Ġre l
se l
Ġbe c
au se
Ġt ime
w e
Ġpro v
Ġs p
Ġp re
at er
t ed
Ġt w
ĠC h
Ġwor k
ation al
r ic
Th is
ri b
Ġo ver
Ġre c
it ies
Ġthe n
Ġm ade
Ġe ar
Ġbel ie
Ġp o
il d
ĠS t
Ġd ay
ĠI n
Ġf o
s h
le ct
w ard
ou nd
i ed
Ġsh ould
Ġm ore
vern ment
Ġab out
Ġth an
w n
c es
Ġl ike
ter n
Ġ qu
Ġs ome
Ġm y
ut ion
if e
Ġin to
Ġne w
Ġs ay
ut h
er t
it e
Ġas s
f ul
Ġbe t
ar k
Ġc ount
a j
Ġe m
w ay
Ġof f
Ġf e
W e
is s
Ġre m
on s
Ġcon s
ĠG o
vel op
n ess
g r
Ġp r
he n
e nd
ow n
st it
ĠâĢ ľ
ce pt
if ic
Ġtw o
o y
e c
an k
Ġre g
ment s
ĠâĢ Ŀ
Ġgo od
Ġthe se
i ly
n e
Ġ Y
Ġa fter
p h
l ed
Ġfor m
Ġ 3
at es
o nd
ll ow
Ġa ct
i ent
a ve
Ġbe fore
Ġp ers
ro w
. .
t s
Ġd es
Ġ ent
0 1
p le
Ġag ain
ĠS h
à ¤
Ġo b
en g
c y
or s
Ġ [
g ht
v ed
c ess
Ġr ight
Ġse e
ow er
in k
Ġ ro
Ġg u
Ġde c
o b
res ident
Ġf ir
rou gh
om m
Ġhe r
Ġl ife
c ial
a w
Ġs y
c ed
et h
ar m
Ġg iv
Ġtr ans
Ġb l
Ġa c
er m
is m
ĠT h
âĢ Ļ
Ġc all
Ġwor ld
pe ct
W h
am m
e ver
re nt
en er
Ġp res
Ġbe ing
Ġth rough
ot her
) ,
Ġde velop
Ġw ay
Ġwhe re
B ut
The y
an ge
Ġs et
e ed
Ġ ra
n ing
l es
al ly
Ġe very
Ġc re
Ġg reat
l i
at ing
in t
Ġd if
ur ing
v es
x t
u c
ig h
f t
Ġin v
ot h
u ll
at ive
ĠInd ian
Ġs erv
o od
we en
ĠP ro
id ed
it s
Ġd own
Ġcount ry
ol og
Ġth ou
a x
) .
ag es
Ġf l
Ġm ake
Ġad d
Ġp ol
Ġfo llow
ul ar
Ġpro du
Ġbet ween
Ġus ed
Ġat t
Ġc ent
ib le
Ġse c
ĠP resident
p en
Ġb r
c on
ub lic
ĠGo vernment
ur al
is ed
p os
Ġp os
st em
t he
S o
Ġc ould
Ġd id
t y
u nd
Ġk e
b le
ĠH is
g an
The re
ĠB h
Ġfir st
oc i
al s
ĠP r
Ġpers on
an y
Ġwe ll
Ġyear s
Ġcom e
Ġin te
Ġ _
ĠH im
Ġm ost
h i
Ġe ff
Ġup on
Ġman y
pp ort
Ġhe l
Ġs ign
ĠA nd
ent s
e f
h a
at ure
il ity
ĠU n
Ġre t
sel f
l ud
it ed
s s
v en
Ġ very
Ġear th
Ġev en
Ġu nt
Ġam ong
Ġb ack
is ter
t ing
Ġh ow
Ġor d
Ġc ol
Ġm ess
Ġo wn
f er
Ġn um
Ġagain st
v ing
ĠA ct
Ġp ur
Ġd ist
el ie
n g
a ir
Ġ ed
u ch
ie w
Ġ 5
ak ing
Ġne ed
Ġg et
m e
ĠM in
g et
Ġt ra
Ġre p
at her
Ġ2 00
iss ion
ire ct
Ġhel p
on t
p r
he s
at i
I f
c k
Ġs ent
n ot
ut e
o f
is ion
u res
Ġin st
as ed
ch n
Ġ 4
Ġha nd
ĠI s
ra ct
Ġv al
form ation
Ġe nd
Ġt ake
Ġw rit
Ġdo es
Ġm em
Ġbelie ve
rou nd
Ġch ar
Ġgiv en
re ad
Ġu se
ant s
Ġm od
ĠC omm
Ġs he
r ong
ic k
is hed
ic es
Ġsy stem
Ġdis c
Ġch ild
u p
âĢ Ŀ
Ġt urn
Ġm ust
e e
Ġim port
Ġa p
Ġre qu
Ġb u
Ġc ert
t en
Ġj ust
iv es
Ġm at
oc k
b elie
Ġg r
pe nd
as h
Ġy e
Ġm on
it al
re st
ction s
Ġpl ace
Ġin s
id es
in ess
Ġdif fe
ar i
Ġp ass
al th
ar ch
r or
ĠSt ate
Ġbec ause
ou se
Ġp h
i vers
Ġacc ount
I nd
Ġl ong
Ġw om
Ġl it
ri es
Ġex p
Ġh um
Ġp ower
Ġ >
t le
Ġg ive
r al
e w
A n
ar n
Ġe qu
or k
i x
Ġa v
if ied
ar s
Ġinc lud
at a
Y ou
E S
Ġg ener
Ġsu re
ĠD ay
Ġp rom
uth or
Ġc le
sel ves
Ġim p
ĠD e
Ġn ame
A s
h ar
Ġa way
Ġs m
Ġco nd
u g
Ġc ar
Ġc ap
Ġn ow
Ġ2 01
in ed
Ġf ound
Ġn or
Ġm in
al e
Ġw ater
Ġ &
sh ip
et y
d ay
Ġin ter
ou n
Ġle t
rou p
Ġw ant
l ess
a red
Ġl ar
. "
ist s
Ġst ate
Ġnum ber
t c
Ġg l
an a
Ġle ad
Ġm en
ang u
Ġhe av
Ġd uring
ter s
er n
ic t
e g
od y
Ġs ame
led ge
W hen
Ġcon f
Ġcon c
Ġse ction
ru ct
im es
i od
Ġf in
Ġwh ile
y s
O n
Ġf am
l im
Ġm ain
Ġwh om
olog y
Ġl o
Ġspe c
i red
Ġ <
in s
Ġe ach
e red
Ġc ase
Ġdevelop ment
Ġpres ent
o v
Ġo cc
Ġf ore
con om
Ġre ce
Ġhe art
m an
Ġin f
Ġas k
ak en
A ll
ĠH ind
Ġc ur
Ġl and
Ġd et
Ġhe re
s u
Ġ est
al ity
pt ion
Ġp ay
y a
Ġpro cess
ain s
Ġst ud
Ġcall ed
Ġin t
Ġres p
âĢ ľ
Ġb oth
Ġe tc
Ġc our
Ġan other
Ġord er
Ġar t
Ġor gan
Ġb ook
n er
ĠS c
Ġth ings
Ġs er
om p
S h
i ence
Ġtr uth
ic s
Ġl aw
ward s
Ġl oc
Ġad v
am p
le ase
Ġcomp le
Ġw ord
Ġret urn
iz e
Ġed uc
Ġpre v
Ġf ac
ain ed
Ġc or
E N
Ġo pen
b ers
Ġde f
l ish
Ġper iod
Ġde m
ĠC ent
ent ion
F or
Ġp ublic
Ġdiffe rent
Ġind eed
Ġ 6
Ġpart ic
Ġl ist
Ġb us
Ġst art
Ġf ile
ro p
Ġbe h
Ġm ark
Ġb est
Ġf ind
Ġcert ain
Ġpl ay
Ġs ur
Ġde v
Ġt erm
Ġind ust
T o
Ġc ame
u k
Ġc e
Ġth ree
m b
Ġcomm un
Ġa ff
Ġre f
m it
Ġknow ledge
Ġwith out
c l
Ġf act
Ġf il
Ġw ind
Ġsh ow
Ġs ou
stit ution
iv ed
E x
Ġte chn
in es
Ġe conom
Ġpos s
Ġf ear
Ġrel ig
a id
Ġb ro
o ol
Ġme ans
Ġsu pport
ĠW h
Ġf a
Ġre ad
am ent
Ġinte rest
st and
pl oy
ĠM us
a i
Ġm uch
Ġav ail
ĠC on
Ġpro gr
Ġin formation
.. .
it her
ĠE x
re t
in ation
P ro
Ġa uthor
Ġg row
Ġ 0
in ce
Ġl angu
ie ld
ou gh
Ġl ook
d d
iv ing
Ġh igh
Ġ 8
Ġres pect
Ġex t
Ġt em
Ġst and
he re
c rib
ual ly
Ġp un
Ġt y
ĠâĢ ĺ
Ġs l
Ġv is
ri end
ĠM ess
Ġ 7
Ġdis belie
iz ed
cc ess
Ġex cept
Ġinc re
ff ic
o h
m er
ren ce
: %
Ġd irect
Ġcont in
oc ial
e v
Ġgo vernment
Ġg ra
Ġv ar
Ġwom en
g ed
ĠO F
m s
Ġf ull
if y
S t
Ġm ed
Ġunt o
Ġth ink
ĠMin ister
Ġhum an
es h
Ġme et
Ġpro ject
Ġo per
Ġcre ated
m in
er ror
Ġb en
th ing
ed s
Ġcle ar
ri ed
Ġcan not
ĠA s
Ġg roup
ol ution
w are
Ġsm all
ĠP ar
Ġeff ect
ct or
Ġs im
ĠY ou
Ġimport ant
N D
Ġs k
ra p
Ġl ast
en cy
Ġpro f
Ġex am
Ġha pp
lect ed
Ġbec ome
ĠSh ri
as ht
ĠM ah
stit ut
ĠO ur
Ġpro per
Ġc ult
Ġap pe
Ġ1 8
ĠâĢ ĵ
Ġmess age
âĢ Ķ
ĠR es
way s
in al
Ġbr ing
R B
Ġs om
Ġcomp any
p or
te nd
Ġ Q
Ġre st
k s
h ip
old er
Ġm er
w ork
em ber
Ġt aken
ĠN ational
Ġ ver
Ġam ount
Ġbus iness
Ġto day
E R
Ġknow n
Ġne ver
id er
Ġsure ly
Ġest ab
A R
o in
as es
Ġinc ome
g g
Ġpun ish
Ġw rong
Ġd iv
a z
Wh at
ak es
Ġm ight
g ress
Ġc a
Ġchild ren
b s
I D
The n
N o
ic y
Ġp at
ist r
Ġc he
id d
Ġp ri
ĠB ook
Ġvar ious
l s
Ġhe ad
e y
Ġwith in
ot e
Ġd en
Ġapp lic
Ġday s
Ġthem selves
re ed
Ġact iv
Ġmon th
in c
Ġf r
Ġs ch
S e
Ġf un
Ġe le
Ġbet ter
Ġp ut
tern al
l am
Ġac cept
Ġo ld
ĠF or
Ġv iew
ĠT r
l f
g y
Ġpro ble
C h
Ġt imes
ĠMus lim
Ġd one
Ġb ank
Ġf our
Ġfa ith
Ġd est
Ġm ind
eth ing
A T
Ġsu ccess
i i
Ġall ow
Ġev il
Ġs it
Ġ ide
Ġapp ro
Ġlar ge
Ġf riend
rou ght
ĠA r
av an
Ġwind ow
m ed
Ġb ody
l ine
Ġother s
Ġre al
in ing
od e
ĠT e
u es
Ġs ocial
Ġfor g
Ġm ove
l ished
The se
Ġle vel
Ġem ploy
Ġle ft
ro l
Ġeduc ation
Ġadd ress
ical ly
D o
o int
an n
Ġb as
Ġgo ing
Ġke ep
ul ation
i um
Ġ 9
p ar
iz ation
er y
Ġto o
st r
ĠA n
at or
Ġp ar
fer red
al f
ess ion
U n
ur y
Ġbu ild
l and
Ġex per
O N
at ic
Ġs oci
ra h
Ġpol it
it ions
Ġto wards
Ġde p
Ġch ang
Ġm ar
Ġle g
ir on
EN T
Ġsc he
H ow
e ad
Ġres ult
o ard
Ġben ef
Ġl ess
eng er
Ġd ue
Ġavail able
ie f
Ġt re
ĠB ut
ord ing
Ġinv est
ail ed
al k
Ġqu est
Ġp op
ir c
en se
A l
Ġk ind
as on
ĠR am
Ġheav ens
Ġh ist
ir d
00 0
Ġis su
c ri
Ġf ree
Ġ1 0
2 01
Ġtr ad
an ces
ĠE ng
ĠThe y
Ġl ight
Ġhe alth
Ġj ud
Ġlangu age
Ġb rought
Ġre v
Ġoff ic
ivers ity
ĠM an
Ġunder stand
Ġd ra
Ġc ro
e x
Ġex ist
er ing
Ġpro te
er c
Ġw ar
Ġd r
al a
us s
Ġval ue
Ġpunish ment
Ġcomm and
aj or
Ġc ause
if ul
Ġpo et
b r
ruct ure
b e
ĠTh is
Ġt as
tern ational
Ġn ational
Ġfam ily
ate ly
ĠI t
Ġ ri
is ing
ce ed
w h
a im
ific ation
Ġse nd
ur ity
Ġfo od
ĠR aj
read y
ĠBh avan
ut y
Ġcon st
mer ic
Th at
us ed
or n
Ġch ange
Ġass oci
Ġprogr amm
p ut
se ction
ric t
is ions
h ing
Ġl im
ri al
Ġde ath
he t
Ġcl ass
A N
r on
oc u
Ġspe cial
Ġserv ice
Ġsom ething
Ġst r
ĠA l
our ce
Ġmark et
ent ial
ate g
Ġv ill
Ġm o
n a
ric ult
Ġm et
Ġ19 9
ir it
Ġ {
it te
ĠS e
iv id
Ġr un
ĠD el
al i
age ment
n ect
ĠM u
Ġprov ided
ĠG u
Ġf ather
Ġmat ter
Ġe y
ĠR s
fe rence
ur ther
Ġf ar
Ġare a
ĠIs lam
Ġh ouse
ure d
Ġsub ject
Ġob ject
rap ati
Ġal ready
Ġb re
a it
Ġre ve
A t
ren g
Ġprodu ct
Ġr u
Ġsu pp
ĠCent ral
Ġne ar
Ġp le
Ġd ata
R ES
i qu
Ġmem bers
Ġl ove
ab ility
get her
Ġto gether
Ġ :
Ġreg ard
ra ph
Ġo p
one y
Ġh ard
Ġh ig
Ġ1 5
Ġfe w
Ġcomp ut
Ġwho le
Ġg ave
asht rapati
Ġf ield
i o
I N
f or
Ġd ate
Ġchar act
m a
Ġsign s
e ous
h an
Ġserv ices
c ing
Ġper form
Ġcount ries
Ġtr ue
Ġwor ship
Ġf und
os s
Ġre se
re en
Ġn ight
c ome
Ġen c
g er
Ġn et
an cial
Ġfollow ing
g es
id ing
ent ly
Ġcomm on
Ġen g
Ġan n
en ess
Ġn on
r an
ĠS o
Ġab ove
t al
v al
li ament
Ġare as
og n
Ġhim self
Ġlit er
i ans
Ġpr ay
Ġn ation
Ġb ased
Ġex pl
Ġpartic ular
Ġp ract
Ġst reng
Ġprov ide
it ness
ot ion
ou b
Ġt ax
I T
Ġg od
Ġde l
Ġc al
em s
Ġp ath
ĠS ing
it or
ĠDel hi
Ġc are
Ġm ajor
Ġsec ond
il ities
ain ing
H E
Ġresp ons
Ġa ge
Ġse lf
S ay
ĠD ep
y ing
is ation
Ġs w
Ġa ction
ĠI f
n ers
Ġ2 0
ĠN ew
Ġ1 2
l ing
art ment
ivid ual
Ġh old
ĠM y
Ġpol icy
Ġlit tle
Ġc ost
Ġm aking
Ġpl ac
Ġbel ong
ad esh
Ġword s
Ġas se
à ¥
Ġcons ider
Ġthou ght
Ġheart s
ĠM e
Ġc r
os es
A L
Ġeconom ic
il it
al ed
Ġt est
ist ry
op e
Ġab le
E n
Ġcap ital
Ġha ving
le ction
Ġe as
l o
Ġin it
ĠB rit
Ġse en
ch ie
ĠComm ission
ou ra
i ver
Ġbe g
ar a
Ġre port
pl ay
v iron
Ġthou gh
Ġto ok
Ġse ctor
Ġst ill
id ence
Ġsoci ety
or ies
H is
Ġunt il
Ġe ver
Ġa round
Ġcur rent
Ġne cess
am es
ĠA ss
el s
Ġocc as
ic ult
j ee
Ġty pe
ak h
Ġpl an
is es
ĠA d
Ġp ain
Ġinst ru
amm ad
Ġs ing
Ġf arm
Ġwho se
c il
u ct
u ro
Ġind ividual
Ġal ways
Ġ ve
and hi
res ent
Ġbelie vers
viron ment
Ġ1 1
Ġeff ort
at s
a fter
ĠC our
Ġal ong
Ġnot hing
Ġr ul
Ġsee k
Ġthere fore
Ġent er
ĠSt ates
Ġor ig
b y
rib ut
Ġloc al
ar ing
Ġs ol
Ġde eds
Ġcl ause
Ġsp irit
Ġexp ress
c hed
Ġinclud ing
Ġth ing
Ġthe e
re am
as ure
Ġgu id
Ġwhe ther
Ġpolit ical
Ġb o
Ġf av
Ġf older
Ġa chie
ĠP l
Ġcre ate
um b
are nt
Ġa ut
Ġc reat
Ġf urther
ail s
Ġe l
Ġrelig ion
a f
Ġ vers
ic ation
Ġw itness
er ation
Ġ' %
Ġm ill
e pend
Ġp ost
our s
ĠA b
I S
Ġsch ool
Ġm us
h ammad
t a
re me
Ġy et
ust om
om es
Ġyou ng
Ġpo int
Ġgrow th
crib ed
Ġme an
pport un
j ust
Ġf ive
ĠB eng
Ġrece ived
Ġp ort
b ar
ĠN o
ate ver
Ġin stitut
Ġbec ame
Ġ ut
ll ing
ud d
Ġcont rol
Ġm ult
i er
itte e
p ose
Ġn ature
er ve
Ġhe ld
ĠR ashtrapati
Ġcomple te
our ces
Ġl ive
ra el
Ġs ide
Ġl ater
am a
at ch
ition al
ill ed
Ġto tal
Ġequ al
min istr
Ġpe ace
Ġs ince
d om
ac hed
ard s
inc ip
ou th
g u
rib ution
Ġse ver
Ġhand s
D e
ĠMess enger
ID ENT
Ġo pportun
uk her
en ces
Ġimp ro
Ġoccas ion
Ġh ome
ĠS ec
Ġne xt
op y
ĠO r
Ġle ave
ukher jee
Ġd ocu
RES IDENT
Ġdif f
Ġquest ion
O R
Ġrequ ired
Ġknow s
Ġfun ction
C an
h old
Ġ es
Ġc red
Ġst rong
Ġreg ion
ch ange
Ġsh ort
Ġrec ord
Ġprev ious
ple ment
iv il
S he
Ġ Z
Ġc irc
Ġre ward
h y
ib ility
M E
Ġse lected
ĠBrit ish
Ġfor th
Ġs on
i or
Ġm ater
Ġfe el
Ġbro ther
M y
Ġpos ition
ĠSing h
Ġposs ible
Ġsh are
O ur
Ġre ason
Ġke y
en ed
Ġm or
stit ute
Ġindust ry
u ation
m ost
Ind ia
Th ose
ro ss
Ġte xt
Ġrel ations
Ġm oney
c ious
Ġactiv ities
ce ll
an ab
ure ly
ĠT HE
Ġsever al
Ġconc ern
Ġcertain ly
Ġfl ow
ĠIs rael
Ġe ither
as ter
se e
oun cil
ear ch
ud e
Sh ow
I C
pe cial
Ġfore ign
Ġapplic ation
ive ly
Ġrese arch
ĠB ank
Ġdis e
m en
I A
Ġpri v
on y
Ġauthor ity
re m
ro du
C on
ic le
a ult
Ġm other
Ġcont act
Ġcomm it
am b
m ission
Ġacc ess
Ġcon nect
ens ion
Ġit self
ener al
ĠEng lish
Ġtechn ology
t t
Ġd om
Ġcharact er
Ġf ace
1 9
Ġw ent
l u
ut ure
Ġrec ogn
Ġm is
Ġ error
ĠG andhi
A fter
ull y
Ġpro gress
un e
Ġany thing
u f
ar ies
au gh
Ġexam ple
Ġvis it
w ith
Ġpl ant
m ber
O ne
velop ment
Ġs at
Ġ ill
ĠA g
u nt
Ġsu m
is l
I ON
Ġfin ancial
Ġprov isions
ĠWh o
Ġprodu ction
Ġr ate
c ent
Ġob s
Ġass ess
Ġ ur
Ġd oub
re et
Ġl ink
i ation
ĠHind u
p ur
ib r
ĠUn iversity
Ġd on
ĠR e
bs ite
il t
Ġgr ant
k now
ĠPr adesh
Ġtr ust
Ġhist ory
Ġestab lished
All ah
im um
Ġan im
ĠPar liament
ĠO ffic
Ġdiff icult
Ġus ing
Ġproper ty
I s
ra b
ap s
Ġwork s
Ġpur pose
Ġrep resent
og raph
Ġqu ality
c hes
ĠC ong
Ġag ricult
Ġ z
r ing
Ġ x
Ġf all
Ġst at
Ġsche me
Ġde al
ĠCour t
il ar
ob al
Ġo pp
Ġnecess ary
Ġe lect
Ġ ident
Ġen j
Ġthere in
ill s
n ov
Ġsu ff
Ġh arm
Ġstart ed
Ġbeh ind
Ġd ed
Ġl ab
Ġen s
Ġsou l
at ural
Ġcour se
a pe
a un
Ġh ath
Ġmer cy
ĠHind i
Ġmater ial
ĠâĢ Ļ
O r
Ġim age
Ġmeet ing
os ed
Ġre ferred
ĠD o
Ġto p
it iz
ar at
Ġfil es
ab ly
Ġl ine
ac ity
Ġwork ing
ir th
Ġent ire
ĠMin istry
w ord
os p
Ġsa ve
uro pe
Ġa ir
Ġb ig
Ġnet work
ĠR ep
Ġask ed
R e
s p
air s
eth od
Ġdem and
Ġm ag
A dd
s ide
Ġf uture
es ides
Ġsec urity
Ġim plement
Ġcontin u
Ġinstitut ions
Ġf ight
ĠI ND
g ing
Ġg ot
Ġd ri
Ġgreat er
eng ers
t hen
Ġrel ated
ag ed
Ġre du
S ome
Ġde b
mit ted
oin ted
Ġ19 6
o ver
ĠCong ress
Ġhig her
C ould
Ġ 000
Ġcour t
Ġcommun ity
an ch
Ġwh atever
ĠR RB
ur s
Ġreve aled
W ith
g o
Ġstud ents
r ast
Ġf ire
s w
an i
t on
ĠS ub
Ġspec ified
Ġh on
Ġen er
Ġw arn
Ġm ail
Ġv i
pos es
Ġc ity
Ġguid ance
Ġcom es
ol k
Ġag ree
Ġt reat
Ġlead ers
ĠU s
Ġwrit ten
Ġt en
Ġon ce
r am
Ġcl ose
Ġwe bsite
at ives
Ġp aid
Ġmonth s
Ġs ix
Ġon es
ĠC omp
er ily
ĠH ouse
u ly
re c
Ġdec l
on es
Ġ19 5
Ġre pl
Ġl iving
Ġfor ward
it ation
Ġ1 6
i pp
Ġst ri
av es
ru ction
Ġso on
Ġre le
Ġmod ern
d er
Ġto ld
a pp
ĠR eg
Ġbelie ved
) :
Ġright eous
Ġgood s
us h
Ġver ily
ĠA meric
or row
Ġst ep
Ġ i
Ġ2 5
h ood
Ġh y
Ġm ount
m p
Ġpre p
Ġro le
Ġst ory
Ġey es
ĠS erv
r ish
it ive
Ġl ay
j i
Ġen vironment
is on
ll ed
Ġp ast
ĠL RB
ĠPr ime
Ġ19 8
i res
Ġdet erm
ĠDe velopment
Ġw is
Ġacc ording
reed om
un g
med i
or th
e k
li er
Ġcl aim
Ġte ll
Ġth y
ide red
Ġinit i
Ġdo ing
a ut
Ġproble m
ore d
p het
ab ha
Ġ19 4
Ġp ub
Ġfor ce
ac her
Ġturn ed
ist ic
Ġb ar
ide o
Ġpartic ip
Ġs in
Ġcent ury
Ġbuild ing
f ully
Ġm ethod
Ġoff ice
it a
Ġex tend
Ġce ll
Ġl ot
Ġt ill
Ġse par
ro y
Ġpart y
so ever
Ġan ge
Ġg ri
iv al
ĠMuslim s
Ġp ot
Ġdes ign
Ġhow ever
Ġbas is
Ġapp ointed
Ġinv ol
ĠQ ur
Ind eed
ĠE n
c ient
Ġpart s
ir t
at t
Ġim m
Ġcons idered
Ġpur poses
ĠBeng al
Ġneed s
Ġproble ms
Ġwh y
Ġin ternational
Ġcomput er
a ction
Ġener gy
he ther
k e
ĠUn ion
Ġs al
le g
Ġph ys
Ġchang es
in a
Ġv ari
Ġspe ak
ĠCon stitution
Ġman ner
es see
Ġmove ment
Ġt er
Ġl oss
? "
D is
ific ate
Ġad ministr
c ut
et s
ĠC ol
Ġab s
ĠComm ittee
r s
G o
Ġ1 4
ac y
Ġle arn
Ġpers ons
ul f
Ġ1 3
Ġk ing
o id
olog ical
ĠGo vern
Ġinte gr
Ġdisc uss
Ġ ess
Ġf ru
ĠC ont
Ġg round
Ġterm s
ist an
N ow
ne w
Ġc rit
as ing
a ff
ĠC ouncil
Ġbl ood
Ġc itiz
ous es
ĠK now
Ġser ver
ateg ory
Ġpr incip
ain t
Ġt ree
an e
Ġ19 7
Ġar ch
Ġvill age
Ġsing le
Ġt or
Ġof ten
Ġm ention
Ġdis play
b it
om b
Ġde ep
Ġtr ade
Ġsc ient
Ġestab lish
e ch
Ġc ustom
am ed
ĠD irect
Ġbook s
e b
Ġv ol
Ġmess ages
Ġpass ed
B y
Ġac qu
Ġass ist
ap er
Ġass essee
au ght
ri pt
cri ption
o x
Ġfir m
ve y
Ġrem ember
Ġsu per
ix ed
Ġprote ct
Ġtas k
re ct
ous and
Ġh ost
Ġsp read
P r
im ate
Ġrelig ious
Ġissu ed
n ic
Ġs ense
o ice
Ġp ress
Ġm akes
Ġgiv es
P lease
u se
Ġcar ry
ĠS ay
p ro
Ġallow ed
se qu
Ġwe alth
Ġman agement
B e
Ġche ck
Y our
at ory
Ġbeg in
Ġdest roy
Ġt error
t ax
Ġmain t
R em
Ġs ac
ĠF ire
Ġpo or
ĠDep artment
Ġpat ient
Ġex pect
Ġcond itions
Ġf reedom
Ġeffort s
Ġre ach
k ind
Ġbenef it
Ġm ach
ĠS y
ĠIND IA
Ġcomp an
Wh o
Ġevery thing
Ġt aking
Ġa ware
Ġgener al
har a
Ġs ize
Ġw ish
Ġsu n
as te
av ing
in ary
Ġc ivil
if t
us es
k rit
ro wn
Ġ3 0
Ġvi ol
Ġth us
Ġn one
Ġmat ters
Ġcond uct
m y
idd en
ĠH igh
Ġs ound
we ll
Ġin stitution
s c
it ude
Ġmill ion
Ġincre ase
Ġunder t
pl es
belie vers
i et
T e
Ġpart ners
le t
c om
Ġf el
it able
Ġn orm
w ar
Ġne ither
Ġre ject
Ġp en
Ġcult ure
Ġd uty
c ies
ĠM ost
Ġ er
Ġgl obal
Ġre ally
ĠD r
ad h
Ġenj oy
Ġle ast
Ġf ig
Ġdevelop ed
Ġde pend
Ġfollow ed
Ġal one
Ġa ud
ra in
Ġj our
Ġth ousand
et ition
Ġs ource
Se lect
Ġear ly
il es
ĠMu hammad
chn ology
at tle
il k
G od
Ġse arch
Ġch all
Ġassess ment
Ġtra ining
Ġp arent
Ġn atural
Ġ1 7
iv eness
ent al
ĠA f
ad em
ĠM oses
ĠSc he
Ġco ver
Ġsub s
ot s
r ror
ĠS at
Ġst ay
s ue
ĠG eneral
e ople
Ġa str
Ġmem ber
ict ion
or ld
Ġop ens
Ġl ow
th at
Can not
Ġl i
R A
ve re
Ġt alk
Ġcons um
How ever
t p
um p
W hether
le te
Ġcre ation
pt ions
Ġtem ple
P RESIDENT
ur d
ok e
u ge
] ,
t ings
Ġdoub t
Ġind epend
or por
Ġtrans fer
Ġf ast
al ay
em ed
Ġcap acity
n ed
Ġachie ve
Ġliter ature
I m
g ment
r ist
c he
Ġ *
ĠI m
Ġout side
Ġwom an
Ġbl ess
re g
ab ad
ĠP ol
Ġcred it
Ġe at
R O
m ir
us ion
d o
ĠC al
Ġprov ision
Ġt ou
Ġsay ing
2 0
ul ated
ht tp
Ġpro s
Ġcon v
Ġt rib
Ġad op
Ġdise ase
ard ens
f ace
ĠF in
' s
ad a
Ġde ad
Ġdisbelie ve
Ġg en
Ġright s
Ġindust rial
ĠE urope
Ġpay ment
idd le
Ġpop ulation
ĠPro phet
Ġdr ink
Ġmod e
Ġto wn
Ġdem oc
A m
Ġl og
Ġan t
Ġd ire
Ġange ls
ent y
Ġprogramm e
l er
pos ed
ĠThe n
Ġb irth
Ġw ife
al se
Ġman kind
Ġrem ain
Ġa im
Ġperson al
A r
ĠB oard
Ġne g
iqu e
em pt
w ise
Ġev ent
Ġs an
Ġw ide
ĠM ar
p ir
Ġsa w
c le
ĠM ukherjee
Ġres ources
Ġso ft
Ġar r
rast ructure
Ġex c
l ight
Ġl ost
Ġrece ive
P l
ĠInd eed
Ġre d
ĠP h
ĠM erc
ĠO n
Ġchar ge
ĠCh and
und red
Ġwrit e
is f
Ġim medi
v a
Ġc ases
Ġsu st
Ġprogr am
Ġden y
uf act
Ġst ru
pr il
es tern
Ġinclud e
Ġse a
Ġs qu
ur ation
du c
A cc
is c
Ġin nov
Ġsu gg
Ġal most
L et
est ed
ĠIn formation
a res
Ġear lier
Pro v
Ġan sw
Ġtr y
y n
ans krit
ĠMerc iful
Ġke pt
Ġh alf
Ġl akh
re w
Ġra ised
Ġm ass
Ġjud ge
ol s
ow s
ĠS abha
Ġtor ment
/ /
: //
Ġre vel
ĠL e
ĠC o
ĠB e
Ġru le
Ġus er
ab les
Ġcontin ue
Ġexper ience
E C
o ly
Ġac ross
Ġwrit ing
erv ed
g est
Ġty p
Ġproduct s
Ġsay s
Ġsim ilar
re ction
Ġen ough
e es
A d
N ot
Ġinst all
Ġstreng th
u ary
ĠT o
ĠS A
ĠT O
Ġdist rict
Ġcond ition
ĠHe re
ad ing
U R
Ġse ven
Ġrequ ire
Ġf em
Ġdocu ment
Ġproject s
Ġfarm ers
Ġoffic ial
Ġde li
Ġsp ace
Ġl at
Ġt ar
ren ces
and a
ra w
Ġp ow
Ġst ructure
m ark
le br
Ġpr ice
y le
Ġh ope
pecial ly
ver t
iv ity
Ġl aun
Ġc ut
ig ation
Ġoper ation
Ġastr ay
Ġapp ly
Ġst ates
Ġle ar
Ġth ird
ĠIn stitute
Ġnew s
Ġen em
w w
Ġfr ont
Ġmult ip
Ġsc ience
end ar
at ors
Ġaff ect
Ġinvest ment
Ġex ec
Ġem er
ou d
Ex ternal
al es
Ġh undred
Ġpriv ate
Ġcar ried
ag er
ffic ient
ĠP art
av a
Ġinf lu
Ġform s
Ġsign ific
Ġf ulf
h aps
ow ed
Ġj ob
Ġgu ide
Ġb oy
Ġgu ard
Ġint rodu
Ġgu ided
Ġbel ow
Ġdec ided
Ġf ailed
Ġcon ne
Ġte acher
ne y
Th us
en ing
in n
nd s
ag ar
f ort
Ġ ign
Ġprep ared
Ġprov ides
Ġhe ar
Ġdes ire
Ġplac es
v i
ad es
ht m
Ġ ir
Ġw ait
qu e
Ġre form
ĠN e
N ew
1 1
ĠC l
m on
Ġan cient
Ġt our
if est
Ġr ural
o ose
Ġp ra
est ic
A S
Ġrel ating
Ġbeh alf
Ġdra w
Ġeconom y
Ġdisbelie vers
Ġatt ack
Ġb al
Ġappro ach
Ġstreng then
ĠD iv
um n
ĠI N
Ġmus ic
Ġp al
Ġdec ision
Ġex change
Ġissu es
ĠK h
E ven
Ġis sue
ur ance
Ġprom ise
it ure
v ant
ĠM r
A b
Ġbe ar
o on
Ġprodu ce
Ġimpro ve
ĠTh at
Ġbu ilt
Ġtrans l
Ġe ight
Ġc ast
os op
Ġc rop
Ġl ives
Ġman ufact
ĠY our
Ġl ed
in ion
Ġacc ord
S uch
Ġf oc
Ġco op
ĠPr anab
s y
ĠP ublic
ĠMah ar
Ġpro ceed
ĠThe re
oura ge
Ġwho ever
Ġr ad
Ġsit uation
port s
Ġ X
ir st
ak a
Ġens ure
ĠB i
ĠA pril
in ter
ic ro
ĠB udd
av ed
ĠJ ud
Ġpop ular
Ġcro re
Ġp age
Ġde pos
g ar
b and
ic i
j ab
le ar
Ġv ideo
ĠE v
Ġ19 3
Ġgroup s
ro te
ibr ary
Ġun believers
he ad
ĠJ an
Ġpray er
Ġstud y
as ures
ad u
Ġde fe
Ġval ues
ĠW est
Ġprof ession
Ġinstru ment
ĠA rab
Ġb ound
um e
Ġfriend s
Ġpub lished
b an
Ġ id
Ġsat isf
Ġb esides
il osop
Ġhapp y
Ġact ually
E rror
ĠO ne
Ġrul es
Ġopportun ity
Ġst op
Ġ2 4
S pe
Ġind ic
. ,
er al
ĠA cc
T r
Ġmean ing
g round
Ġro ad
Ġess ential
ur rection
ĠU S
E D
Ġreg ular
Ġf alse
Ġfor b
Ġun ivers
Ġorig inal
R I
' .
Ġes pecially
m es
ch an
it es
Ġcons cious
Ġprov iding
1 2
Ġsub st
ĠS w
Ġaccept ed
an ation
Ġcom ing
Ġsec ret
Ġra in
Ġca used
Ġconcern ed
Ġw all
Ġev idence
w here
ĠCh ief
ul ate
ĠE ast
Ġri ver
Ġat tend
Ġdet ails
Ġr ich
Ġincre ased
Ġw rote
Ġfac ilities
Ġway s
Ġre ached
Ġphys ical
Ġte ach
ĠB rah
Ġspec ific
Ġocc ur
ĠL o
Ġd ark
Ġgiv ing
o e
ot t
ir m
od ay
Ġob t
Ġst age
S ub
k ar
Ġbec omes
le y
A pp
Ġstat us
r as
v est
ĠS u
ric a
AT ION
ĠS anskrit
Ġn ames
Ġd a
Ġv ict
augh ter
b l
Ġl ower
Ġst e
Ġcitiz ens
Ġ1 00
Ġthere of
Ġbe gan
Ġce lebr
h ib
ac c
ĠHere after
it ing
ĠK ing
Ġpres cribed
Ġprogramm es
Ġposs ess
Ġbelong s
Ġeas y
g en
mb ly
C l
Ġinf rastructure
A P
erv ation
1 0
oc ation
ĠTe chnology
se t
re p
ĠA m
ab led
Ġ5 0
Ġrem ind
est s
Ġf air
Ġlet ter
Ġcult ural
ĠS p
u ction
nd ing
D es
Ġw id
Ġr ather
o ll
Ġper cent
Ġyour selves
. )
Ġro om
Ġmor ning
Ġd am
Ġun less
o ber
Ġs ens
Ġar ri
Ġex pend
Ġinst ead
ĠCommission er
ĠW orld
Ġimport ance
Ġfe ed
ĠOffic er
crib e
Ġm ut
Ġc opy
ch ar
Ġsh own
j e
I I
om et
ĠP al
ab or
Ġprev ent
Ġme asure
ĠUn ited
Ġst ra
Ġjust ice
Ġappe ar
ĠP un
ĠIn come
Ġconc er
S T
he st
Ġch ast
Ġplac ed
Ġd ie
Ġlangu ages
f l
ou ble
row s
. '
res h
Ġdev ice
Ġorig in
Ġreturn ed
Ġ à¤
Ġs ong
Ġem b
O pen
g n
Ġbe y
el f
r ation
Ġaccount s
Ġrespons ible
Ġme re
C ategory
duc ation
en cies
Ġt akes
Ġst one
Ġte le
Ġide a
ur u
ec ause
ĠSec ret
C ont
Ġpr im
ress ed
Ġri vers
il i
Ġfore st
Ġbey ond
Ġpri or
Ġf ail
am i
Ġcom b
) ;
se ct
Ġcol or
H ave
Ġl ies
th ough
Ġb ill
il s
D uring
ĠO ff
ĠGovern or
u le
ot ed
F rom
Ġd ig
U s
ru g
know n
Ġh ar
Ġman ifest
ol ar
Ġcent ral
Ġpass word
Ġhe ard
Ġapp oint
ra cy
Ġpot ential
Ġansw er
Ġpro p
Ġin form
ĠCh rist
Wh ile
d e
f rom
Ġeffect ive
Ġagree ment
I L
ard en
Ġsk y
Ġserv ants
Ġpow ers
t ion
rop ri
ĠS outh
a ur
Ġa ver
Ġc amp
Ġb it
re v
A re
Ġlo an
Ġunderstand ing
r ight
Ġbegin ning
ĠM arch
Ġco ll
uc k
Ġadd ed
Ġheav en
Ġg one
ĠA pp
ic les
if f
stand ing
ri age
" .
Ġparent s
r im
Ġexist ing
hara oh
Ġb i
ĠL eg
rish na
Ġfor t
R ec
b ody
Ġd i
Ġel se
Ġcont ribut
Ġspirit ual
ĠRep ublic
Ġcle an
R es
Ġun just
ad d
in ate
ĠM on
ĠInd ust
Ġb ird
ad ed
Ġgo vern
o o
rah am
Ġ +
an ced
Ġsim ple
Ġc oun
ĠServ ice
ro ad
Ġv ision
ĠFor g
Ġhist or
Ġst yle
ĠHe ll
Ġspe ech
Ġqu ite
Ġph ilosop
ct ors
Ġwe ak
ert ain
Ġconne ction
Ġtreat ment
ĠQur an
l a
Ġcomp et
Ġob ey
Ġnot ice
Ġart icle
Ġset ting
ĠCent re
Ġactiv ity
Ġpresent ed
Ġdef ault
Ġb urn
Ġd er
Ġr ound
ĠA dd
e qu
Ġl ib
omm end
Ġm om
ot ing
Ġyou th
Ġoff er
Ġf olk
ric k
an cy
Ġg ir
ers on
Ġgo es
Ġcont ract
à¤ ¾
Ġex cell
Ġasse t
ant ly
Ġconcer ning
A meric
Ġl ie
Ġexist ence
ĠGu j
Ġstru gg
C C
Ġcert ificate
ash mir
] .
ĠW hen
Ġcol le
am il
Ġleg al
Ġfav our
Ġde g
Ġk new
Ġpro ced
ĠP ak
Ġfel t
al y
Wh y
Ġpart ies
Ġb ad
Ġbre ak
Ġsc ale
Ġwant ed
Ġn ar
Ġo ption
ing u
Ġh ouses
ĠRes urrection
ul s
Ġvers es
Ġagricult ural
Ġdis p
Ġpo in
ce mber
Ġ =
iv a
Ġ2 6
Ġdire ction
N e
Ġsh ip
Ġb ond
Ġlear ning
U se
ul es
b ut
at ures
Ġbas ic
Ġo il
ul ations
Ġadd ition
ise ment
ĠPro ject
os ition
Ġform ed
ĠN ame
A Y
L ist
Ġmention ed
u nder
Ġbe aut
Ġget ting
ĠDirect or
Ġcomm er
Ġex erc
Ġk ill
Ġr is
Ġun it
Ġemploy ment
h as
ĠA k
ĠM ay
Ġsystem s
F ailed
Ġf ixed
ĠR ec
ĠN ot
ĠP ur
ign ed
Ġgener ally
Ġrun ning
Ġb orn
up reme
Ġfor ces
Ġv irt
Ġ2 3
Ġcomp l
Ġprodu ced
Ġas pect
Ġcont ent
ist ered
z e
Ġf if
Ġw ise
Ġpl ants
Ġg e
Ġar gu
Ġide as
IN G
ra v
ĠH ar
Ġus ually
Ġrem ove
ou red
ang a
por ary
o ved
âĢ ¦
Ġwe ek
Ġm ot
n al
E very
Ġt ried
Ġu nd
Ġ2 1
eng th
I R
ct ober
Ġem p
ĠB l
ĠPro v
Ind ian
Ġeng ine
se c
Ġpl us
Ġno vel
Ġwis hes
Ġimmedi ately
Ġpo ll
Ġanim als
C re
Ġw arm
Ġrespons ibility
Ġassoci ated
umb ai
ent h
um an
ĠC O
ĠPl an
Ġs old
ĠM ed
Ġcontinu ed
Ġgener ation
Ġun its
v is
it le
Ġg reet
l t
L o
om en
pl anation
Ġcont ro
Ġe p
Ġdestroy ed
Ġpract ice
Ġopportun ities
Ġpain ful
Ġstate ment
A ut
Ġp ack
Ġpros per
W here
Ġcol lect
m iss
Ġregard ing
Ġh us
A B
Ġnot e
ĠSche me
V erily
Prov ided
Ġa w
ch ing
Ġco ve
Ġp ie
ĠM od
Ġsa fe
Ġpres ence
Ġlim it
Ġbank s
Ġpoet ry
o le
Ġa ward
ur t
ĠO N
Ġd ream
Ġh or
ĠM oh
Ġfe et
Ġs ight
it er
f ect
ĠM em
Ġrevel ations
Ġsy mb
E L
Ġforg iveness
ar ily
Ġindust ries
ad i
ĠT rib
ove mber
Ġinclud es
Ġcompan ies
Ġany one
ild ren
Ġit em
Ġcor rect
ra ce
Ġf est
Ġs le
Ġs il
P h
Ġ2 2
Ġfem ale
t r
ĠAcc ount
Ġwork ers
tt ar
te xt
Ġact ive
Ġnum bers
ce nd
Ġser ious
Ġparticular ly
f all
ĠWh at
ĠC orpor
ight y
M any
ax imum
Ġb ase
ĠIn ternational
C omm
ak sh
ĠCh air
Ġpur ch
Ġvers ion
h ab
Ġbl ind
S c
Ġt ri
Ġ" %
e ll
Ġcont ains
c er
ĠF ore
et ic
ĠW ise
Ġdirect ory
Ġm and
ĠC om
Ġfam ous
ad ise
Ġincre asing
M in
Ġcon cept
Ġassist ance
r id
Ġst or
ĠE ducation
ĠRes earch
Ġp lease
ip ur
Ġ3 1
ĠTr ans
Ġin sect
av i
Ġgrant ed
ang es
Ġtrad itional
ĠPro gr
Ġfull y
Ġf old
t ies
Ġp ict
Ġpl ug
Ġtrad ition
ĠK ashmir
Ġsupport ed
ĠA p
th an
Ġrele vant
ĠPun jab
ac hes
Ġmed ical
Ġcirc um
Ġaccord ance
i ers
ater al
cut ta
Ġrec ommend
Ġj oin
Ġse vere
ay s
Ġs ession
en e
ĠLeg isl
p ly
Ġm ilit
Ġl aid
Ġdes p
Ġw alk
ic ial
Ġp etition
ĠP eople
Ġform er
Ġs ons
C T
Ġob l
pt ember
Ġsuccess ful
Ġsupp ly
S ave
il ing
ĠW ork
Ġ200 0
Ġleg isl
Ġlim ited
er o
P er
tern et
ĠIslam ic
ord er
au g
Ġatt empt
M an
Ġpro b
Ġscient ific
Ġper haps
Ġnorm al
Americ a
id s
Ġser ve
iz ing
S urely
Ġresp ond
Ġim ag
Ġag o
Ġte am
iver se
The ir
ĠS urely
Ġcont ribution
ĠAs se
M u
Ġpol ice
l ied
ĠR ight
Ġagricult ure
el lect
it ect
Ġap ost
Ġsoft ware
ĠN orth
o or
ĠS upreme
ĠS ur
ap ter
Ġform at
Ġs we
Ġcol lection
Ġmount ains
Ġtar get
ament al
Ġmom ent
T oday
Ġsu fficient
Ġexpend iture
Ġ2 8
as a
Ġre pe
ĠB en
ĠD ist
There fore
Ġmin ister
ĠE d
Ġann oun
Ġchall eng
Ġwor th
Ġbl ack
Ġvill ages
Ġa f
Ġs n
Ġc ities
w o
ĠE m
Ġcon ce
Ġasse ts
Ġcons ist
ĠTr uth
in i
re qu
Ġchang ed
Ġcro ss
al ty
ur b
ĠS ch
Ġgod s
Ġsac r
ug ust
Ġb ow
ĠS am
ĠCal cutta
Ġspe nd
Ġbro ad
Ġdirect ly
ar an
Ġden ied
Ġaut om
Ġfin al
Ġhus band
E T
Ġme asures
a pt
ion al
ish n
Ġins p
Ġ2 7
pen se
Ġdist in
Ġmem ory
Ġtrans port
Ġcove red
Ġwh ite
Ġbenef its
Ġadministr ation
he nt
Ġfil m
ur g
Ġlaw s
in ite
ĠV ed
Acc ording
I V
as k
Ġforg ive
Ġtyp es
Ġc y
Ġd rug
Ġatt ention
ĠH ow
5 0
o res
Ġd ial
N ational
Ġrel ation
on om
ic it
ob ile
Ġop inion
Ġexpress ion
ĠAmeric an
t op
Ġrelations hip
l ike
he m
rib ute
Ġrep ent
Ġdisc ip
ĠPak istan
Ġstep s
Ġp aper
dd en
ii i
Ġfac es
Ġg reen
Ġtrans gress
Ġprom ised
Ġcoop eration
ate ful
Ġopen ed
h ru
Ġlar gest
Ġoffic ers
ro g
im ent
a e
ur k
Ġpro pos
ĠForg iving
ĠM ad
ĠL ist
Ġatt ract
Ġs ides
an es
ĠA y
ul pt
Ġstand ard
Ġh ours
Ġwill s
Ġam end
Ġsc ript
Ġtra vel
Ġse lect
Cre ate
Ġwe ight
Ġhig hest
Ġlook ing
ĠJan uary
b oard
asht ra
Ġm iddle
ĠS ign
Ġins ide
p s
Ġlong er
Ġsepar ate
Ġchast isement
Ġ $
Ġbeaut iful
ropri ate
k en
r atic
in ent
ĠV erily
Ġpro of
Ġmed ic
ĠW ill
os is
Ġper mission
Ġfru it
P S
Ġth reat
ĠSy stem
U nder
ĠA ND
Ġshow s
are r
ath a
Ġdocu ments
Ġpol ic
Ġperform ance
Ġde emed
Ġse x
Ġph ot
! "
p ress
ĠL ok
Ġtas te
y pe
ĠS he
ĠR em
Ġup d
Ġm ilk
Ġg old
ver se
ĠA ir
Ġ19 2
Ġadv ance
Ġn ations
Ġplay ed
ĠMess engers
Ġprote ction
Ġf ra
Ġl ength
Ġent ered
ĠS pe
Ġqu al
Ġqu ick
Ġres ident
Ġimplement ation
S et
ous ly
p art
Ġs ins
Ġinclud ed
Ġext ent
Ġpat tern
Ġc ode
as c
Ġsome one
Ġspe ed
A C
Ġcomple ted
istr ation
Ġcal c
o ined
lic t
ic ip
Ġocc up
Ġviol ence
Ġarr ange
E d
ĠI T
ik h
ĠSh ah
Ġeduc ational
Ġch ief
Ġre lease
ic ated
Ġdo ers
Ġey e
Ġg ame
Ġex ceed
Ġr ange
c ast
h ra
Ġp red
Ġit ems
Ġstand ing
Ġof fe
Ġs aved
ĠMan agement
ĠJ ew
Ġlead ing
og a
Wh ich
Ġenem y
Ġconst ruction
" ,
a ud
Ġbelie f
Ġmo on
il ateral
Ġfund s
1 4
om in
Ġcor ru
pp er
ĠF und
Ġnor th
ify ing
um ber
1 6
ut es
Ġst ream
ĠD es
Ġstrugg le
al ys
ĠT amil
Ġother wise
ograph y
Ġconnect ed
Ġ Ð
Ġcomple x
osp ital
Ġb urd
Ġin j
ĠO pen
Ġj oint
ĠU ttar
Ġac adem
Ġspec ies
r ate
er ous
ur rent
Ġadv ice
Ġr ank
res p
Ġme chan
P ar
Ġb ra
Ġcent re
Ġsom et
Ġru pe
ren e
fe rences
Ġdemoc racy
Ġsugg est
O ther
om ing
ĠS et
Ġappe al
Ġhe ight
ph as
st ances
a ul
ou ght
Ġm ental
ra ft
pt y
Ġch ann
Ġf urn
Ġcon vey
hen s
A M
Ġknow ing
Ġjour ney
Ġoper ations
Ġbal ance
ĠP haraoh
Ġd well
te red
Ġapp rec
Ġp ure
Ġresult s
i pt
Ġconf ig
Ġstra ight
ĠV iew
ĠAb raham
Ġc ard
Ġpur su
Ġt on
A ss
m ar
Ġemploy ees
htm l
Ġst ories
Ġex port
ĠT ra
Ġsu dden
Ġcont ain
Ġfun ctions
Ġfather s
Mu hammad
2 00
en ced
stitut ed
Ġun ique
Ġfoc us
Ġrequ est
à¥ į
ens ive
d is
Ġ201 4
on se
ĠN et
Ġple asure
ĠF ile
Ġexec ut
ĠS ri
Ġcal endar
ĠD is
Ġsu c
Ġsignific ant
ĠV al
Ġs ister
Ġpro t
ĠB ang
ay a
nt o
Ġgrow ing
Ġsche mes
Ġloc ated
Ġsou th
Ġw atch
Ġra il
C omp
Ġm ale
Ġdri ve
Ġrec ent
Ġread y
Ġlab our
ĠS ar
Ġtw enty
omb ay
ĠInd ians
M S
Ġter rit
Ġint ellect
Ġconsider ation
S im
at ically
Ġc am
Ġn amed
op s
os ing
Ġfo ot
Ġgra ce
Ġsit u
, "
ĠC ons
ah ar
m ukherjee
Ġst ock
lic ation
pr anab
pranab mukherjee
' ,
ĠB al
ak er
igh b
Ġ( %
Ġuse ful
ul ed
Ġst ated
Se ction
Ġtre es
R ep
r ant
Ġg ardens
ĠA uthor
ĠDe cember
Ġs ite
Ġle aves
Ġh our
ĠB ar
rou d
Ġut il
od ies
ĠP at
ĠSA W
Ġval id
Ġhy p
Ġcommer cial
ru ary
Ġst aff
in ery
it led
Ġfac ilit
Ġw in
ear ing
o om
Ġr ise
Ġrev olution
Ġcont ained
Ġes c
eb ruary
ĠA t
Ġper man
Un able
Ġadop ted
ĠAsse mbly
Ġmight y
ĠJ une
ĠS m
lo ad
or a
Ġhelp ed
it ch
ĠS ah
Ġmar riage
Ġtem ples
Ġheav y
u ff
il ed
aj a
ĠEv olution
Ġap art
ĠM umbai
os en
Ġsec ure
Ġmin us
Ġlead er
Ġdecl ared
ĠI nt
U T
Ġinvol ved
Ġeng aged
Ġc ry
Ġfr ame
Ġcommit ted
Ġfield s
Ġp an
ĠG e
. âĢĶ
Ġt al
Ġto ol
ol ute
Ġpay able
Ġmed ia
at ers
ĠTh ou
fe ction
land s
il ies
Ġpre c
Ġstor age
Ġc ou
Ġca uses
Ġcell s
ĠGuj arat
Ġex ists
Ġcons ult
he ck
re hens
Ġdiv ided
ĠFin ance
Ġpolic ies
Ġquest ions
Ġtechn ical
F ile
Ġw ood
ol id
Ġem phas
Ġamong st
O S
f ig
ic ations
ent ed
Ġprom ote
ass ion
Ġdis ob
Ġtem per
r ust
Ġpower ful
ĠW ar
Ġim per
Ġreg istered
Ġ4 0
ul a
Ġro ck
Ġpro str
ĠT ag
ĠProgr amm
ath y
Ġmod el
ri v
Ġcon sequ
Ġdom estic
er ala
Ġfru its
h and
Ġprocess ing
Ġsc ulpt
Ġrev iew
A D
Ġev ents
Ġdevelop ing
Ġread ing
Q u
Ġded uction
Ġfam ilies
O L
ir y
Ġfig ure
c her
Ġl ived
L e
d raw
Ġl ines
Ġsh ares
Ġport ion
ic ate
Ġhe aring
Ġne ighb
Ġoffic er
ĠB ab
Ġent ry
Ġw on
arm a
ĠN ath
ount y
Ġdiv ine
Ġsuc ceed
Ġim ages
Ġg ain
Ġt able
ĠU p
con t
Ġsymb ol
M ove
lic k
F l
ĠB ill
i ences
sh ipp
Ġem ail
c o
Ġthink ing
Ġmess engers
y an
ag ing
Ġw o
Ġh ot
as ons
ĠAs ia
O f
al t
ly ing
og le
Ġcircum stances
Ġre ference
Ġstand ards
ĠPol icy
R E
al ing
It s
Ġinterest s
Ġexpress ed
Ġinflu ence
Ġse em
Ġlike ly
Ġrem ained
Ġdes ires
r ay
ĠO ctober
ef ault
ĠSc ript
Ġse ems
Ġbl ock
ĠBh arat
Ġtra ck
Ġprof it
ĠAr t
En ter
Ġarch itect
n am
ĠG roup
un k
Ġref uge
in et
Ġm id
ĠW here
Ġresp onse
R L
Ġapp ropriate
Ġext reme
Ġpra ise
Ġsomet imes
Ġt id
n es
ĠAf rica
Ġrem ains
ĠSecret ary
Ġd ated
Ġdep art
Ġg ather
wh o
en ge
Ġneed ed
ĠQ u
Ġve get
ab h
ress ion
Ġanim al
om s
ĠIn s
gr at
at ma
Ġn uc
ĠK rishna
rep rene
ĠW estern
Ġk illed
Ġear n
u ous
ĠG l
o very
ll ig
ĠB ombay
Ġex cl
Ġd ance
ĠT ax
An y
a uty
Ġtr uly
1 5
x y
Ġp il
ĠP RESIDENT
ĠG h
Ġch oose
Ġreject ed
Ġconscious ness
o j
Ġextend ed
Ġwe l
cri pt
Ġp ric
un al
Ġ8 0
Ġexp and
Ġele ments
he red
Ġf it
us ive
Ġen able
Ġ201 5
Ġcor por
Ġt aught
Ġcall s
Ġvari ety
1 8
Ġt rial
at ter
Ġin aug
Ġlevel s
Ġinc l
Ġra ise
Ġadd itional
p id
Ġw ives
id y
Ġref ers
M ost
Ġch osen
Ġwor shipp
Ġrem ark
Ġterror ism
Ġsh ape
Ġex ternal
aj i
Ġinter p
Ġtou ch
Ġwe b
Ġres ol
ick ed
Ġmag ic
ĠF r
Ġbo x
ĠCon ference
E M
as than
Ġp roud
Ġcon stitution
S w
Ġse ed
I nt
Ġse ctors
ĠR el
i ance
Ġwho soever
pt ed
Ġpartners hip
b ack
Ġm iss
Ġign or
Ġmilit ary
Ex planation
Ġloc ation
En able
ĠAmeric a
er ative
ur ies
Ġcomp on
Ġsur face
Ġin put
Ġde ce
ĠL aw
r ated
Ġs ort
Ġdes cribed
Ġbr ings
ĠCorpor ation
ish ing
ĠSe ptember
t i
ĠN ovember
Ġaver age
ĠPar adise
i j
Ġmaint ain
Ġsa f
a ctions
201 8
C ol
Ġm outh
Ġeven ing
ĠOff ice
Ġl ack
ĠU N
Ġear ned
Ġgra ph
St art
Ġcrop s
Ġtr ying
ĠPal est
Ġget s
He re
Ġobs erved
ĠKnow ing
Ġcl oud
Ġlar ger
Ġext ra
pp ed
Ġwork ed
Ġexpect ed
R el
ĠA h
Ġv oice
Ġab road
ĠH y
ive red
Ġatt ach
Ġ200 7
Ġconst ruct
Ġd ied
ĠS an
ist ory
Ġref lect
Ġbrother s
nd ed
Ġd ang
if ice
ĠP lease
Ġdist ribution
o ot
om pense
Ġmed ium
Ġindepend ence
U N
et ies
Ġper fect
Ġteacher s
Ġpo ems
Ġcol umn
Ġlo ad
Ġca pt
Ġsu p
Ġpr int
ĠChair man
R eg
Ġd yn
Ġmut ual
ĠC D
Ġapplic ations
Ġ196 1
k top
ag ue
Ġqu ant
a ign
ĠSat an
Ġon line
On ly
1 3
S S
e ve
ub e
cept ion
ĠSc ience
Ġtruth ful
Ġadv ant
Ġlook ed
Ġlaun ched
Ġtid ings
Ġhe ll
Ġrem em
Ġris k
ra f
Ġpre m
Ġser ies
Ġmach ine
Ġc attle
Ġdiffe rence
te en
Ġm aster
Ġdeterm ined
Ġintrodu ced
A g
Ġf ill
Ġdist ance
Ġav oid
Ġclear ly
he l
Ġsk in
Ġout put
âĢľ âĢĿ
er a
Ġpl ain
ĠCh ina
D id
Ġb all
ĠEx cell
Ġassoci ation
Ġb oard
Ġb orrow
ĠA T
Ġst ore
Ġassoci ate
Ġobject ive
Ġwis dom
A G
Ġfor get
ĠNe hru
u ght
y ou
Ġ ;
Ġs ale
ĠI I
Ġrem oved
Ġ200 6
oc al
ĠBi har
Ġlist en
ĠD h
l ook
Ġmess enger
Ġdef ined
i us
Ġg ar
ĠI D
ist ics
Ġj oy
Ġpo ly
Ġrupe es
ĠA c
olog ies
Ġhon our
ĠK al
We ll
ĠPro f
Ġsong s
S u
Ġh idden
Ġv ast
ĠSch ool
em pl
Ġ201 3
Ġcult iv
ous ing
Ġsp ent
Ġmajor ity
ĠU r
Ġmag n
à¤ ¿
Ġ2 9
B l
AR D
al ted
Ġh omes
N A
ĠI S
Ġour selves
Ġdel ivered
ent ure
n el
am s
ĠU nto
Ġimp act
Ġthrough out
nd ra
ial ly
ap ers
Ġindepend ent
in y
Ġsub mit
Ġ200 5
Ġoffe red
am et
Ġfriend ly
Ġliter ary
Ġstud ies
M L
r ad
op h
Ġann ual
Ġg ains
Ġun c
Ġaff airs
Ġeas ily
Ġdeli ver
it is
ut ies
Ġar my
Ġsaf ety
Ġset tle
Ġgl ad
Ġdisbelie ved
i xt
en ior
Ġst ation
ĠDe v
Ġcharact ers
ch and
Ġk m
ven ant
Ġsur round
Ġproced ure
r one
ir a
Ġrem ote
Ġphilosop hy
im al
Ġc ash
ĠA ugust
vers ion
Ġass igned
ĠHind us
ĠMess age
Ġconf idence
ir ty
Ġequ ip
Ġc op
Ġf ine
le x
ver ty
ab ilities
ĠK erala
ĠCh ildren
Ġide al
Ġm aximum
Ġwas te
Ġgreat est
Ġsle ep
ĠAg ricult
Ġbird s
ĠP and
Ġst ead
Ġcon text
Ġpo verty
u el
Ġe gg
ĠC an
ik a
Ġchar ges
Ġview s
Ġopen ing
ĠS oci
Ġsc reen
Ġacadem ic
ar ant
ur ate
Ġele ment
el ines
H ind
Ġexerc ise
Ġro ot
Ġpoin ts
ist ant
Ġun ity
Ġseek ing
ĠA mb
Ġfe llow
Ġbre ast
Ġschool s
Ġsuff er
Ġiniti atives
M ore
ĠP ra
un a
ĠMahar ashtra
Ġl ik
ĠâĢľ âĢĿ
ĠBudd h
Ġp ill
Ġelect ric
Ġenter pr
le ge
S p
Ġhe ed
ĠM al
am an
os h
Ġname ly
Ġcommun ication
Ġappro ved
Ġkind s
Ġbe auty
Ġsou ls
Ġrepl ied
re l
Ġset tings
angu age
Ġorgan isation
Ġaut hent
Ġ6 0
Ġact s
Ġdep artment
Rem ove
Ġgo al
Ġbless ings
o llow
ay ing
Ġcon grat
ĠChand ra
ĠM ission
ĠP ort
ap ed
Ġso il
du le
Ġinnov ation
ĠJ uly
M e
ur is
im b
Ġredu ced
p ed
Ġem pty
Ġart icles
d et
ĠS T
ens es
Ġmain ly
Ġy ield
ph one
k on
Ġche m
ro ll
ert ificate
Ġfollow s
Ġple ased
Ġforb idden
ap ital
ron ic
A ct
an eous
ĠOr gan
ĠU RL
Ġ200 8
Ġchalleng es
D E
ĠP ers
ang ed
Ġprof its
Ġhapp en
j a
Ġmo ving
Ġmach inery
ĠEurope an
alys is
Ġdo or
Ġgri ev
at ab
ar ter
Ġse ctions
Ġmere ly
Ġdial og
B ecause
Ġin her
hed uled
Ġking dom
I P
Ġh ospital
ĠP ower
val id
Ġundert aking
Ġsqu are
Ġfl ag
Ġhapp ened
C ent
Ġo ath
Ġcon ver
ĠServ ices
ĠH ome
O P
Ġdist ingu
Ġgener ations
osp here
resp ond
Ġse ll
C om
Ġf ert
w rit
Ġwe lf
ĠF older
ĠEx change
Ġwelf are
Ġd im
Ġinstall ed
Ġexcell ent
l ies
Ġv ital
Ġwhere in
ĠA re
Ġturn s
Ġsou ght
Ġcarry ing
Ġrec ompense
ven ue
Ġdev otion
ren cy
Ġpart ner
Ġpract ices
Ġhold ing
Ġappoint ment
Ġl est
Ġorgan ization
ut ions
u x
ĠI ran
at aka
Ġw ants
Ġprom otion
il ty
um ar
Ġmer c
Ġregion al
Ġj oined
Ġcreat ing
ĠR iver
Ġauthor ities
ot i
Ġco venant
ious ly
Ġf requ
iz ations
ach al
Ġmin imum
Ġnot ification
à¤ °
1 7
th is
Ġreturn s
for ce
Ġenc oura
Ġdeb t
re es
Ġd ust
Ġ3 5
Ġwrong do
Ġdiv ide
Ġfeel ing
Tr ans
char ge
ĠTh us
Ġinte llig
Ġ201 6
u ild
ip s
an cing
ens ation
Ġkeep ing
Y et
ĠG erm
ĠTh ose
Ġf resh
ac es
ĠF ebruary
Ġpr ison
ĠP ath
De lete
ar th
Ġsust ain
e ace
or al
Ġmin or
o ad
Ġra pid
Ġl ibrary
Ġsh r
Ġhigh ly
Ġur ban
ĠSe ction
Ġdise ases
Ġprim ary
S ec
as i
Ġaffect ed
ĠDiv ision
Ġda ily
Des cription
E v
ĠAn n
Ġfest ival
Ġf illed
ir ing
Ġcommun ities
Ġindividual s
Ġd ry
Ġne ck
3 0
Ġh uge
ay an
Ġpre par
Ġg as
Ġse ason
Ġres ource
G u
Ġdisp ute
B esides
P re
m i
at form
ĠV is
Ġbelie ving
Ġinter v
et ing
ĠM adh
Ġsub mitted
Ġj i
Ġre asons
Ġal tern
Ġcomplete ly
E m
Ġacc omp
us iness
M ay
Ġthan k
Ġpr in
Ġconf ident
Ġhouse hold
ici ency
S earch
ĠJ ap
be ll
ten ance
Ġcamp aign
ĠProgramm e
Ġpos itive
Ġbu y
Ġdest ination
Ġrequire ments
b ox
Ġb ur
ĠK han
ĠDist rict
c omm
Ġm icro
Ġh ide
Ġn ine
se en
ur a
ĠR oy
ud get
Ġdra wn
Ġmaterial s
ar ian
ĠTag ore
O ut
b al
Ġrece ipt
Ġlat ter
Ġent itled
Ġ200 1
Ġprob ably
and er
Ġj inn
Ġact ual
Ġgreet ings
Ġre ality
Ġl ic
ĠM o
Ġim pos
Ġgr ad
Ġpass ing
Ġprosper ity
us ing
Ġset t
Ġb ed
Ġex cess
Ġrel ief
Ġwrong ed
Ġdeg ree
M oses
ig ible
ric ts
Ġfe atures
Ġc ance
ose ph
Ġbr anch
Ġpress ure
ib er
Ġra re
ic ient
Ġaspect s
Ġburd en
Ġb odies
B oth
Ġf ish
Ġd uties
Ġu lt
Ġthem e
Ġintegr al
Ġthere by
act er
Ġgu ilty
Ġleaders hip
H A
ay ana
ĠRaj asthan
ĠN ep
Ġdeli very
wh ich
ĠAuthor ity
Ġl ad
Ġcrit ic
B I
Ġe ast
Ġreg ions
ov ind
im ately
ĠG uru
Ġyour self
Ġag reed
Ġprincip les
Ġc old
Ġme ant
ĠBh ag
Ġback ground
Ġlat est
Ġse ized
Th ough
Ġreform s
as m
Ġwo nder
k a
Ġsh ared
Ġco ok
Ġsl ow
Ġperform ed
Ġut ter
Ġunivers al
Ġdem on
Ġad equ
Ġhyp oc
Ð µ
ĠâĢľ %
ĠBeng ali
h u
Ġdis put
Ġfac ility
Ġteach ing
Ġo pt
Ġl ate
Ġfe ll
Ġevery one
Ġdark ness
Ġapprec i
O ver
u ed
Ġb attle
Ġh op
et ro
ĠJ ust
Ġrep ly
Ġ200 2
Ġt ong
ĠH our
Ġim pl
Ġa id
cl ause
Ġmor al
Ġmethod s
ar ati
st er
ol ars
Ġmo ved
ĠN ar
Ġcol our
Am ong
ĠAdd ress
Spe aking
Ġpric es
ĠW ind
Ġvol unt
Ġinsp ired
Ġm ission
ĠM ary
ific ations
U S
w ill
es ter
Ġf at
ath i
is ition
Ġm ort
ce an
Ġcomp r
e av
Ġbe ings
Ġparticip ation
Ġt iss
it t
Ġb ab
Ġse lection
Ġj uris
Ġcor respond
Ġcoll abor
Ġus ers
Ġmy self
O C
S ince
Ġg arden
od es
Ġres olution
ĠThe se
oth ing
sy ch
Ġvict ory
T P
U L
U p
ur ities
Ġun f
Ġed itor
Ġlearn ed
Ġc and
Ġbest owed
I M
ĠR ail
Ġinc ident
ĠRam a
Ġplan ning
Ġrele ased
er ver
Ġass um
Ġestablish ment
ind ia
ĠN ob
ren ch
Ġest im
rick et
Ġc ru
ĠP er
ĠG anga
ĠK arn
ĠMah atma
C E
C heck
in ated
gr im
Ġenc ourage
Ġn ut
Ġbut ton
As ia
ĠCol lege
Ġpetition er
C opy
f ast
ar am
oc ol
ab ric
pe l
Ġdes cription
Ġtrans form
Ġgra nd
Ġlim its
Ġo ptions
Ġin ner
ĠR ed
ĠEng land
E E
Ġs ources
rib le
ĠGandhi ji
ott om
Ġfold ers
ĠScript ure
Ġha ir
um er
ast ic
go ing
ER S
Ġsu itable
6 0
c omp
Ġc at
Ġfore ver
Ġplay s
Ġnear ly
Dis play
V D
Ġs ick
ay er
Ġaud io
Ġpict ure
e ks
Ġad mon
Ġcons ists
ĠAss am
Ġchall enge
je ction
Ġd aughter
Ġreg istration
Ġgovern ance
Ġa ctions
Ġs and
ĠP ark
Ġde lete
ĠHim alay
Ġins urance
Ġgir l
Ġsacr ifice
i y
s we
Ġm ir
Ġst ood
Ġcl ick
Ġchang ing
S end
al g
Ġen abled
ove red
Ġcrit ical
ing ly
ĠM ighty
Ġal though
Ġsubst ant
ĠA ff
Ġst reet
e en
ond on
Ġsubject s
P eople
Ġt itle
Ġa head
Im port
Ġm ist
Ġar rest
ĠGovernment s
ĠG ardens
Ġcl imate
Ġent reprene
ati ence
Ġachie ved
Ġdiv ision
Ġplug in
Ġrec ently
ism s
Ġintellect ual
Ġw est
Ġex act
Ġord ers
Ġ ic
Ġremind er
d iction
ist ance
ub s
Ġtra ve
Ġstr ing
S y
ient s
ll y
ĠL ast
Ġcont aining
if ies
ru e
Ġ19 0
Ġsac red
D ep
Ġt ab
Ġin n
ing er
Ġag encies
Ġfound ation
r at
Ġpublic ation
gy pt
Ġ 00
Ġchar ged
d ess
Ġpl atform
Ġcent res
Ġlet ters
Ġdepos it
Ġchann el
id ge
ĠK ovind
Ġgr ass
r ical
or ial
Ġin ternal
Ġat m
Ġdef ence
ĠS uch
Ġinsect s
Ġtre ated
Ġreport s
ĠW ith
i ant
id ers
Ġu pper
Ġdis s
Ġprov ed
Ġdel ight
ĠOffic ial
Ġredu ce
Ð °
ĠS al
Ġan g
Ġcr im
Ġ iron
ess ing
her n
Ġman ager
cl aim
Ġrecord ed
Ġnuc lear
h ad
ĠExcell ency
m n
ĠL ibrary
Ġwait ing
A f
an j
Ġd rop
em porary
Ġgl or
Ġwitness es
Ġsuff ering
Ġsur v
Ġforg iving
Ġcommand ed
Ġprior ity
Ġfail ure
Ġhistor ical
Ġpurch ase
ĠD i
ĠHe ad
Ġb ilateral
ĠM aj
Ġthan ks
Ġappro val
atab ase
C O
ĠM a
ĠP anch
Ġext ension
Ġfight ing
ĠY oga
ĠTrib unal
ith m
ĠE mp
Ġserv ed
Ġend eav
à¥ Ģ
Ġsan ction
Ġpro port
ĠG reat
Ġce rem
ribut ed
Ġvis ited
oh n
or ation
Ġde le
Ġreg ister
r is
Ġw ild
ĠKnow er
as tern
est y
Ġsch olar
ip l
stit u
Ġrequ ires
Ġwarn er
Ġaware ness
e ction
orm al
Ġatt ached
Ġvis ible
Ġvol ume
b on
Ġfig ures
D efault
b ed
H ad
l ar
Ġsign ed
en ance
Ġc aste
el p
Ġgu ides
Ġmanufact uring
ri ef
ther n
Ġpl ot
ĠAnd hra
Ġ199 9
T H
Ġexam ination
Ġunivers ities
P M
at ur
amm u
ĠHe alth
Ġsee ing
Ġre fer
ra q
ĠComp any
P C
Ġ3 2
k ing
Ġcon stituted
Ġpre ced
ĠPalest in
Ġp i
Ġinst ance
ra id
ĠR ules
ĠInd epend
In st
âĢĿ .
Ġ201 2
Ġsitu ated
ou ch
ĠEn vironment
Ġant i
l al
Ġre n
ot ic
gh an
Ġrel ative
amm ed
Ġph ase
Ġproceed ings
I F
Ġd ouble
ess or
ĠR uss
pl it
Ġar m
es us
Ġsuccess fully
Ġcontact s
Ġmanufact ure
Ġp resident
ĠPart y
Ġb an
ĠM ark
Ġpriv ile
Ġcommit ment
Ġab ility
Ġte nd
lud ing
Ġadvant age
D r
Ġf abric
ort hern
Ġnew sp
Ġofficial s
rehens ive
Ġ 01
al le
Ġmon itor
Ġappe ars
Ġhe ro
Ġpo em
Ġwhere as
ĠRes erve
wh at
at us
Ġmark ed
Ed it
Ġdec ades
Ġfl u
Ġrecord s
ann ed
Ġchem ical
Ġrepl ace
pir ation
Ġsub sequ
Ġcoun ter
C H
om ething
ord s
ĠSt and
Sh ri
ĠTr ust
Ġg rown
end ment
Ġele ction
v ision
re ak
Ġpar liament
F in
ploy ment
R aj
Ġto ward
à¤ ¸
Ġinterest ing
Ġhapp iness
Ġannoun ced
e ep
erv es
Ġdefe nd
in ity
ok en
Ġlook s
itte es
Ġdistin ct
ĠJew s
ĠSoci ety
Ġde ar
ĠB C
pt a
Ġmin utes
ĠBudd ha
Ġfalse hood
Ġsup reme
at hered
od h
Ġshow ing
Ġpie ce
ind er
Ġsch olars
Ġton nes
ot he
Ġha bit
ĠR a
Ġr ates
ang ing
Ġfact ors
Ġwe eks
ib ilities
er ted
Ġd ign
the y
Ġstud ent
Ġfaith ful
augh ters
Ġscient ists
Ġsp oke
Ġass ured
Ġbr an
Ġprincip le
Ġburn ing
Ġjuris diction
al id
ul ating
ab inet
pect ed
Ġmerc iful
h ance
an c
om atic
Ġnot es
ĠâĢ ¦
Ġdes cend
Ġfollow ers
Ġhelp s
Ġpro posed
Ġtrans ferred
ĠP M
ĠS um
Ġqu ot
Ġstr ateg
Ġfund amental
Ġve h
hold ers
Ġdiscuss ion
ĠAk bar
ĠS ir
iss a
Ġ201 7
Ġobject s
ĠB as
red it
Ġab und
Ġsmall er
ac he
Ġus es
Ġwar ning
Ġmount ain
B h
Ġm obile
Ġhe rit
Ġor ient
E ach
op les
Ġwhat soever
Ġconf lict
Ġshow ed
Ġobt ained
g reg
ĠS ocial
ag h
Ġeff icient
Ġcour ts
Ġto m
Ġdis k
pl ace
Ġbring ing
Ġbec oming
Ġoff line
T wo
, âĢĶ
w a
ĠL im
ap ur
Ġapp lied
Ġwrit er
ĠCh ar
ĠPr incip
ic a
Ġl ock
Ġl iqu
Ġsw ear
Ġacqu ired
Ġherit age
G eneral
Ġle af
any a
Ġrecogn ised
g in
l ast
re lease
Ġd aughters
Ġde leg
Ġco ord
Ġbank ing
Ġcurrent ly
Ġinstru ments
Ġimplement ed
ishn u
ac ed
Ġhealth y
s es
is ations
ĠM S
Ġun able
Ġso le
Ġfriend ship
Ġdel ay
Ġsend ing
Ġm al
Ġe lected
Ġen han
Ġrec kon
Ġeffect s
ĠS a
Ġclass es
ww w
Y es
ent ions
ra nd
ĠN av
Ġexpl o
il a
Ġab ode
Ġdec ide
Ġdec isions
Ġmat ch
Ġsit ting
Ġmultip le
Ġp atience
ĠMod i
Ġab ide
In valid
Ġrec all
Ġtransl ation
ed ia
à¤ ¨
Ġph one
Ġsk ills
Ġpolit ics
Ġabs olute
ic ious
rit es
ĠIn ternet
ph ant
Ġear s
Ġsend s
ĠI raq
Ġsu s
Ġhas ten
our se
Ġbr ight
ĠComm un
Ġc ourage
Ġad mit
Ġco al
Ġrec on
Ġacc ident
Ġtechn ologies
Ġfa ult
Ġappe ared
Ġpoll ution
Ġa x
Ġwith draw
Ġr ice
el ess
An other
Ġobject ives
ĠAff airs
ri er
Ġplay ing
p resident
Ġh ill
Ġdo ctor
Ġengine ering
ĠM er
Ġwe ap
ĠN adu
ple te
Ġob v
Ġcur rency
Ġbeh old
ust ral
Ġprofession al
Ġsk ill
Al so
is hes
ind ing
Ġmind s
Ġb and
Ġb ounty
ivers ary
Ġconf irm
Ġlaw ful
sh a
Ġstand s
w hen
Ġc ave
an as
ce eds
Ġ- .
Ġcomp ared
Ġun iversity
ocu ment
ĠP ost
Ġad ult
Ġar rog
Ġsur pr
Ġthought s
Ġiniti ative
Ġdrug s
Ġequip ment
al d
Ġor g
o ff
os er
Ġarch ive
Ġconduct ed
Ġdam age
Ġadequ ate
ar p
ĠM un
ome ver
pect ive
Ġconc ent
Ġaddress ed
ĠAss oci
un ction
Ġadministr ative
ĠBrah m
Ġg athered
Ġorgan ised
ines e
Ġhold s
of india
Ġdoes n
Ġorgan ized
Ġmaint ained
Ġdemoc ratic
Ġhe at
Ġpro se
ĠV a
Ġfact s
ĠRaj ya
Ġord inary
W ill
Ġb es
Ġst ar
ĠE gypt
ank ar
Ġaf raid
Ġperman ent
president ofindia
Ġe th
Ġenem ies
Ġinher it
ĠL ondon
ens ions
ĠMinister s
wh ile
) ?
O b
Ġcand id
B ack
a ith
ĠR ev
Ġinterp ret
ol ved
ĠP an
Ġwill ed
Ġesc ape
C ons
t ime
Ġre nt
ond s
Ġexam ples
ĠJust ice
j ud
Ġw estern
ĠS elf
Ġst ruct
ant ic
Ġident ified
ĠS ind
ĠL anguage
ĠJ ammu
Ġcent uries
Ġcorru ption
det ail
h ow
ĠC ivil
ab har
ary a
iz es
ĠGo v
Ġneg ative
ĠLegisl ative
Ġp ages
ĠM en
Ġinit ial
Ġterrit ory
ĠA sh
, '
Ġnot ed
In c
br ance
Ġoper ating
Ġbless ed
Ġded icated
ĠNep al
C al
Ġwe ather
Ġcont ents
Ġsett led
Ġd ia
Ġst ars
ĠK umar
Ġsy m
Ġdid n
St ate
Ġwel come
Ġaim s
c ol
y l
ĠN are
Ġ7 5
Ġcitiz en
Ġir r
Ġatm osphere
Ġe ld
Ġre j
ĠN ag
ĠF orm
Ġcomp assion
Ġrec ip
Ġfe ature
Ġbran ches
Ġsu gar
Ġfe e
Ġtrans action
Ġmain tenance
Ġtas ks
ĠMu gh
Ġcom fort
Ġpe oples
On ce
Ġel igible
Ġdesign ed
ĠKarn ataka
c are
ĠA D
Ġcon ference
Ġdist ricts
Ġthousand s
M ah
Ġre b
Ġinc ur
Ġar ms
ĠIn f
Ġatt itude
ĠBen ef
M od
h at
le ts
am in
ĠO ut
Ġs olution
Ġm ig
Ġro b
Ġdest ruction
or ing
Ġcomp ar
Ġmarket ing
an ish
Ġch oice
ĠE lect
ap pe
Ġatt ain
Ġreport ed
2 3
at re
om an
qu est
In s
Ġsy n
Ġpray ers
it ual
ĠC ON
lud ed
ic ed
im ents
Ġdes ert
Ġrespect ive
Ġargu ment
Ġb rows
et te
Ġen hance
Ġelectric ity
um in
à¤ ¤
Ġflow ers
Be fore
Ġdemon str
i en
ĠM ag
Ġr id
Ġsol ar
ĠNo ah
2 4
E urope
Ġ200 9
Ġconst ant
Ġcost s
Ġoff ices
Ġbl ame
ĠMem bers
ĠT urk
Ġgr ateful
M ark
n i
ĠF OR
Ġcl osed
Ġfin ally
M us
at ar
Ġh rs
ĠC or
Ġaff ord
ĠI P
ol es
ĠC ode
Ġind ig
Ġ |
ĠH T
Ġsudden ly
Ġh all
om ic
ĠS H
Ġgu arant
Ġhead s
Ġprincip al
Ġm os
ĠY ear
.. ..
Ġlaun ch
Ġsubst ance
ĠFore ign
avi our
. %
H T
os ers
Ġag ency
act s
Ġconfig uration
ĠL ab
Ġmem o
Ġident ity
M ake
Ġl ose
Ġk il
el ve
ans ion
Ġfel icit
Ġpil grim
y r
nd ered
Ġob st
Ġmedic ine
raf ts
R AN
Ġb rief
Ġlink s
L ike
er ies
Ġcover ing
Ġbill ion
rom e
Ġmar ry
P E
b ook
Ġch ance
elie vers
Ġthe ory
ĠA ud
ĠB ose
Ġmar ried
Ġoccur red
N O
ĠG az
ac ific
Ġter rible
M ar
Ġwh omever
Ġfin ance
Ġstri ke
le ment
Ġfact or
Ġforg ot
Ġwid th
ĠB ah
Ġdis g
the re
Ġprocess es
Ġfav or
l adesh
s m
he ts
Ġw age
Ġm ock
Ġele ctions
M on
R ashtrapati
Ġcomm ittee
ĠOr issa
h ouse
as ant
pr ing
Ġmarket s
l ife
Ġwhen ever
Ġsan ct
Ġid ol
N ame
p et
ut a
ĠH am
ĠO b
av id
Ġam b
ĠPro te
Ab out
s l
Ñ Ĥ
Ġf ont
ĠT em
Ġco ast
Ġ200 3
Ġadv anced
ĠJud ge
p ing
Ġth irty
ra ction
Ġse emed
Ġproper ly
ran ath
mark s
Ġc ateg
Ch ange
ĠRep ort
ĠAf ghan
Ġb ul
Ġthere after
Ġundert aken
D on
Ġs enior
Ġcomm od
Ġarri ved
res ents
Un known
s ible
ĠS un
Ġm otion
ĠA ut
A c
M P
al am
Ġup gr
Ġmove ments
der abad
Ġfert il
Ġan alysis
ĠD VD
Ġ5 00
Ġ200 4
Ġproper ties
ĠS ikh
Ġfour th
ak ti
Ġr itual
ati o
Ġdisbelie f
S ee
ol a
ass word
Ġinf l
olk ata
ĠArab ic
Ġinform ed
Ġobl ig
P rev
Ġdisplay ed
op erative
Ġpl ed
Ġ9 0
Ġfunction ing
Ġpen alty
g or
Ġw r
qu iry
Ġmost ly
Ġlead s
Ġb rain
ĠB y
Ġad just
Ġdisc l
Ġrun s
G l
ain ts
ĠD as
Ġv ir
ip es
Ġpl ans
Ġturn ing
Ġlo ans
Ġpoet s
W ork
Ġp sych
Ġpr ime
lud e
Ġtem porary
Ġacc used
Ġcur s
Ġapplic able
m ary
Ġtra in
is her
ro s
Ġr out
ok ed
ĠJ oseph
à¤ ¯
Ġorgan izations
Ġsur re
Ġenvironment al
g ent
ĠA li
ib ly
act ive
oura ble
Ġimm ense
Ġaccomp an
Ġtom orrow
e al
In ter
Ġdiffe rences
Ġaff lic
Ġjud gment
ĠMu se
P art
ĠC ar
ĠD em
Ġun ion
ĠAr ch
ĠAd v
Ġcreat ive
Ġfulf il
u ity
z z
Ġl osers
Ġsp ot
ov al
Ġsim pl
Ġgir ls
T ER
Ġ il
ed ient
st ood
ĠT ime
ĠL et
Ġsqu ared
ĠSpe aker
Ġin hab
ig er
Ġexp enses
Ġtemper ature
2 2
V iew
Ġe c
Ġgovernment s
tr ans
Ġas ide
ĠM and
pt o
Ġdr am
Pr ime
ĠJud gment
Ġg ate
Ġdo g
ĠF l
Ġ18 9
ĠIm age
Ġapost les
b rah
or gan
ĠT ool
ap a
Ġjour nal
anes e
on ial
en a
ĠF irst
Ġbro ken
ĠDiv ine
iz ont
Ch oose
ĠIndepend ence
Ġworld s
cri ber
Ġapost le
ad r
ist ed
Ġ195 6
L E
t es
Ġcom ment
Ġfil ter
ĠMus a
d a
as ters
il m
ĠH on
ard ar
ner gy
Ġreve al
Ġth row
ul i
Ġse v
Ġpr ide
Ġemploy ee
Ġwall s
Ġcomp ensation
Ġcap able
Ġgri eve
ĠAp ost
ĠSign s
Ġdele ted
it i
ĠS earch
Ġabs ence
N et
h us
Ġal t
aw ahar
Ġrep resents
Ġexper t
Ġdeep ly
H er
ĠC ult
ĠIn ter
Ġentire ly
o es
Ġequ ally
conom ic
ĠAl m
Ġcreat ures
ĠChrist ian
Ġextreme ly
Ġwrongdo ers
Ġb le
ĠM iddle
Ġhuman ity
Ġfulf illed
om y
ot ton
Ġse es
ĠF ound
Ar t
Ġsust enance
Ð ¸
ur ved
ĠAd am
M ess
Ġsu it
Ġun known
Ġref used
Ġz ero
Sim ilar
Ġsculpt ure
ut er
ir s
ĠP en
ĠK ar
Ġoff ers
Ġbelong ing
\ \
Ġl if
ĠV ice
à¤ ¹
ĠA ware
if orm
ĠP re
ĠSec urity
Ġcharge able
o oth
ow ing
ank s
ES S
Ġdirect ed
Ġ18 8
ra ck
Ġcomp osed
Ġro of
Ġmen u
Te xt
Ġp u
ĠEng ine
ĠComp an
orth y
ĠFin ancial
Ġpropos al
J ust
ant a
Ġtrans actions
Ġposs ession
Ġsim ply
Ġstri ve
Ġiniti ated
ĠApost le
Ġex hib
the ists
Ġ201 9
il ter
Ġor ph
Ġde ity
ec ut
Ġ201 1
Ġexpl ain
ĠT er
ĠN ations
Ġform al
Ġstart ing
S m
Ġf ed
ĠW ater
à¤ Ĥ
Al though
f ather
Ġspe aking
at ri
Ġopp osition
ĠD ef
com ing
ĠTra ining
Ġproport ion
ĠMuse um
Ġbelie ves
à¤ ķ
Ġmult i
EC T
Ġdig ital
N or
Ġst ones
Ġtrans p
Pro f
ail ing
Ġwhere ver
Ġnar row
p es
u it
ay ment
ab et
ĠCont rol
Ġtour ism
Ġupd ate
c an
Ġb ottom
Ġf uel
our ism
Ġcent er
Ġback s
Ġsur vey
M em
g ency
l ong
ro c
ĠA wards
Ġout standing
ĠCh apter
ĠSub s
Ġimprove ment
Ġautom atically
Ġprostr ate
Cent ral
C lick
Ġf ought
ĠL ife
Ġcomm ission
ĠCon v
ĠNare ndra
y m
ed d
os a
Ġspec ify
Ġinstru ctions
Ġsince re
Pr int
Ġhypoc rites
r um
en ame
Ġcall ing
Ġexpl ained
ĠAd ministr
swe red
2 5
ĠS C
Ġrec ited
F C
e ath
Ġtheir s
Ġform ation
Ġown ers
Ġprom oting
Ġsustain able
ro om
Ġcr is
Ġdyn am
Ġequ ity
Ġben eath
Ġhapp ens
Ġfif ty
Ġarchitect ure
Ġbe fall
Ġde ed
os ite
Ġ4 5
ĠHy derabad
Ġdistingu ished
C D
T ime
w an
Ġse qu
ĠLim ited
I G
Ġb ones
Ġpro ve
ĠN ay
Ġpre gn
Ġinv ited
Ġs or
ĠA ward
og en
Ġ3 6
Ġgl ory
Ġcare er
with standing
re tc
er ate
ag ers
Ġad mitted
ru it
Ġdeal ing
Ġtrib al
fort un
L ord
Ġp ension
ad s
od ing
ĠT el
ĠE astern
Ġper ce
Ġtown s
ĠChrist ians
Ġto ols
ĠA S
Ġsold iers
ĠPrincip al
w ater
Ġc row
Ġc ouncil
Ġex ports
ĠWe b
Ġrespect ively
ĠInt e
Af rica
Ġliqu id
ĠP ress
N U
it ory
un c
Ġv ig
Ġar bit
ual ity
Ġre new
ĠB el
Ġem otion
Ġdes ktop
Ġra ce
Ġown er
Ġwrit ers
Ġcontribut ions
F irst
k an
riend s
à¥ ĩ
Ġobt ain
E P
S at
Ġimp art
Ġcustom er
ĠFore st
Ġp ane
ĠTe xt
Rem ember
Ġquick ly
Ġt ro
ct s
and on
Ġcl ot
Ġallow ance
D et
Ġcont ribute
Ġrec ite
Ġrem aining
Ġsatisf ied
Ġv es
Ġun s
Ġtw elve
201 4
D A
Ġcon ven
ĠGo ogle
Ġdec or
ĠMoh ammed
Ġact or
Ġ0 2
Ġdep th
ĠAss istant
ĠMugh al
Ġcl ay
Ġover all
Ġconc l
Ġ0 8
as ad
ĠG arden
19 9
rish n
Ġimmedi ate
u able
Ġc ore
Ġan swered
ĠB est
ĠN ature
Ġle aving
ish ment
Ġste el
Ġtw ice
) !
Ġb one
Ġh ind
Ġcon vers
the ir
Ġcommun ications
Ġsol id
V E
g l
or ter
ol i
ĠIn stitut
Ġoff ering
Ġdr ama
Ġtiss ue
y al
ut ation
ĠK or
ĠSc heduled
ĠAssoci ation
m ing
r ary
Ġd rown
ĠN an
Ġemploy ed
Ġrecogn ition
Ġstay ed
Ġjudge ment
C o
Ġb order
ot al
ri e
Ġleg s
ĠDep uty
Ġcoun sel
d ev
Ġh urt
Ġunder stood
Ġco ol
Ġcontin ues
Ġer a
Ġpie ces
S omething
Ġc ategory
ĠK olkata
Ġcont emporary
Ġill ust
Ġrail way
Ġneighb our
alg am
ĠF iles
Ġperson ality
Ex cept
Ġframe work
re ase
ĠM ount
Ġsc ope
ound ed
Ġinte nded
Ġavail ability
Ġdepend s
ĠNet work
ĠBab u
al og
Ġdet ailed
Ġb reed
ĠM other
ĠO f
gr am
Ġask ing
Ġdrink ing
Ġre venue
Ġregard ed
us hed
Ġsol utions
ĠIndust rial
Ġ3 3
Ġtrad ing
gar h
Ġfacilit ate
Ġh oly
Ġsh ad
ĠJ ag
ank a
Ġfirm ly
Ġsister s
C urrent
Ġc ow
Ġm el
Ġsh aped
Ġtr ouble
Ġspe ct
Ġprev iew
b ecause
ed ience
ect or
Ġhard ly
Ġ20 20
F orm
Ġre nder
Ġrelig ions
Ġcloud s
ĠNob le
Ġt ies
Ġte a
Ġrepe ated
ĠSet tings
ĠUr du
m ic
Ġl ying
Ġse eds
Ġv ac
Ġcommun al
Ġrest rict
het ic
ĠAss essing
Ġder ived
Ġswe et
Ġcris is
Ġt im
ult y
Ġtre m
Ġegg s
Ġc ricket
ol ic
Ġr ising
ĠK a
Ġend s
Ġequ ality
C A
D U
F urther
re r
Ġar ising
Ġtrad itions
K ey
O M
R ed
r ont
t ic
on a
Ġchar ity
Ġinterest ed
Ġstr ate
Ġlab or
ĠIndust ry
Ġtong ue
Ġs am
Ġs orrow
Ġd iverse
Ġth read
ens ity
Ġbuild ings
Ġhard ship
s pring
Ġst ake
ĠJ esus
ĠUn ivers
Ð ¾
Ġw icked
Ġm ap
Ġre ct
ĠV ishnu
Ġcro res
Ġguid elines
ĠIsrael i
Ġsugg ested
ĠProv ince
Ġcomp rehensive
Ġacc om
Pro ject
Con fig
Ġlay er
Ġintellig ence
st ate
Ġdri ven
ĠR et
ĠHim self
Ġ201 0
Ġ194 7
Ġac know
ĠPro per
Ġabs or
Ġconsum er
Ġrevel ation
Ġship s
e er
Ġd atabase
ĠL t
Ġfl ower
Ġimpro ving
Ġcustom ers
Ġworshipp ed
ĠPers ian
c ry
ock s
ĠFor ce
Ġstrate gy
A p
G e
N ay
R et
l aw
Ġw aters
Ġaff air
ĠBang ladesh
Ġsettle ment
H igh
r d
ar h
Ġhe n
ĠM os
Ġst ick
Ġdes ired
ie l
Ġent rust
Ġnum erous
ash ing
just ice
Ġdiscuss ed
Ġb ag
Ġal arm
Ġev ident
omm od
Ġestim ated
Ġbeg ins
Ġrepent ance
d own
Ġh ills
Ġal ive
Ġover come
Ġappe ll
Ġjud ges
Go vernment
E xt
Ġfl ood
Ġadv ised
Ġachieve ment
D irect
in ance
Ġon to
ĠC ity
Ġind ex
Ġpre ferred
ĠReg ional
Ġcelebr ated
Ġic on
o z
Ġsp r
Ġset s
Ġfil ed
Ġgra in
Ġcomput ing
Ġroad s
ester day
brah im
ic he
Ġenjoy ment
Ġforest s
Ġconce al
Fl ag
m al
ĠS pecial
ir i
ĠD ec
ft ware
Ġdef inite
Ġarrange ment
Ġex ch
Ġeff iciency
Ġpal m
n o
v an
Ġfac ing
Ġsl ight
Ġdifficult y
Ġhor se
ĠP o
ĠG r
ign ment
Ġ11 5
Ġobs erve
k er
Ð ½
Ġper mitted
Ġev olution
ili ar
Ġn aught
Ġg rew
ĠS te
Ġdo ll
oun ter
Ġconsider able
in ating
Ġpro claim
em ic
are n
Ġsy mp
ĠFound ation
0 2
r ance
Ġs plit
Ġh at
ot a
ĠUn it
ĠAr my
Ġinvest ments
Ġdel iber
Ġlink ed
A ud
F ind
Ġe ase
ĠMah abhar
Ġcou ple
Ġcompon ent
awahar lal
ol it
Ġapp arent
Ġbeh aviour
Ġimpro ved
Ġth ick
Ġl amp
um s
Ġvict im
Ġaccom pl
o ving
Ġf et
op al
ific ial
Ġmill ions
Ġfelicit ations
Ġg ift
Ġst ages
ĠN A
Ġch o
we lling
Ġins piration
L ast
as w
ut ed
pe lled
Ġmeet ings
Ġoff ence
Ġcol lected
Ġhigh light
Ġjud icial
Ne xt
ĠAgricult ure
m its
Ġb udget
ĠH ouses
ĠG and
ĠWh y
be ing
Ġmass es
Ġimper ial
N ever
Ġch ain
erv ing
Ġsp an
Ġfl at
Ġexp ansion
Ġbus y
P I
Ġinc orpor
Ġsp ite
Ġreg ulations
Ġacqu isition
ĠPalestin ian
Ġves sel
Ġh ousing
ĠW ord
201 6
ribut es
Ġdepos its
ĠMadh ya
s ub
ĠR ural
Ġbl ue
Ġserv ant
Ġcomple tion
Ġmail ing
vest ment
Cl ose
Add ress
Ġincur red
ard on
Ġall ot
ast y
Ġworld ly
Ġrecogn ized
Ġident ify
Ġdisob ey
ĠJap an
o ch
Ġw a
as p
ĠK ab
Ġharm ony
Ġp ious
Ġwill ing
ĠL ic
Ġle ct
ĠF ree
Th rough
Ġdec ree
Ġintegr ated
Ġemphas is
ar ters
ĠL al
up on
Ġconsum ption
Ġp hen
Ġh om
ic ent
ect ed
Ġreason able
or ge
Ġv ia
Ġremem brance
Hind i
ed kar
ĠR ad
Ġorgan isations
Ġid ols
or se
ut t
ri ya
Ġ' .
ear s
iz er
ĠY et
Ġfl ight
Ġcur se
Ġresp ite
Ġfarm er
Ġdemand s
Ġwarn ed
ĠEn ter
ici ary
Ġ Â
Ġam algam
Ġout er
Ġexcell ence
Ġemp ower
Ġconstruct ed
ĠBuddh ist
b ra
d es
in st
Ġm ent
ĠD ata
Ġover t
Ġ7 0
Ġrul ers
ograph ical
ĠSche dule
8 0
P rom
Ġdes crib
Ġdist ributed
Ġtalk ing
L ater
y as
Ġ ~
od al
ag n
Ġev al
Ġsp oken
Ġfl oor
ur se
ĠW omen
Ġinv alid
Ġhel per
W ould
ĠA v
At t
Ġprop ag
ĠIns urance
D ev
en ous
Ġre bell
ĠC hen
um es
Ġr atio
Ġcons ervation
Ġenc omp
icip al
Ġimpos sible
Ġto ler
Ġh un
et her
Ġwhom soever
Ġdet ail
AL L
ertain ly
en n
ot es
Ġst ored
ĠF ort
Ġgo als
Ġsign ature
ĠComm ittees
Ġ18 5
Ġsit es
Ġcontinu ous
T ake
ure au
ĠK an
AG E
Ġf le
ess ions
Ġallow s
Ġrad io
ĠAfghan istan
or ous
ity a
201 5
alay a
Ġtou ched
Ġguard ian
P ost
d ec
Ġm ad
ĠP ri
Ġshe l
Ġbu ff
ĠSec ond
nov ation
Ġquant ity
ur ch
ass es
Ġfaith less
Ġinter face
d ate
Ġsh op
pp ing
ree ment
Ġsc en
Ġz one
ch ron
ĠH istory
ĠU T
erson al
O s
Ġm ixed
ent le
Ġim pr
Ġval ley
Ġpoin ted
at ics
ĠB an
ound s
Ġtrans mission
Ġsec urities
Ġed ge
udd in
Ġens uring
Ġaud it
Ġstru ck
D ue
Ġhas t
ru ly
Ġperson nel
Ġmark s
Ġenc ry
Ġeas tern
Ġdifficult ies
Ġrepresent ative
Ġsatisf action
Ġremark able
p at
Ġnot ified
âĢĿ ;
AR T
Ġpar amet
Ġrecogn ize
ĠSw ami
c ons
an ath
ĠS ol
ĠF rench
Ġact ing
ug in
Ġwindow s
Ġsoci o
Ġirr igation
im a
im ony
ĠS ee
ĠB usiness
Ġstart s
Ġcolle ge
empl ate
Ġcrow d
h am
as y
ĠH uman
Ġv acc
Ġno ble
ĠThe ir
Ġra w
Ġfulf ill
Ġtele phone
Ġsex ual
ustral ia
ecut ive
D ec
P eace
Ġrel atives
Ġproduct ivity
D el
Ġc ried
Ġper t
Ġbre ath
Ġdire ctions
Ġstead fast
Ġcateg ories
Ġa ught
Ġdo om
Ġag ent
Ġcomm ence
ree k
Ġro t
Ġdown load
Ġfind s
ĠTr ade
ĠGu pta
Ġjob s
d ent
u a
ar on
Ġpro hib
Ġrequ ested
izont al
. âĢľ
P RO
Ġp et
Ġto t
Ġth or
ĠD isc
Ġher self
Ġelect ronic
Ġhy d
Ġdiscuss ions
Ġviol ent
Ġmir ac
Ġcrim inal
Ġinterpret ation
ĠA z
ach ing
ĠSt ud
Ġwrit ings
Ġlib eral
Ġvirt ue
W rit
p ower
ro ve
Ġpl anned
Ġrep rodu
Ġocc urs
G et
g a
or ship
ĠB ack
Ġdis abled
Ġye llow
Ġfound ed
Ġcr ime
i ya
Ġe lim
Ġg all
Ġu pto
ĠT op
Ġprep are
Similar ly
C all
Ġp ull
ic ted
ĠA tt
ch ief
ĠJ ohn
ĠTh am
Ġparticip ate
Ġstrengthen ing
O T
Y S
Ġo cean
ĠP rev
ĠN ow
Ġtra ined
Ġveget ables
R ead
Ġin justice
Ġd iversity
ĠS ik
Ġdis charge
Ġrighteous ness
Ġsuper ior
ĠTem ple
? '
F riends
Ġha ply
âĢ ĺ
Ġus ual
Ġun iverse
Ġreal ize
Ġfall s
Ġdeg rees
ĠAmb edkar
Ġa st
it ting
Ġh tt
ĠD ar
Ġcl ust
Ġ3 4
Ġdef in
Ġsuff ered
ĠSub has
Ġenterpr ise
Ġbab y
ill a
Ġcour ses
Ġbreast s
b ered
y e
ĠA nt
cess ion
âĢĻ .
Ġaddress es
iqu es
Ġsym pt
ĠTer rit
T ype
us al
Ġemploy er
Ġmet al
Ġclaim ed
Ġconv ention
Ġgrad ually
op eration
ĠJ ain
Ġver se
Ġpract ical
Ġmechan ism
B elievers
R am
S ur
m et
Ġd iet
ĠD ate
les h
Ġdif fer
ĠPr asad
Ġprom inent
Ġvolunt ary
ĠL ink
Ġdom ain
T ra
h is
Ġas pir
ĠT ri
Ġch apter
ff ect
Ġj ail
Ġown ed
S A
ate ll
Ġab andon
Ġachieve ments
Ġhar vest
Ġcon vert
Ġwe ar
Ġv an
Ġad orn
ĠCh ait
Ġint ention
az e
Ġli ability
Ġwide ly
Ġappear ance
Ġdepart ments
Ġp it
ul atory
Ġgreat ly
Ġord ered
Ġbu g
Ġcompl aint
j an
Ġb at
an iel
Dis able
Ġcorpor ate
w as
y our
Ġincre ases
Ġeffect ively
Ġann iversary
Ġinvol ve
Ġli ars
ĠGerm any
t ical
Ġt ag
in ations
Ġf ix
Ġd ivers
ĠT ab
Ġen act
âĢĿ ,
G roup
l ines
Ġs aving
am ily
Ġme at
Ġrem oval
Ġattend ed
Ġaward ed
Ġin fection
st ruction
Ġr ou
ord ers
à¤ ²
Ġdeterm ination
Ġsignific ance
Ġstop ped
Ġcontribut ed
Ġattach ment
ĠAc adem
on ts
Ġd uration
Ġe ternal
ist ries
Ġwho lly
Ġdis pos
ĠU nder
Ġag greg
Ġequ als
EN D
Ġdev oted
Ġprogram s
Ġstream s
Ġs ake
Ġacc urate
Ġcond em
Ġdev ices
Ġforward ed
Ġarrange ments
Ġax is
l ock
in oy
Ġpal ace
B as
p re
w ood
at in
Ġac id
oc ate
leg al
Ġboy s
in ces
le an
ĠY ork
Ġsubject ed
Ġclaim s
Ġpill ars
Ġprin ted
ĠPanch ay
N umber
Ġ- ,
th a
Ġyour s
Ġme as
Ġcomp etition
ail able
). "
Ġneed y
Ġsou thern
Ġrecommend ations
ĠMer cy
H ER
n ai
Ġar med
ob e
ĠAs ian
Ġold er
ron ics
Ġ199 2
Ġ199 8
Ġcam el
U G
Ġinvest ors
ĠMan ager
Ġbes ide
ĠI brahim
ĠS im
Ġdra ft
IT Y
Ġexecut ive
C S
Ã ©
Ġv iz
og g
Ġpan el
w ing
Ġacc ommod
ĠKing dom
P ublic
Ġp apers
ce ler
ĠP res
ĠN on
Ġdist urb
Ġ4 4
Ġso vere
Ġco vers
Ġcor ner
Ġinhab it
Ġm ov
ak ed
ĠO ptions
ick et
Ġcompon ents
Ġaccompan ied
retc hed
0 8
0 9
Ġt ur
Ġp air
ĠL anka
Ġper miss
Ġrec overy
Ġcontro lled
ĠAh med
alle l
Ġk ings
per or
Ġte nder
li hood
Ġdist ress
Ġfac ulty
Im age
atur ally
Ġde ities
ĠT ype
end ra
Ġdeterm ine
Ġad apt
Ġstruct ures
ĠCompan ies
Ġphen omen
M r
Ġst amp
ĠL iter
fe rent
Ġadmon ition
Ġcerem ony
id i
ol t
ac ing
ĠW ay
Ġle ge
og ether
Ġres c
Ġgr at
Ġspecial ly
Ġresol ve
Ġshr ine
A nt
R ef
S k
at tered
Ġb h
Ġb acter
ĠL ot
Ġres ort
Ġpart ition
con nect
Ġrece iving
omet imes
Ġsil ver
g ence
or am
im p
Ġun seen
Ġele v
Ġinaug ur
F ollow
Ġn urs
ĠP rem
Ġcl ar
Ġneg oti
Ġmonitor ing
gor ithm
H AR
Ġe ve
ĠM icro
Ġr hy
ang le
ĠJ oint
Ġeduc ated
Ġprof ile
az ing
Ġaccept ance
Ġstrateg ic
Ġweap ons
Ġbrows er
Ġbe ll
Ġbe ars
Ġv ain
Ġdis appe
Ġprodu cing
Ġsur g
Ġstr ange
ĠGu ard
Ġur ge
D P
am ber
ĠM ove
ĠC abinet
Ġst ress
Ġ18 7
Ġcompan ions
ĠPol ice
Ġdang er
g age
Ġthe atre
Ġc art
ĠS ardar
Ġpro xy
Ġun gr
ĠJ ay
Ġsee ks
oun ce
Ġpre fer
Ġsent ence
Ġequ ival
Ġreal ise
Ġcreat es
Ġterror ist
last ing
Ġwr ath
Ġh ur
Ġacc um
Ġsub t
Ġtest imony
Ġencoura ged
urved a
2 1
Ġs ed
it ra
le um
ĠS ab
ĠH er
Ġle v
Ġpl aint
ĠMad ras
A llow
G ood
Ġs ad
Ġwor st
Ġen force
are st
Ġend ed
Ġaff ection
Ġasse mbly
I B
Ġp ark
ash ion
Ġless ons
icult ure
K eep
al ore
ag ain
ĠHim achal
Ġval uable
Ġignor ance
Ġoath s
Ġtrem end
) ]
2 6
A part
k h
s k
Ġ row
Ġde af
ĠH elp
art ments
ĠRam ayana
Ġpack age
A v
Ġin ternet
Ġm ak
et ary
ĠM alay
ter m
Ġper mit
Ġind irect
Ġbr idge
Ġ4 8
ĠAccount s
ĠP age
Ġsh aring
Ġv ide
Ġr ub
ĠJ a
Ġmy th
li est
Ġsubsequ ent
G ener
L ook
ĠR ab
ĠT or
Ġsc ene
Ġsp ring
Ġpers ist
Ġdiscip line
Ġreckon ing
ĠC ertificate
Ġcl oth
Ġmother s
Ġbig gest
Ġarr anged
Ġinnov ative
EC H
L aughter
Ġn orthern
Ġfac ed
Ġsl aves
Ġresult ing
ĠLe ague
A ND
R ight
S L
n ame
w orthy
x x
id ences
ĠS ector
ĠL ah
ĠComm er
Ġda wn
Ġrespond ent
E F
G andhi
S ign
u v
Ġp ick
Ġclass ical
Ġrepresent atives
Acc ount
r ase
Ġs ilk
Ġpub lish
Ġdistin ction
riv ate
W oe
Ġn av
Ġn ode
ĠA ra
Ġknow eth
Ġdream s
ri a
Ġpro phet
ĠO ft
Wh atever
IS T
Ġentrust ed
S pecial
Ì ģ
Ġc os
om on
am ing
ĠS en
ĠT able
Ġsub mission
Ġconst antly
Ġemer ging
Ġlegisl ation
Ġqual ities
Ġsubstant ial
Ġf asc
ol ve
ak s
Ġus age
Ġfind ing
Ġplay er
Ġimag ine
Ġcollabor ation
ou l
Ġd ipl
om a
pe ction
em ption
ĠBh arati
Ġnorm ally
en cing
ĠP ad
ĠN PS
ĠE nergy
Ġag gress
Ġmy st
Ġpr on
Ġlist ed
Ġless on
Ġpict ures
ĠLt d
Ġcon stitu
Ġv ary
ĠL aksh
Ġ3 7
Ġfall ing
Ġcompet ent
' :%
e per
re rs
ru pt
etro leum
Ġflu id
K now
Ġqu iet
Ġauthor ised
ĠSp irit
Ġmand apa
Ġignor ant
Ġobv ious
ĠE nt
Ġreach ing
AB ARD
ĠPand it
i am
Ġf ly
Ġm ur
ĠSh iva
ĠBh ut
Ġread er
Ġ0 9
Ġcare fully
Ġclose ly
Ġhistor ic
Ġcongrat ulate
E ng
r ut
ã ĥ
ad ur
os o
ĠO ther
Ġfam iliar
Ġlo ves
ĠEx alted
Ġrepresent ed
Ġsin ners
Ġadop t
elf are
ĠLegisl ature
ĠE very
Ġdeb ate
Ġdraw ing
Ġmid st
Ġimpr ison
Ġwor se
Ġpresent ation
Ġpat ri
Ġcommand s
Ġfem ales
Ġargu ments
Ġdesp ite
ĠKor an
s ome
Ġc ards
ll er
ĠH ave
ĠSat y
Ġcomb ination
Ġexact ly
ĠRuss ia
M ail
Ġ @
Ġt ube
Ġc up
ad or
em a
Ġdec ade
Ġtechn ique
Ġpoet ic
Ġtest ing
Ġdeal t
Ġauthent ication
Ġw ww
Ġord ained
Ġsol ve
Ġmus ical
Ġhen ce
P acific
c al
or ters
Ġan c
ĠC ard
ĠR oad
Ġ194 8
Ġregular ly
s aying
us p
ĠN ATION
Ġch air
Ġab st
ach i
Ġtrans formation
Ġconcern s
Ġpropos als
Ġinj ury
Ġveh icle
Ġarrog ant
Ġungr ateful
0 5
Ġw ages
Ġem inent
Ġstud ied
Ġdra g
ĠRight s
Ġmiss ing
r ich
Ġh it
st ep
Ġse ats
ĠD al
ag on
ire ment
Ġro ots
Ġinv oke
Ġgr adu
Ġins erted
Ġlarge ly
Ġcy cle
Ġconsequ ences
8 5
C har
H istory
Ñ Ģ
Ġn om
ĠM ember
ĠC irc
Ġhelp ing
Ġappro x
Ġple ases
Ġlive lihood
Ġhost s
he b
it ud
ĠM aster
ec onom
Ġra ising
Ġtechn ological
Ġexper iences
201 3
Ġeng age
Cont act
Ġcultiv ation
Ġdisg race
ĠChait anya
D own
P resident
ĠC reat
Ġcomp uls
Ġfl our
Ġdiv or
Ġsal t
x ts
Ġfor ced
ord inate
Ġim posed
ĠPro cess
Ġ201 8
Ġfear ing
Ġdecl are
Ġgri ef
Ġaltern ative
DU CT
Ġcl ient
Ġke ys
us uf
Ġsign al
Ġtra ffic
Ġgener ated
ĠTe chn
ĠArt icle
C ustom
C ertificate
c les
il le
Ġsl ave
Ġgod dess
Ġtri um
ĠVed ic
O V
Ġa irc
ce l
Ġcon ferred
Ġk g
ĠF ood
Ġcl oser
ĠY e
Ġnar r
Ġworth y
Ġprepar ation
M B
Ġc otton
ĠP rom
ĠE conomic
Ġqu arter
ĠRaj a
b a
b ind
l in
p ad
s pe
v ance
if ted
ĠPro du
Ġdirect or
ĠParliament ary
Ġsubs cribe
Ġtrib es
Ġlear nt
Ġdi am
Ġconsist ing
ĠMaj esty
ĠLic ense
b b
p al
r ors
Ġw ings
Ġre action
ĠKnow ledge
Ġrequire ment
Ġkill ing
Ġindig enous
Ġch ose
Ġ0 7
ĠCour ts
Ġtour ist
ĠMS ME
ĠT ourism
AT E
cri ptions
Ġcivil ization
Ġweak ness
Ġorient ed
Ġw ished
Ġd u
Ġd welling
ĠM at
Ġde als
ĠO per
ĠEx ecutive
Ġ15 0
Ġattack s
ixt y
C P
Ġb ats
ĠD avid
ĠL ine
Ġent ity
aw are
Ġpass ion
Ġfin ished
inc luding
Ġinstru ction
NA ME
Ġdrown ed
Ġtremend ous
D ata
N on
he art
Ġst rict
ĠCh h
Ġoff spring
ne x
Ġrespons ibilities
Ġdecl ar
ĠCol or
Ev olution
ak k
nt y
Ġal ike
Ġadv is
Ġexec ution
sec ution
Ġsucceed ed
uild ing
W ind
ar ita
ĠA N
ĠG old
eed s
Ġfarm ing
Ġemer ged
Ġcommence ment
z a
ar as
Ġin ev
Ġfeel ings
Ġflow ing
Ġaim ed
Ġconstitution al
ĠE arth
av ings
Ġman age
Ġpr ince
Ġreal ised
Ġpain ting
H ence
P G
as hi
ĠC e
ha i
Ġdisc rim
Ġparticip ants
Ġcustom s
Ġli able
Ġlakh s
Ġsens itive
Ġconsequ ence
R est
p ent
Ġy esterday
ay ed
ĠG ur
Ġbro ke
Ġele phant
Ġcare ful
ĠMahar aja
ĠVa ishn
i as
p a
in als
Ġw at
on ent
Ġm ine
ĠD et
Ġman aged
ĠCh inese
ĠY oj
Ġcar bon
Ġtechn iques
Ġamount s
Ġrepresent ation
ĠSu pport
urg a
Ġentreprene ur
R un
n ormal
at ra
Ġf lesh
ĠS aud
oc ent
ĠF ed
amb oo
4 0
p oint
in te
Ġm un
ĠI IT
ĠP RAN
iz ers
ĠâĢĿ âĢľ
ug u
Ġp ardon
st ru
ĠP RO
Ġcont rary
Ġte eth
Ġhum ili
ĠBrit ain
Ġrul ing
Ġfav ours
F ree
Ġv enture
urn ing
Ġinf inite
Ġopp osite
Ġsal es
Ġstrengthen ed
Ġannoun ce
Ġcorrespond ing
ĠEmp ire
othe ism
y er
nd a
Ġb ath
Ġk n
b reak
t w
it ors
Ġad j
ical s
Ġmin ute
Ġhealth care
Rep ublic
Ġrou te
il al
ĠE xt
Ġres erve
ens us
Ġ3 00
iction ary
Ġfeed ing
ores aid
D F
c ure
Ġf ashion
ch ant
ĠV ir
Ġpr inter
Ġright ly
Ġsupp osed
Sec ond
Ġdign ity
ĠHT ML
hus i
ĠH ad
Ġen vis
Ġad min
Ġear liest
Ġsympt oms
Ġf inger
ĠD AY
ĠL uc
iss ions
ĠPro p
Ġend ing
Ġterm inal
Ġsupport ing
ony m
ograph ic
ĠEd itor
Ġconver ted
Ġpled ge
ar c
ab s
pe ople
ĠN agar
ĠF rom
Ġintrodu ction
Spe c
Ġcritic ism
ĠUnivers ities
m at
ã ģ
ic ity
Ġth rone
Ġe go
ĠS em
Ġch rom
ĠV ij
ari at
Ġide als
App lication
Ġal le
Ġcar ved
is o
ra g
ĠH and
ĠN or
Ġca using
ĠOffic ers
Ġcalc ulated
ĠAnn ual
P P
Ġs now
it als
Ġb omb
Ġp ix
ot o
ri ev
Ġun iform
Ġent husi
à¤ µ
Ġmod ified
ĠComm and
ten se
Ġmon u
Ġstate ments
Ġcommon ly
gu ard
Ġequival ent
o il
v iew
Ġbe aring
Ġcl ubs
Ġconsum ers
ĠOn ly
writ e
comm un
ĠGaz ette
S ometimes
ic ian
ig nty
Ġex pos
Ġbel ied
ĠV idy
Ġshe et
ĠBank s
Ġopp osed
Ġessential ly
H as
w ide
Ġp airs
Ġe ating
Ġfor ty
os ure
ific ates
Ġsal ary
Ġrecommend ed
H O
z y
Ġc aught
ad ation
ĠM ail
Ġk ne
ult aneous
ĠJ h
Ġro yal
Ġshe ll
Ġhum ble
Ġvis ual
Ġexper iment
ĠIm port
Int e
Ġnut rit
n on
n ut
u h
Ġ/ %
Ġsy nt
Ġdisc overed
Ġperform ing
Ġpros pect
Ġdece ased
e ven
i pe
Ġis ol
il ation
ĠC opy
Ġv ote
ĠT ir
Ġk id
ĠJ awaharlal
Ġro se
hes is
Ġhapp ening
Ġel abor
Ġpatient s
T I
d ish
Ġw oe
ro at
Ġst ations
Ġde lic
Ġwhe at
ĠF aith
Ġno ise
Ġinvol ving
Ġpossess ed
Ġder iv
Ġfif teen
Ġaf oresaid
Col or
ĠAgricult ural
ĠWind ows
Ġinhabit ants
ro ph
ĠT al
Ġcomp lic
Ġte lling
ĠIn c
ĠTh rone
Ġke en
Ġext ract
Ġ195 0
, %
S te
f ield
Ġp ipes
id th
et an
Ġan ger
ĠC redit
iv als
Ġover se
ink ing
Ġdec reed
Ġprodu ces
ĠSc reen
Ġperiod s
ĠMah al
ran ch
Ġwitness ed
Ġquestion ed
Ġmaint aining
ĠCom ment
Ġamend ment
Ġdisput es
it tle
Ġin tense
Ġst im
Ġv im
ip her
Ġcan cer
Sh all
Ġdefe at
b ug
in ct
as ks
Ġex alted
201 9
Ġmis chief
Ġintegr ity
Ġmot or
ĠFr ance
Ġprint ing
Ġm ob
Ġinc ent
Ġinv ent
Ġprom pt
Ġce ase
Ġrest ore
à¥ ĭ
Ġtop ic
Ġproced ures
Ġclot hes
ĠNA ME
i able
Ġbe at
ol ence
Ġsh ame
Ġgl and
Ġimplement ing
Ġinvol ves
2 7
S E
ut ory
Ġr an
Ġen cl
Ġun ited
Ġdev ote
ibr aries
Ġvari eties
Ġcompan ion
Ġinflu enced
ĠAm endment
M ult
k ey
ĠA ry
qu es
oc ratic
ĠCh rome
Ġinter action
ĠMan ipur
Ġill ness
Ġbond s
Ġparliament ary
O ff
i h
Ġs ports
Ġb read
ri an
Ġsec ular
Ġpass age
Ġcar ries
Ġoper ational
ĠNew s
Go ogle
Ġprotect ed
Ġenterpr ises
NO ME
aren cy
Ġtot ally
ĠTham ud
Ġ #
ut ch
ĠG ita
Ġv ent
ĠE ver
Ġent ertain
Ġshe ep
Te ll
Ġult imate
Mess age
D ate
Ġre ndered
est ion
Ġal leg
av ior
Ġdes cribe
Ġsepar ated
Ġrank s
M ain
Ġto w
Ġn aturally
ĠH oly
un ch
Ġhum ans
Ġdef ect
Ġconsult ation
Ġan x
Ġse at
Ġfe ver
Ġsec re
Ġread ers
Ġincl usive
Ġpoly theists
L og
Ġha b
ĠH a
Ġqu it
s on
Ġb ills
Ġan aly
th ose
os ity
ik ip
Ġatt ained
Ġemp ire
Ġcollect ive
Ġr ing
uk h
Ġachie ving
Ġproof s
Ġprivile ge
0 3
Ġ rom
Ġcon stitute
ĠL og
Ġback ward
ĠTe le
Ġkeep s
Ġminister s
Ġdia gn
m ore
at o
Ġre act
Ġg ained
if ferent
act ory
Ġserv ing
Ġins ert
ĠIslam ist
Ġredu ction
ipp ing
Ġcelebr ate
ixt ure
ĠAra bs
H y
l ist
Ġf lex
Ġ( .
ĠU se
Ġcons ent
Ġposs ibility
ĠIndust ries
Ġendeav our
Ġenhan ced
ĠMahabhar ata
D I
M ed
l iness
ĠS k
ĠW elfare
ud ra
ok ing
ĠMon otheism
Ġnewsp aper
A k
F ore
in f
Ġth rown
ĠGovern ance
Us er
Per haps
Ġperman ently
B ring
i ate
n ight
or ne
ig e
ĠC ustom
Ġst uff
ag raph
Ġbl iss
Ġpercent age
Ġguarant ee
Net work
A uthor
b h
an th
ig ate
ĠL ad
ĠL and
ative ly
Ġret ribution
Ġcomput ers
Con f
ĠAp pe
Ġtransgress ors
et er
ĠB ur
Ġar ise
Ġadd ing
Ġ6 5
Ġche st
Ġpar as
Ġstrong er
Ġenjoy ed
ĠSm all
chand ra
Ġrapid ly
ĠDef ence
0 7
ã Ĥ
Ġw ing
ĠC RA
el a
Ġen light
ary ana
Ġev idences
Ġimp ress
Ġ199 0
Ġarrest ed
Ġinaugur ated
ikip edia
E G
N one
an ing
ah a
ex cept
Ġcirc ular
Ġsurre nder
Ġdeclar ation
E nd
m ail
Ġt ub
ĠB Y
Ġad vert
ass ed
Ġcal am
ĠAb d
Ġdepend ent
Ġprim arily
Ġprot ocol
4 5
ĠH earing
Ġse ated
us cript
per t
In formation
Ġdisc over
ipp ed
A K
Ġre aches
ĠK ey
ĠLe vel
Ġsequ ence
r in
ĠM ode
us ively
av as
Ġpres erve
Ġinv ite
Ġpos itions
ĠIs lands
ĠSo ftware
Cl ass
Ġa wards
ĠA ng
ig ious
ĠC ell
ul ous
Ġ( *
Ġr ic
ag ra
Ġar g
Ġinf id
Ġ199 6
Ġhon or
in ced
re he
Ġb ull
Ġp ace
us hing
ĠE rror
Ġcont rast
ens ed
Ġrul er
Ġgen u
Ġdesp air
Ġkil omet
Config ure
ĠC lear
Ġse lling
Ġpay ing
Ex port
ĠMar athi
Ġassured ly
ĠYoj ana
T ax
U K
Ġc oc
Ġf ate
Ġp up
Ġl augh
Ġg ross
Ġcl ip
oy s
Ġchild hood
Ġav o
Ġsum mer
B C
H ar
k im
ĠS in
iv en
ac ob
oh an
Do es
Ġsoci eties
Ġtre nd
Ġaccording ly
Ġhundred s
Ġtransl ated
Ġtal ent
Ġgriev ous
Ġentreprene urs
Ġdynam ic
Ġstake holders
econom ic
K h
re y
ĠK am
ced ure
Ġfear s
Ġgra ve
Ġsecond s
ĠSA YS
Ġnovel s
E ar
i enced
Ġst ability
ive kan
ship s
Ġmonth ly
ĠAlm ighty
P rop
U B
al o
Ġth in
Ġis lands
Ġal gorithm
ĠE le
Ġper pet
Ġdri ver
Ġexceed ing
Ġeld er
Ġw ilt
ol ent
ri ve
In ternational
Ġwork er
Ġmod els
less ly
Ġlast ing
Ġpain tings
Or gan
ĠEngine ering
B har
Ġf ib
Ġd ress
Ġal ter
gr ated
Ġreturn ing
Ġbo ost
Ġcrit er
Who ever
ĠVal ley
Ġremem bered
C lear
b i
Ġm ould
Ġm use
Ġd ies
ur i
ab ling
ĠL a
ud h
Ġsm ooth
Ġconf ined
Ġrepresent ing
Ġlay out
ig ital
ĠP eace
pl ess
Ġprov iso
ĠDe vi
Ġhon oured
Ġairc raft
ers ion
ĠE ven
ĠRes ource
Ġput ting
Ġobs erv
add y
Ġcon version
ert y
Ġent ering
Ġwind s
Ġeas ier
Ġrul ed
Ġaud ience
Ġwalk ing
Ġsurround ed
ĠProte ction
Ġhat red
Ġrhy th
or ious
Ġm ix
Ġor n
Ġdis app
Ġsome body
ĠAn y
Ġpeace ful
Ġconnect ivity
Ġsum mary
Ġarri ve
cher s
ĠRail way
% .
H aving
v ara
z ing
Ġv it
ac red
so ft
ĠSh ow
Ġfact ory
ames e
Ġproceed ing
Ġfif th
Ġchann els
Ġplaint iff
2 8
I ME
T S
Ġc atch
ĠL ight
Ġen orm
Ġun aware
amm a
ever al
Ġimport ed
ys ical
ĠCl ass
Ġanc est
3 5
M M
u ce
w al
Ġt ail
Ġp and
Ġm ouse
ro gen
ate l
Ġv ul
Ġmat hem
ĠEx port
Ġche que
Ġfall en
P ort
d ist
or ate
ĠSh iv
Ġbest ow
ĠEx planation
ough ly
Ġoper ative
Ġrest ra
RES S
Ġded uct
Ġinstall ation
Ġmist ake
Ġdefin ition
Ġaggreg ate
m ad
Ġ `
se m
id a
Ġg entle
ĠS war
ĠC all
ul ates
Ġne arer
ap h
Ġun ex
ĠCh ild
Ġfl o
As k
Ġhead er
Ġprote ctor
ĠSum mit
a uses
d ra
n ity
ĠS ome
Ġwor ry
Ġlo ose
ĠOr der
sc reen
Ġconcl usion
Ġappell ant
T urk
ra ight
ri or
Ġ( _
and ra
ant ra
ap se
sh i
Ġdevelop ments
Ġpilgrim age
ruit ment
Ġtrium ph
B al
Ġm arch
ast s
Ġte xts
Ġassoci ates
Ġbo at
Ġrevolution ary
Dep artment
Ġcommod ities
j un
ar ia
ĠT est
Ġdis miss
ik i
ĠV ol
Ġbelie ver
ĠHindu ism
Ġbig ger
Ġundert ake
Ġforb id
al al
Ġm ax
ic ing
Ġth rew
et a
Ġex ceeds
ĠT erm
Ġres idence
Ġreg ime
Ġcharacter istic
Ġorg ans
PE ECH
A ccess
B ar
Ñ ģ
is ite
ĠG reen
ĠAllah abad
Ġpre t
Ġfe es
An n
Ġresult ed
Ġbenef icial
Ġmot iv
Ġslow ly
ĠChen nai
g ments
r h
z er
ĠS ita
ord inary
ind ranath
ĠE l
ĠF ir
Ġme al
Ġper fection
Ġar ts
ev il
Ġ199 1
PRO DUCT
is ible
ar ious
id elines
est ival
ĠR ah
ĠR ead
ant i
Ġcons olid
Ġsw ift
ĠReg ion
Pl ay
Ġexecut ed
st ab
ain ted
Ġeng agement
nam ents
M icro
r un
Ġre ferences
Ġany where
We b
Ġ5 5
ĠBook s
Ġcomb ined
Ġprec ise
J P
a wn
Ð »
Ġr ig
amm ation
Ġ4 7
Ġoccas ions
ĠZ one
Ġkey board
ĠEd it
Ġemotion al
iche ver
ĠBhut an
Ġoverse as
P haraoh
R ev
ll a
ĠK ann
ild o
Ġevery where
Ġhand le
Ġconf ir
Ġ0 3
Ġinstitut es
Ġcompet itive
Ġnewsp apers
Ġhun ger
Ġd ict
Ġapp lies
Ġnew ly
Ġart ist
Ġsupport s
Ġrepl aced
Ġtell s
Ġinstitution al
Ġbless ing
ĠCreat or
Ġc as
ĠE VE
Ġun belie
Ġev olved
ĠSt atus
Ġgr ants
Ġexp ed
ĠBah adur
Ġshel ter
Ġaspir ations
N ovember
a ired
w ara
st e
Ġg ames
Ġch arm
ach ment
Ġinv ented
ĠComm on
EN CE
Ġsanction ed
P erm
S erver
ow ered
ĠS und
Ġj e
Ġcountry men
Ġorgan isms
Ġsust ained
Ġtour ists
Ġobl igation
Ġsacr ific
ĠAir port
Ġlad y
ĠGov t
Ġspr ings
Ġpert aining
g i
ab out
Ġex posed
ĠInd o
ĠN G
ĠIn novation
Ġdist ant
Ġvis its
Ġrad ical
Ġindic ate
ĠPunjab i
Ġcru cial
ĠLab our
U nt
e xt
ep ing
Ġrec over
à¤ ®
oun ced
Ġsw all
Ġplug ins
C L
Ġt ied
is p
Ġc ul
Ġin g
Ġas cribe
ĠC S
ter y
av ana
ĠCent res
Ġplay ers
Ġpat ron
Ġconne ctions
Ġprevent ed
2 9
A O
S outh
oc ated
In f
ĠTh y
li ance
Ġatt ribute
ĠCent er
Ġcirc le
Ġprogress ive
Ġintegr ation
Ġground s
Ġspread ing
Ag ain
ĠWind ow
J an
re te
Ġs port
Ġas h
if ically
ĠH all
Ġad m
ĠCh ange
Ġ0 5
ĠCont act
Ġmass ive
Ġimag ination
ĠGl obal
Ġcandid ates
r ants
Ġc alf
ic er
ul us
ĠSt art
ĠIs a
Ġ18 6
Ġ199 7
rishn an
T ogg
r ig
Ġd uly
Ġn ose
ul se
Ġun cle
Ġcol onial
Ġpay ments
Ġreal ized
Ġexper ts
Ġfoc used
ĠApp lication
C op
d isc
w ali
he rent
ig arh
ĠW ould
ĠN ABARD
Ġen v
pl ant
Ġpers u
Ġac celer
Ġvar ied
Ġpost s
Ġfest ivals
Ġphot o
ĠGerm an
fortun ately
Ä ģ
ed ing
Ġcom ments
ĠE lection
ult an
Ġtw ain
ĠY usuf
ĠSe a
Ġmultip ly
D AP
Ġsu sp
ac ious
ĠV ivekan
ĠMin istries
Ġmod ule
ret ion
Ġpar allel
Ġaut onom
Ġindic ated
Ġaw a
Ġexcl usively
0 4
Ġl y
ĠS ave
Ġsh ut
Ġres istance
âĢĻ ,
Ġmat urity
ov able
Ġext ensive
ilit ation
Ġyoung er
Ġredu cing
ĠLe ft
ĠRail ways
Ġperce ive
E lect
Ġw inter
Ġb ount
Ġne arest
ĠN at
Ġdec line
Ġpres ents
ha ust
Ġconvers ation
atell ite
B el
h ash
o a
Ġ ice
Ġf aster
ĠT V
Ġk in
ĠN ation
Ġhand ic
Ġconv inced
Ġdang erous
ĠConv ention
ashing ton
Ġpermiss ions
in th
is an
Ġl ord
all ed
ES T
Ġmar g
Ġaccess ible
Ġimm un
Ġcolle ges
ĠMed ical
Ġmur der
Ġgenu ine
D ist
y stem
Ġb amboo
Ġout come
Ġev ildo
Ġgl ass
Ġange l
l ay
Ġt all
it ate
Ġm iles
am ation
ri ved
ĠR ef
ric ted
ĠGo a
Ġact ed
ple x
less ness
Ġref use
Ġ198 0
ĠInstitut ions
I AN
in o
ĠS ov
ĠC apital
Ġdo ors
ĠWe ll
Ġsp ons
Ġpo ison
of s
Ġoper ate
Is lam
Ġlegisl ative
Ġgather ing
Ġexpand ed
ĠLuc know
w ark
Ġsu cc
ĠB ills
Ġsh ift
In it
sh an
Ġrem ed
ors es
ĠFor um
Ġvill agers
ĠAd vis
ĠProper ties
U D
y th
em b
Ġcol ors
Ġland s
Ġtre asure
Ġmembers hip
Am endment
Ġsuggest ions
Ġwatch ing
C reat
P L
Ġb in
Ġh ire
Ġas ce
ĠP ension
ĠP atel
Ġex it
Ġpre jud
Ġsecond ary
Ġmus cle
ĠWho ever
Ġparamet ers
ĠSaud i
Ch ildren
ĠMoh an
ym ph
Ġtro ops
C ar
V ideo
Ġm il
and i
ĠF arm
ec ess
ne ction
Ġbl ank
Ġmem or
ĠBrah man
Aut o
ĠJew ish
ĠBang alore
B ank
k es
m od
ĠC ount
to ok
Ġsome what
Ġstart up
Ġtest s
Ġdoub ts
Ġdeb ug
Ġsil ent
Ġwood en
Ġassum ed
à¥Ģ )
B ook
b et
in ar
ig ence
Ġor al
Ġsh arp
ort ed
ĠN umber
Ġent ries
Ġent rance
Ġlo aded
AR Y
201 7
Ġbelong ed
Ġvisit ing
Ġmag az
Ġvirt uous
Ġforgot ten
Ġil legal
ĠAcadem y
C ome
p ay
v ar
z one
as hed
st one
ra j
qu er
Ġdo ctors
ful ness
ator ies
Ġregard s
Ġsound s
Ġfair ly
Ġfurn ished
ĠTurk ey
re al
Ġs ixty
Ġb inding
Ġm art
Ġd oth
st ruct
ur an
ĠC ast
ĠC ALL
ĠG os
Ġsh ade
qu al
ric an
ock et
Ġimp ression
Dis c
Ġansw ers
Ġdam aged
Ġexch anges
H im
er als
Ġv ibr
Ġsc heduled
Ġ3 8
Ġhead ed
ĠUS A
ĠRa o
f ilm
or i
Ġin stitute
as ion
ĠDep artments
pur a
Ġemb ra
Ġutil ised
Cal endar
Aud io
Ġbats man
D em
S al
it ative
ĠA j
ig ion
ig inal
if ier
ĠD ocument
ĠN ic
Ġcomp osition
Ġman uscript
Ġearth qu
ern ame
Ġorgan ic
ĠAl so
Ġdepend ing
aur it
Ġcorpor ation
ĠCult ure
Ġincorpor ated
m ans
t ocol
on ia
Ġse al
Ġwhe el
ĠK DE
ĠJ i
Ġ3 9
Ġ4 3
Ġsing ing
ĠHimalay an
Ġchrom os
C ertainly
f ive
f ree
w hel
z en
in cial
on ies
am y
ig g
ĠC H
ri eve
Ġthere with
Ġam id
Ġtax es
Ġinn ocent
ĠBenef icent
ĠMos que
c oh
is al
Ġh older
ad er
Ġhe s
un i
Ġlo ved
Ġsim ultaneous
Ġaccept able
Ġlot us
Ġemer gency
Ġinsp ire
Ġcop ies
Ġfrequ ently
M A
S aid
T emplate
ĠP une
Ġst orm
ĠB inoy
Ġevery body
Ġorgan ism
Sh ould
Ġexcept ion
St and
Ġwarn ings
Ġencoura ging
" %
g ood
Ġl oy
ul um
av y
Ġwhere with
On line
Ġpun ished
app ed
Ġbit ter
Ġorph ans
Ġa uth
Ġb ore
ĠA ch
igh th
Ġmis le
ĠProject s
ĠTel ugu
Ġdiam onds
O ctober
V al
c ar
al and
Ġd h
ic ians
Ġal ph
à¤ ģ
Ġexp iry
Ġgener ate
Ġlo ading
Ġagree ments
rect ed
Ġphilosop h
Ġexcl usive
Ins ert
ĠSH RI
Ġdram atic
d r
in ue
Ġg ap
im ary
if ts
Ġad verse
led ged
Ġdet er
Ġcharacter istics
Ġur ged
reg ard
ĠSur vey
Ġinj ured
Ġm ood
ic o
om ach
ah an
Ġass ign
Ġru in
Ġnorm s
Ġrecip ients
F older
Ġs aint
st ream
ĠA fter
ĠF ar
Ġmay be
Ġass ert
Ġexam ine
Ġexper ienced
Ġpray ed
Ġstrong ly
Ġbond men
More over
Ġpreced ing
Ġt un
Ġw ave
od a
ĠP ass
ĠH aryana
Ġsc attered
Ġhand ed
Ġref lected
Ġplan et
19 8
rec iation
Ġresident ial
ĠOb ama
ĠNATION AL
0 6
M ENT
Ġf ost
Ġg ates
ĠB ush
Ġdis aster
elie ve
ĠDep os
ĠSecret ariat
Ġge ographical
Ġattract ive
xy gen
Ġinput s
Ġappreci ate
Ġpi ety
K S
S cript
l ation
n y
w in
Ġf ro
ĠS iva
un s
ĠF ull
Ġfin ancing
Ġgra ins
IC E
Ġbar rier
ĠSu per
Ġapprec iation
Ġcurs ed
Ġalt ogether
ĠSik kim
f old
Ġd ro
ĠA ustralia
Ġpe nding
Ġprop hets
Ġpattern s
Ap pe
Ġclip board
C R
Ġ ll
Ġc ust
Ġb ought
ic ode
Ġn erve
Ġbe f
ĠS ant
Ġr ational
air y
Ġ0 4
Ġfree ly
Ġrev ision
Ġnear by
Ġrese ar
Ġtrib e
Ġtransport ation
Ġoccup ied
x ide
Ġc ord
Ġb are
an ning
ĠA W
Ġsh out
Ġhere after
Ġcontro vers
Ġdwell ers
Ġdyn asty
Ġdeleg ation
S che
r us
Ġwh ichever
ĠM ir
Ġor naments
Ġfo ol
Ġattract ed
Ġabund ant
y am
Ġse as
ĠN ote
Ġreg ret
Ġro ll
rol og
ump et
Ġinterv iew
Ġthank ful
ĠNan ak
D O
S everal
k al
l ause
Ġd read
Ġd rew
ĠT aj
qu arters
Ġup right
og ram
Ġag es
Ġrel ie
Ġrec ording
ec hes
ond uct
Ġ4 00
arch y
Ġappro aches
Ġd ates
ic ular
Ġcl osing
ĠV iet
igh ter
Ġcond ol
Ġmo ves
Ġep ic
ĠAy urveda
Ġbra ve
ĠOrgan ization
Ġenhan cing
B i
on ly
ut osh
Ġres erved
Ġhelp ers
ari o
Ġbo iling
Ġarri val
Ġshad ow
. ).
M en
M al
W el
l ink
ic ide
Ġth rust
am ination
ess ment
ank ara
Ġgu ess
Ġcap abilities
Ġmin ing
Ġgrow s
ĠMess ages
Ġfr ust
Ġtre k
Ġnecess ity
adem i
Ġremind ed
Ġwid get
Ġhtt p
N orth
P rem
n oon
Ġp ear
om plete
Ġse ize
ĠG ra
Lo ading
Ġextra ordinary
ĠJap anese
Ġdescend ants
itud es
m ind
ou nder
ot ions
ĠD om
ĠD own
ĠF ac
Ġpart ly
à¤ ª
the m
Ġapplic ant
Ġkind ness
Ġ198 7
uls es
Ġrout ine
ĠSubs criber
ĠSov iet
h ave
op p
ost ed
ĠCh amp
Ġfil ms
Ġ0 6
Ġdr um
ĠGovern ors
Ġlow est
Ġindic ates
Aut om
f are
h al
l ow
Ġc ater
ĠB ad
Ġsh ap
Ġ1 000
Ġdis ag
Ġspe ll
So on
ĠMe eting
De cember
Ġc um
ut i
Ġsh ock
ort al
Ġper se
Ġsin ful
Comm and
L ocal
b o
l og
p o
ll ate
Ġnot iced
ĠB ir
Ġout look
ass ador
Ġar ises
Ġpre st
ater ial
Ġhand ling
ĠQ ue
AT ES
Ġmet res
Ġtest ed
Ġstat utory
Ġcut ting
Ab raham
Ġdialog ue
Ġglor ify
usp icious
g od
le nd
Ġis land
ĠM ac
ĠThe e
Ġopen ly
Ġfav ors
ĠAg ra
Ġtal ks
Em ail
h on
Ġc ache
Ġm ixture
ĠI II
Ġact ively
Ġthink s
Ġli ar
Ġevent ually
Ġcommer ce
Min istry
Ġpursu ed
Ġprem ises
Ġopt im
ĠHimalay as
Ġexplo itation
Ġvessel s
c apital
Ġl od
id ity
ig a
Ġst up
Ġal ms
ĠJ ob
erv ous
Ġpur ity
oint ment
Ġ199 3
ĠBe ing
Ġincreasing ly
Ġscript ures
Ġgold en
' %
P assword
d iv
j uta
it arian
Ġb reat
ak ar
ĠT imes
Ġind ul
Ġcomm encing
Ġins ight
Ġlar va
Ġart ificial
Al ways
Ġsupp lied
Ġbeg un
aun ch
Ġcast es
Ġult imately
Ġwonder ful
W ater
b um
c a
i est
Ġre ign
ĠT ib
el t
Ġback end
Ġmem br
St op
Ġdep ic
Ġwar rant
Ġenc ounter
Ġasse mb
Ġ198 6
ĠVed as
Ġinaug urate
b orn
l ord
or rect
Ġm a
Ġh unt
ĠP RES
ast ed
Ġper ish
Ġpur ify
Ġdem er
Ġinnov ations
Ġhop es
Ġrid ic
Ġbacter ia
again st
P un
ĠA ction
our n
âĢľ %
Ġput s
ĠAg reement
Ġtreat y
att is
Ġvol umes
Ġacqu ire
Ġcelebr ations
Prop het
Ġevildo ers
id ian
ĠA aron
ow ers
ol f
Ġcl imb
Ġimport s
Ġloc ally
Ġref und
Ġsupp lement
Ġhard ware
Ġconsider ing
Ġplan e
Ġtrave lled
Ġvide os
V ID
h older
r ange
el ing
ance ll
Ġpe c
ĠU RI
Ġpre cious
Ġart ists
Ġprev al
Ġprogramm ing
Ġ198 8
ĠCal endar
Ġtrib ute
Ġobt aining
ĠProf essor
Ġabund ance
Ġoblig ations
b all
r ine
on ut
ĠS er
th i
ak rishnan
ĠJ er
Ġinvest igation
Ġorigin ally
Ġsil ence
Ġchief s
Ġpu pp
father s
law ful
M aximum
} .
Ġl ung
Ġg n
Ġthem es
Ġen lar
Ġpre ference
ank ind
cl ass
Ġprof ound
Ġrest ored
Ġmer it
Ġreal isation
Ġliter acy
Ġign ored
ĠEnter pr
er ity
al so
ll ah
Ġe ager
ĠI sh
ill age
Un ited
Ġexc av
Ġemer ge
Ġconvention al
x ic
is k
Ġp ion
Ġh ung
od ox
Ġover whel
Ġcult ures
Ġ199 5
Ġneg lect
ĠAk ademi
ĠMove ment
s he
Ġw aves
Ġf onts
Ġp est
Ġre pos
os c
Ġhum b
istr ate
Ġphot ograph
ĠRel ated
Ġderiv ative
Ġpret ty
d el
Ġc av
Ġn odes
Ġg est
all i
Ġfe ared
Ġconf lic
Ġbro wn
Ġ8 5
ĠSe lection
Ġdom in
Ġrecogn ise
Ġsubs idy
Ġexcess ive
ĠLiter ature
B S
l or
Ġt ries
it ted
Ġthere from
Ġad vers
Ġret ain
Ġrep air
Ġsche dule
oub ted
Ġprotect ing
ĠNot withstanding
Ġcorrect ly
Ġfra gment
Rel ated
ĠTop ics
f ire
in ning
Ġm ales
Ġas c
ĠM et
ĠM ake
Ġv oc
ĠF estival
Ġbl own
Ġrequ ests
Ġint u
ĠAr un
Con nect
Ġidol aters
step s
Ġp ump
Ġcon tend
ĠG ang
Ġcomp lim
Ġ" {
ĠV id
Ġwork sh
Ġpur sue
Ġ5 6
Ġinvest ed
Ġbre aking
19 7
Ġnetwork s
Ġpatient ly
Ġlog in
ĠSol omon
. ]
e le
is he
ill ing
ĠW ashington
ph ants
olog ist
Ġold est
ĠPl ugin
ĠRe ce
sequ ently
Ġattack ed
ĠSp ace
ĠWork ing
Ġconvey ed
Ġcam era
C I
e enth
u ated
Ġw ire
Ġw ider
Ġb io
Ġd iver
ĠP assword
oc c
ous ed
ag o
Th ree
Ġinst ruct
be fore
Ġcal m
Ġded ication
ĠBrah ma
Ġtransp arency
Ġowners hip
Ġaccommod ation
ĠCommer ce
v as
Ġd aniel
Ġh olid
ĠR BI
ĠEx ternal
Pro cess
Ġsum mon
Ġtarget s
Ġallot ted
V S
a ar
p ite
Ġm m
Ġh orses
il iation
ĠC ur
ĠC urrent
um a
Ġpl ains
Ġen ables
ĠV ideo
Ġass ume
Ġcol ours
Ġsl ay
Ġsk illed
lo aded
App lause
Ġsitu ations
Ġgriev ances
ESS AGE
Ġarg ue
P age
S am
g on
Ġw and
Ġp ed
Ġre in
Ġre ar
ĠM as
ist or
ist ing
ist ence
ag ues
ok a
ang er
ach arya
Ġver tical
Ġcomput ed
Ġsepar ately
ĠAy at
Ġupd ated
Ġslight ly
Ġdispos al
Ġlege nd
ĠI M
Ġwe aring
ha pp
Ġrep osted
Ġmod ify
Ġtest ify
akh and
Ġcontinu ously
Ġhot el
H elp
Y e
Ñ ĸ
at omic
Ġto oth
ver age
ĠM or
ĠL ib
Ġr ans
Ġdevelopment al
rodu ction
Ġdom inion
app ing
Ġsn ake
Ġang ry
Ġsovere ignty
O h
Ġde gr
ĠT ar
ĠâĢ Ķ
Ġbut t
we alth
Ġrese mb
plement ation
ĠOn eness
Ġrad iation
Ġbroad cast
Ġbul k
edd ed
Ġpregn ancy
ĠAbd ul
Ġenorm ous
Ġawa its
3 3
F our
Ġn omin
Ġl ust
Ġsu ck
Ġse mi
ĠB AR
em at
rit s
erv ice
Ġfore fathers
ĠUs er
Ġbound s
AP I
IV ERS
Ġfurn ish
Ġadult s
ĠMun icipal
ĠLah ore
ĠPRES ENT
P res
R U
c ular
d ue
f ord
s a
v ation
ĠJ acob
Ġaff lict
ĠWh ite
Ġgra cious
Se ptember
Ġage nda
Ġlab el
Ġgen etic
ĠGuj arati
Ġphot os
ĠSah ib
icer oy
oubted ly
E V
c ourse
Ġex haust
Ġall ocation
Ġpl ate
ĠV erm
form ed
Ġprov ince
Ġsp ades
angu ages
ĠHind ust
Ġbook marks
ĠSe lect
Ġexpl anation
Ġcred ited
Ġer rors
Ġadop tion
Ġris ks
Ġflag s
n agar
Ġa er
Ġf ails
Ġ( )
ort iculture
ĠN a
Ġch at
av our
ĠK ap
Ġqu ar
Ġest ate
Ġdev il
Ġjinn s
Ġdescrib es
4 8
T ar
Ġst ret
ĠR ay
so on
ĠGod dess
Ġpo ol
Ġfe els
For ward
ĠSm t
ĠAre a
adr uddin
H ide
h ari
l ined
ĠR ule
Ġle ase
Ġdis order
Ġcomp rom
Ġpart ial
Ġgood ness
ĠDirect ors
Ad v
Ġcompl aints
Ġglor ious
Ġcompassion ate
Ġunex pected
J EE
d y
Ġm ac
Ġre ly
ĠF e
amm ar
Ex p
ĠCon stitu
Ġmo le
De velopment
Ġcontinu ing
Ġmach ines
Sub ject
Ġsubsequ ently
ĠTor ah
h um
Ġf ing
Ġre ass
ĠM ESSAGE
qu ire
Ġres ign
Ġed it
Ġ4 9
Ġign ore
ĠTrib es
Ġsurround ing
Sy stem
Ġdevote es
G ive
Ġt ack
Ġw ound
Ġb orne
Ġn ative
id al
id ency
ir l
Ġse gment
em ia
ĠE k
Ġrec ur
Ġbr ill
Ġnum er
ote chnology
Ġdest iny
Ġconnect ing
Ġattempt s
Ġterrit ories
Ġcongrat ulated
Ġdim in
Ġsus pend
abet es
S ource
Ġw ine
ĠS ize
her ry
ĠK e
ĠK ath
Ġ4 6
tle ment
Ġfood s
Ġcirc uit
Ġsix th
Ġ197 0
Ġestablish ing
Ġpack ages
ae ological
Ġheight s
ĠGe orge
assion ate
Ġrestrict ions
ĠVivekan anda
attis garh
d s
Ġp our
an cies
ĠA ble
our nal
Ġen abling
Ġ5 1
cl amation
201 2
Ġamend ed
Ġcorru pt
Ġlik eness
Ġcompr ising
Ġvir us
Ġdecor ated
Ġvim ana
R s
e ers
Ġw ard
Ġl ake
Ġse min
Ġk it
ast ri
ff ee
Ġres erves
pl us
Ġsc ar
Ġsm oke
Ġsw itch
Ġharm ful
Ġvari able
Ġpen et
Ġtele vision
ĠEm ployment
Ġwin ning
Sm all
Ġmuse um
Ġt ears
ener ation
Ġadv ise
Ġleg acy
Ġnecess arily
Ġport s
ĠAg ency
ĠAf rican
ĠRem inder
Ġgar ments
Ġappreci ated
Ġrej oice
Ġmos que
Ġexpert ise
Ġenact ed
I ss
N othing
b as
on ic
Ġl uck
ĠG ora
ĠW rit
ort s
ok es
ĠGo od
Ġequ ation
Ġdivide nd
Ġt ank
Ġn urt
Ġbe ach
Ġl ingu
Ġen quiry
ĠV en
Ġafter wards
Ġpres erved
Ġint est
Ġ9 9
Ġvisit ors
Ġspeak s
Ġsecret ly
acc o
hab ilitation
ĠPat na
Ġvacc ine
H a
M s
j u
Ġt ales
Ġthe r
st an
ĠB er
Ġind ec
Ġret irement
lo ading
IS O
Ġserious ly
Ġrock s
Ġprem ium
ĠAdministr ation
E X
L S
s qu
Ð ´
Ġhe ct
ĠN I
ust rial
Ġcert ificates
Ġmar gin
Ġstr ings
Ġdesign s
ĠOff ices
Min imum
Ġdiscip les
Ġresol ved
Ġlic ense
Ġwithdraw al
Ġimprison ment
ĠViet nam
E nt
b ro
b ab
d em
Ġs hed
Ġm ud
ig her
ĠB us
Ġv ouch
Ġtr oub
ert ical
Ġ5 4
Ġlo ft
Sh ort
Ġident ification
Ġlog ic
Ġteach ings
Ġstreet s
Fin ancial
Ġdefend ant
Ġtoler ance
I ND
t ake
ĠI C
Ġst omach
ĠF ilter
ĠV ik
ĠPro cedure
Ġsuccess ion
Ġaddress ing
Ġt ape
Ġb old
ct ive
ol ving
ĠM ath
ri k
Ġthere on
Ġsub stituted
Ġgu ests
Ġdec imal
Ġwhere of
ĠReg istration
n ath
p ass
s al
ot ism
ut ra
Ġdis char
Ġaccount ing
Ġexam ined
Ġelse where
ĠVal ue
ĠPort ug
ĠStand ards
H ome
c ers
n et
Ġo xygen
ĠS acred
ht a
Ġch art
Ġres ur
ĠV ish
Ġ4 2
Ġ6 6
Ġrest ing
ĠIslam ists
Ġess ence
Ġpurch ased
Ġrepe at
ĠShe ikh
ĠNar ayan
Ġveh icles
Ob ject
dish a
yth on
a uthor
ĠM UK
Ġst em
ĠInd ira
Ġcomm end
ĠCh al
pport ed
Ġut ility
Ġautom atic
Ġsculpt ures
ĠIS O
Ġconfirm ing
Eng lish
M arch
V is
p i
ĠL am
Ġab normal
Ġbut ter
Ġspe eches
Ġlist ening
Ġprote in
AN G
Ġstri ving
Ġ198 9
Ġ197 6
Ġdefe ated
Ġcolle agues
Ġvirt ual
Ġprot est
ĠIsa ac
B et
Ġth under
se x
ĠS ang
ĠM P
ĠG NOME
oc racy
Ġman ual
Ġun like
Ġwrit es
ĠCon fig
ĠAb du
ĠReg ulations
Ġ197 4
T O
d i
r ous
re ens
ĠA M
ir able
ul ent
Ġwith hold
Ġv ot
ĠN H
ific ent
Ġform ula
Ġmin eral
Ġspec ifically
Ġdepos ited
ĠBrah min
Ġaw ait
Le ave
HER JEE
ĠMUK HERJEE
A h
I AL
M at
m ap
s af
t wo
or ph
Ġto ken
Ġis n
ra ise
ĠM ut
Ġst able
th odox
ĠB ureau
ĠN am
Ġno body
ĠV IS
ĠâĢĺ %
Ġapprox imately
dra wn
b re
h ot
Ġ q
ĠS erver
il er
Ġcom eth
ark ar
Ġ> %
Ġprom ises
Ġinter medi
Ġopp ress
Ġancient s
Ġcoop erative
Ġdivor ce
stab lish
m ount
re f
er able
Ġs me
Ġc rafts
Ġb orders
ĠF ield
Ġform ulation
Ġob edient
Ġinter act
ĠSc ient
ĠPlan ning
Ġoccup ation
Ġdwell ings
Ġempower ment
connect ed
D RESS
F ont
L ab
M ac
Ġb atter
Ġf lying
ent ation
ĠM oney
ĠIs land
ĠQ uality
Ġfr ight
itor ing
Ġcred its
Ġshare holders
Ġrighteous ly
Ġgen ius
Ġfort une
Ġprepar ing
Inst all
Sat an
onym ous
agra ha
Ġauth ors
A ugust
M ajor
en ary
or izontal
Ġd il
il ak
Ġthere to
Ġcl im
ĠV iceroy
Ġspe nding
Ġadv ances
Ġ12 5
Ġgen es
Ġincident s
Ġvictim s
ĠSwar aj
N R
ĠP e
ĠH an
Ġab ol
ĠV ig
pect or
Ġserv es
Ġcould n
ĠBh ar
ys ore
' '
e em
g roup
m ist
o ices
Ġex h
ĠInd us
Ġj ump
Ġout ward
Ġest imate
Ġpublic ations
Ġ6 4
Ġext rem
St ud
Ġur gent
Ġenj oined
osp itals
Ġconduct ing
Ġbelief s
Ġsymbol ic
oso ever
Ġhab its
d ef
Ġs avings
Ġw ont
es e
Ġp ag
st all
ĠB a
ĠO ver
ile e
Ġbl ow
lim ate
Ġeconom ies
Ġjud iciary
Ġlink ages
Ġloss es
aran asi
Ġcompr ises
ĠRuss ian
Mus lim
Ġcommod ity
uli ar
Ġorph an
Ġvul ner
Ġun lawful
ĠU P
Ġdisc overy
ĠAn and
Ġcreat ure
Ġmean ings
adh akrishnan
Ġconv iction
Sub s
Ġrail ways
ĠOrgan isation
Ġafflic ted
mans hip
Ġb ind
Ġm aid
Ġh orn
ĠM art
ĠC lick
ĠP erson
ĠD am
ĠR est
ĠK av
Ġpass engers
Ġcor n
Ġexpl ains
Ġtrust ed
ĠSu pp
ĠPra ise
Ġdim ension
Ġtransp arent
ĠProp hets
L ife
ig ration
ĠH ari
ĠG rand
ĠIn vestment
Ġgener ous
ĠSc iences
Ġposs ibly
Ġsl ain
Ġden ial
ann a
ĠGovernor ate
Ġpregn ant
Ġlev ied
Ġinfid els
P at
Ġto mb
Ġd ow
Ġl ing
ĠA uro
ĠB ro
ĠG ram
ĠO cean
per m
Ġag ents
Ġsp ir
Ġshould er
Ġph arm
Ġspec im
Ġrece ives
Se lected
Ġpath s
Ġ197 1
ras ero
ĠHow ever
ĠMalay alam
G reat
c ow
f irst
ra it
ĠG an
em en
ac le
ĠT ask
ob ar
the less
Ġdet ect
Ġharm on
Ġ195 7
Ġcheck ed
Ġsatisf y
Ġcurs or
Ġsurg ery
A A
G P
P al
Z oom
m ates
p erson
ed a
Ġd rought
ĠM ult
ĠW ild
Ġcomp liance
olog ists
Ġstud ying
Ġaccept s
Ġparticular s
Ġdemand ed
Ġbreed ing
g ra
m oon
Ġw al
Ġl a
ers ed
Ġal ien
av en
ĠY es
fer ior
ĠRes p
Ġlab ou
Ġtyp ical
ĠCan ada
Ġmort al
Ġrans om
. ),
N ep
P ol
r ating
ut ter
ĠA ur
Ġpl astic
ap ore
ĠSt ation
ĠâĢĿ .
ĠFor ces
ners hip
Ġdesign ated
Ġadministr ator
ĠIN A
Ġresident s
Ġdisput ed
Ġmov ie
Ġearthqu ake
D ef
i ac
p oly
in v
an im
le ep
ĠM ant
Ġall ied
ĠF amily
Ġpe ak
ĠSt reet
con f
Ġfr amed
ilit ary
Ġprevious ly
ĠAmeric ans
Pl ace
ĠTrans port
Ġmedic ines
Ġworshipp ing
ĠBuddh ism
Ġcook ing
Ġritual s
Ġpand emic
T op
U nd
ĠM ang
Ġha z
Ġde eper
te enth
av or
Ġpl enty
Ġqu een
Ġem ails
end ing
Ġform ing
ĠMe gh
Ġterror ists
Ġsearch ing
Ġtalk ed
ĠSam aj
hent ication
Ġafflic tion
Ġenforce ment
es c
ar ge
as se
ĠJ am
Ġtrans mitted
Ġexper iments
Ġflow s
Ġenj oin
RO M
Ġbirth day
ĠPh one
Ġdig it
Ġtool bar
Ġprison ers
D ocument
d ig
d ep
u is
an ic
ad vant
ĠP aul
ri ous
ĠL DAP
Ġle nding
ok ia
ark hand
aj an
Pro du
Ġden omin
Ġele phants
Ġut most
Ġbal anced
ĠArab ia
hib ition
ĠIran ian
Ġrelative ly
umin ous
1 00
A ir
T otal
Ġt ons
Ġs essions
Ġw ond
Ġf re
Ġbe arer
im ental
ĠM W
if ting
Ġpro secution
ĠR ai
ĠN ir
ĠUn seen
Ġed ited
Ġcro wn
Ġelect rical
word s
Re ce
sc ape
Ġaffect s
Ġexec ute
Aut omatic
Ġ$ {
Unt il
coh ol
Ġpec uliar
3 1
F ull
I mp
O D
c hen
ar aja
om as
ĠI ss
ĠI CT
ĠS il
ir ation
Ġwe igh
ĠB eg
ord an
Ġag ed
Ġent ers
Ġprocess ed
Ġint im
Ġtem pt
Ġhead ers
Ġparticip ated
Ġ193 0
oll y
Ġthreat ened
Ġutter ly
Ġsurpr ise
Ġinev itable
N ote
P o
T ill
m ake
v ati
Ġl ibraries
ur able
ĠC heck
ĠE X
Ġgo v
Ġad mission
iz oram
ĠV er
Ġrel ate
ne ath
row se
à¤ ¦
Ġinter val
Ġloc ations
Ġver ified
Ġdep reciation
rem ember
well ery
Ar ch
Ġoccur rence
Ġcompl ain
ĠMed ia
Ġprosper ous
Ġjoint ly
Ġsuggest ion
Ġcomplic ated
D iv
T ag
w ant
è ĳ
Ġp estic
ag ari
Ġreg ulation
ĠSh arma
aw an
Ġmin i
Ġrest ricted
Ġguard ians
Ġprofession als
Ġep is
ĠSind hi
Ġsymp athy
ĠAz ad
Ġincent ives
wark anath
ĠGra cious
èĳ ī
L O
m ah
s un
it ated
Ġh am
ĠS ud
ĠM IME
her s
ak ings
ĠD id
og ue
Ġrec omp
Ġhelp ful
Ġins pection
Ġrespect s
Ġ194 9
Ġlib erty
Ġrefer ring
Inst ead
Ġobv iously
Ġmarg inal
s uch
in ner
Ġo dd
an ia
ĠS l
ĠM ur
ĠB ra
ich a
Ġcl in
Ġrel ates
Ġend owed
Ġleg it
Ġassess ed
Ġdeterm ining
Ġsepar ation
Ġsymb ols
Sw itch
Ġlic ence
Ġdiscrim ination
Ġenthusi asm
ĠAppe llate
d en
i ency
Ġ rows
it ter
ĠP rivate
Ġsu pr
iv est
ag a
Ġhel pless
Ġgl ac
error ism
ĠSing les
ĠComp assionate
Ġfoot steps
ĠUr ban
roll er
Ġbur st
Ġchemical s
Ġsole mn
Cons ider
ĠBenef it
ĠJudge ment
Ġfle e
usal em
: '
S ize
W ar
W orld
b at
h uman
l ining
} '
Ġt one
Ġp addy
ĠM ach
ul ator
ĠG ame
ĠG anges
ance l
ĠE nd
ĠK ol
Ġafter noon
Ġperson ally
Ġproduct ive
Ġair ports
Be hold
ĠUp anish
Ġimperial ism
ĠGuard ian
Ġpix els
M et
i ot
ot y
Ġcon stitut
ab a
pe red
ub ilee
ace ut
Ġear ning
Ġgener ating
Ġsur ve
crib ers
unt o
Ġmand atory
Ġborrow er
ĠTool bar
3 2
o ves
Ġa est
Ġl ists
ĠC amp
ĠG riev
ĠF ive
Ġind ia
Ġqu ery
Ġgood ly
Ġmod ification
When ever
Ġadv ent
ĠWh om
Add itional
Ġfra ction
ĠDes ign
Ġinterp re
bind o
M iss
f ull
Ġt iny
at ta
ĠS ad
ĠC re
Ġsh ot
Ġall ies
Ġj u
Ġqu oted
We re
ph al
ĠPr ince
Ġmat ches
Ġconc luded
Ġrest s
Ġcance l
ĠKab ir
Ġc m
ou lt
ar se
Ġl ac
ĠG NU
ĠN E
Ġper ception
Ġcomple ment
Ġele ven
Ġfund ing
Ġreward ed
RO W
Ġaw aken
Ag ricult
ĠJag ann
4 4
F S
I ES
S H
T A
s ur
Ġp icked
ĠM s
ĠM ot
Ġwith drawn
ĠH us
em ployment
ĠN IT
ag u
Ġany way
Th ank
ĠJ ava
Ġ196 0
Ġmut ually
rid ge
Ġtrave lling
Ġpi pe
D M
P ut
b ing
Ġt ributes
Ġa fore
in to
Ġh o
Ġth irst
ĠS ource
ĠC he
ri ers
Ġpro ceeds
ac ular
oc y
Ġdo ct
Ġab dom
ĠY am
Ġdisc ount
Ġdisc ourse
Ġconf usion
ĠRam an
Ġsw it
En cry
Ġang le
Ġcandid ate
ĠAbdu llah
D raw
N G
S yn
Ġp ig
Ġn igh
Ġre ven
ĠL ocal
ĠN arm
Ġany body
In v
Ġpers pective
Ġconc rete
Ġbeh avior
Ġrest art
ĠOr d
Ġfunction al
Ġpal ms
According ly
Ġdisob edience
Ġtiss ues
Ġsimultaneous ly
S ar
k ash
w ait
Ġl oud
am ar
ĠH as
th ren
ak i
qu et
ĠN atural
Ġdis able
Ġrec overed
Ġcons pir
Pro per
Ġinvest ig
Ġnight s
De velop
Ġimm ovable
Ġhost ed
com ed
Ġcapt ured
C ha
F A
d iss
f our
is ans
Ġc ra
ĠP rab
ĠK en
pl ate
fe ren
Ġro pe
Ġint ensity
Ġca ut
Ġten ant
Ġdecl ined
Ġir res
Ġsafe guard
aurit ius
3 6
f ix
at ical
it ably
et us
ĠC P
Ġsc roll
Ġac ute
Ġbr ide
Ġpass es
oin ts
ann el
Ġmus cles
Ġextend s
Ġlot s
ĠCont acts
Ġpursu it
Ġheed less
ĠMo osa
Ġrender ing
Ġrebell ion
Ġmak ers
Ġphilosoph ical
! '
f ly
u ate
ce ans
ig in
ie val
ip h
ap acity
Ġun p
Ġinte nd
Ġcur ric
rap y
Ġendeav ours
Art icle
ĠDet ails
ĠPRAN AB
Ġbount ies
F ilter
m as
in tend
Ġs q
it ary
ch o
ĠL ove
Ġman aging
ĠJ inn
Ġtime ly
ĠSt at
Ġdes ist
Ġret ired
Ġprev ention
Ġposs ibilities
Ġbar ren
ĠEv il
Ġwel comed
Ġexpand ing
Ġren ame
Ġabsolute ly
Ġphenomen on
Ġpreval ent
ĠAuro bindo
E at
L ight
L ocation
ro t
ĠB ranch
ĠR u
qu ired
Ġle ather
ĠK ore
Ġsub stitute
ĠTe ll
ĠEm peror
ĠNet aji
Ġindirect ly
Ġrom antic
P ath
i ated
y les
Ġt ap
Ġw retched
ĠS ev
ĠP OP
ĠR at
ĠL ead
Ġtr ig
Ġman power
Ġcomm em
ob i
Ġret reat
Ġdisc ard
ĠDe lete
Al if
urs ed
With out
ĠSub ject
Ġcheck ing
Ġcover age
Ġunjust ly
Ġcontro ls
Ġmouth s
Ġdoll ar
Ġrebell ious
ĠPri ze
ĠAhmed abad
Ġcompuls ory
Ġmax im
Ġfing ers
Ġvouch saf
3 4
e lect
t ar
Ġw ax
as is
Ġn ervous
il ance
ĠH ousing
ĠD on
Ġch a
Ġab iding
Ġco in
Ġco ins
ĠIn stitution
ann y
Ġrev ised
ĠCo operation
Ġconcept s
Ġblock s
Ġminor ity
Ġsurv ive
Down load
Ġcriter ia
ivest ock
3 7
D h
P ay
c at
f ers
Ð ²
Ġcon cess
ak at
ress al
ĠAct s
ick ets
Ġcr ude
amb a
Ġlay ing
Rem ote
Ġsubs idi
Ġsan itation
Ġcrim inals
Ġsecre ts
Ġavo ided
B B
S P
k in
r ates
Ġt ight
Ġo ught
it ime
Ġm it
Ġg ro
ĠM im
ĠH aj
Ġwe aken
res hold
ĠN az
Ġad mir
Ġunder neath
Ġob edience
Ġhum ility
Ġextend ing
Ġrain fall
Ġpossess ions
ĠBas ava
Ġfertil izers
Gandhi ji
L eg
R ot
c ard
m other
u er
or g
ĠP ay
ĠH O
ĠO disha
ap ati
Ġun us
ĠV aj
Ġsp lend
Ġsec ured
Ġint imate
Ġ6 00
Ġsl ope
ĠRes ources
ER N
Ġsugg ests
ĠThere fore
ici aries
ĠWorld s
Ġarchitect ural
Ġcop per
Ġinherit ance
Ġdefinite ly
Ġlect ure
cure ment
Ġric hes
E l
M er
P ower
is ive
Ġst ores
os hi
Ġtr ash
Ġcont empt
Ġbet ray
Ġwhere on
ĠBh ai
Ġap pend
Ġdep rived
isc al
Init ial
S um
r ise
Ñ ĥ
Ġw ake
ow ance
ĠK on
Ġinc omplete
ber g
Ġcre ed
ha z
Ġcol oured
Ġli abilities
Ġroom s
Ġaver se
ING S
Ġcolumn s
Ġelabor ate
C B
H uman
K DE
S er
b eg
g al
n atural
Ġb id
ic able
ĠB ach
ĠW IT
Ġcont rad
ĠCh ak
There after
Ġcap ability
Ġpar agraph
Ġclass ified
Ġexpl ore
N av
he ld
is a
it aries
Ġn est
ad han
Ġch amber
Ġcomp rehe
rit ish
ĠIn vest
Ġunt ouch
Ġexist ed
19 6
Ġ25 0
fort une
Ass istant
Ġreceipt s
Ġscholar ship
Ġweap on
ĠQue en
4 2
C ard
T ube
im m
ĠS ultan
Ġv oting
ĠO wn
ib h
Ġfact ories
Ch inese
Ġless er
Ġbre thren
Ġengine ers
ĠUttar akhand
Ġdoll ars
Ġinvolve ment
Ġcalam ity
Ġconfir med
W ait
Ġa uspicious
on ents
Ġb its
Ġp urely
ĠS uf
ĠH el
ĠB ay
Ġun su
ĠPro tocol
Ġend ure
Ġinit ially
ĠSec urities
Ġ194 6
Be ing
Ġdisob edient
Ġtransform ed
Ġupgr ade
Ġcondem ned
ĠJa ipur
ĠProm otion
3 8
E ducation
O U
R C
Ġh ole
ver ted
Ġv oid
cc a
ĠV aranasi
tern ally
Ġret rieve
Ġord in
Ġart istic
isc o
Ġhor iz
Ġhousehold s
Ġtong ues
Ġsyn chron
ĠStud ies
ĠTerrit ory
Ġloft y
ut ing
th al
Ġv ested
ĠE state
Ġag ro
ound ing
Ġinter course
Ġdiv isions
Ġ197 2
Ġsignific antly
Ġcapt ure
Ġarm ies
Ġbefall s
B usiness
R D
W A
m ity
m us
at al
ĠA ccess
Ġu l
ĠI r
ĠC y
ĠH ill
Ġ' ,
ĠL ocation
og rap
Ġacc ru
Ġdes erve
Ġgr ade
ĠPar is
Ġple asant
Ġhon est
Ġsens it
ĠWill iam
Ġpred omin
Ġconcent ration
ĠInte rest
rie ved
UG UR
Ġsupr amental
B en
C apital
M ount
N okia
W as
s is
Ġn ice
ĠC A
Ġpro long
ard ly
pt ic
Ġra nd
Ġdiffe red
Ġdeath s
Ġobs ervation
Ġneg lected
IV E
Ġcompar ison
Ġconven ient
r ame
w orld
in ema
Ġs ter
al ian
ar us
ing le
Ġd umb
Ġbe w
ro se
Ġl ion
ĠM ysore
ĠG race
us ha
Ġv ag
ac les
Ġad ul
ine a
Ġgood will
ĠSh ait
Ġinv itation
Ġchar itable
Ġmet ers
Ġshort cut
Te le
Ġnuc le
Ġdu pl
ĠINA UGUR
G reen
M OR
m and
Ġb ent
Ġin mates
Ġbe et
st ant
ĠG reek
Ġwho so
Ġk ids
Ġj unk
sel ess
ĠSt raight
pos ition
Ġrep utation
Ġmin im
istr ar
Al ong
ĠReg ulation
Ġassist ant
Ġpen is
Ġexc use
Ġlib eration
ĠBl ack
ĠCons umer
ĠPalest ine
ĠRev olution
ĠMen on
ĠKan pur
Ġadorn ed
Ġmeas ured
Ġmembr ane
ĠEnterpr ises
D L
S l
W omen
b ow
Ġs atellite
Ġre ception
Ġse iz
and um
ĠF ace
Ġform ulated
Ġ7 7
Ġsim ilit
ues e
Ġ195 1
Ġlay s
Ġabs ent
ĠCont ract
ĠNe xt
ĠTrans fer
ĠRoy al
Ġeval uation
E s
g ic
i eth
p read
Ġ â
er k
Ġf er
Ġm ature
Ġg erm
ri p
Ġle nd
Ġdis b
Ġen rich
Ġtrans ition
St atus
Ġaccept ing
à¥ ģ
Ġlog ical
ĠDes ktop
Ġmechan isms
Ġresc ue
Ġnarr ative
Ġrepos itory
C ur
m ay
t rue
Ġa ug
Ġfor ged
ĠS end
ĠC am
ĠT ruly
Ġrem un
Ġmin erals
Ġconf used
Ġhon ourable
Ġant icip
UR L
Des pite
Ne ither
Ġrenew able
Ġaccum ulated
ĠRab indranath
Ġmob il
sem ination
ĠKann ada
Ġvibr ant
Ġbutt ons
Ġvouchsaf ed
F ebruary
U M
Ġf ount
an z
Ġh oney
ĠH az
ĠB ul
ĠG ate
ru ption
Ġsc iences
form s
ĠSh akti
Ġtem por
Ġnational ism
wh ite
Ġexpl os
Ġweak er
ĠStand ard
zz le
Det ails
Ġmirac les
Ġhumili ating
P op
Ġc ad
ĠS idd
ĠC itiz
Ġst ro
ĠE qu
Ġcomp os
Ġjust ified
Ġprom oted
Ġinter cess
Ġinter cession
Ġ7 4
ĠRaj put
Ġmail box
Ġ198 5
Ġscient ist
ĠNot ification
Ġveget ation
ĠBhag at
Ġmist akes
ĠPalestin ians
Ġcoord inate
ĠSikh s
unc iation
Togg le
Ġrand om
B ad
M ax
Ġs tern
Ġp y
se cut
ĠM A
Ġor thodox
ĠP erm
ri um
pe x
ĠW OR
ĠN ight
Ġdis ability
In come
ade vi
Ġfo nd
ĠPr at
You ng
Ġ8 85
Ġens ured
Ġorigin ated
Ġfort un
ĠRem ember
aling a
ĠKal am
Ġfrequ ency
ĠNob el
ĠRev iew
Ġnomin ated
K ir
N S
Ġb on
ot ee
ol ita
Ġnot ifications
ĠG RE
ust ain
Ġtr ick
ĠO p
Ġprov inces
ple ted
Ġwhere fore
Ġra ins
Ġevery day
Ġpur ified
Ġpresent ly
ĠCon f
Ġsuccess ors
Ġreport ing
Ġintellig ent
Pre par
Ġprivile ges
ĠCult ural
Ġentertain ment
Ġcoc onut
ĠNic obar
S ha
Ġs aints
it age
st art
Ġfor s
ĠS ession
ra ge
Ġse aled
Ġpl ural
ĠHe arer
ĠU K
ang ular
hen na
Ġgu iding
Ġmon soon
ĠDe cc
Ġpar able
Ġreve als
Ġexpress ions
Ġ195 2
pro ofs
Ġpra ises
Ġfavour ite
Ġargu ed
Ġlimit ations
Ġadvant ages
ĠAmb assador
Ġtend ency
Ġneighbour ing
Ġmonu ments
b ank
i ah
u ced
Ġ ,
Ġn inet
Ġg ifts
em ale
Ġr at
Ġr anging
Ġch ains
au nt
He ll
Ġcl othing
ĠSh ankar
Ġprev ailing
rop ical
Ġbenef iciaries
Ġlight s
lo om
Ġz oom
reg ular
ĠPur i
Ġaccomp any
sm all
Ġlect ures
Ġgrat itude
Ġnegoti ations
an qu
Ġm ah
Ġhe ars
ĠB agh
ĠG ar
ĠG as
ĠR A
ag ger
Ġman if
Ġmod es
Ġmis fortune
Ġfrequ ent
ĠAD DRESS
Ġfulfil ment
ĠGand h
Ġbuff er
Ġabandon ed
ĠChal uk
B uild
P osition
T erm
d eeds
e h
w ari
Ġin quiry
op er
ĠD igital
ĠT H
Ġr ay
ĠE r
ĠJ ordan
Ġbel oved
Ġequ itable
Ġmin istry
Ġhere by
Ġcor p
Ġhead quarters
Ġtrad ers
Ġcharacter ized
Ġ* .
bl ack
Ġmechan ical
Ġshr ines
Ġcoast al
oult ry
W est
d est
r ind
z il
in ions
in ety
Ġex empt
ĠK itt
Ġob e
Ġpres ervation
ĠBh av
ĠUn iverse
Ġbusiness es
Ġmind ed
Ġconsist ent
Ġquant ities
Ġmagn etic
Ġsurpr ised
ĠInf rastructure
Ġafford able
Ġscen ario
Ġexpos ure
: âĢĶ
D R
P AT
S ir
T w
an mar
Ġl ump
Ġl ux
ad itional
ĠP oll
Ġr ises
act or
Ġtra ce
Ġmod erate
Ġcap ac
Ġfil ing
Ġgra ves
Ġallow ing
En c
Ġparticip ating
adu ate
Ġsubst ances
Comm on
ĠProgr am
ĠSystem s
Ġsev enty
Ġ885 9
3 9
j oy
j una
l ib
at able
Ġc her
Ġc ure
ĠP all
ĠB and
ĠB udget
Ġam bit
Ġsub tle
ploy ed
Ġdri ving
Ġgovern ed
Ġemp owered
Ġhor izontal
iter ate
Ġconce ived
ĠLaw s
Ġrecon cil
Ġdiscl ose
ĠJer usalem
F ort
b ound
i at
k i
k ed
Ġt iger
Ġin ferior
Ġh ospitals
ill y
ud a
ĠK i
Ġrel iable
ater nity
Ġgreat ness
ĠPr int
Ġbu ying
Ġdev ils
ĠEurope ans
ĠPh il
Ġtransl ations
Ġexerc ised
Ġcontro lling
Ġdece ive
Fin ally
Ġconfirm ation
Ġsubt ract
Fore ign
ĠCast es
E ast
P ack
c am
l ad
t ra
Ġo ceans
Ġc od
Ġf ur
ic ine
ad hy
Ġsu ng
op en
ud s
ĠV ict
ĠCh ancell
aw a
Ġlo ving
aim ed
Ġmo ist
Re al
Am ount
Ġbound aries
ĠDirector ate
ĠWork s
Ġcross ing
Ġalle ged
' :
7 0
L ong
s n
Ġw et
Ġn ic
se min
ĠS af
ĠM ore
ul ph
Ġst ressed
Ġwas t
ĠL ake
ud i
ast ra
ĠJ unk
ocu ments
Ġtop ics
Ġproceed ed
App ly
Ġcross ed
Ġspect rum
Ġacknow ledged
ĠTerrit ories
Ġdomin ant
ĠArun achal
ĠVIS IT
A ng
v als
Ġh ol
Ġwh is
ly mp
ĠS olar
ĠM obile
ĠR ich
ĠR adhakrishnan
Ġcl ock
Ġworld wide
Ġed ition
pr int
Ġmon etary
Ġsm art
esh war
Ġ9 5
erc ul
Ġru ined
Ġstri king
bl is
Ġlik es
Ġacknow ledge
Ġthor oughly
Ġcaut ious
C s
J uly
J ohn
P A
S M
V AN
d h
Ġc ows
Ġin herent
om ination
ĠS E
ĠC ert
ĠG DP
iv ities
os ph
Ġr ide
Ġj ack
Ġj ute
ade qu
ass ing
Ġem otions
Ġrem oving
Ġob jection
Ġrep ayment
Ġche ap
Ġappro ached
ĠIND IAN
ĠSub hash
Ġcrit ics
Ġrecommend ation
Ġreflect s
Ġdescrib ing
Ġpublish ing
Ġmagaz ine
P ress
Q U
S ri
h im
w ah
Ġt um
ĠC R
ess ed
Ġsh ifted
ĠR ang
Ġk h
ud ev
Ġend uring
Ġins ult
Ġcor ners
ĠYou th
Ġstat istics
Could n
Ġ197 3
Ġdi abetes
ĠCO VID
Ġwalk ed
Ġdign itaries
ĠInstitut es
ĠConstitu ent
R ad
c ise
l ator
p ic
it les
or age
Ġc rack
Ġsh ops
iv ided
ĠR ani
ind ra
ru pted
ach h
Ġsc ales
arn a
Ġgl ob
ict ions
Pro gram
Ġ7 9
Ġbas ically
Ġ196 3
Ġmeaning ful
Ġjoin ing
Ġburd ens
Ġneck s
Ġhom age
ĠChh attisgarh
Spec ify
P ersonal
S ocial
Ġs oph
Ġhe ir
Ġas cend
ĠM ight
ĠB I
ist ical
Ġsh o
Ġv ice
Ġpe as
Ġsome where
arm ed
Ġadd s
Ġtra ct
Ġcontin ent
ged y
Ġmar ble
Ġrev ival
Ġenc oding
anch i
Ġsubs criber
Ġincl usion
Gu j
Ġrare ly
ĠSuch arita
ĠPre ferences
Ġaccompl ished
Ġclust ers
Cop ying
7 5
O per
p ost
Ġt act
Ġd ances
ro ots
ĠM izoram
ĠD warkanath
ĠR en
ac cept
Ġr anges
Ġwor n
old ers
ric ity
Ġinst ant
Ġsupp lies
With in
Ġcollect ing
Follow ing
Ġamid st
% )
R ename
e very
h igh
Ġa pt
Ġo wing
an anda
Ġg h
am ount
ĠI ts
Ġst ip
ĠD urga
Ġman ip
iz ational
Ġte nds
Ġsp aces
Ġdec ent
Ġ7 2
Ġann um
Ġconcept ion
Ġdevotion al
Ġji had
Ġinfl ation
Ġexhib ition
ĠVij ay
" ;
H I
f ront
Ġa we
ou thern
Ġp ush
ic ating
Ġl ips
Ġas under
ĠB uilding
os ystem
ĠN aw
Ġrel ax
Ġreg ulatory
Ġprev ail
Ġ6 8
Ġdirect ors
Ġlight ning
Ġassoci ations
Ġ198 4
Ġhar ness
Ġund oubtedly
Hind u
Ġinterv ention
ĠBhag av
Ġorient ation
ĠGold en
E qu
Ġt orn
it o
ĠP oint
ul c
th rop
ĠD NA
Ġcl auses
Ġdisc retion
Ġwom bs
Ġpartic les
io xide
Ġconsider ably
ĠAss istance
Ġut er
OR E
Ġprop ri
rid ay
ĠFr ame
Ġbur nt
Back ground
Ġdisobey ed
ĠTechn ical
Ġenvis aged
E B
M a
s um
Ġc ogn
Ġf are
ĠP etroleum
ĠH o
Ġse ct
th rough
ĠO il
ap able
Ġfore head
Ġ8 6
Ġtem plate
Ġtre asures
Ġnational ist
Ġhy per
pro f
Ġmanufact ured
ĠEm ail
ĠVed a
Ġamend ments
Ġleaf let
ĠTri pura
Jan uary
Ġcust ody
P rior
m ult
ar ct
Ġg reed
ĠP O
ĠN orthern
ĠV ers
Ġshould ers
Ġqu e
Ġoff ences
aw s
Ġ5 2
Ġsystem atic
up s
Ġce ment
Ġide ology
ier ce
atch ing
acher s
Ġbreak s
Ġmedic inal
Ġearn ings
Ġstrateg ies
asw ati
icha el
J une
Ġt ang
Ġl in
ĠM IN
ĠN odal
ĠO riya
ond ition
li ant
Ġ4 1
Ġ199 4
Ġdeterm ines
ĠPart nership
Ġaccord ed
Ġge nder
ĠSan ct
Up date
Ġdelight ed
Ġancest ors
ĠDecc an
J oseph
i ety
v ent
w hether
Ġt ired
Ġp ests
th ood
el ine
Ġdis advant
row th
Ġdec re
Wh ite
ex p
AN T
OR T
Ġpopular ity
Ġcolle ctions
Ġearn est
Ġdistingu ish
Ġdim ensions
Ġwrongdo ing
ĠNag aland
Ġprohib ited
Ġconflic ts
b acco
k ay
r ator
in ence
Ġn odal
ra ined
Ġcon form
ort ion
ĠF ROM
ip le
Ġsa il
Ġup l
Ġint ensive
Ġden se
Ġpar se
ma el
Ġstat ue
Ġ196 2
Ġhost ile
Ġstay ing
Ġintrodu ce
Ġste ep
rim inal
ĠMem orial
Ġupd ates
Ġgriev ance
Ġsick ness
ĠTurk ish
Ġstret ch
ĠShait an
T ask
Ġa uction
Ġm amm
ad ra
Ġcon ject
us ions
ĠL anguages
Ġk i
ĠInd ex
oc us
Ġres urrection
Ġunder lying
ĠUn believers
Ġtra ins
ides pread
Ġimp ose
Ġmed ieval
Ġver ify
idd ing
Ġbre ach
Ġdeb ts
do ers
sy stem
ĠCorpor ate
ĠHam as
Mem bers
fortun ate
Ġrhyth m
A rab
C ount
G ov
Ġo vers
Ġre habilitation
ĠI dent
âĢ ĵ
ĠG ir
Ġex empl
ĠL ut
Ġdis regard
Ġsc rut
Ġret ained
Ġsent iments
ĠEx press
No ah
Ġz eal
Ġopp ose
Ġpow der
Ġwid ow
Ġemb ry
Ġund ivided
Ġwild life
Writ ing
ĠHer itage
Inte rest
Ak bar
Ġresear chers
Ġcontrovers y
Ġbrill iant
feren cing
M oh
c re
c ase
l antic
Ġc aves
Ġth roat
id ance
Ġg un
ĠS av
Ġal cohol
ry ing
Ġbr id
Ġ9 2
Un ion
IN K
Ġcr ash
udd en
Ġshort age
sw er
Ġpress ing
Ġrelationship s
Ġdepart ure
Ġlik ed
Ġdipl om
Ġimpress ive
Ear lier
Ġautonom ous
Ġspons ored
Creat ing
Ġmanuscript s
ishe ries
w ad
he ast
Ġa qu
in ts
Ġcon fer
Ġse nder
Ġse cts
ĠB adruddin
Ġsh irt
ĠT rue
ag g
Ġsub ordinate
ite ment
Ġem ig
Ġgr id
ĠAb hi
Ġcred ential
Ġsens es
Ġbi ological
Lo ad
asa heb
Ġhusband s
ĠFr ont
Ġmagn ificent
ĠIP v
edd ing
Ġnurs ing
Autom atically
Ġcav ity
ĠKitt ur
T ruly
n als
Ð º
it ic
al im
ll ers
ĠM auritius
Ġha ven
Ġex pelled
ah i
un ath
ĠO ri
ĠJ ournal
urn a
Ġprov ider
à¤ Ł
Ġatt ributes
ĠAnd aman
Ġexp ensive
Ġser pent
Ġdev otee
Ġsk ins
Ġjud ged
Ġrev ive
ĠBank ing
ĠComp uter
Ġbra nd
ĠSah itya
Ġcance led
ĠPo et
V ol
V ery
i ro
Ġb ot
Ġh ub
Ġbe ware
ĠM ain
ri el
all abh
qu iet
Ġsp here
Ġret ail
pend iture
Ġimp ressed
Ġheav ily
Ġ8 00
Ġmeet s
gen us
Ġgovern ing
Ġqual ified
ĠCons ult
ĠGl ory
Ġrej o
Prev ious
Ġarbit ration
Ġlabor atories
N ormal
b our
b har
Â °
Ã ¡
Ġw are
Ġc raft
Ġm urd
Ġd ancing
as im
Ġon going
ĠS enior
ab il
ĠB et
ĠD efault
Ġj ung
Ġcons iders
Ġprodu cer
Ġcertain ty
Pro te
rec ogn
irt ual
Ġcontract s
Ġrespond ed
ĠGe henna
oj ini
ĠOb ject
Ġhind i
Ġcondem n
ĠJh arkhand
Ġvulner able
Ġrecomp ensed
F und
K al
T om
a q
h or
or ia
Ġin ward
ac ent
ĠL ear
Ġch ick
ĠE ach
Ġcomm ittees
ĠV illage
the se
Ġ5 8
Ġ5 9
Ġequ ipped
ffic iency
Ġpat ent
Ġtre nds
Ġpract ised
Ġstri kes
Ġjour nals
je ctions
ĠPers ons
Ġcoord ination
Ġisol ated
ĠConfig uration
Ġsme ll
Ġcapac ities
w ind
Ġc abinet
Ġd ying
Ġe co
Ġre verse
ĠS RI
ore st
ĠF our
Ġunder go
ĠCh urch
Ġra j
Ġback up
Ġgr ammar
Ġinf ect
Ġdef iciency
Ġdra in
Ġliter ally
ĠCo operative
Ġneighb ours
ARD S
Ġnut ri
Ġ185 7
Ġbell ies
pay ee
Ġsubsidi ary
C or
H and
L a
M ad
S ort
f earing
v ii
im et
ĠS om
od ied
ĠC are
Ġst ir
op ard
ĠT ake
per ial
Ġbl ast
Ġrep ro
Ġir re
ĠRel igion
Ġlock ed
ĠPanchay at
ĠFed eration
Ġlabou rers
O UR
o ins
er ated
Ġbe asts
ĠA ge
am as
ĠP acific
Ġ' {
ĠF ig
ass ment
Ġrespect ed
ĠX ML
Ġspeed y
Ġtrack s
Ġ190 8
ĠSal at
Ġprejud ice
4 6
S a
T HE
W ise
b les
Ġd ictionary
et ch
ĠM all
Ġde er
ĠD esh
Ġr ough
Ġdis posed
ap u
ade va
Ġour s
Ġsc ore
Ġfl ame
Ġavail ed
Ġclear ance
cell aneous
Ġ197 5
Ġtou ching
Ġaffect ing
Ġ24 5
draw al
ĠInte grated
ercul osis
T y
b ad
n ar
w ear
Ġ Ġ
Ġh ollow
ad ha
orm ally
ang o
Ġsm ile
Aut hentication
Ġfed eral
Wind ow
Ġje wellery
A pril
V ertical
c omes
Ġw idespread
Ġl ivestock
ĠA P
Ġcom pelled
Ġacc ur
Ġdes irable
Ġatt raction
Ġ5 3
Ġconf ront
Ġfore most
Ġsl aughter
Ġbound ary
Ġrupe e
PC L
Ġcomfort able
ĠElect ronics
ĠCor ona
Ġgradu ate
ĠProcess ing
Ġs ar
on ed
it ations
ĠA IR
Ġex alt
He alth
Ġqu ote
Ġcent ers
elie f
Ġed ges
Ġforg ives
Ġfast ing
AS S
Ġtele commun
Ġobey ed
ĠRem ove
Ġincl ined
Me an
Ġmort gage
Ġmir ror
ĠCommun ity
Ġpsych ological
ĠGand har
Ġscen es
Del hi
ĠAch arya
Ġmisle ad
B M
B ritish
P ur
Ġf an
Ġp a
am ple
ĠH ot
ĠH ospital
ĠT at
ĠW itness
Ġres ervation
Ġrec ruitment
Ġcons erv
Ġaff irm
uss ion
ali h
Ġvi able
Ġvari ations
Ġ197 7
Ġapply ing
oll en
Ġlabor atory
Ġnutrit ion
ĠChamp ions
, .
T est
y ers
Ġd ioxide
Ġnot withstanding
ab ul
av ati
Ġper mits
pl ed
ert il
ced ented
Ġtra gedy
Ġask s
Ġce iling
Ġtax ation
ĠDirect ory
Ġexpect s
Ġ193 9
ATION S
miss ible
Min ister
Ġwin ners
Ġic ons
Ġrob ust
Ġmirac le
Ġcomplim ent
ĠVen k
I gn
O I
u gh
Ġo l
re ach
is er
Ġb inary
st al
ĠS OC
Ġus ername
Ġcount ed
Ġval ued
Ġins pir
Ġsur plus
Ġdev our
ID S
Ġclass ification
epend ent
ĠRe venue
Ġ195 5
Ġer ad
Ġeat en
Ġir rit
ĠSw ed
Ġà¤ ª
Ġwarm ing
Ġstruct ural
ĠGov ind
ECT ED
Ġbreath ing
Ġentrepreneur ship
Ġanx ious
R a
b ird
h o
Ġf ounder
Ġn it
ĠM aul
if ully
ĠInd ones
Ġen velop
Ġen mity
ĠV A
Ġsp ots
Ġtrans cend
Ġph rase
Ġlo ver
for ced
Re place
ke ys
Ġexpect ations
Every one
cast ing
Bl ack
Ġsubstant ially
ĠBrahm ins
ĠHT TP
Ġsanct um
Ġunbelie f
Ġcomprom ise
Ġsuspend ed
S an
U r
W estern
he res
in ates
Ġm ask
Ġy oga
Ġ- %
ch a
ra pped
ri x
Ġcon qu
ary n
other s
Ġfl oral
Ġfin est
Ġdet ected
Ġpublic ity
bs olute
Ġview ed
ex c
Ġever lasting
duc ational
Ġsleep ing
Ġimpl ications
Ġpreced ed
ffect ive
pre cedented
Ġwal ks
S ervice
T aste
l ings
l ves
u j
Ġ ii
Ġs perm
Ġc ant
il st
il ated
ol u
if ference
ĠH IV
ĠG ames
Ġv oices
un ning
oc ity
Ġch ol
Ġch ap
Ġcomp act
so le
ced e
Ġwrit able
Ġpass enger
Ġconc lude
Ġcur t
Ġsl ip
ĠFor ward
br id
ĠIt aly
hold ing
ĠOn line
Ġcy l
Ġfra ud
cont in
ĠGh osh
Ġstead y
Ġcru el
Ġmanufacture rs
Ġrecon struction
urse ment
Ġvary ing
ĠVaishn ava
Ġdelic ate
ĠCommon wealth
ĠAdvis ory
Appe als
rits ar
poly theists
B ang
F ood
b oth
c ence
m ble
v y
ent ures
Ġl iver
ĠS EL
ment al
ill ary
th y
ĠAll owance
ok h
ĠSt ar
Ġass ault
ple tion
Ġac res
Ġprodu cers
Ġinte nds
Ġinf ant
Ġhold ers
Ġ194 2
Ġpress ed
ĠPol it
Us ed
Ġlegisl ature
Ġfurn iture
Ġreview ed
Ġborrow ed
Form at
Bas ic
Ġkne es
bab u
l isher
m aster
u ctions
u ja
Ġp ound
ĠS on
ĠS rin
ĠM API
ĠG opal
iv able
Ġsp ont
ric s
Ġtrans mit
ĠYou Tube
Ch and
ĠAr med
Ġissu ing
Ġpost p
Ġport al
Ġair port
ĠSche mes
Ġchalleng ed
Ġcam els
Ġcultiv ated
Gl obal
rie ving
High light
Ġencry pted
Ġdipl omatic
Ġcas ual
Ġalph abet
" )
C irc
P erson
S ol
b ath
f aces
Ġt icket
Ġw ars
al as
as agar
Ġn a
Ġg ang
ĠM ajor
ab ar
Ġwas n
Ġv otes
ĠN uh
Ġal ert
ine es
Ġprov iders
ĠY og
ĠBh att
ploy ees
Ġsol ved
Ġur ine
Ġrele vance
Ġstra it
Ġà¤ ķ
Ġattempt ed
Ġbra ck
Address ing
Ġencry ption
Ġirres pective
T or
b ased
f olk
re th
Ġl ag
id as
ĠP ART
est one
Ġcomp ound
Ġres erv
ĠSh ort
Ġheart ed
Ġref lection
Ġmed itation
Ġsuccess or
Ġmar ine
Ġ12 0
Ġpain ted
ĠHigh ness
II I
omet ry
Ġpassword s
Ġrefuge es
Ġhospital ity
Ġsurv ival
Prev iew
ĠProper ty
ĠEver lasting
E A
J esus
S anskrit
V er
p age
Ġo v
it zer
al ter
ar b
ro lled
Ġon wards
ra isal
ĠC hem
ĠSt aff
less ed
ffic ial
Ġstr ayed
Ġfav oured
Ġvers ions
Ġcommit ting
Ġhar sh
sec ond
Ġfacilit ating
Ġimper ative
reprene ur
Gu idelines
Ġcorrespond ence
ĠSocial ist
Ġsurpr ising
Ġcos mic
ĠGRE ET
C ut
R Is
f ile
Ġh ier
ĠA L
ĠD a
ie ce
ĠF DI
Ġun fortunate
Ġout s
reat ment
oth s
Ġland lord
Ġdisbelie ving
ID BI
Ġ9 7
ĠSing apore
Ġsw im
Ġmis deeds
Ġconsum e
ĠTO MOR
Ġguard ed
Spe ech
fl ammation
Comm ittee
ĠTra ck
ĠIns pector
ĠForm at
ĠPanchay ats
Ġfool ish
ĠVaj payee
ĠTOMOR ROW
at ible
ĠG ive
ĠT y
ĠT wo
Ġ5 7
Ġser vers
Ġben ch
Ġprof essor
Ġstr ay
Ġsupp ose
ĠMy anmar
Con nection
Ġelect ronics
Ġimm ortal
UR E
Ġpra ised
Ġpill ar
Ġsurre ndered
ĠAdministr ative
Ġproclaim ed
Ġclust er
Ġstrict ly
Ġwat ched
Ġresur rected
ĠYam una
d ar
e an
} %
Ġb atch
Ġto bacco
ro id
ĠB ody
em on
ĠD utt
ĠT ilak
Ġinc oming
rit ion
Ġce re
Ġ8 8
ĠAr ts
Ġfav ourable
ĠPl ant
Ġdocument ation
Ġindic ating
equ al
Ġteam s
Ġpursu ance
UN T
HT RA
Ac cept
Writ e
Ġcondol ences
Wel come
Ġadvers ity
Ġlingu istic
5 5
t able
Ġ vel
Ġf art
Ġre wards
Ġg al
if th
Ġwe bs
Ġr ites
ip ation
Ġdis abilities
Ġim b
arm an
ĠDe b
Ġevil s
Ġlim itation
Ġpract ically
Ġaut o
urs or
Ġsatisf actory
Ġprior ities
ĠRec ord
aksh a
ĠSpe ech
Ġconstruct ive
Su ccess
Ġsanct uary
ĠPen alty
Ġgall ery
Ġdisappe ar
Ġaggress ion
Ġpron ounced
ĠSem inar
Ġvit amin
Ġswall ow
Ġhung ry
E mp
F F
O K
P N
c or
c ience
i atic
j id
w est
Ġt ie
ing e
Ġd airy
Ġe ighth
ad as
ĠI mp
ul er
Ġse gments
Ġsh ore
Ġsh oes
Ġwas h
iv ate
ĠT w
ĠL ook
Ġle an
Ġdis l
Ġab use
ult ure
Ġun n
ber t
Ġact ors
Ġsign als
Ġexp ired
Ġfound ations
Ġdef ine
Ġ6 7
Ġ8 7
Ġappe als
oin ing
Ġopp ressed
Ġsuper vision
Ġconfig ure
Ġconfig ured
Ġutil ization
Ġfill ing
Ġbab ies
Ġgrass roots
odh ya
ĠNav y
Ġabsor bed
OV ERN
Ġadmin istered
Ġdeduct ed
ĠPortug uese
D ay
R oy
b el
g reat
l ah
is dom
Ġin e
Ġd ensity
ĠM uk
ĠC E
Ġst yles
Ġne ut
ĠK rish
Ġun precedented
Ġass urance
ari um
Ġhere in
Ġlaw yer
Ġport ray
ĠAh mad
Ġlad en
umer able
Ġfabric ated
Av ailable
Ġkid ney
ĠNG Os
G E
L anguage
h ard
m is
ay at
ĠC limate
ĠG en
ain e
ĠW ikipedia
ĠF ather
Ġco at
end ars
ĠSh u
igh ters
Ġinter ven
Ġint r
Ġden iers
Ġcirc ulation
Ġelect oral
Ġ198 1
Pl ugin
ĠRec overy
Ġstor ing
Ġbow l
Par liament
ĠProgramm es
EM B
Ġrecall ed
ĠConv ocation
Ġsor ry
ĠVerm a
Ġpag ans
A IN
C ost
c ery
Ġa vert
as er
le ys
Ġn our
ĠS M
Ġhe irs
ĠM asters
op ter
un ctions
We ather
Ġdec rease
Ġinst ances
Ġgr an
An s
ict ure
AT ED
umb ent
com pl
Ġsimilar ly
Ġemer gence
Ġpoll ut
Ġgreet ed
Ġcou ches
ĠBab a
Ġunc ertain
Ġadjust ment
Ġdismiss ed
Ġadm ire
Ġworksh ops
F R
J ap
J oint
S un
V arious
l eness
Ġin adequ
Ġre jection
ĠR oman
ĠT aur
ĠE mer
Ġpl un
Ġun av
ang z
Ġro les
Ġturn over
Ġ6 9
Ġple ad
Ġassist ed
Ġimprove ments
Ġadvance ment
OL D
Ġremark s
Ġperfect ly
Ġunf air
Ġfault s
Ġrecip ient
Ġec osystem
Ġaccompl ish
Ġlarva e
C ong
D om
b en
f in
k ha
ar shan
Ġl osing
ĠS qu
ĠP aper
Ġsu icide
ĠB elieve
Ġsh ar
ĠL ike
ĠK isan
Ġman go
ĠJ oshi
Ġsp o
ons cious
ĠTh ir
Ġrep aid
Ġeconom ically
Ġ7 8
Ġdest ined
Un fortunately
Ġri val
Ġbre eds
Ġtext ile
Ġmis ery
Ġsyn c
Ġupgr adation
Ġabst ract
Ġremed y
happ y
M umbai
S I
S olar
S PEECH
it ious
Ġn emat
Ġu mb
ĠM any
ĠP ack
ĠH em
ĠB E
ĠB irth
Ġex emption
ĠR ate
ĠL abor
Ġen ric
rit ical
ble m
Ġgener ic
Ġadv oc
Ġlist ened
Ġsl ot
Ġden ying
Ġgod fearing
Ġpen it
ĠIm m
Ġsecret ary
Ġmeasure ment
ĠCommun ication
Ġeth nic
Ġapparent ly
Bhar at
Ġcompos itions
c ro
h in
r ified
Ġt enth
Ġto ile
Ġre he
ĠP reet
ter ior
Ġk ms
Ġcan al
are th
ĠJ ubilee
ĠSh all
Ġgu est
ĠBh opal
Ġinter ference
lim ited
Ġint ens
Ġadv enture
Ġadv ocate
Ġce ased
ER T
Ġfour teen
Ġsuccess ive
Ġinflu ences
ĠLo an
ĠAdd itional
Ġweek ly
Ġmilit ant
Per iod
Ġtransgress ion
Ġneighbour hood
Ġamalgam ation
Ġflex ible
Ġconspir acy
C y
K ing
b rew
Ġp ulses
od der
Ġcon secut
ĠD R
ĠT oday
ĠN and
ĠF ran
ĠF ilm
ĠK u
ik etan
Ġwhere by
Ġrep ay
Ġbook mark
Ġauthor ized
Ġdest ro
Ġsocial ism
ĠAss amese
Ġve il
Ġ194 5
Ġacqu iring
Ġgen e
ĠCo ast
ĠAm ritsar
Ġgreet ing
Comm un
Ġsell er
Ġdisappe ared
ĠBI HAR
4 3
E AR
U ST
p ers
Ì Ī
Ġb eds
Ġb ureau
Ġl ift
Ġg rey
ce nding
ĠC ause
ĠP RA
Ġsh alt
ĠD ur
Ġtr unk
Ġup set
ru p
Ġsp are
gr ade
not e
ĠCent ury
Ġop inions
Ġcr imes
Ġinstitut ed
Ġid le
Ġmoment um
Ġthreat s
ĠSet tlement
Ev ent
ĠEnvironment al
ĠDem ocratic
Dev ice
Ġmyst ic
ĠCirc ular
Ġannounce ment
Ġpear ls
Pun jab
Ġbatter y
Ġdenomin ator
Ġglob ally
L arge
P aste
S C
e rer
p ace
w art
Ġh ang
ĠM ill
ĠH it
ĠK aly
Ġun will
Ġ7 00
Ġvar ies
Ġsupp orters
bar r
Ġident ical
ĠReg istrar
Te chn
ĠChand igarh
Ad just
Ġcollect ively
ĠSar aswati
Ġprospect s
Ġfib re
Ġmole c
Ġlegit imate
P oly
Ġt ort
he e
as ha
Ġl akes
ĠS P
ol ia
ĠB ox
ĠB road
ag an
ĠO lymp
ove re
Ġsome how
ond itions
Ġro oted
Ġatt ributed
Ġhand led
Ġaccount ability
Ġinf ected
Ġpublic ly
Ġdifferent ly
ER V
ĠPl ay
istic ated
Ġexc uses
Ġcopy right
Ġcamp us
amet er
Up on
Ġsam ple
olit ical
Ġwa ist
Ġencomp asses
ĠMicro soft
Ġkilomet res
Ġpharm aceut
Ġpeas ants
B rah
D C
E conomic
b one
an agari
ar ama
Ġm ol
ĠC ave
Ġse lves
op ia
op athy
Ġco ffee
Ġsp ices
Ġsp ouses
Ġform ally
up a
ari ah
Ġprev ents
ĠTr ash
ĠAb u
Ġill um
Ġ196 5
Ġtou ches
Ġinnov ators
Ġtar ried
Ġ193 8
ĠMon itoring
Act ive
Ġcook ed
Ġdemonstr ated
ĠGaz a
Ġsor ce
Ġmun icipal
Ġdro pped
b earing
h ind
Ġt une
nd ranath
Ġp itch
Ġd ried
ĠS ul
Ġnot ify
ist ani
av al
now ned
ine e
Ġam en
ĠV arma
Ġsent iment
Ġexcept ional
Ġann oy
unt u
Ġhy mn
Ġoccur ring
ĠBl ock
Ġconce aled
Ġdial ect
Le ft
Ġreb el
Ġdiscl osed
Ġrot ation
ĠJinn ah
ĠGREET INGS
M o
N ar
T itle
e or
m aking
Ġs add
Ġf ame
as th
Ġon eness
ill ic
ĠP ot
Ġsu ms
Ġv ivid
ust er
ib an
Ġag itation
He ad
to o
Ġar row
ĠV ar
Ġsp ray
ne g
ph a
Ġfir ms
uc lear
ug g
Ġpolit icians
Ġrev olt
Ġlove ly
Ġmater nal
Ġz ones
Ġten ure
Ġ197 8
Ġmanifest ation
chand ise
Ġkil ogram
Current ly
Ġelim inate
Ġsacrific es
Ġdepic ts
èĳī he
ĠVers es
R ather
d ed
g ive
t k
Â ł
Ġh ut
as ury
Ġth r
Ġn aked
Ġwh oles
ay ya
et ime
ol er
Ġpro curement
Ġat om
ĠK B
Ġper ipher
ens ing
Ġover took
ĠSh a
Ġbas k
Ġmet aph
resent ation
with out
Ġdeal er
Ġconv ocation
ĠBoard s
Ġneg l
ĠCO ND
Ġbox es
Ġgar b
Ġsev enth
ĠPrev ious
Ġsusp ic
9 6
G L
L ear
M ahar
n ational
s il
u i
Ñ ĭ
re ls
Ġp etroleum
ing ing
Ġch ronic
ĠV I
ĠV in
Ġrem itt
ull a
ars i
Ġcur ve
Ġcommun icate
Ġoper ated
Ġple asing
De bug
Ġphys ically
Ġdrink s
Ġexc luded
ĠArab ian
Ġvict orious
Ġcontribut ing
Ġsafe ly
Ġtradition ally
Ġinher ited
May be
Ġeth ical
ĠMag istrate
ĠSee ing
ĠMSME s
Ġwand ering
ĠHindust ani
Ġcredential s
Mean while
ĠTaur at
S ah
g ies
j j
k ara
m outh
is ers
ed ic
ig m
ol io
ĠM ont
Ġan ch
ab i
ĠR ain
ĠT itle
Ġr iding
Ġdis semin
Th ou
Ġsp ouse
Ġpo nder
Ġinst al
Ġgr asp
Ġins isted
cl usion
gg ing
Ġden ies
Ġreal ization
be k
lo qu
Ġacqu ainted
Ġ193 5
ell igence
Ġattach ments
Ġmos ques
Ġdoct rine
S ch
o i
v ia
Ġ iv
Ġt ension
at isf
Ġth umb
Ġg ases
ĠC lean
ist ent
ĠR TI
ĠT un
ord ination
Ġpe asant
Ġcomp iled
og l
Ġrel ent
Ġpr one
Ġhum our
Ġimp etus
Ġpar ad
Ġmar vel
Ġcomput ation
Ġperform s
Ġann ually
ke ep
Ġmand ate
Ġmand ap
Ġcy cl
writ ing
Ġpull ed
Ġtow er
Ġmathem atics
Ġunus ual
H ard
P ak
s im
w ary
y ed
Ġo w
ĠD har
ĠD AC
un ct
ĠInd ra
Ġtr anqu
ip se
Ġinc orrect
sh all
Ġdec ides
Ġjust ly
ys ics
Ġlo vers
Ġdet ection
ĠEx p
az ed
Ġpri ests
Ġlay ers
umn i
Ġyouth s
Ġtri p
rel ated
ĠAud io
Ġsev ent
Ġhighlight ed
ĠPad ma
Ġorn ament
ĠGos pel
Stand ard
Ġkit chen
Ġpestic ides
Ġcurric ulum
C am
L and
M ir
d eb
t est
Ġa rose
er os
Ġp aste
Ġh ate
ro b
ĠS PEECH
ĠC at
ĠP DF
ĠN one
Ġdis d
Ġam azing
Ġind ication
Ġ19 20
lic ations
Ġpre ach
Ġqu arters
Ġart isans
Ġdev ised
ĠEx cise
por a
Ch rist
Ġpar adise
lu ence
Ġlaun ching
ĠPal ace
Ġpursu ing
Ġprem ier
ĠBrahm o
ĠRad io
Ġadorn ment
ecess ary
A sh
F ive
K ar
b hai
c ified
f riend
g ain
z es
Ð ¼
Ġc inema
Ġm asters
Ġwh ilst
ay out
ig ibility
ĠM B
ĠM ex
ul u
Ġsh ining
Ġv ow
ĠT re
Ġat e
ĠK eep
Ġag g
Ġcl ients
Ġbr ass
Ġgr am
Ġhum iliation
Ġclear ing
Ġsocial ist
Ġinvest or
Ġconst ru
Ġopp ression
Ġ193 1
Ġselect ing
Comp uter
Ġmagic ians
Su pp
Ġbur ied
Val ue
Ġfost er
ĠGandhar va
/ -
R en
w orm
Ġt itled
Ġf led
ĠM c
ĠC ounty
ĠN al
ĠN iz
Ġwor ried
Ġcomp ens
Ġcont empl
Ġ" .
ub ble
Ġar ight
Ġright ful
Ġra ge
Ġinv iting
An juta
Ġsm oking
ĠMah av
az i
Ġmult ilateral
Ġess ays
ĠSy ria
rain ts
ĠPh ilosop
head ed
ĠSu fficient
fl ow
ĠCons ervation
Ġpil ot
Start ing
ĠMark eting
Ġmock ed
Ġperce ived
Ġcho oses
Ġallot ment
Ġrestra int
Ġing red
occ up
Ġspont aneous
C yr
D B
H ost
H orizontal
K rishna
L D
L ine
L IC
N ob
n s
p an
u z
re a
it iveness
Ġc ough
Ġp el
Ġp oured
ay am
Ġst iff
ĠH ard
th s
Ġv en
ĠN othing
ĠWe ek
Ġ" "
ne ys
Ġdev out
Ġdep icted
ĠMan ual
Ġcreat ivity
Ġport ions
lu ent
app a
Pr imary
che ck
ober t
omet er
Res et
ĠCO MM
Ġchalleng ing
Ġpan els
ĠRel ations
ĠSan gh
Ġinterv als
ithm etic
Ġsovere ign
Gener ally
Ġhunt ing
ĠIM AP
Ġhect ares
Ġsimilit ude
Ġwebs ites
4 7
B urn
E k
S aving
c ane
in ous
in ath
Ġp anch
Ġl uminous
Ġhe m
Ġas leep
ĠM i
ri ors
Ġcom pe
ĠR ange
ĠT errorism
Ġch amp
Ġdec isive
Ġac re
ull ah
Ġmon op
Ġimp ug
Ġfound ing
ĠZ alim
aps ed
oe a
Ġburn ed
rav ag
Ġep id
onom y
Ġequip ments
ĠAre as
Prom pt
Tra ining
ĠVaishn av
Ġobserv ations
ĠDepos it
Ġpupp et
Adv anced
Ġafore time
Ġconcess ions
G C
G iven
K am
m ade
n umber
o ft
r ons
v ir
Ġw ool
as hes
Ġn ay
Ġe cho
Ġre vert
ro val
ĠS alih
ĠP ipes
ul ative
Ġpro gen
ĠG op
Ġr ating
ĠO bs
ast ing
Ġcl ub
fore st
Ġdevelop s
Ġmod est
ĠDe ath
Ġbeh ave
Ġdev oid
Ġappe aring
Ġ196 7
Ġswe lling
Ġveget able
hat kar
ĠProte ctor
trans lator
Ġrepeated ly
akk ah
Ġindec ency
wah ati
ĠSEL ECTED
itzer land
p ire
w ala
Ġc ars
Ġf ut
Ġp ars
Ġm uc
Ġl ymph
ĠS ports
ĠM rs
ĠP a
ĠP oss
Ġex ult
ĠD han
ĠD yn
ĠL atin
ĠF ont
Ġph ones
Ġconf ron
lim inary
ĠCon nect
ĠMess iah
Ġpar a
Ġmar itime
Ġbo ot
Ġpost ing
ĠIm plementation
Res earch
Ed itor
Ġdiss olution
.... ..
Ġdeliber ately
olit an
Ġment ality
Ġhtt ps
Off ice
Ġimmun ity
Ġloy al
ĠMegh alaya
Ġfre ight
ĠZalim un
A ction
A ustralia
P O
W idth
d irect
i ability
m iki
Ġa pex
Ġw ary
Ġw icket
Ġh int
ĠI V
ĠS and
Ġhe ap
Ġpro x
ĠG all
ĠD ictionary
Ġcomp ly
Ġres ist
Ġunder ground
Ġsc reens
Ġmod ifications
Ġland scape
ĠWh ich
Ġlight ing
Ġhard er
Ġsol ving
Ġ13 9
Ġcivil isation
Ġconsum ed
Ġdraw s
Ġcelebr ation
ĠSp ain
Ġappoint ments
Ġmagn itude
Ġcance lled
Ġobst ruct
ĠBel arus
Ġshap es
Ġprest ige
ĠNI OS
C II
P ers
f oot
p ot
u its
Ġt urb
he at
Ġw ander
Ġp oultry
ĠA R
ĠI blis
ah u
are t
ian a
ne um
Ġemploy ers
Ġoccasion ally
Ġmis erable
Ġhost ility
AY EE
mar ried
Su per
odh pur
Bh ag
Ġsor cery
ĠSecond ary
Ġrub ber
Ġresign ation
ĠKore a
Ġprolong ed
D i
T E
T K
r ide
Ã ¼
ent ive
ol ation
op es
Ġdis like
Ġem ission
ĠâĢľ {
ĠSh astri
Ġfl ash
ES CO
Ġ7 6
Ġspecial ized
Ġimag ined
Ġsn akes
Sw ami
Ġmaster y
ĠMary am
Send ing
Ext ract
ĠUT s
Ġpatri otism
JP AYEE
ĠVA JPAYEE
B rowse
c r
g one
h ana
k y
u ing
es is
Ġp ushed
Ġfor um
Ġwill ingly
ĠL eb
Ġr am
iz ard
urn ed
Ġsub miss
ert ained
Ġed iting
Ġval uation
Ġmon ks
ins ula
Ġprocess ion
Ġsl og
Ġ195 4
Ġgri e
ĠCouncil s
Ġdisplay ing
Ad ministr
Ġoffer ings
ĠFund s
abh uti
Ġgraph ics
Ġcompar atively
Ġconven ience
Ġbag s
Ġsurg ical
Ġadmin ister
Ġenlight ened
ĠIndones ia
F arm
G uru
H ast
P ass
h alf
p rodu
Ġo ct
Ġs en
Ġf iscal
Ġn as
Ġre vers
Ġl ifest
ĠC ricket
op l
our ge
Ġdis hon
Ġdis semination
Ġsa ith
ĠWe alth
Ġinc omp
Ġpo nd
sh r
à¤ ħ
ĠPr ayer
Ġread ily
ĠEx amination
Ġgovernment al
Ġver te
Ġdep ression
Ġdel ta
Ġmultip lication
Ġste am
rows er
Open ing
Ġborrow ing
ĠRet urn
Ġfashion ed
ĠBur ma
PRODUCT NAME
gi ene
Ġchromos omes
ĠAW ARDS
Ġholid ay
stablish ment
Ġremun eration
ĠChampions hip
ĠSPEECH ES
Cyr illic
3 00
C he
D G
F ER
L ot
g old
p ill
Ġt ent
Ġw ed
as ar
Ġy es
ot er
se ud
ĠR avana
ĠW isdom
un ar
ĠK um
Ġev olve
Ġpre y
Ġover look
Ġmy ster
gr amm
à¤ Ĺ
Ġorgan izing
Ġoper ator
work ing
Ġver ification
Ġ9 8
ĠAn ge
Ġguid eth
Ġcirc les
Ġdom inated
Ġplant ation
Ġsuper st
ĠIm perial
ĠPart icip
Ġir regular
Ġà¤ ¸
Ġemb edded
ĠProv incial
Ġexcl usion
Ġtab s
ĠMark et
Ġexplo ited
Ġattain ment
Ġpilgrim s
Ġlege nds
Ġridic ule
Ġordin arily
Ġhoriz on
H am
c ap
m m
n one
he w
Ġs ik
or ney
an am
Ġl aud
Ġan alys
ĠG U
em por
ĠO S
ost ic
Ġfe eds
à¤ ¶
Ġins cribed
Ġgl obe
ĠAn anda
ĠGu inea
ĠCol umn
Ġfeed back
rehens ion
Ġemphas ized
Ġfat al
Mod ern
ĠExt ension
Ġdread ful
ĠWild life
Ġaug ment
ĠSanct uary
B udd
D S
G en
H P
P R
U ttar
b untu
Ġt ale
Ġf ierce
Ġd ual
ĠG al
ĠR oom
ĠL in
Ġal ignment
Ġam ple
Ġinc arn
Ġreg ulated
Ġcle ared
Ġfin ish
Ġ8 1
ĠRaj endra
Ġtext iles
IL L
ĠHead er
Ġsole ly
Ġmig rated
Ġsincere ly
obi ography
PAT I
B rasero
E AN
F ac
H AN
m ankind
z bar
ow ards
Ġan alog
op ing
ĠB JP
Ġex pel
ĠF ear
ĠV as
ond a
Ġbr on
ick name
Ġproject ed
Ġmind ful
Ġexpl oration
Ġsal vation
Ġclean liness
Ġminor ities
ĠMa he
Ġpropag anda
ĠTib et
Ġscar ce
ĠUpanish ads
C isco
F ather
L ow
P an
y ar
Ġw it
Ġc odes
Ġd os
ĠS U
ĠH IS
ĠH ills
ĠT ree
ĠT asks
ĠE conom
ĠO h
ĠK ur
Ġapp ropri
form ance
Ġcons cience
ĠSh ar
Ġinv oked
Ġsign ing
Ġins cription
ĠTe a
Ġ9 6
Ġpop up
Ġbar riers
Ġvari ation
Ġpal aces
Ġeight y
acc ount
Ġcalc ulation
Ġvalid ity
Ġmagic ian
Ġelement ary
Ġdeliber ate
Ġmeas uring
ĠCALL S
Ġtack le
udden ly
ĠBIHAR I
G A
O ptions
b ur
b ral
d rop
n is
as pora
Ġl oses
ĠA tal
Ġse ar
ĠB elievers
all s
ĠL at
ĠK ir
Ġass ure
Ġreg ulate
ĠTh ird
Ġinv ari
Ġmat ching
ruct ural
Ġ6 2
Ġdirect ories
Ġmer chandise
Ġdiv iding
ĠAr k
Ġmet er
Ġsuper v
Te chnology
Ġpossess es
ĠDist ribution
ĠDh arm
ĠMo z
Up d
Ġcounter part
ustral ian
ĠAlm ast
Ġlif ted
Ġassemb led
Ġintest ine
Ġaest hetic
ĠOwn er
ĠPoll ution
Ġambit ious
T ry
u an
Ð ·
at hetic
Ġf odder
st orm
ad ium
ra c
ĠC r
Ġde em
Ġcon j
ĠB o
ĠG ener
ĠG OVERN
ah oo
ĠT own
Ġr ays
ĠF olders
av il
Ġcomp iler
Ġ19 19
rib e
Ġlike wise
Ġra bb
any an
ef ully
Ġrequ iring
ĠState ment
Ġmin es
Ġlaw yers
ĠAs k
ĠAs utosh
Ġpri est
vis ible
Ġ192 1
Ġ192 8
Ġhop ed
Ġflood s
Ġfet ch
ĠCe lebr
Ġasce tic
Bet ween
E le
F P
I con
O mitted
W ikipedia
d ict
p op
s in
u pp
at is
Ġh orticulture
se y
Ġg uru
ĠA C
ĠS uk
Ġan gu
ĠC ross
Ġst rain
th ree
Ġinc ub
Ġinc line
Ġsc off
Ġent ities
ĠUn icode
Ġtra gic
Ġpresent ing
Ġcomple ting
Ġallow ances
Ġworship ers
ĠRe forms
Ġredu ces
Ġess ay
Ġrank ing
ĠUp date
ĠQu estion
ĠStand ing
Ġfertil izer
Ġinfl ammation
Att ach
Ġhyd ro
heart ed
ĠCustom s
ĠIsh mael
Muslim s
Ġconsecut ive
A y
I dent
N ear
O cc
k o
ĠA IDS
ment ion
est ions
ĠD raft
ac ock
ĠO ld
Ġass im
Ġappro ve
ession al
Ġve ter
ĠAb out
Ġdoub led
Ġharm doers
Ġintrodu cing
Ġ193 4
Ġ192 2
Ġutil isation
Ġestim ates
ĠHam achi
M ary
P raise
g reen
l ot
p her
s ix
Ġa ided
Ġthe ories
Ġf ighters
ĠC ertainly
ĠP L
ri ages
ĠD og
ag iri
Ġun employment
Ġcl an
ĠSt r
Ġfe as
Ġinv ention
arn ath
day s
To ol
aid u
Ġ18 60
ĠQ a
Ġfr ames
Ġ196 4
Ġarri ves
ĠAy odhya
riv ile
ĠAsh ram
Ġdemonstr ation
ĠPres idency
ĠHan uman
ĠMant ri
Ġadmir ation
Ġsoph isticated
zbar oa
N ir
P and
S n
b ly
b us
v it
} ".
Ġa unt
Ġw edding
ic an
se ts
am ind
ol ith
ĠH um
rom ium
ak ers
us han
Ġex agger
ĠW ords
qu isite
el and
ĠF ind
are rs
ĠJ al
ĠGod s
aw ar
ĠTh omas
Ġra cial
ĠBh akti
Ġrep airs
Ġins criptions
su pp
Ġmill s
Ġthird s
ĠPur usha
ĠMed ium
Rep ly
Ġintu itive
Miss ing
D ifferent
M T
M adh
N L
P aper
T urn
U z
V I
W ord
Ġt ens
Ġs pl
Ġc able
an on
an ium
ĠM ong
ĠB ounty
ĠB HA
Ġsh ipping
Ġinc ons
Ġsp ark
Ġfl ora
Ġval leys
ĠTe am
Ġsw ord
Ġdri ves
leg raph
Ġphys ics
Ġprotect ors
sc ope
Ġder ive
Ġdiscip le
Ġdiscip lines
Ġunc onscious
Ġarrog ance
ĠAud it
Ġrout es
ogen ic
Ġprecise ly
ĠSund ay
Islam ic
Ġdeter ior
HTRA PATI
4 9
G N
G old
c urrent
r ations
r ally
Â Ń
Ġc el
Ġb unch
Ġf ract
Ġth ir
im port
ĠI d
ĠS ix
ĠH ud
ab riel
ak ha
ĠW ing
Ġk not
ort ing
Ġch aste
Ġpre tend
Ġover write
ĠY a
Ġinst inct
ĠDe ep
Ġcar rier
Ġdisbelie ves
IS TER
Ġport f
Ġtext ure
Ġmount ed
Ġviol ation
Ġarr ay
Ġmultip lied
Ġutil ized
ĠSoci eties
lar ation
Ġphotograph s
ĠNH S
Ġclim atic
Ġreven ge
Ġinspir ing
4 1
B irth
F ire
L ock
N T
V ER
in iketan
Ġs ulph
Ġh oles
ĠA mit
ĠS overe
ĠD ocuments
ĠL olita
Ġk ins
ub lish
ack er
Ġdec ay
Ġdist ribut
AR I
ĠTe h
Ġcommand ment
ĠGu idance
go vernment
Ġsuper f
com plete
Ġattend ing
fl ies
Ġemb ark
Res p
iter ated
Ġexceed ed
Ġremark ed
âĢľâĢĿ .
ĠPra kash
Ġauthent icate
Ġcat aly
Ġclick ing
Ġconcent rated
Ġrenew ed
Ġovert ake
Wind ows
ĠDom inion
Ġseiz ure
C ON
D avid
G R
b urn
f elt
n an
Ġb und
Ġb rick
ar ity
Ġd inner
Ġh iding
Ġh anging
ra o
Ġnot ion
ĠC ro
her ally
us a
ĠR amm
ĠGod wary
Ġgu ards
Ġ7 3
Ġsmall est
ĠRep ly
Ġones elf
pro sy
Ġundert akings
ĠFin land
Ġtransl ate
Ġfruit ful
Ġpred ict
ĠInt elligence
ĠDh arma
ĠPra krit
Ġauthent ic
ĠSa heb
ĠBan er
Ġresc ued
ĠScient ific
Ġhol istic
" "
v ity
Ġt ip
Ġt ough
Ġa ven
Ġth reshold
Ġre actions
ul in
ak ur
Ġsh ake
ĠD ak
ĠR o
ĠT om
Ġr um
ĠK rishn
ĠU t
we ep
Ġtra ced
Ġshe ets
Ġrequ isite
Ġfil ters
Ġext ens
Ġmer chant
Ġver t
ĠGu wahati
Ġpost ed
Ġplant ed
Ġspeak er
Ne hru
Sc ience
Ġprob ation
Ġoccup y
Ġdeliver ing
Ġaltern ate
Ġlamp s
Ġparamet er
Ġfulfill ing
ĠSaty agraha
Ġflo ating
Ġfrust rate
C VS
] ?
c us
f alse
Ġt ropical
Ġthe ore
en ment
or o
or us
st ar
ad v
ig o
Ġas cribed
ri y
ĠH igher
Ġcon ferences
ĠR ES
ĠL iving
ĠE mb
Ġgo ats
fe re
ert aining
ĠBook marks
br idge
amb ia
Ġ196 9
Go vern
ĠHigh way
Ġcitizens hip
Cont inue
Ġvirt ually
ĠMod ern
Ġsle w
ĠDes ai
Ġfurn ishing
Ġsurround ings
Ġimpos ing
Ġast on
ĠPRESENT S
: -
l ime
Ġt asted
re ason
re liant
Ġb om
Ġb rah
ll ar
am ents
ĠS W
ĠS outhern
ĠP oon
ĠH om
Ġwas hing
ĠE st
Ġdis par
ult s
Ġres on
Ġout st
Ġpre ferences
uc ks
Ġcert ified
Ġmon aster
Ġprom pted
Ġint entions
Ġeconom ics
Ġtre acher
Ġcro oked
Ġple as
Ġpract ise
Ġve nd
ĠIsrael is
ION S
Ġrepl ies
ĠEn c
Ġadop ting
Ġtown ship
Ġeight een
Ġprevent ing
Ġclean ing
ĠPur ana
Ġqual ifications
Ġworshipp ers
Ġdang ers
Ġassum ption
Ġrob ot
ĠÂ £
ĠIIT s
opp y
Ġbreat hed
abul ary
7 8
M oney
N C
O B
k n
k har
Ġs ided
at ile
on al
Ġm aj
Ġn inety
Ġre nowned
se par
id get
ĠC riminal
ĠP ract
ain er
ĠR ather
um ed
ĠN S
Ġinc umbent
ĠJ ames
ĠIn iti
Ġatt itudes
ĠPr ay
Ġend orse
ari ans
Ġrest aur
Ġexper imental
Is rael
Ġident ifying
Ġtyp ically
Ġcelebr ating
Us ing
de ce
Ġbad ly
Ġterrit orial
Ġprostr ating
Ġsucceed ing
Ġdivide nds
Ġprison er
Em pty
Ġfat ig
IG N
Ġencl osed
Ġmac ro
Ġvag ina
Ġuter us
Ġprogen y
A F
F e
I r
b urg
e ur
n age
u ven
Ġa il
it ched
Ġm antra
ce nds
ad ian
ĠS ank
ĠS ustain
ith a
ĠH ide
ud al
ress es
Ġar rows
ĠV rind
Ġem peror
con v
Ġtra p
ict ory
Ġfind ings
ĠMus ic
az a
Se lection
Ġsche ma
Al most
app ro
ĠKh and
Ġblind ness
Ġstead ily
Sec urity
ĠAnn iversary
lar ge
Ġamalgam ating
rolog y
Ġlung s
Ġconstitut es
' ;
F ar
M ember
S B
k ers
Ġt ables
Ġt anks
Ġb udd
Ġf oss
Ġf isher
om al
ur am
Ġhe els
Ġcon gress
op tion
ĠG ran
ĠF IR
Ġcomp are
Ġper cept
ire ction
Ġag ony
Ġpre aching
Ġord inance
not es
ee per
Ġint ric
Ġ6 3
St ill
Ġeffect ed
ĠGu idelines
Ġperform ances
Ġlater al
Ġten ants
Ġ195 8
Ġindic ator
ĠAcc ording
ili ated
ĠProv inces
asc ular
ĠSah a
olid ated
Ġsus pect
Ġeld ers
ĠTool s
Never theless
agn etic
B ur
D AY
S it
T rue
V ir
d on
l if
v iii
nd ers
at ient
or rh
Ġc ensus
ed uc
Ġin k
se ed
ad ays
ra int
ĠC ost
Ġde luded
ĠH en
Ġcon quest
ĠR an
art a
our ist
Ġdo zen
out s
Ġinc ulc
ĠJ o
rit is
Ġco inc
Ġsc an
ater nal
ax y
ES H
Ġcar avan
Ġinf lic
Ġart ic
Ġfull screen
Ġrev ived
Ġwar fare
ĠGu arant
Ġ20 22
ĠEn cry
ĠJud ges
Ġexerc ises
Ġmot ive
Ġfit ting
Trans fer
apur am
ĠNag pur
Ġpersist ent
Ġconstitu ent
Rest ore
Ġelder ly
Ġhandic rafts
ĠFe llow
ĠJagann atha
ĠINAUGUR ATES
Ġninet eenth
C lean
T amil
a ver
Ã Ń
Ġb ite
al pur
Ġbe e
Ġbe re
ĠS ach
ter ror
th ly
qu isition
Ġall ocated
Ġle ts
ĠO s
Ġcont est
Ġass ent
gr an
Ġsec uring
Ġpay s
crib ing
Ġty r
Ġrese t
Ġsuff ices
Ġtreat ing
Ġ198 3
Ġremain der
ĠEv ent
Ġinstrument al
Rec ently
Ġcontain er
Ġesc aped
Ġcat alog
Ġban quet
ĠIraq i
ĠChristian ity
Ġsurve ys
ĠADDRESS ES
c all
in er
Ġin ception
le vel
ot ive
ad unath
et al
ĠP ersonal
ak as
ĠL ong
ĠL INK
Ġal umni
ag us
ĠV allabh
Ġsub du
sh op
Ġbl azing
erm ost
uc ive
con ce
Ġdist ances
Ġph ases
Ġimp atient
Ġread s
oh un
Ġpri ze
Ġreal istic
ĠMe cca
app ropriate
bl ood
Ġchast ise
Ġmom ents
uls ion
Ġtransgress ing
Par adise
ĠView er
ĠUN IVERS
ĠHimalay a
ĠPan jab
Ġdeliber ations
ĠKab ul
ĠBack ground
ĠCommer cial
ĠTal iban
Ġsucc our
Sche me
' ?
9 9
J ew
L im
T im
l ance
} ,
Ġb ott
an er
ad ata
Ġ( "
Ġsu ited
Ġsh oot
ĠD en
ĠE ll
ĠE ducational
ĠF riday
Ġdis orders
ish i
Ġun happy
ress ing
ef ined
Ġdist ressed
ract ed
Ġser ial
EN S
ey ond
Ġsocial ly
Ġconsider ations
amb ling
Ġsum mit
ĠCol lection
ĠCl ient
Ġrad i
Ġ193 7
Ġemb race
resp ons
Ġquant um
Ġdistinct ive
Ġdelay ed
Ġconcent rate
ĠPan el
Ġsimpl icity
Ġshad ows
Ġpatron age
Ġther mal
squ are
Ġepis ode
D est
T Y
Ġd ump
ro to
Ġl ob
Ġl aug
ce land
il grim
Ġcon ve
Ġle prosy
av it
Ġcomm enced
Ġwould n
Ġprov incial
ĠCh at
iss ance
ower ment
Ġbl asp
Ġatt aining
Ġmain stream
Ġfa una
Ġsupp lic
Ġexpl aining
Con sequently
rec ord
Ġ194 0
Ġ197 9
Ġ193 6
Ġprim itive
tr l
Ġpartnership s
Ġcongrat ulations
Ġsugar cane
quest ion
ĠCON V
ĠFar id
Ġtrek king
ĠMath ura
Ġupl ift
Ġconject ure
Ġlaug hed
" ?
G S
H ap
b u
j it
p ublic
Ã ¶
Ġ rib
Ġa version
Ġn igg
ro ot
st ead
Ġg ently
ver b
Ġst retched
and al
ĠD PI
Ġv ague
ĠN il
ĠO K
Ġad missible
Ġrep uted
Ġrequ ited
Al one
ĠIt ems
ĠIt alian
Ġreve rence
Ġiniti ate
Ġpersonal ities
ĠLe ave
ĠPur anas
Ġtri als
Ġscript s
SS L
ĠPower ful
Ġbuy er
Ġimpart ial
EX T
Ġspecim ens
Ġpollut ants
ĠNiz am
9 0
B ase
C ancel
K arn
M other
S plit
V ishnu
l av
t urn
Ġp ocket
am ous
od ed
Ġsh aken
ure r
av ari
ans h
ru b
Ġout going
Ġte aches
Ġsc atter
Ġins ured
Ġcond ucive
Sh ah
Ġdiv inity
201 1
Ġple a
Ġsat an
ades hi
ĠKh adi
ĠBen ch
Ġbroad ly
Ġstock s
OC ATION
Ġdiss olved
Ġhabit ations
Ġaccident s
Ġbrows ing
Ġharvest ing
ĠMas jid
Ġnumer ator
Ġspir its
Ġwond ers
Ġumb re
) ?"
G erm
N an
O G
S cient
V alid
V ersion
a que
c ur
m un
n or
o ir
p ound
s ubs
Ġs li
Ġp ad
st s
st ill
ad o
ĠS ug
ĠC up
Ġwas tes
ĠAll iance
fe ll
fe ctions
à¤ ľ
Ġgu i
Ġrep ublic
Ġph osph
ĠEx pl
Pro gress
St at
ĠMan ilal
Ġdra f
Ġsend eth
Ġsum m
ili ary
Ġbi otechnology
ĠMed al
Ph ot
Ġscript ure
ĠSar ojini
Ġgrand father
ĠMaj estic
ĠAud itor
Ġexch anged
ĠBharati ya
Ġpron ounce
ĠGandh ian
Ġvel ocity
) ],
G reek
K ab
L at
Ġs age
Ġf ancy
ĠP S
ĠP W
Ġcon cession
ant ry
ĠT B
Ġr ush
oc ular
ĠF eed
Ġthere upon
Ġpart ially
Ġfl uct
Ġret ali
Ġmem ories
Sh iva
Un less
aim an
IN T
Ġpost al
Ġsix teen
Ġmaint ains
Ġexc iting
Ġapproach ing
Ġ193 2
Ġattend ance
bl ue
Ġcomb at
Ġcomb ine
Other s
Ġimpl ied
Ġfabric ate
ĠEgypt ian
Ġmock ery
Ġamalgam ated
Ġtag s
Ġsynt hesis
Ġflex ibility
EG IN
ĠCount ry
Ġloy alty
Ġhaz ard
ĠNIT s
ĠCitiz ens
Ġcorp us
Ġreconcil iation
ĠBHA VAN
5 8
M C
e ering
u rop
er ates
Ġw ore
Ġf iction
Ġd ome
ic on
Ġth ine
ĠS ankara
ĠD uring
ĠR AM
oc om
Ġtr umpet
ĠF reedom
ip u
ĠK aur
ĠCh amber
Ġdes erves
ty pe
ĠPr adhan
Ġgive th
Ġheart felt
Ġann uity
Ġplant ing
pur i
Ab ove
Ġcontribut es
Ġconsult ancy
Ġresol utions
ĠAc cept
Bl ue
Com ment
Ġinterv entions
Ġhill y
Ġgate way
Ġvig il
Ġreprodu ction
Ġhier archy
Ġdisd ain
E st
S il
n ia
p sy
s erv
ot ype
ĠM oon
iv ic
ĠD rav
ĠR agh
ĠO pp
ĠF il
ip ed
ĠK ali
In ternal
ep ar
ific ence
Ġdec iding
Ġtra ces
ick ing
Ġprocess or
Ġcour ty
Ġfil ename
az ar
Ġtar iff
ĠMahar aj
Ġtele com
Ġvolunt eers
Ġassum ing
Ġoblig atory
ĠFl ag
Ġstick s
Ġmyst ery
Ġrelie ved
Ġunexpected ly
ĠVig yan
Ġcomprehe nd
ĠAbhi yan
Ġchap ters
. âĢĿ
5 00
B ul
S ent
p res
or ry
Ġm ic
Ġd ung
Ġe loqu
ĠS add
Ġex pense
ĠD ated
qu ir
un ior
ĠN aidu
ĠK umb
ĠWe re
Ġout lay
old ing
Ġrec ru
Ġher ald
uc ose
Ġdid st
ĠUn its
lud es
Ġmat rix
Ġaccount ant
su per
Ġsing er
Ġexpress ing
OR S
Ġill usion
Ġ196 6
ĠSat ur
Qu it
cont inent
ĠMal d
Ġreplace ment
Cal c
Ġobst acles
Ġlif etime
Ġdepth s
ĠLaksh mi
Ġalleg ations
Ġpup ils
Ġchromos ome
ĠWIT H
Ġbask et
ĠCOND OL
A mb
R Y
R ama
V ari
W orship
d ir
s omething
Ġ iii
Ġw rap
or andum
Ġp ity
Ġm ant
ig raph
ch i
ĠM O
if orn
ĠR SS
Ġk a
av ali
ĠK ish
og h
Ġtw in
Ġreg ulating
Ġform ats
Ġtrans fers
Ġcert ification
Ġcar riage
Ġprev ailed
ĠWh ile
ĠTr umpet
iqu ity
Ġexpl icit
En vironment
ĠCour se
ĠPl ate
Ġbrother hood
Ġ198 2
Ġexc ited
IL E
la ud
Americ an
ĠRec ords
ĠDis play
Ġdeleg ates
ĠPen al
Mem ory
ĠAS EAN
Ġillust rious
Ġrestrict ion
ĠUnder t
Ġdemer ger
Ġsemin ars
uis ine
repreneur ship
G B
G raph
M D
r ade
Ġo h
Ġp ul
an ent
Ġth orn
se in
ĠS SL
Ġhe aling
ra ud
ld om
Ġse w
ĠT ur
ber ry
Ġrec ess
Ġem barr
à¤ ¡
pos al
Ġsent ences
ash ankar
Ind ustrial
ĠDay s
Ġappe aled
Ġmer its
AR C
Say ing
akh sh
ĠZ eal
Ġmis led
Ġdepend ence
ĠMar x
Ġdam ages
Ġsold ier
IV ES
Ġ192 9
Ġprostr ation
Ġlad ies
ĠDi wali
ĠLab el
ĠArch itect
Ġelev ated
Ġchair man
MB ER
roph y
Ġdefect s
Ġembra ced
Ġbrid ges
Ġcyl ind
ĠMex ico
Ġextens ively
B ah
D rag
P en
e ff
u ctor
Ġt in
Ġb owed
Ġh oard
ic us
Ġg op
ad vance
am bers
ĠS ak
ĠC MS
ĠP att
Ġsh ield
os om
ans i
ĠK at
Ġcomp ressed
In vestment
ens able
Ġcomm its
Ġprov ident
ĠCh ow
tern ity
Ġsy ll
Ġshe er
ock ets
ived ita
Ex cell
Ġexam inations
IN E
ĠRe ality
Ġgrant ing
Ġens ures
ĠCont roller
pro te
Ġhyp ot
Ġdece ived
lex ander
Ġimpl ies
ĠWith drawal
Ġcerem onial
Ġbright ness
Ġprose cut
Ġble eding
Direct ory
Ġencomp assed
Ġbuff alo
Ġdisturb ed
Ġalleg iance
6 6
O p
c ount
c irc
i osity
n om
he thood
Ġp ulse
Ġg au
ĠS ERV
ĠM D
ri ving
res pect
th us
ĠD ial
ore r
ac ies
Ġk ap
Ġal che
ĠK ashi
ian ces
Ġnew er
ob roto
Ġbl og
Ġbl owing
uc id
Ġback ed
Ġrequ isition
ug a
Ġdem ise
Ġext ravag
Ġsk ies
Un iversity
Ġlove th
Ġcr ushed
Ġve in
do or
cle ar
Ġexc itement
Ġwarm th
ĠEm ployees
Ġinj uries
Ġgar ment
Ġgrad ual
Ġcompr ised
Ġplatform s
Ġren amed
Ġvig our
ĠVidy asagar
Ġanx iety
Ġreact or
Ġprest igious
Ġrecur ring
Ġjung le
Ġinadequ ate
D ouble
T ourism
d ark
l ion
he alth
Ġs ink
en ant
ou is
Ġe ll
od ily
ĠH E
Ġgo at
Ġup s
ib a
vel i
Ġrel uct
ĠCh arter
ĠSt ock
ĠY ad
ob a
Ġke eper
Ġdef ines
ĠMah as
Ġmer ged
Ġfr aternity
ĠMan ik
Ġclass ic
Ġple aded
à¥ Ī
Ġsoon er
ek ar
Ġconv icted
Ġcamp s
ĠLeg al
Sc ale
ĠGroup s
Ġinaug uration
Su pport
ĠPort al
Act ually
Ġadmon ished
Work ing
Ret urn
ĠCe rem
Ġshame ful
ĠBra zil
War ning
Ġexempl ary
Ġlifest yle
Ġangu ish
5 2
5 7
E p
P rivate
Q uality
T el
z ed
Ġp ale
Ġm entions
Ġh ither
Ġh inder
Ġbe fell
ro ck
Ġg iant
ad an
ĠM etro
ĠP ud
ge on
ĠG rant
ak rishna
Ġsh ifting
Ġv ic
art i
ap at
Th ink
Ġinc idence
ĠCh annel
ph rase
Ġinv ites
oth ana
Ġdown loaded
cl ock
ĠRes ident
Ġreal m
Ġ9 1
Ġrev ol
Con vert
Ġ195 3
Ġred emption
Ġdig est
Rec ent
Ġvirt ues
Ġcorru pted
Sim ple
EM ENT
Out put
Copy right
book s
Ġcateg or
ĠInte gr
Ġsymp ath
Ġinev itably
Ġadj oining
Ġdemer ged
Ġgest ure
Ġabdom en
ĠMIN ISTER
Ġenric hed
M is
O ld
R ural
b es
á ¹
Ġm aker
ra ctions
ĠC ome
Ġst ature
ain ting
ĠD in
ĠD rug
ĠL ect
ang al
Ġsp heres
ĠCh it
Ġdevelop ers
Ġfl ank
Ġmen stru
Ġorgan ising
Ġterm ination
ĠYou ng
Ġ: -
Ġmor ality
Ġ195 9
ipp ines
Ġant ib
ĠEd en
Ġconsist ed
Ġtransgress ed
verse as
Set ting
icip ality
Ġknowing ly
Reg ional
ĠRed dy
Ġsurv ived
ĠDi u
Ġcerem onies
Ġdele ting
Ġeld est
organ isation
Ann ual
Ġshap ing
Ġhumb led
Ġbon us
ĠCelebr ations
1 01
B urning
m ale
Ġ .
al p
ad har
ĠI IS
ĠS r
ĠC C
ĠC rown
pe e
em brance
ind ustrial
ry pt
Ġun ve
Ġun ite
ath as
we ight
Ġro lled
Ġrequ ite
Ġinf rast
az akh
Ġmet all
Ġru ins
Ġcr ad
Ġcreat or
Ġpot ato
reg n
Ġtyp ing
AS A
ĠMahar shi
Sub version
Ġaver ted
Ġdi ameter
Ġep it
Man age
ĠNav al
Ġec ological
Ġillust rated
Ġgoddess es
ĠAng lo
ĠFarm ers
Ġexhaust ed
olly wood
Prior ity
Ġscrut iny
ĠQa eda
ĠGuarant ee
E ff
W E
r ama
Ì Ĩ
is en
Ġb race
ar o
Ġm ild
Ġl one
ur rence
ow l
am ic
ĠM ish
ĠM ichael
Ġor ch
ĠC a
ĠB rowser
Ġtr ay
Ġun lock
Ġun fortunately
Ġind isp
ject ed
ĠCh atter
Ġrec iting
ĠIn stall
Ġass ignment
ĠSh ik
Ġtrans plant
Ġra ces
Ġdist ribute
Ġpass port
Ġexp iration
ateg ic
ĠSe lected
Ġve ctor
ĠZ ion
Re pe
Ġenjoy s
ĠPh oto
ĠCl ose
Ġmusic ians
à¤¾ à¤ģ
Every thing
ĠSign ature
Rep ort
ĠDev anagari
Ġfert ile
UL T
Mah atma
ĠPrev iew
Tra vel
ĠProdu ction
Ste p
Agricult ure
Ġtempor arily
ĠPrat ap
Ġamen ities
6 4
P s
P oint
Ġo x
ent er
Ġn urse
ĠS essions
ĠP ant
ul ing
ul am
Ġse asons
ĠB in
ĠB at
ĠR as
ant ing
ĠN OT
ĠE ffect
Ġdis h
Ġcomp osite
ĠV an
Ġover th
Ġrec ount
sh ire
Ġro d
Ġro y
Ġsy nd
Wh osoever
Ġint ent
Ġfear ful
Ġdest it
icult ural
ĠEnglish man
Ġphys i
ĠMod ule
ĠMoh ammad
Ġbow ler
Ġopt ical
ris y
Ġec st
Ġalt itude
ĠTel ang
Det erm
ĠNan alal
ĠEnt ry
Ġdiagn osis
Ġtroub les
Ġcommend able
ĠGan esh
ĠPrab h
Ġnucle us
Ġobe ys
ĠSaf ety
ĠSwed en
aryn x
B inoy
S elf
w at
ur as
im s
ol en
ĠP ill
ĠB ac
ĠB uild
Ġal tered
Ġus ury
Ġman ually
Ġman agers
reat y
Ġcons ensus
Ġpol ity
Ġmem orial
Ġpass ive
Ġaccount able
mb ling
Ġext ensions
ĠRam alinga
Ġmet re
ĠSe er
Ġbo ast
Ġlab els
Ġspread s
Ġled ger
Ġsens ation
ell ation
Ġobl iv
Ġcommission ed
Ge orge
ĠRad ha
Ġeval uate
Ġaggress ive
log roup
Ġlod ging
Ġvoc ational
arct ica
ĠLear ning
Ġnutri ents
Hap logroup
iforn ia
: )
B EGIN
C r
G an
R ail
m ill
u pl
v ille
at an
ĠM ap
ĠP op
Ġwas hed
ĠR om
ĠT iger
ĠWe bsite
Ġdes per
Ġfl ocks
Ġdef icit
Ġdev i
St ar
az z
Ch anges
ĠAr bit
Ġspecial ist
ateg ories
Ġsol ic
Ġdom ination
Ġtrust worthy
Ġdemand ing
Ġdeb entures
Ġbar red
Ġcell ular
Ġsun rise
Prov ide
Ġnar rated
ĠSur at
Ġexport ed
ĠDev ice
Ġencourage ment
Ġrecip roc
ĠElect ricity
da ipur
Ġthor ough
Ġwire less
Ġmini ature
Ġstro ke
adhy ay
D iff
I X
M uch
d ro
Ġt itles
Ġa rom
Ġs way
an and
Ġin equ
Ġd ot
ct ed
id hi
ĠS eries
ĠP E
op ic
ĠG ree
ĠR AS
ĠL ittle
ĠW orship
oc ols
our t
ĠN as
Ġwor m
ĠO CC
Ġme als
ult ural
Ġres ume
ib ral
ĠV PN
ĠIn stru
sh ine
ĠPro gress
olog ically
Ġexp orters
ĠDe bug
Ġorgan ize
ĠAr th
Ġprote ins
ĠSy n
ump s
Ġtrib unal
ĠCl aim
Ġrain y
Rec ogn
ĠMod el
ĠCom pl
apt ain
Ġthreat en
ĠRem embrance
Ġneighb or
ĠUN ESCO
ĠExcell ence
ĠAT T
look ing
Ġinn umerable
Ġabsor b
Ġmad ness
Ġwat ches
Ġisol ation
Ent ry
Ġharmon ious
ĠPall ava
Ġdiplom acy
Ġimpug ned
Ġnigg ardly
quir ies
, ]
C ertain
D a
G ame
p un
Ļ «
Ġb er
Ġf u
Ġh ook
ra gment
Ġor bit
ĠP C
ab ber
ĠB odies
ac cess
Ġr ation
Ġch ances
ĠF ailed
Ġpl ots
Ġen umer
Ġcont ing
ĠJ ail
ĠJ odhpur
Ġpre liminary
ĠSt yle
sh ould
Ġgu ilt
ĠSc ale
Ġterm ed
Ġ8 9
Ġexcept ions
Ġwrong fully
Ġforg iven
Ġmet ab
Ġ: âĢĶ
Ġplac ing
ĠPl ace
Ġaccess ing
osp her
Ġimm ig
urd as
Ġphilosop her
Ġcompet e
ĠCom plex
Ġpropos ition
ĠWar ning
hel p
ĠAT AL
writ ten
Ġrect angular
Ġcho ices
Ġpatri otic
Ġtrig ger
Ġsensit ivity
Ġstip ulated
Arab ic
B ab
U lt
c row
i ary
o en
s ia
Ġthe rapy
is ational
Ġc ess
Ġin ch
Ġd ressed
Ġd rove
ĠS MS
ĠM is
Ġnot ices
ĠC ENT
ĠP AN
Ġwe ars
ĠG ulf
ĠG urb
est ation
ĠL aunch
os itory
Ġj eal
Ġres id
Ġres iding
In put
Ġsc ourge
Ġpre ached
ĠSt one
li ers
Ġmon key
Ġinter im
ĠWh osoever
Ġca ution
Ġche er
Ġactiv ated
Ġpop ulations
Ġtrad er
Ġwar riors
Ġdr ums
ured ly
Ġport rait
gu ards
Ġaccess ibility
che m
ĠPh ase
Ġorigin ates
Ġhypoc risy
ĠBas ic
Ġadjust ed
Ġphenomen a
nex pected
Ġperpet ual
Ġtun nel
Ġenlar ge
Ġdegr adation
ĠNaw ab
B eng
L ok
S ardar
b ul
d og
i ery
y es
Ġd ose
Ġd ull
om ass
Ġe cl
Ġe rect
ro oms
ĠA st
ĠI R
Ġhe ating
ill usion
Ġnot able
Ġst abil
ge bra
ĠB ring
ĠB apu
Ġsh ower
Ġr oughly
In flammation
ail and
Ġam pl
ass in
Ġrel iance
ĠPro clamation
Ġins olent
Ġkeep ers
Ġhard ened
for ward
IT UT
Ġcal endars
lo ven
De le
ĠAg encies
Ġsuff ice
ĠCom ments
Ġcomplex ity
Ġprostr ated
Ġdepart ed
Ġgraph ical
Reg ulation
Ġconver ting
Ġprepar ations
Check ing
Ġtrave llers
Ġplot ted
ĠInf o
ĠForest s
ĠSte el
tw enty
ĠSin ha
Ġinstruct ed
ĠPerson nel
Ġwhis per
Ġaccur acy
ĠRamm ohun
Ġaven ues
ĠCONV OCATION
ĠSadd am
7 7
B u
M obile
b ear
e in
l ittle
m uk
t im
Ì Į
it rus
or ative
Ġc ab
ed ed
Ġp p
as kar
le ctions
om ed
Ġre cept
ur ai
im ation
ig ated
ĠM ak
Ġwas ted
iv ation
iv ated
ĠD ise
ĠR ig
ount ered
ĠF a
ĠF ollow
Ġcomp ilation
ond ay
ĠMin imum
Ġland mark
Ġfr ank
AT A
Ġkind ly
Ġmet als
Ġpray ing
ĠMe hta
ĠMe herally
Ġplan ets
Ġhy giene
Prov ision
ĠAm ar
Ġton nage
ĠGh ose
Ġperfect ed
ĠEmp owerment
Ġreckon ed
Inc rease
Key board
ĠGr ants
Ġenvis ages
Ġmonu ment
Ġasc ertain
Ġsummon ed
ĠNarm ad
Ġrejo icing
Ġnit rogen
ĠFran c
Ġindisp ensable
D VD
E AS
K an
L ead
d ing
f rame
w ife
z ech
Ġs adh
on i
en c
Ġf ighter
Ġp ose
ic ol
ol iv
ri ke
her lands
th ar
ĠW idth
art s
ud ge
Ġpe aks
Ġam use
sh aran
Ġdes criptions
ple ments
ĠPr in
Ġins pect
cl usive
Ġbenef iciary
Ġconnect s
AS ION
Sub has
ST ITUT
Ġdig its
Ġmot if
Ġaw ful
Ph oto
Ġsn iff
Col umn
comp uter
Ġcoal ition
enn ium
ÑĢ Ðµ
Ġvent ures
Ġmemor able
ĠPraise worthy
ograp her
Ġintercess ors
Guj arat
Ġfart her
ĠChampionship s
ĠSatur day
K CS
R uss
b ec
p arent
Ä ±
or p
es a
Ġbe gg
Ġl ent
am bar
ĠS V
ĠS it
ĠS ale
ol ate
ĠP R
ĠP ayment
ĠB ed
and ar
Ġv ine
Ġv ocal
ĠW ood
Ġr amp
Ġun ch
Ġres il
ath an
Ġsc hed
Ġsp ur
Ġem issions
Ġgu ile
Ġbl amed
Ġset up
und i
Ġinter active
Ġinter cede
Ġcur iosity
ĠAn juta
Ġstr at
Ġmus lim
Re ference
sp read
Ġarch aeological
ĠSy ed
Ġsubs cribers
ĠCo al
Ġbi ography
UT H
Reg ular
Ġboard s
ux emb
iy aram
Ġpropag ation
Ġsuperior ity
Ġadapt ed
Hy per
Ġavo iding
ĠVid ya
ĠGriev ances
Ġconqu ered
Ġkilogram s
Ġsik hara
L A
M edia
T V
c onduct
f s
l as
Ġt ickets
in us
Ġs ized
it ous
Ġb att
ot omy
ĠA ust
ĠI BM
Ġan k
Ġpro clamation
ĠK ail
He ader
Ġinto x
Ġoff set
Ġend less
Ġrece iver
rop olitan
ĠAs iatic
Ġmer ger
Ġpunish able
ĠBook mark
Ġdest inations
AT H
Un like
Al as
Ġrespons es
lo or
IC T
Ġanim ation
Or iginal
Ġwarn ers
Ġpub lisher
Ġlearn ers
Ġdisplay s
Ġprotect s
Ġpen ance
mark ed
Ġid i
Ġprin ces
ĠIndepend ent
Ġvac ancies
ĠUnivers al
ĠPo resh
ĠPrem chand
Ġlev y
Ġgradu ates
Ġflour ished
inte rest
Ġbeat en
ĠSk ill
UB LIC
Ġsacrific ed
ĠCre ation
intend ent
Prepar ing
recogn ized
Ġinfect ious
Ign ore
Ġrehe ars
Ġsuspic ion
ĠMald ives
ibral tar
Ġjeal ous
B N
E mb
F rench
T ri
T aking
d as
d am
d ead
n ial
y g
Ġ \
he el
or ch
Ġc ig
al one
Ġd ent
se ctions
il ib
ch ants
ard ing
ag i
ap urna
og as
In ternet
Ġunder going
we et
Ġpres erving
Ġcap ita
Ġland ed
uk e
Ġvis itor
Ġgra pes
Ġenc ountered
val uation
Ġasse mble
unt il
Ġobs erving
Ġopp onent
eral d
ĠSw itzerland
Ġcoll apse
Ġcompet itiveness
aksh i
Ġattract ing
Ġprec ision
ĠGh ats
Sec ret
Ġhero ic
Ġquot a
HT ML
Ġpled ged
Ġdog s
Ġjournal ism
Ġcomment ary
FC s
Ġthread s
Ġfasc inating
Ġquiet ly
ĠFed eral
Conf irm
Ġrestra ined
ĠSant iniketan
Ġwarrant y
Ġtempt ation
ĠMaul ana
EMB ER
ĠEmer gency
ĠOCC ASION
9 5
B ased
C ell
L ib
T C
c ott
m ort
m ana
Ġw rought
is ance
Ġf ishing
Ġth ro
Ġst agn
op hy
Ġsh orter
all ing
ĠD est
ac o
ie ves
um ble
ĠT uls
ĠL ie
ĠL ayout
un f
Ġr ushed
ight s
Ġwor ms
Ġpl uck
ire less
ign ant
ĠJ ack
Ġev olving
Ġpres ided
Ġwell s
Ġmod ules
ĠDe velop
Ġcor rid
Ġrest rain
Ch ief
ĠAr jun
ait a
Ġfund ed
aut ions
ĠCl ub
ĠJud icial
elf th
hem ical
ĠCons olidated
Ġball s
Ġpoly the
ĠPer haps
Ġguarant eed
Ġdiscl osure
Ġimpart ing
Ġsam ples
ĠFir aun
Ġpersu ade
ĠIC AR
ĠAur angz
Ġinvari ably
Ġcourty ard
C redit
J oin
T aj
U P
d ie
f ox
n ah
t ur
it ating
ct ic
ĠA B
ĠM M
Ġst al
Ġst uck
and h
Ġdis hes
Th ird
one ys
ens itive
ĠCh anges
uc herry
Ġfl ock
Ġlit igation
Ġoper ates
Ġ9 3
ivid ually
for th
Ġpract ition
ĠReg ulatory
Ġhy brid
Ġpen al
Ġtrib als
ĠBi hari
AP TER
omet ric
Cont rol
Ġ26 9
ĠHar ish
ĠMem o
Ġsevere ly
Ġsn ipp
ĠSm art
Ġsort s
Ġconver ts
Ġmort ality
Ġcollabor ative
Ġprivile ged
Ġhero es
ĠSH G
Gl ory
ĠAv iation
Ġelim ination
ĠPrev ention
Ref resh
ĠSab bath
ĠLad akh
Ġmart y
ĠVik ram
Ġling a
ĠPolit ical
ĠSul aiman
Ġsuperf icial
Ġfatig ue
ĠZeal and
" :
5 6
D igital
G ora
L ink
R ever
c ation
c od
l on
re ated
Ġb ases
Ġp in
ic herry
Ġl ip
Ġ' '
ĠR oll
ight ed
ĠK esh
ary ng
Ġj oins
ĠU ID
Ġwhen ce
ang ir
act ic
Ġapp raisal
Ġpo nds
Ġem pt
Ġcons ort
ple nd
ĠSh ould
ari ya
Ġeduc ate
Ġ6 1
Ġdev ise
Ġ9 00
Ġleg ally
Al t
Ġfew er
Ġinit iation
ĠApp ointment
ĠPer iod
Prev ention
ĠAdv anced
Ġexped ition
Ġdepic ting
Ġcontend ed
ĠMart in
ospher ic
K P
S ug
m or
z h
Ġb idding
Ġn erves
ad ition
ĠM akkah
ĠP ut
ĠP esh
el i
ĠO P
pl ing
ik ar
Ġind ian
Ġass erted
cy cl
Ġgu y
con c
und oram
Ġgl ucose
Ġref rain
ool s
Pro claim
Ġhigh way
ĠRes olution
Ġver dict
Ġview ing
Ch ina
han i
af i
Ġenjoy ing
do es
ĠPublic ations
RI B
AY S
ĠTrib al
Ġcry ing
Ġcry stal
Le vel
Ġmanufacture r
anc ers
Ġdivers ion
Ġcup s
Ġdisapp ointed
ĠShiv aji
Ġ` %
bet ween
Ġinterpre ted
Ġawaken ing
ĠLead er
ĠChancell or
Ġtelecommun ication
Ġimb ib
Jap anese
ĠLeb anon
B elieve
P F
U nexpected
c ross
g ian
m atic
Ñ ı
Ġ Ã
Ġt ips
Ġs owing
Ġc uisine
ic ago
le ft
Ġg aze
ol ition
Ġas hes
Ġan nex
ĠP ond
ul kar
ĠB IR
all a
em an
ĠR elief
ĠE N
ĠE ar
ĠK ad
nder ing
rit a
Ġar d
Ġar ter
Ġpo orest
ĠBh ub
Ġval our
Ġpass ages
Ġlo op
str ate
Ġpolit ically
At lantic
Ġsw ine
Ġtrust s
Ġz amind
Ġsubs erv
cle an
Ġstrength s
UR I
Sub sequently
je eling
Ġge ography
ĠRem ote
Ð° ÑĤ
ĠCommun ist
Ġspect acular
Ġovert aken
Prom otion
Ġbug s
Ġmov ies
Ġkilomet ers
ĠBus y
Ġaccru ing
Ġcad re
Ġmoist ure
ĠCONDOL ES
ilib rium
F il
N atural
O pt
g t
l ab
o ons
Ġc ub
Ġf t
Ġf ant
an cer
Ġm aps
as ma
st while
Ġg our
ĠI con
ch y
if ty
ore an
ĠT ata
ĠW i
Ġdo er
Ġper secution
Ġinc red
ĠThe me
gr aduate
Ġfl ies
pos sible
Ġcle ver
ug ins
Ġcar go
Ġgl ance
inc erity
Ġele g
ĠOr igin
Ġdeb it
Ġhon esty
Ġdiscuss ing
Pr inter
Ġaud ited
Ġprevent ive
ĠBl air
Ġfold ed
Ġrespond ents
200 2
Ġprec ip
ĠGh ana
ĠFr ank
Int roduction
Ġmiss ed
Ġfellow s
Ġyield s
ĠCON FER
NU MBER
quer or
ĠTib etan
Ġholid ays
Ġglac iers
Ġspo ils
Ġmonop oly
iyaram sharan
C e
L ad
M oving
h ost
j ay
ï Ĥ
Ġ ^
Ġd ip
ot ten
ĠS aid
if er
ĠG entle
and om
Ġv enge
Ġhas te
el le
Ġall iance
ĠF it
ish th
ang i
ĠV ari
Ġra ined
Ġsent enced
ick er
Ġspec ifying
Ġgra nds
Ġrest oration
Ġbenef ited
Ġlim bs
Ġsw orn
Ġ11 7
Ġred e
Ġconcer ted
ĠSecret aries
ĠPak istani
Ph ysical
ĠBal ance
Ġfacilit ates
ĠQu it
Ġcampaign s
Ġenhance ment
Ġcho osing
ĠAry an
Med ical
Ġcondol ed
ĠFac ility
Ġembry o
ïĤ §
6 8
F ear
I O
b ill
b irth
c ost
d epend
h ma
i very
m l
t em
y ear
in eries
Ġo mitted
Ġs ine
Ġc ens
st ers
Ġse ldom
ĠB O
ĠB reak
and an
ĠR EC
ish ness
ang les
ade v
Ġdes iring
Ġro lling
Ġinv isible
Ġbr ut
Ġmem os
Ġinter ior
Ġresp ir
Ex change
Ġexam ining
Ġche aper
IS S
De b
Ġmother land
amb an
Ġ196 8
pro v
ĠKh al
RI ME
Ġsufficient ly
Import ant
Ġinherit ors
ĠInf inite
Ġalarm s
Ġreprodu ctive
Ġkne e
Ġrhyth mic
Ġdebug ging
Ġdischar ged
Cha ir
Rot ate
Ġconstru ed
ĠDak ota
Ġsubdu ed
Ġroy alty
W D
g as
l ishes
Ġs ang
Ġb ail
Ġf erv
Ġd ues
ĠA bsolute
ĠI b
ĠI CC
ĠS oul
ĠS IDBI
od ia
Ġnot ation
ĠT im
our g
Ġle ap
ĠF i
ost on
Ġthere under
Ġinc omes
ub er
Ġsp inning
ĠCh ola
à¤ Ń
Ġatt ribut
Ġmark ing
Ġmer ge
Ġinvest igate
ĠMu h
Ġfund ament
Ġpoint ing
ĠOr iginal
Ġreason ing
ĠCont ents
ĠBe hold
200 6
Ġtal ented
Ġemphas ised
Ġcompr ise
Sy mb
Ġdia gram
Ġaccompan iment
Good s
Inte grated
Ġbread th
ĠRah man
Ġconsolid ated
Ġintermedi ate
ĠBro ther
Ġlux ury
ĠPoss ible
ĠTelang ana
6 5
A z
B lessed
F ield
F inal
K erala
L Y
P ayment
S ound
T a
T able
] ;
l ers
s le
Ġp ink
st ance
ot ers
Ġu k
ĠS her
ĠS aint
ĠC ase
ĠP AO
Ġst olen
th ink
ĠB S
ĠD aniel
ĠR avi
ĠL ock
ĠW all
Ġat omic
oc r
ĠE ternal
ap id
He ight
ĠJ ahan
Ġsp ared
à¤ ¬
amm er
int on
Ġdisc ern
Ġexp ose
Ġconf ine
Ġinf o
amp ur
Ġbest ows
Ġaff luent
Ġlast ed
Ġprof ess
ĠAr juna
Al tern
201 0
ĠAss essment
Ġmult itude
ĠHigh ways
Such arita
ĠX X
ĠPun ishment
Cont in
ĠRec kon
ĠVed anta
Ġblock ed
Ġcorpor ations
ĠChar ge
Ġeth ics
Ġreb els
Ġmig ration
Ġimpart ed
Ġpark s
Ġdrag ged
ĠProdu ct
Ġcriter ion
Ġped est
Ġexh ort
ĠHO ST
ĠTat ya
Ġconserv ative
Ġvert ically
Ġumbre lla
B ro
v ard
he ra
in cts
Ġo zone
at ched
Ġb ark
Ġin gen
Ġbe que
am at
ĠP et
ĠP oly
ĠH ara
ate h
ĠL akh
og y
Ġj ew
ĠU nd
Ġind ividually
ĠJ ee
Ġbel t
Ġ19 00
ĠV eer
we ak
Ġher bs
Ġhand ful
cl ose
ĠFor bearing
Ġreal ities
rol ment
ON E
ĠMy Gov
Ġ11 0
ĠRe al
Ġopp onents
Ġstop s
Ġdi ar
ĠNot ice
Ġsomet ime
ĠAT M
amet ers
Ġscholar ships
TER N
Ġhardship s
Ġcompuls ion
Second ly
ĠVij ayan
Turk ish
Rev iew
Ġacceler ated
Ġoverwhel ming
Ġintu ition
ĠSupp ly
mah al
ĠHaj j
Ġmanif old
ĠFrame work
Ġperipher al
ĠRAS HTRAPATI
5 4
F unction
M or
S uddenly
c oc
f a
p y
Ä Ł
Ġo d
Ġs incerity
is ons
ve rest
Ġg ifted
ĠA CC
ĠA ustralian
ment ation
Ġan ts
Ġst raw
Ġpro pose
th ird
ĠB ak
est ial
ĠD aw
ĠD EL
ort heast
Ġal ia
ĠO R
ĠK ak
Ġup hold
ib li
vel ation
Ġunder took
Ġsub continent
ĠTh ree
Ġsure ty
ĠWh atever
Pro b
Ġ9 4
umb ling
Ġstrong est
unt ary
Ġopp osing
over ing
Ġclaim ing
Ġconv entions
ĠBe ach
ĠDiv inity
ĠKh il
Ġcompet ence
Ġris en
Ġaw ake
onom ous
anes ha
Ġoccup ies
Sim ulation
Ġimper fect
ĠVis it
ĠAsh ok
Ġmos qu
ĠMos cow
Ġelev ation
ĠJay anti
Ġdisag ree
ĠKol hatkar
! )
9 8
H um
L aw
S upreme
c ussion
d in
f emale
r igation
s en
y et
in ction
Ġf rog
Ġd ancers
Ġbe ating
ad ic
am al
ĠM E
ĠM T
ĠC ategory
ĠB ug
ĠD atabase
el ity
Ġal bum
Ġch urch
Ġcomp atible
Ġad jud
He brew
Ġinc on
Ġout comes
ub ar
Ġapp le
Ġapp et
Ġsp in
Ġac ids
Ġcar p
Ġmin istries
Ġ7 1
Ġhuman itarian
asht riya
be h
oura bly
De ath
ĠRe ference
Ġwealth y
Ġfront ier
Ġcolle ague
ĠAsse mb
Ġprec autions
Ġprin ters
ipl inary
Ġbrief ly
Prof its
Ġarbit rary
Ġimperial ist
Ġbat ting
Gener ic
Ġnom inal
Ġmathem atical
Ġautonom y
Ġtroub led
Tag ore
ĠBach chan
Ġdupl icate
Ġfortun ate
Ġfors ake
N I
e ight
m any
r il
Ġs izes
Ġw rapped
Ġc ited
Ġb odily
Ġf reed
Ġd irty
Ġth igh
ad hi
am ana
ĠM um
Ġan at
od hi
ĠG ul
ĠT end
ĠF L
ĠF ertil
ĠK es
ĠK os
ang ra
Ġar c
Ġar id
Ġrec itation
ĠIn v
pend ing
Ġav iation
ug gage
Ġdef aul
Ġ8 2
Ġoper ators
ĠPar ish
Ġpat ch
Ġri ots
AN CE
At tend
val ue
Ġdel usion
Ġrespons ive
ĠZ ak
Ġaccess ed
Ġded icate
arat us
Ġadministr ators
che ll
Ġfail ing
ĠSur ya
urb ed
Ġpred ic
Ġexecut ing
ĠSchool s
Ġyield ing
Ġhop ing
Inc re
Ġroof s
Char acter
nut rition
Ġcalam ities
Ear ly
Ġmould ed
Ġconsolid ation
Ġcharm ing
Tar get
sex ual
ĠIss ue
Ġunn ecessary
Ġunav ailable
ĠHit ler
, ,
2 000
A round
D T
f ar
n amese
t ry
Ġc arn
Ġb uck
Ġp us
ar ance
Ġm ans
Ġm oneys
Ġd are
Ġd ental
Ġn ull
Ġe ternally
Ġy ards
Ġg aining
ill ance
od er
Ġcon ferencing
ĠB BC
ĠG et
iv ism
ĠN ever
Ġthere for
Ġun limited
Ġno on
ass y
ĠV ersion
Ġapp s
Ġprov en
Ġsp inal
Ġwork force
ĠIn nov
Ġqu ad
Ġbl oss
Ġinv asion
Ġatt aches
Ġ5 000
An swer
Ġimp ulse
Ġsm iled
Ġconc luding
ruct ive
iod iversity
Ġorgan ise
cl oud
Ġ8 4
ĠAn s
Ġself less
ĠCal ifornia
ĠBe zbaroa
Ġwid ows
Us ually
IL ITY
Ph one
Ġtri ple
Ġfocus ing
ĠVal miki
Ġfert ility
Ġdemonstr ate
Mus ic
izont ally
urved ic
Ġhyd rogen
Ġorn amental
Ġrig orous
ĠRece ipt
Ġspecim en
ĠResp ons
ĠMach ine
ĠPhilosop hy
Jew s
Ġinfrast ructural
ĠMish ra
8 8
F ight
G NOME
J awaharlal
L ess
P ad
g ly
j ack
m ohan
r he
Ġb anned
Ġm es
st ick
ĠS ure
ch in
Ġst ating
ri ver
ĠB r
and e
Ġv ed
ĠE ss
Ġcan st
ĠU daipur
Ġacc red
led on
ange et
Ġcre ations
Ġfl ute
Ġcent enary
So ftware
Ġend ors
Ġshe lf
Ġgl imp
Ġtruth s
Ġdem ographic
Ġben ev
Ġalong side
Ġobs c
Ġmodern ization
Ġcredit ors
Ġpopular ly
ĠSw achh
oday a
acc ording
Ġcoun se
Ġdisp ersed
ĠBl iss
ask et
ĠSpe c
AC H
Ġsuggest ing
MS ME
Ġren unciation
ĠPen insula
Ġfix ing
Ġpermiss ible
Ġrig id
Ġpupp ets
Ġhorn s
ĠPhil ippines
Ġlin ear
Ġmandap as
Ġhither to
à¤¾à¤ģ )
Ġglimp se
; .
K AR
M ag
O ption
T em
r ath
s ang
u aries
y o
Ġt ear
Ġp t
an tern
Ġh al
Ġn iche
Ġe rected
Ġl aughter
ut s
se lect
Ġfor ge
ad ar
ig ator
ĠM idian
ĠC op
ĠP etition
ĠB oth
ĠR un
ac ia
un ks
ia ison
Ġch lor
ome gran
ĠF ifth
Ġme nd
Ġen shr
Ġun anim
ĠU buntu
ail ure
ile m
Ġar ithmetic
port ion
Ġpre cept
Ġrec urs
ĠSt an
Ġem an
Ġpr ud
ific ant
Ġra b
ĠMin or
Ġterm inated
Ġeffect iveness
az aar
Ġfun eral
Ġsw ore
Ġplan es
Ġpost erity
gu pta
Ġimpro per
ĠSub mission
Ġstri p
ĠCol lect
Ġestablish ments
Ġfast est
Ġred ressal
ufact uring
Ġinform al
Where as
ĠTrans lation
anes war
ulpt ure
ĠDes cription
mar ine
200 7
200 8
Ġcop ying
Ġefficient ly
Ġimmense ly
Ġabsor ption
Ret rieving
Bas ava
Ġconstitu ency
Mult iple
Ġparas ites
ĠHus sein
Ġnemat ode
ĠUNIVERS ITY
Eff orts
uxemb ourg
B ox
E arth
I Z
P D
R ate
a vers
b ag
f amily
m ain
Ġ \\
Ġs its
or ic
Ġc raw
an ical
Ġy ard
ot or
ĠI GN
ig ating
ra k
ul g
Ġcon sec
Ġex ting
ĠD ub
Ġv est
ac qu
ĠF inal
Ġdis gu
ase ment
ath olic
ĠJ y
ĠCh romium
ĠSt rong
Ġcount ing
Ġjust ification
ital a
Ġmin imal
Ġbook let
Ġkind red
Ġlight ened
rict ion
Ġtax able
Ġhands ome
IC S
amb ique
over ty
Ġ194 4
RA M
ĠPh ot
Tr ade
ĠBl aze
Ġtravel s
Ġrevolution aries
Ġdece it
Search ing
Ġadequ ately
swe et
Ġhasten ed
ĠYear s
ĠArch aeological
ECT ION
Ġvac ant
Ġsymp athetic
Ġembra cing
Ġbef riend
Ġperse vere
Ġhumb ly
Ġdow ry
Pol icy
ĠNal anda
Nob ody
acker ay
ĠBIR TH
Ġexting u
B ig
H ari
P resent
R ules
f ish
g s
g ov
p rev
w aste
Ġo re
at hed
Ġc ott
Ġp arch
ar ound
Ġin hib
Ġh orm
Ġre iterated
im la
Ġu seless
ĠS O
ig uous
Ġha ught
Ġse men
ĠB ri
ak ra
ain ment
ĠR ub
ĠR ound
ĠL ibraries
Ġk ills
os ion
av ar
Ġind ef
Ġcl o
ious ness
Ġsc aling
Ġprov es
There upon
Ġcol on
Ġwom b
ug al
ern el
Ġint ake
Ġloc ality
uk a
Ġmer chants
Ġstr ang
Ġ15 00
Ġel ite
Ġpriv ately
Ġstat istical
Ġded uctions
Im plementation
Ġdeli vers
Ġmultip lying
Ġforb ids
Ġattend ant
ĠMon te
ingu ished
ĠTra vel
ĠArt icles
Bl ock
ĠPrincip les
Ġexplo it
Ġcompar able
ĠAut omatic
ĠLet ter
Ġtub erculosis
ĠDown load
Ġpion eer
Ġpy ram
ĠBhav abhuti
Ġremitt ance
Ġprobation ers
Ġsubserv ient
Ġvenge ance
C a
J ob
R u
c raft
d ust
m em
m aid
o ic
Ġt ut
Ġp iv
ar ial
Ġm ates
Ġm ism
ic ates
ad el
ĠA CT
ĠC EL
Ġcon gen
ĠT ub
our cing
ĠE p
ĠF air
Ġus her
Ġcan vas
pl aced
Ġunder way
ack s
Ġoff ensive
ink ling
Ġfl ung
ister s
Ġspec ifies
Ġcommun ist
Ġdirect s
Ch apter
Ġpolit ician
Ġsupp orter
Con struct
Ġassess able
Ġsuff ers
Re quest
Ġ16 0
Ġinternational ly
Ġsound ed
Ġfort night
Ġpoll uted
Ġblind ly
ellect ual
Ġcalc ium
Ġneighb ors
Ġpric ing
Ġcook ies
Raj asthan
Inc lude
ĠDem ocracy
ĠCompan ions
Mem o
Ġsolid arity
ĠÂ ķ
inte gr
Perm ission
Ġvoc abulary
Nep al
ĠBeg um
ĠCP U
Ġhymn s
A V
C oll
F iles
J a
O bs
S us
T rack
U E
V iet
a very
y d
at ial
at ivity
ou st
Ġp ockets
Ġin fections
Ġe ats
ot ent
im als
ad ir
ĠI gn
ig hed
ra pe
ĠM iss
ĠM itra
if a
ĠH ER
ĠH aman
ĠB ag
ĠD EV
Ġne ur
ĠE U
ĠF A
ĠK har
Ġres ent
Ġ" -
Ġag ing
ach ar
Ġapp aratus
ĠPresident ial
Ġpur ification
Ġrep lying
Ġmust ard
Ġmen ace
Ġdev ast
Ġdev ising
Ġsl avery
Ġide ological
Un ivers
Ġreve aling
Ġregard less
ĠCommission ers
Ġmis gu
Ġz akat
Ġdeal ings
sp ace
RA S
che ster
Ġconv inc
Des ktop
Ġhar assment
Ġbeaut ifully
Ġpack ed
Where fore
Ġload s
ĠEmp athy
Ġamb ition
atri k
ĠDec ision
ĠLink s
Ġcos ine
Ġadvis ory
Ġhumili ated
abs or
Ġenlight enment
Ġconfir ms
Togg les
Ġmagaz ines
Ġoverwhel med
Ġvot ers
Ġclin ical
ĠPRA D
ĠPoon a
Ġdestit ute
5 9
: "
S ix
V C
Y ahoo
s er
Ġw ounded
Ġf isheries
im ity
ĠA SS
Ġan a
ĠB OLD
Ġsh un
Ġpl ough
Ġdis qual
rit i
Ġcl os
fore ign
fe ree
ĠCh all
ons ense
Ġdes erving
pos s
There in
Ġmon arch
Ind ra
Ġgener ator
su pported
Ġce ases
Ġeconom ical
Ġauthor itative
Ġty rant
ccess ful
St ream
Ġche ques
Un icode
Ġconst raints
ĠAl one
De ep
Ġlink age
Ġ13 2
sc ale
Pl ant
Ġfail ures
ĠMem orandum
200 4
Ġcop ied
Ġconver gence
Ġcolour ful
ester ol
Ġincident al
Ġsubstant ive
Ġproport ions
umin ium
Ġdecor ative
Ġmyth s
Ġnutrit ional
Ġgland s
Ġadvert isement
Ġcul p
ĠCS V
Ġkin ship
Wel coming
ĠSer ial
Pres ently
Ġbeet les
Tor ah
ĠCerem ony
ĠPond icherry
Ġrespir atory
% ,
D en
F ixed
H alf
L aksh
O il
S har
l ace
l iving
m oil
n u
n ail
p iece
s ure
u ating
w ent
w all
Ġa ce
Ġb ust
ed e
Ġin ert
am Ass
ĠS iv
ir aj
ig ent
od ium
ĠP othana
Ġpro jection
ĠB ased
ĠG rid
Ġsh ades
Ġ1 01
ĠT ry
Ġch ron
ĠF ax
Ġpe pper
pl ified
Ġout set
Ġ19 14
Ġtw ent
pos er
Ġimport ing
akes pe
reng then
Ġsupp ressed
Ġbelong eth
Ġreject ing
ĠBe fore
Ġreform er
ĠCl oud
Ġcoop erate
urt i
Ġjoin ts
Ġtemper ament
Ġseason al
Ġoblig ed
Ġwa ited
Ġimprison ed
Ġkn ife
ĠVol ume
wali or
Ġly rical
ĠBir uni
Tw enty
EB R
okh ale
ĠSrin agar
Ġmolec ules
Pak istan
amAss assin
A E
D ig
H an
O ft
g iving
l en
s ign
in j
Ġto His
Ġh i
Ġre ap
Ġy arn
id able
ad asa
ir am
Ġas piration
ĠM ans
ĠM aterial
ĠC ards
ĠB oston
ĠG a
ĠG or
ĠG haz
Ġ' (
ac r
ĠL ayer
ĠL PG
ĠW atch
un ately
ong s
ost er
Ġcomp ounds
Ġcont empor
rit ic
ĠThe atre
ric es
Ġfe udal
ĠGo bind
Ġform ulating
aw at
Ġpos ed
Ġcor rection
Ġref ined
stitution al
Ġrev ives
be an
Ġfarm s
Ġ13 0
Ġprotect ive
Ġfair ness
Ġemb odied
Ġep ile
Ġpurch ases
Ġpurch asing
Ġattempt ing
OS E
bal ance
Ġimpos ition
ĠNar asim
ĠRed ressal
mn ip
Ġsus pected
Mus a
Ġdram as
Ġclar ified
inte llig
Ġadj acent
ĠNor way
ĠEle ctions
Ġdisag reement
Ġworksh op
ĠVig ilance
ĠSuf i
Ġingred ients
Ġportf olio
C ivil
H on
R oman
g il
l ie
s ir
in vest
Ġs ages
is ure
Ġre be
Ġl ap
ĠP ap
ĠP IN
Ġst atic
Ġpro c
ĠH ol
Ġse est
ĠR anj
Ġv oy
ĠT alk
ĠW ard
un als
ard han
ĠE thi
ish a
Ġad h
iz able
Ġyear ly
ĠIn put
Ġneed le
Ġshe pher
Ġgr ams
Ġexp orter
Ġperiod ic
Ex pl
ai ro
ĠEx penditure
Ġpat ches
Ġdep ressed
ĠMu j
ĠGu ide
Ġpain t
Ġlink ing
Ġtrust ee
Ġconduct s
Ġreject s
Ġsubs id
Pl ayer
oll ah
de ath
ĠMed icine
ĠBal arama
Qu ick
cont ent
Ġstore yed
Bl ood
Ġthank ed
Ġbuy ers
Ðµ Ð½
IF E
Ġeth os
Ġmig rate
Ġ188 2
Ġencry pt
Keep ing
ĠEnt repreneurship
Ġcomplic ations
Ġpour ing
Sum mary
Ġpredomin antly
ĠGall ery
D urga
F ast
K ashmir
U ND
f ear
Ñ Į
er b
ing h
Ġto xic
et or
Ġor ange
Ġde fer
Ġex cel
ĠD ATED
um ption
art hen
Ġr ust
ĠN ivedita
Ġpl ight
Ġj est
ik aner
Ġunder gone
iss ue
Ġdes cends
Ġra ises
ĠBh awan
Ġcol ony
Ġinter fere
eg a
Ġfore going
Ġloc ate
Ġbro ker
min ent
Ġsk ull
AR E
Ch ild
str ing
ĠAn cient
Ġeng ines
Ġann ih
ĠPl ans
amb h
Ġur anium
Ġdon ation
Ġsubs cribed
Ġconv ince
ĠMar atha
Ġda emon
aur i
Ġ192 4
ĠQu estions
Cent er
Ġdrop s
Ġlaunch pad
ĠStud y
Know ledge
ĠProdu cts
Bhar ati
Ġrelie ve
mand u
ĠRen ew
Ġdecent ral
ĠSav arkar
ĠOpp osition
Ġalche mist
7 2
D ed
J ava
W arn
f inal
g ir
l ords
m ag
p rom
} "
er i
at u
Ġw ounds
is se
Ġe k
Ġl ined
id ae
ĠS i
il as
Ġan throp
ĠC amb
ĠP OL
Ġsh y
ĠR O
ĠL E
qu n
ip al
ĠK ala
Ġpe nd
ib re
ile th
ub born
ĠY atra
Ġ3 000
Ġpur ifies
Ġcur ved
Ġ8 3
Ġsl ander
por ter
Ġver bal
Ġactiv ate
Ġfr inge
Se x
ann ers
Ġple asures
Ġ11 2
Ġel igibility
Ġshort ly
IC AL
tt es
Ġrepresent ations
Re qu
Ġmag istrate
Ġsal aries
Ġacqu aint
Ġassist ing
Ġindepend ently
ales e
ĠMem ory
Ġpetition ers
urg ical
Ġ192 7
aud h
Ġearn s
Ġfit ted
âĢľâĢĿ ,
Ġideal ism
Ġsustain ability
ĠNar ayana
Ġcru c
ĠSum mary
ĠReport s
FC I
ĠBan aras
Ġpet ty
ĠAnt i
Ġincent ive
Ġlaugh ing
Ġenv y
Ġbare ly
osc ope
Ġreass essment
Ġswit ching
Tele phone
Ġbeet le
Ġcher ished
Ġtact ics
ĠOri ental
Ġneut ral
Ġmol ten
ĠTeh ran
Karn ataka
ĠPRAD ESH
; "
B est
C ES
R ab
T owards
d ad
d rew
m o
n amed
o nder
r ification
s per
in qu
re land
Ġc ous
Ġc ivic
Ġm asks
Ġbe lly
Ġre imb
Ġl ens
ad ers
am oy
ĠS amm
ol is
ĠP IB
ĠB all
ich i
ĠF re
ĠK V
ĠK utch
Ġim plements
Ġup load
Ġun le
Ġform ulate
ener ate
Ġtra its
ov ak
Ġdef ense
Ġpun ct
Ġvis a
ron es
ran ches
IT IES
ara o
Ġcharacter ised
ung a
Ġremember ing
Ġofficial ly
Ġbal ances
Ġcoop er
Ġchast ity
Ġhar b
Rec ord
Ġproced ural
Ġconsist ently
Ġ192 5
Ġpill ared
Com pl
Ġrej uven
Mark et
ĠKar achi
ĠMahabhar at
Ġment ally
Look ing
ĠAN N
HO ST
ĠAry ans
Agricult ural
Leg al
Ġbew itched
Ġaccompany ing
Ġdisadvant aged
Ġbrack ets
Emp athy
ĠCEL EBR
) '
B an
N ESS
P IN
P OP
U nto
a us
b usiness
g ers
j ourn
r ases
Ġt ala
ed eration
Ġf ired
Ġp ap
Ġm ate
Ġth ieves
Ġre aring
Ġl es
se a
id avit
ĠM il
ĠC ities
Ġst retc
Ġare n
Ġsu its
Ġv ind
el o
Ġall y
Ġdis ple
Ġinc hes
Ġind uced
ĠV y
Ġapp rehe
Ġrel ied
Ġpre fix
Ġpo inter
Ġqu adr
ĠTh ailand
Ġins ol
Ġlet ting
Ġcur ious
ĠOF F
St ock
ĠMah ab
ĠRaj iv
umb led
Ġdecl ining
Ġdecl ares
Ġsun set
Pl an
Ġtry st
ĠCorpor ations
Ġtarget ed
Ġpil asters
raf at
Ġvolunt arily
Ġban ana
Cons ervation
Ġfavor ite
ĠAdv ocate
Ġtim ber
Ġshop ping
ĠAtt achment
xx xx
Ġnav igation
agon al
ĠOper ation
Ġhab itation
Ġmix ing
ĠTerm inal
Ġcater pill
Ġlegend ary
Ġresemb ling
IVERS ARY
Ġdiscard ed
ĠFour th
imet ers
Ġsorce rer
oler ance
ĠDyn asty
ĠIGN CA
akespe are
5 1
A I
B ug
P e
P ra
T ab
b uilding
j ad
p ath
p oints
s ch
Ġ vern
in ished
on na
or ously
Ġp avil
Ġm ile
Ġd uct
Ġth rows
ent a
Ġu d
ĠS ut
ĠS now
ir ts
ĠM ax
Ġst aged
ri ad
ĠG P
Ġex ert
ĠT urn
ĠT RA
ind a
Ġen zy
iz z
ĠU nt
Ġout line
ific ance
Ġafter ward
ange red
ange ls
ĠPro duc
Ġpos it
und a
me aning
Ġins u
EN G
Ġperiod ically
ĠEx pert
ĠTr aditional
ĠRam akrishna
uss ions
Ġcost ly
à¥ Ĥ
ĠPl ayer
OR M
Ġill iterate
Ġhon ored
Ġgri p
Ġsuper vis
Ġcivil ian
Ġ193 3
Ġpossess ing
ĠMon u
Lo an
ĠLegisl atures
Ġseem ing
Ġexcl aimed
Rel oad
ĠAnn uity
Ġconfident ial
Ġ190 5
ĠHead ers
Like wise
ĠDem and
Ġvig orous
Ġflower ing
Read ing
Ġdivor ced
ĠMat hem
Ġparas ite
Ġash amed
Ġcord ial
istor ical
Ġnurt ured
ĠNE W
ĠNarm ada
Ġuntouch ability
Tom orrow
Ġsubmiss ive
Ġcrad le
ĠANN IVERSARY
B ra
J ag
P ract
b in
d read
g rand
p ret
v iously
Ġin ex
Ġd ub
Ġd iction
Ġe t
ver ing
ĠA PI
Ġwith drew
ĠB ecause
ĠG ad
ĠD ig
ĠT emplate
art ered
Ġman ure
Ġen forced
Ġun rest
Ġj aw
Ġind ifference
Ġno bles
ack ing
ĠY aj
aw i
ĠTh akur
Ġjust ify
Ġins ist
Ġpass phrase
Ġfore front
Ġfa ctions
Ġprof itable
ĠMah m
Ġ18 00
lam in
ator ium
Ġ15 3
Ġbo ats
Ġobs cure
Ġener gies
Ġsin ner
Us ers
Ġbi ology
Sc reen
Reg ister
Ġborrow ers
Com pleted
Ġgrand mother
Ġgrand eur
Ġmal aria
Micro soft
Ġmil estone
Ġhes itate
Ġroll s
gra ins
Ġfount ain
Ġfount ains
Ġaqu atic
Ġunwill ing
ĠBroad casting
Ġblasp he
Ġfu els
Oft en
B ill
B eg
E r
L ove
N am
S em
c ond
i antly
o op
p oor
er cial
Ġm oths
le e
ut enant
se ven
ur ious
ĠM ethod
ĠC ant
ri ka
ĠH erald
pe ace
em ployed
ĠR EL
ĠL IFE
oc ations
ĠN ames
ĠN iger
Ġch ill
Ġab n
Ġen chant
ap utra
Ġso ap
ib ia
Ġacc ession
Ġsub mits
Ġform idable
ond ent
Ġdec rees
Ġtrans it
ĠTh ackeray
Ġed ible
Ġph il
ĠDe ve
Ġinter actions
Ġspec ification
ov id
Ġint act
For ce
Ex c
Ġhigh ways
crib es
Ġdiv isible
Ġfr anch
het ra
Ġaut obiography
Ġmis under
Ġsat y
ĠCong o
Ġimm igration
Ġphys ician
Ġsuper stit
Ġign omin
Ġfalse ly
Ġcompl ained
Ġpack aging
Ġswe at
Ġfra gr
ĠDis abilities
Ġinaug ural
Ġmeant ime
Ġdefend ants
Ġindig o
Ġsanct ity
Ġkings hip
Ġnurs ery
Account s
Ġquarter ly
ĠRead er
ecess ors
Ġresemb les
Ġunsu pported
ĠWOR LD
Moh ammed
Techn ical
Ġthir teen
ĠSERV ICE
Ġgour d
5 3
B us
M ode
M ilk
P ix
S ingle
b old
b oy
c ot
f aith
h ouses
t or
v ari
Ð ¶
Ġf aint
Ġg az
Ġfor a
ad weep
Ġhe ated
ĠP rav
ĠH oli
th ought
Ġby e
Ġcom pel
un w
Ġpl ates
ĠK ul
Ġinc apable
ach a
Ġte ch
Ġsp acing
row ing
Ġdisc ord
Ġrequ ital
Ġplay list
Ġdisbelie ver
ĠPar am
gy z
Ġtre asury
Ġclass room
Ġshare holder
rem acy
Ġten ancy
Ġpast ure
Ġsubs cription
Ġcut s
Ġqual ification
Ġpred ecessors
Ġfurn ishes
Ġjoy ous
ĠAsh oka
yr gyz
ĠHon ourable
Ġthrow ing
Ġconcl usions
ĠDec laration
Allow s
nex ure
ĠAry a
ĠEle phant
Access ible
Ġma ize
Ġexcav ations
Ġju ice
Ġabdom inal
Ġcha os
ĠSOC KS
ĠPack age
ĠEncry ption
8 9
? !
G rad
M ill
M and
N ag
P T
x is
on ing
it eration
Ġb ree
Ġb icy
Ġh t
Ġfor c
ur ban
ĠB or
ak hi
Ġsh ack
ĠD aman
ĠT RU
Ġne at
Ġne ct
ĠN ov
ag le
ĠK it
ok er
au nd
Ġ19 17
ĠV ad
form atics
Ġem bell
Ġfe ather
Ġrem it
ph thal
ple asant
ock ey
An and
Ġimp orter
oh ann
Ġhead ing
Se ven
erc ent
hy d
sp oken
Ġvari ables
Ġer stwhile
Ġfoc uses
Ġtele ph
rim ent
iter acy
Ġbow ing
ĠMad urai
200 9
Ġprot ocols
Ġadmon ish
Ġguarant ees
Ġdisg ra
ĠAut om
ĠMand ali
Ġfilter ing
ĠSC HE
atell ites
Ġdisturb ances
Ġmyth ology
Ġkn ock
Ġswall owed
Process ing
Ġpenet ration
Iss ue
Und o
Ġhaz ards
Encry ption
ĠKen ya
Ġsho oting
Ġdisl ik
ĠLabor atory
ĠHen ry
1 50
M alay
M oon
R IT
S orry
b red
g uru
h r
h ome
h orse
l inary
o har
v ings
er ly
Ġf itness
Ġf oul
Ġbe es
ĠS n
et erm
ĠH uss
Ġcon quer
ĠB id
ĠD ance
ĠD uty
ĠD ipl
ac re
Ġch ambers
ĠF riend
Ġun ions
In vest
Ġco arse
Ġacc us
Ġcount s
à¤ ĩ
ew orthy
Ġpay ee
Ġbook ing
az y
Ġdr unk
Ġri vals
ĠGu est
ĠIslam ism
Ġmean while
att i
Dis k
Ġdoubt ful
ĠCo ll
Ġnovel ist
Min utes
ĠKashmir i
200 3
Sp ace
Ġopt imum
Ġassum es
Ġintellectual s
ĠOut put
Key words
Ġslight est
Ġmak eth
Ġsecular ism
Ġadvert ising
Ġstup a
ĠHindust an
Produ ction
Proper ty
ĠHot el
Dom ain
Ġbureau c
ĠLin ux
Ġendorse ment
ĠBhub aneswar
ĠAssemb lies
Ġrebe lled
. :
6 2
B road
E ight
E astern
P ython
R ain
b ri
d oub
g ium
p ol
r uth
y ard
he rence
Ġs ow
at he
al in
ic ides
Ġn od
Ġn inth
Ġbe ast
Ġg ush
Ġfor ts
im ag
ay ak
ĠI ll
th r
ist a
Ġne p
Ġdis asters
ĠK sh
Ġcan opy
Ġad oration
Ġun god
ĠU tt
Ġspe lling
cept ible
Ġent itle
ĠSh ipping
con st
ĠPr ice
eg g
Ġgra ced
Ġamount ing
ĠTe achers
Ġpar amount
Un supported
put es
En ables
ours es
Ġforeign ers
Ġdecl aring
Ġpot ent
att am
Ġvari ance
ici encies
Ġdiscip linary
ĠAir lines
Ġcalc ulate
200 5
Ġsort ed
Ġcapt ain
Ġcapt ives
Ġeditor ial
Ġtransform ing
ĠMa ury
Ġdescend ed
ĠMount ains
Config uration
ĠUT F
Ġcrowd s
Ġhes itation
Bi har
Ġdischar ging
Ġcomplain ant
ĠStat istics
Ġmanif ested
Sol omon
ilgrim age
ĠChatter jee
oliv ia
J h
K orean
S V
d ition
k ot
t alk
in ine
in vestment
Ġo we
le m
Ġre per
ro lling
Ġu gly
ĠP osition
ab etic
ist ically
um i
ĠL ate
ĠO cc
ĠF iron
ĠK y
per se
ik sh
ĠJ UN
ach ine
ĠV i
fore ver
Ġqu eries
ĠSh akespeare
Ġgu ys
ĠTh ank
ĠUn known
Ġcol onies
Ġcommun icated
Ġread able
istr ates
ĠAn imal
ta qun
Ġmis use
ĠRRB s
Ġimm une
pro cess
Ġcheck s
Ġer r
Ġconsum ing
ĠAm ong
Ġhistor ian
Ġep ics
Ġdesp ised
ĠSur i
Ġattract s
Ġburd ened
Ġhot els
ĠCan adian
Ġdebt or
ĠVis itor
Import ing
ĠChar les
ĠCommun ications
Mod ify
gent ina
Ġjournal ists
ĠPri or
ĠBack up
ĠDar jeeling
Ġgrat uity
Ġly rics
ĠDocument ation
Ġclimb ed
Iss ued
Ġsplend id
Ġexplos ion
Rad io
Oper ation
FR DA
ĠOlymp ics
ĠStr ategic
B anks
L C
M ong
O wn
S ty
T en
c ong
v enth
Ġt ig
Ġa ids
Ġthe ft
Ġb ars
le vant
im acy
ver bal
ĠS EC
Ġpro w
ĠB rasero
ĠD IS
ĠR EP
ĠT otal
ĠN eg
Ġal oud
Ġpl ague
Ġab ilities
ok as
Ġun e
Ġper cussion
ĠU k
Ġind ifferent
ace ous
ĠV enture
Ġsc arc
we re
ĠCh icago
We ek
Ġrem oves
velop e
ec k
Ġher b
Ġinv al
Ġins ulin
Ind ust
Ġsl aying
Ġcontin uation
ĠMah adevi
Ġmar riages
Ġassoci ating
Ġsol itary
ĠDo om
Ġdesign ing
Ġexpect ation
orpor ate
Ġgen us
Ġremind ers
fl ower
Ġpotential ly
Ġbi omass
Ġvision ary
ĠNot es
ĠCO MP
Sc roll
Ġthreat ening
ĠDes ert
Ġdeleg ate
ĠMun shi
Ġobst ruction
Ġble nd
Ġfle w
Ġdivers ified
Ġsed uce
Ġfasc ism
Ġprince ly
Ġprompt ly
anth rop
Ġfright ened
Ġabol ished
ĠJava Script
Farm ers
ĠIniti ative
Ġinflic ted
ĠYad av
Ġbrace lets
Ġappet ite
Ġconvinc ing
F T
K a
M un
M ouse
N ormally
P anch
S ud
Y esterday
k eeper
n ings
p rop
r ush
u ations
on el
is i
Ġm orn
Ġh ides
Ġl ords
ig s
Ġhe ter
ĠM ilitary
Ġan ten
ate red
Ġcon sole
ĠB ase
ĠB order
ĠG TK
and ah
us ole
Ġex quisite
Ġv ap
ĠN amb
ĠK oh
Ġim itation
Ġcomp ose
og i
ik as
ĠJ ung
Ġar isen
Ġacc use
Ġsp ool
Ġshould n
Ġcol ored
Ġinter cept
Ġfin anced
Ġwind ing
tend ed
ĠQ atar
Ġbank notes
ann uation
for cing
Ġorig ins
ched uled
Ġut tered
Ġnetwork ing
Ġmodern isation
ke eping
Ġconsum m
Ġexc luding
Ġred ist
rew s
Ġdraw ings
ATION AL
je el
Ġmanifest ations
Ġcontract or
Ġstrugg les
ĠWhen ever
Ġprob ability
Ġgreen house
ĠSpe ed
Ass essing
200 1
Ġwo ven
Com plete
IM AP
Ġgrass h
Ð° Ð½
Ġpresident ial
ĠCor ps
Ġsimpl ify
Ġil leg
ĠSubs cribers
Print ing
Ġacknow led
Ġsplit ting
Get ting
Ġcos m
cel eration
ĠCopy right
Ġmotiv ated
Inf rastructure
ĠEk iga
Ġthunder b
ĠMut taqun
ĠCert ification
Ġswim ming
olith ic
ĠCONFER ENCE
Ġcott age
E nergy
P a
P ause
V irtual
Y A
o ever
v ial
on ge
Ġf ury
Ġp ounds
ro ach
ay un
ad der
ĠS avings
if era
Ġsu ite
ĠR ome
Ġall er
ĠO verseas
Ġdis pose
ĠU m
ise ments
Ġsp acious
ec essor
Ġ3 50
Ġdes erted
à¤ ļ
Ġadd itions
Ġprom ising
Ġprom ulg
Ġint rig
Sh iv
Ġcor on
Ġperiod ical
Ex per
Ġmed i
Ġbeg u
ĠAb bas
ĠBank im
Ġstri ves
Ġsuper mind
Rem oving
Ġglobal ization
Ġaud itor
Ġste pped
Ġround ed
Ġswe ets
ĠÐ ¿
Ġcou pled
Bl ank
Act ivate
Ġaltern ation
Ġmicro scope
HA ND
anj ali
Ġren ounce
CH APTER
Ġupgr ading
ĠArch ive
DA V
Ġconvers ations
Ġclar ity
Ġtow ers
Ġdies el
Ġuncle an
Ġadverse ly
Ġquar rel
Ġepis odes
Ġdestro ying
Ġpharmaceut ical
Ġsuperst ructure
Ġsew age
Ġinequ ality
cycl op
RIB UT
Ġgrands on
I E
O ste
O fficial
P DF
R ub
c ade
o ading
u q
Ġw ipe
ar pur
Ġd ys
Ġl ining
ay u
am ins
ĠM C
ĠM el
od i
ĠC her
ĠC roat
ĠC onditions
ĠP AC
ĠP uja
Ġwe eping
ĠB on
ĠL ouis
ĠW as
Ġk ar
un known
Ġle nder
Ġper v
are l
ĠIn jeel
ph il
ĠSh ak
ink le
arm s
Ġpos es
Ġlong ing
Ġfin ite
ĠMah ap
ER AL
Ġnever theless
Ġunderstand s
IT ION
Ġbeg otten
Ġdri vers
ĠSy mb
Ġundert akes
ĠIm ages
do ÄŁ
ĠSA ARC
Ġlib erated
Ġengine er
EL L
Ġcy cles
Other wise
Ass uredly
Ġconsult ed
Ġseed lings
Ġlack ing
Ġsettle ments
ĠPand avas
ĠBuddh ists
ĠMal abar
Europe an
Ġexhib itions
Prof ile
ĠText iles
inst ein
Ġadapt ation
AND HI
ĠTele phone
ãĤ Ļ
Ġadm ired
Ġshock ed
Ġafflict ive
Ġinvestig ations
ĠRat na
Ġmurd ered
Ġintr ins
Ġpenit ent
ĠKaly an
Pand it
Ġmarty rs
amoy i
doÄŁ an
9 7
C ash
Q ue
R ich
T ur
b est
e get
n ana
r ans
w ould
w ild
Ġw il
Ġc erv
Ġto il
Ġbe arers
Ġe arthen
Ġl apse
Ġl uggage
id asa
ĠI CA
ĠS iyaramsharan
ĠP H
ĠP ASS
Ġ( âĢľ
Ġcon greg
ĠR E
ĠT am
pp a
ĠN L
ĠF unction
Ġdis own
ĠK and
Ġup ro
Ġcont ention
ign ation
Ġind uce
ĠJ on
Ġdes cent
Ġdes cript
Ġra v
Ind ependent
Ġcle ans
ruct uring
ĠSc ulpture
Ġbus h
Ġbeh aved
Ġgra b
Ġsk etch
Ch h
Ġfood grains
ĠMe chan
ream ble
Ġpost er
IC K
Some one
medi ately
irt ana
Ġstay s
Ġlog ging
Ġcast ing
Ġstrugg ling
Ġhor ror
Ġdesp aired
ĠSet up
Ġpure r
ĠAt tend
ĠAt omic
OS S
Ġtruthful ness
ĠDi wan
ĠTrust ee
col or
Ġjournal ist
Mess ages
Det ailed
Direct or
Ġentrepreneur ial
Ġcul min
Ġmart ial
fold ers
Ġbutter fly
ĠHas an
Mer ge
Ġnic hes
Ġbot tle
Prote ction
unct ure
Ġslog an
ĠBaner jee
Ġsynd rome
6 1
D atabase
F amily
H old
P RIME
S iva
U pl
c ity
d ocument
t otal
Ġt ide
Ġo ils
re ts
or ated
Ġc ush
Ġto k
Ġm ath
st raight
Ġg ur
et t
et he
et ics
ĠM ul
ĠM ass
Ġpro active
ers hip
Ġex ile
ĠR ock
um en
ĠN y
ĠN ormal
ĠK un
Ġad mits
ru le
ub lished
Ġrec ourse
sh ort
Ġatt ains
Ġown s
hes es
Ġbelieve th
Ġgr ades
Ġlong est
Ġprom otes
ĠDe al
ov a
Ġlist ing
Ġterm in
mb uds
Ġref usal
cl osed
Ġbenef icent
Ġeng aging
itor ious
Ġve ins
Ġshort est
Ġcirc ulated
rec ated
Ġinflu ential
vi olence
AS T
Ġband s
ĠAut o
pat itis
Down loading
Ġmob ility
Ġacceler ate
Stud ents
Ġmaid ens
Ġintercess or
Ġtang ible
Ġshar ply
Budd h
Ġsear ched
Ġgau ge
Ġbatt les
Ġattribut able
ĠReckon ing
Ġparch ment
Ġinval uable
% %
) ].
A IL
A verage
D ark
G r
H el
Y C
f ruit
t imes
w ed
Ġt ion
in ative
Ġf its
Ġbe nd
am ine
ĠS ush
ĠC art
ĠC ER
Ġde ployed
ĠH ast
ĠG aj
ĠR ow
ĠR obert
Ġv ogue
ĠT en
ĠW al
Ġr ings
ĠN B
av ur
Ġdis connected
Ġcomp osing
Ġcomp oser
ap le
Ġres ide
Ġunder went
ĠJ ones
Ġar tery
vern ight
Ġass ass
Ġob jections
Ġdec oration
als a
Ġtra ff
Ġap olog
Ġwant ing
Ġtem pted
Ġgra vity
ĠPar vati
gg reg
Ġallow able
ĠAn alysis
Ġnational s
De leg
Ġcontinu ity
Ġimm ort
ĠSy rian
Ġà¤ µ
Cont ent
Ġcomb ining
has ha
iling ual
ĠMad an
Ġamend s
Ġ192 6
ĠVal id
Ġprem ature
ĠAc qu
ĠOut look
Ġdisg ust
ros is
Ġsimpl er
ĠDef ense
IG HT
Sat y
Ġvac ancy
Ġvan qu
ĠPres ence
Ant arctica
ias is
Ġvim anas
Ġcust od
gon al
ĠKath ak
ĠJagann ath
Ġconfron ted
ĠSustain able
ĠGran th
ĠPud ucherry
A aron
D al
M ic
M ass
] :
c omb
r ank
t ree
w er
w idth
in ted
Ġs atellites
Ġp ains
Ġm box
ur ia
ur ry
ĠS ince
ĠS angeet
ment ed
ĠM id
ĠB ond
ĠB ible
ĠB ridge
ĠD utch
ĠR al
Ġv ines
um bers
ĠL ing
ĠW hether
Ġne uro
ag ri
ĠE c
ĠO l
ast i
ap ura
ine ering
Ġshall ow
ub a
ĠJ ai
act ivity
ĠV eh
Ġrec lining
ph or
Ġbr as
ble ms
Ġnum bered
pr is
Ġend ow
ĠComm od
amp s
Pro gramm
Ġ18 0
Ġwrong ly
Ġforg ing
Al pha
Ġfree zing
Ġcro cod
ĠIt em
Ġspecial ised
ĠSo on
Ġquestion ing
Con st
Ġharm ed
ĠDo ctor
Add ing
ban ian
Tr ust
ĠForg iver
rick en
Ġge ometry
ĠChair person
Ġlegisl atures
Ġmoment ous
Ġfoot ball
Ġsubmit ting
Ġvital ity
Ob viously
ĠMand ir
Ġflight s
Ġdoom ed
Ġtur moil
ille th
Ġpassion ate
Ġexpos ition
rh oea
Ġpersu aded
Ġnurt ure
Ġsplend our
Vol ume
Ġpostp one
Ġcere als
Ġtoile t
ĠKu wait
Ġchamp ion
ĠLect ure
Ġobliv ious
Ġamuse ment
Ġnect ar
F eed
F ax
G al
H AT
P urch
P riy
S on
S aint
a ib
a ution
a way
c apt
e a
p g
p ull
p resent
v iation
w ati
w orth
Ã ³
Ð ¿
Ġ Ñģ
Ġt ensions
er ring
at eness
or ient
es ome
le th
ll ation
im edia
am om
Ġhe ark
op adhyay
ak able
Ġsh ook
Ġv oted
ĠT ob
ĠT reaty
ĠW AR
ĠN O
ip at
ect omy
ast rop
ĠK er
Ġres igned
ĠV irtual
ric ks
ĠâĢĿ ,
ph y
Ġpres iding
Ġend angered
Ġmod ifying
ĠComm ander
Ġequ ilibrium
Ġgener ates
Ġadv ocated
cl ing
Ġbas in
Ġinvest ing
erc ise
Ġsing ular
Ġexpress es
Ġcreat ors
Ġobs erves
ĠRe place
ring e
Ġdeb ates
Ġ194 1
Ġter rain
ĠCont ribution
Ġarch ives
Ġsun light
Ġer osion
Ġprovision al
ĠMar g
Ġred eem
mark et
Ġfront iers
Ġsens ible
ĠPur an
sec ret
Ġsupply ing
Ġcalc ulating
ĠNet herlands
Ġtal ents
ĠPer fection
Ġhabit at
col umn
Ġpsych ic
Ġinhab ited
Ġexhib ited
Ext ra
Ġreprodu ce
Ġtub es
Ġbreat he
bre aking
ĠMot ilal
Syn c
Ġcra zy
ĠFace book
Sha red
ĠKrish i
ĠSovere ignty
ĠMahas abha
apat nam
ĠHuss ain
A ME
W ild
b ee
g ener
n ant
p arency
r atch
w oman
er as
Ġs lic
Ġof t
or ance
Ġc ake
Ġc ured
Ġp ave
al oes
Ġm as
ĠA rafat
ĠM am
ĠM ann
Ġan terior
ĠC onduct
ĠH ans
ĠD raw
ĠR ag
Ġv icious
ant y
ĠW ales
ind le
Ġal gebra
Ġle opard
ag ious
ud es
ast es
Ġunder p
ace ae
Ġem anc
ĠY ash
ĠSh uk
li um
Ġpur view
Ġplace ment
ĠDe h
Ġcar ing
Ġconc ert
Ġrece ivable
Ġinf ants
Ġref resh
ĠCon nection
Ġauthor ization
Ġvis ibility
be at
Ġpost ure
Con struction
cent re
Ġforward ing
ĠConstitution al
Ġfig ured
ĠOn ce
Ġfoc al
Cl ient
ĠSp anish
Ġhar bour
Ġcollect or
Ġsight ed
Ġrepe l
Ġpred ecessor
Ġgrace ful
uff er
Ġtrack ing
Reg istration
Ġmission aries
Ġcoord inating
Ġbul let
ĠCar lo
Prof essor
ogen eous
Ext ension
Ġdownload s
Ġpardon ed
ĠLad en
Ġindul ge
Ġrein force
Ġpipe line
Ġcurt ain
ĠSM TP
ĠVaishnav ism
Ġprox imity
Ġgrie ved
ĠPrakrit i
ĠUndert akings
ĠGentle men
rhe a
Ġscarc ity
B oard
R ole
S ession
S epar
f ollow
g room
m ass
p ana
r ative
w rong
Ġt ribut
es se
ad ors
ra il
od erm
if erous
ĠP le
ĠH A
ĠH al
ah ari
ĠR ot
ĠN C
ĠK ush
Ġcan e
Ġup ward
Ġun ified
Ġ19 10
Ġsc ribe
Ġpre occup
ĠSt adium
Ġcar b
Ġadv ancing
Ġdem ons
Ġlast s
Ġbring eth
ey chell
Ġdeep en
Ġcustom ary
Ġhistor ians
Ne uro
Ġsafe guards
Ġconsist ency
Ġ192 3
ĠFund amental
ĠSar v
Ġfacilit ated
Ġesc ap
ĠIS RO
Me eting
DE V
Ġhappen ings
had ra
Ġplot ting
Ġabund antly
eless ness
Ġvig ilance
Sur ya
Ġenact ment
Ġhur ry
Ġbath ing
Ġpup il
Ġswift ly
Pack age
ĠBhagav atha
Ġchol esterol
Ġincarn ation
Ġsulph ur
Ġvend ors
Ġsumm ons
loven ia
ĠCELEBR ATIONS
7 6
9 1
E gypt
I ll
K ol
M IN
S und
b ase
o ise
y ana
in am
re ast
Ġs ab
Ġs av
at um
is ht
Ġf ats
Ġp ant
Ġin jection
ent ing
ro cess
Ġl ied
Ġl unar
ay al
ĠA G
il ate
Ġhe al
ith ms
od s
Ġnot eworthy
ĠC ould
ĠC ounter
Ġst u
ĠB R
ĠB urn
ĠG raph
ĠR ole
ĠT W
ĠT ai
ĠN inth
ip ment
Ġab iders
Ġun st
Ġacc l
Ġsp aring
gr ate
li qu
ĠUn ity
Ġback bone
pr ay
ides how
Ġlit res
Ġcap itals
Ġest eem
Ġdev iation
oin ter
lam ing
Ġstr anger
ger ia
Ġ20 21
Ġseek ers
ribut ions
ĠZ ones
Ġbar gain
Prov iding
Ġstop ping
Ġforb ade
bl ock
uck y
Ġund es
Ġhor izontally
Ġswe pt
Ġinj unction
Comp any
ĠTax es
Ġgar land
imb ab
ĠST ATE
ĠVis va
Ġtrave ller
ĠWith out
ĠChar acter
Ġcouncil s
EP END
Ġdiam ond
Ġadvis er
Ġstim ulate
Ġenv oys
Ġgn ome
Ġenlar ged
Ġpion eering
Ġluck y
Ġcommem orate
ĠContract s
ĠEr doÄŁan
Ġchick en
Bang ladesh
Ġsadd ened
Ġparad igm
Ġcounterpart s
Determ ines
ĠGurb akhsh
ilem ma
) %
C ursor
G ur
L aunch
M art
P olitical
c reat
c oll
m pt
m ilitary
o fficial
w ami
w right
w adi
Ġt il
re ce
Ġs own
Ġs aves
Ġc ock
Ġin tern
Ġd in
Ġbe quest
Ġg ambling
ĠA RE
ĠI ron
ĠS agar
ch ase
ĠM ata
Ġnot ions
ĠP AR
ĠP urity
ri pp
Ġde ployment
Ġwe ep
ak am
and id
ĠInd ore
oc ence
te chn
Ġle verage
Ġdis contin
Ġany more
Th anks
ĠU d
ĠU pper
Ġout rage
ass er
Ġapp laud
ĠIn valid
tern ess
Ġfe ast
aw l
Ġbl ows
Ġcre w
Ġrep ents
Ġinter rupted
Ġheart ening
Ġest ates
Ġsur faces
Ġref uses
Ġtem p
here after
Ġdirect ing
ote ch
Ġforg ave
Ġri pe
ĠSing le
chie ve
see ker
ĠComp uting
Ġparticip ant
Ġcivil izations
Ġemer ges
ĠBi j
Spe ll
acc a
Rec ruitment
Ġexerc ising
cend ants
ĠSign ificance
Ġpursu its
ĠPat il
ARD AR
Ġpromotion al
Ġregister ing
Ob ey
Ġmock ing
Prom ote
Ġtoler ate
Ġvan ity
Ġcart oon
Ġflour ish
bb ing
Ġalter ation
ĠSuper intendent
Ġdiver t
Ġdow nt
ĠGriev ance
ĠChaluk yan
ĠChancell ors
ĠPART IC
Ġmyster ious
ĠFIR ST
ocr ats
Ġdefaul ter
Ġtok ens
imbab we
A ch
A lamin
M aster
N ABARD
W ER
c ock
f unction
l isted
z o
Ġt am
re ve
at ist
at oes
it ored
Ġc ipher
Ġf ills
Ġfor fe
ad ia
Ġu rea
ate ment
ĠB ron
Ġby te
us er
ĠR SA
ĠT omb
Ġr het
Ġle isure
Ġwhe reat
ĠF IT
ail ability
Ġind entation
ĠJ at
Ġcl erk
Ġmay est
sel s
Ġra ging
Ġfl ames
Ġfl avour
Ġbr ush
Ġearth ly
Ġdisc om
ĠDe leg
Ġnow adays
Ġgl asses
Ġinf lict
ĠEx hibition
Ġrest less
Ġreal izing
ĠMe em
Ġfunction aries
ĠAg ain
Ġdon or
Ġdeb enture
ousand s
Ġcivil izational
war f
Ġjour neys
Ġarr anging
Ġred ress
Ġwid ening
Ġnar ration
Ġ= %
ĠProv ision
Ġtri vial
Ġformer ly
Ġbow ling
iment ary
Par allel
Ġmiss ile
Ġplain ly
imb ledon
Ġhop efully
US H
Ġstring ed
Ġpreced ent
ĠMS P
isher s
ĠArch ives
ĠAdv ance
ĠAware ness
CD DO
ĠBel oved
Ġuniform ity
ige on
range ment
ĠBer lin
Ġsurve illance
ĠCam bridge
Ġemig rated
Ġoct agonal
rivile ged
ĠATT END
F ILE
Q L
R oad
S om
j ib
m ant
v at
Ġa k
in h
an se
Ġm apping
Ġh id
ut ers
ad ow
ĠS ast
if iable
ĠC L
ĠP UR
ĠB inding
ĠR ana
Ġv om
um ing
un ity
ĠN ut
ĠN irm
ĠN uclear
ag re
Ġup loaded
ĠHe aven
au j
In coming
ens is
Ġind isc
Ġsub stitution
ĠCh i
Ġbefore hand
à¤ ¼
Ġcre m
ĠAct ivities
Ġdist ort
me as
Ġtra inees
Ġexp edient
Ġimp ulses
ĠDe g
man i
Ġplay back
Ġterm inals
Ġfa ire
Ġcontin ents
Ġmight ier
Ġdra gging
erc ing
En joy
Ġcurrent s
Ġve ena
Ġseek er
af sir
Ġut ens
cent ral
aught ered
ĠMar riage
yn chron
New s
Are a
Ġnar rate
Where ver
Ġsle nder
Ġconcept ual
Ġfra gments
ĠÐ º
ĠDis putes
ĠIS BN
Ġimpl icit
Ġcollabor ations
ĠMen u
yl um
Ġreb ate
ĠHon or
Ġrenew al
Ġwicked ness
Ġwaters hed
mat ched
Ġshell s
Ġobserv ance
Ġmotiv ation
Ġdebug ger
Ġmart yr
Ġexcav ation
ĠKap oor
Ġunlike ly
Ġadvoc ates
Ġfoss il
health y
azakh stan
oen ix
Ġcontempor aries
mbuds man
6 3
9 2
D N
G h
M ur
N eg
b rain
c uma
m id
s ay
t re
v ol
v able
re ck
Ġs ore
ed y
an at
ar ithm
Ġin verse
Ġh urd
ro ving
Ġl unch
se eds
Ġg ulf
ur ally
ĠS adh
ĠC aves
ĠB u
all us
ĠD asa
ĠT ant
ĠL ive
Ġal i
Ġal igned
ĠF at
ĠF ak
And hra
Ġper f
ass adors
Ġacc rue
Ġsub lime
Ġtime zone
ĠCh aran
sh y
ob iles
any ak
Ind ex
ĠDay al
Ġcor ne
Ġcor ona
Ġsk ele
Ġver andah
Ġfaith s
ĠTe nder
par agus
ĠAn swer
Ġtrad ed
Ġsupp liers
viron ments
Ġindividual ity
Ġcirc uits
ĠRe qu
Te nder
let ter
ĠMar ine
Let ter
Ġdocument ary
ĠIN STITUT
ĠX V
Ġsatisf ying
Ġste al
Ġbreak fast
Ġoption al
ae ology
ĠSri k
grat itude
Ġcapt ive
ĠProf ile
Ġcultiv ate
ĠOrgan izations
Ġdry ing
Ġmanager ial
Ġarrog antly
ĠBrahm aputra
Ġcompar ative
ĠElect ronic
Ġdemonstr ations
ĠInter face
OM AIN
ĠTham ood
Ġconvert ible
ĠLiter acy
Ġnurs es
ĠCirc le
PG P
Run ning
Ġhonor able
Turk ey
Ġwidget s
Ġdimension al
amar ind
Ġhyper b
ĠFront ier
Mahar ashtra
ublish ing
Mis cellaneous
ĠHarish chandra
Ġvern acular
Ġbras ero
F it
M el
P arent
S ale
V erm
a ic
h it
h om
v ous
Ġt ours
Ġt resp
he ed
Ġo m
Ġs ah
Ġs anskrit
at ibility
Ġw olf
Ġc ries
Ġf airs
Ġf usion
Ġto ll
Ġd w
Ġbe ard
Ġg hee
im ize
ĠI sha
ig am
ĠC ensus
Ġde ception
res cent
ĠG aud
um ari
ĠN AT
te le
ĠE at
av ah
ap ra
Ġun par
He avy
Ġar re
Ġar dent
Ġsc ored
ĠâĢĿ ?
pr ints
Ġgener osity
Ġdet ention
Ġint ros
Ġloc om
Ex ec
oh ini
ER R
iqu ities
Ġpract iced
Ġsw ing
Ġyoung est
Ġgot ten
Ġrepl acing
aff ron
Ġforb earing
ĠChrist mas
Ġpoll en
Sc anning
Man ual
Ġworth less
ĠAy urvedic
ĠInt roduction
ĠBharat pur
Ġmiss ions
Ġextra ction
Rel ating
ĠOrgan isations
Ġsand stone
Ġatm ospheric
Ġflu or
odh ana
Ġmal nutrition
Will iam
PE G
Ġpu zz
ĠAS CII
Ġast hma
Ġdisturb ance
Sk ip
Ġhur ric
ĠGur us
ĠGur udev
Ġgentle men
Ġdict ator
Ġpear l
Ġexcav ated
Exp and
Ġreven ues
Ġweaken ed
Ġbew ild
Ġerad ication
ĠCat alog
Ġfeas ible
Ġbom bs
Ġextravag ant
Ġpedest al
ĠEthi opia
Ġstretc hes
astrop he
7 4
B inary
C ity
C ook
I ran
N ET
P aul
c ame
e fficient
Ġthe sis
Ġs ie
Ġw illeth
en ic
Ġb oss
Ġp ause
Ġp aternal
Ġin land
Ġm ast
Ġbe am
Ġg aps
ad vert
ĠA Y
ir us
Ġwe aving
op t
op ian
ĠG aya
ĠD urg
ĠT u
ĠT ay
ĠL en
ĠL ax
oc a
ĠN ana
Ġdo st
ĠF ast
ĠK art
Ġman ners
Ġad oles
Th ai
so lete
ang ible
gr ams
ne e
Ġher d
arm ament
ĠIndian a
ĠPr imary
Ind ividual
Ġcap s
Ġconf luence
Ġland lords
Pro tocol
reed ing
Ġsuccess es
Ġbuild er
Ġdep utation
het ics
AN K
Ġmet adata
Ġreve red
Ġdel ays
itor ies
Ġsing ers
Ġoccasion al
Ġreason ably
Ġstat ues
Re ally
Ġsal ute
Ġdepend ed
ĠBe ll
Ġboy cott
band hu
Ġremind s
Ġder ives
EL OP
ĠTrans l
Ġlegisl ations
Ġsacr ificial
ĠÐ Ł
Ass istance
ĠBar oda
Qu estion
Ġgraph ic
Ġencoura ges
Ġdign ified
anc ore
Ġrob ots
ÑĤ Ðµ
Ġadjust ments
Ġpull ing
Ġresort ed
Mail box
Ġmotiv ate
ĠAW AY
Syn chron
Cur cuma
Fort unately
Ġpercept ions
Kab ir
Ġindef inite
usole um
. ?
B s
E conom
E stablishment
F rame
L ake
L ower
M O
M ethod
N eed
P ART
b ars
f il
g aining
h ol
l an
m ur
m el
m ove
o vers
p ool
p aper
r ising
v ents
on ment
Ġg uns
am our
am ph
et ent
il us
Ġhe x
ol ism
Ġas ym
ĠC zech
ĠC ovid
ĠP arsi
Ġare na
Ġwe ary
ĠG walior
ĠG okhale
Ġcom ic
ie ft
ĠW idget
our ney
Ġch ip
ĠO UR
ĠF unctions
ĠK ot
ĠK ant
Ġup side
ang s
Ġev ac
ĠGod avari
ren ched
ren nial
ert ies
ank er
ĠY emen
à¤ ·
Ġro ast
aw la
Ġgr as
Ġmon itored
Ġins ign
Ġins urg
Ġexp onent
Ġnow here
su fficient
Ġsur charge
ĠEx per
Ġ7 50
St rike
Ġbetter ment
str ung
Ġsupp ress
Ġfunction ality
Ġur g
Ġdon ations
sp irit
ĠBengal uru
Ġ14 0
Ġpros pective
ĠPh arm
Not ice
Ġguard ing
ĠApp lications
Ġund is
Ġund ers
ĠProv ident
Ġcontro ller
ĠScript ures
ĠQu arter
Ġavoid ance
rad un
Pre ferences
Ġ190 6
anj avur
ĠSind h
Ġarbit rator
Ġprohib ition
Ġpet als
Group Wise
Ġclar ify
Ġaccum ulation
Ġadvis able
pent ine
Ġmun ificence
Ġfib res
Ġsusp icious
Dist rict
Ġmisle ading
Ġsemin ar
Ġabol ition
ĠChaluk yas
ĠVict oria
Ġconform ity
Ġlaud able
Ġbron ze
Ġrabb its
Ġaunt s
Dest ination
Ġvigil ant
Ġarom atic
Ġimmig rants
Ġresil ience
ĠFrank lin
Ġmans ions
ĠPASS ING
B A
H S
H ot
J ud
K ama
L ondon
M ust
M aint
a a
c onds
e ach
f ound
g eneral
h ati
j ug
n ear
n ine
p oc
p our
v ana
Ġt ier
Ġo men
Ġin ability
Ġm port
Ġd oc
Ġd pi
ve t
ut as
Ġg anga
ur ches
ĠA KP
il ot
ig en
ra its
Ġan th
Ġst alk
res hing
op ath
ak esh
pe es
us se
Ġv ile
ĠT our
os it
Ġr ash
ort icultural
ial a
Ġab orted
ĠK ings
Ġun w
out heast
Ġj ury
ĠU z
ĠU RIs
ĠJ adunath
Ġev ap
Ġ19 12
ack ed
Ġsp am
Ġcount less
Ġcons on
Ġdes erved
ĠSh imla
à¤ «
Ġpres cribe
Ġfollow er
Ġlit ter
Ġ> .
uk s
ĠAn undoram
ĠAl t
Ġmet ric
io let
Ġpray s
Ġalong with
Re lease
medi ate
ke le
Pr ice
pro per
Rec all
Ġdi aspora
Ġlie u
Ġbond man
rav ancore
Ġmot to
ĠWork ers
Set tings
Ass oci
Ġexecut able
ĠAuthor ities
Qu ery
Ġveget arian
Ġseed ing
Ġsuffer ings
Ġcance llation
ĠSum mer
ĠDVD s
Ġcomment ed
Ġencomp assing
ĠMalay sia
ĠCur rency
ĠLib eration
bro ken
ĠVik as
Ġadul tery
pic uous
ĠMain tenance
ĠVallabh bhai
Ġecst asy
upl icate
Ġenshr ined
ĠAcqu ainted
8 7
G rand
I ET
K ind
L al
M ang
h ya
l ore
m ess
p ract
s ent
Ñ ĩ
Ġ ib
Ġw ield
is ia
it us
Ġb ac
an ak
Ġto x
Ġm uk
Ġd ug
Ġd ancer
Ġl ime
Ġl antern
se arch
ver ts
ĠA ad
ĠS ex
ĠM AN
Ġan onymous
ĠC ry
ĠC ash
ĠP ars
ĠP reamble
Ġha ck
ĠB onds
ĠG round
and ha
ain ik
ĠD un
ĠD ew
ĠR ename
ĠL ower
ĠW oe
te ll
Ġtr unks
ĠF EM
ĠK ud
au x
gh iz
Ġpart ing
act ually
ĠSt orage
Ġqu int
ark s
velop ed
ob st
Ġfir ing
ĠPr inter
ick s
ĠMus h
Ġext inction
Ġmer ges
na issance
ĠMu z
iqu itous
Ġexpl an
lo ating
De emed
Ġes p
men ian
unt ing
ĠIND EPEND
Ġrele ases
abha i
Ġground nut
Ġvol can
Ġpress ures
Ġfulf ils
List en
ĠProv ider
Ġpack et
fall s
Ġoffe nder
Ġrank ings
Ġbra very
oom i
Ġconsequ ent
ĠCD s
Ġunc omm
Ġyield ed
Ġchem istry
Ġsell s
gor ithms
Ġpsych ology
Ġconven ed
Ġevident ly
asw ami
Del ay
Ġvan ished
Ġtender ness
Ġconstitu encies
Ġnom inee
Ġadvert isements
Ġshout ed
Ġgest ures
Ġjump ed
ĠMang al
}' ?
Ġâ Ļ«
anz ania
ĠRich ard
Ġmamm als
Ġtoile ts
ĠMahav ira
Upd ating
Ġtyr anny
Ġhazard ous
ĠDrav idian
Ġlone ly
Ġarter ies
ĠTend ulkar
Ġinsu fficient
B er
C apacity
E W
G abriel
N ING
N PS
P ain
P oss
b id
m oney
o os
y ang
in ently
Ġo vernight
en ch
Ġb a
Ġp m
Ġd x
Ġd uck
Ġh alt
ut able
ĠA I
ch ance
if iers
ĠC ancel
ĠP eter
ĠB odh
ĠG ANDHI
ĠD rive
ĠR ul
ĠR ashtra
Ġv ata
os m
os pel
Ġdo eth
ĠE IA
ĠK ut
Ġup wards
Ġen ra
Ġen rolment
Ġper dition
ib i
ber y
Ġco ach
Ġ19 18
Ġsc anning
Ġsp ider
ĠCh ile
We bsite
So ft
Ġchar iot
Ġph rases
ĠDe va
Ġfin ances
Ġref inance
Ġ0 20
Ġext ant
Ġpun ishes
Ġsl aughtered
Ġthink er
ĠAs af
Ġfr onts
Ġwar rior
Ġport ents
De al
Ġplant ations
sp ot
adem ic
20 20
Ġlog s
11 5
Ġarri ving
Ġemb ro
Ġclean se
ĠRec ompense
Ġmot ions
AB ILITY
ipur am
Man ager
ĠSch olar
Ġautom obile
ĠMad yan
press ion
Ġquick en
Ġsort ing
Ġkingdom s
OP LE
Ġmort als
Fin ance
Ġdeleg ated
Ġupgr aded
Ġencomp ass
dec l
Ġbuff aloes
Ġelim inated
ĠPres iding
cal endar
Ġnom ination
ĠOper ations
Init ially
Ġextrem ism
Subs cribe
ĠCre ate
Ġthirst y
iph any
ĠCert ificates
Ġkh adi
ĠAL L
ĠLaunch pad
ĠHER E
eychell es
3 60
C are
a o
d eg
e ys
g ien
h ide
h aving
h ousing
j ac
l ower
m ast
s ol
u um
v in
at y
Ġw atered
on ium
Ġf ake
Ġm umbai
ro ved
Ġg m
im ated
ay og
ad ron
ĠI FCI
et ching
ill ong
th ings
ĠB ird
Ġby tes
Ġsh aking
iv ative
all ow
ĠT ier
qu ick
os l
ord arshan
Ġch ieft
Ġdis ks
Ġsa iled
Ġab ject
ĠK ind
Ġun employed
Ġ" (
ĠJ SA
Ġ19 11
Ġsc rap
Ġsc orn
Ġpers isted
Ġent ertained
any thing
any ahu
Ġret ention
ven cy
Ġeven ings
Ġgl ow
St ates
ĠRes et
Ġpar ables
Ġbo on
Ġforth coming
Ġdom ains
anch al
Ġvi ability
aut iful
ĠCol omb
Ġdeep est
ĠDirect ive
Ġviol ently
com fort
Ġastr onom
Ġant agon
ĠBe h
vi able
AS H
Sub mit
Cont acts
Ġbi as
Ġfold s
anes a
Ġqual ifying
ĠSm ith
Ġlack s
ams a
Ġauthent icity
Ġlad der
Ġ190 7
Ġdistinct ly
Ġliqu or
State ment
Ġsimpl ified
Ġaccommod ate
Ġmyth ological
Ġsynt hetic
Ġmemor andum
Ġawait ing
Leg isl
Ġbetray ed
ĠCA IR
Ġrepro ach
Ġsevent een
friend ly
Ġintric ate
Ġvoy age
Ġprow ess
ĠINDEPEND ENCE
) "
B ombay
D ar
J A
L IS
O ffic
R andom
S ita
] ."
b ah
b ps
h ita
j amin
j ahan
o is
o an
p it
x ford
Å Ĥ
Ġt el
in tern
Ġo xide
on ian
ed ge
Ġp seud
al is
al ia
Ġd ock
Ġh oc
ic ts
Ġg y
Ġg ut
ĠA w
ĠI reland
Ġas pire
ĠC CB
ĠP arent
ĠH ost
ab ai
res a
Ġsh a
ĠD B
ĠD G
ĠD ra
ĠD and
ĠR ish
ĠT ravancore
ĠW imbledon
ind eed
ud ence
ĠF ragment
rou t
ĠK och
ĠK angra
Ġen rolled
Ġ19 16
Ġ19 13
port ing
Ġsub folders
sh al
ĠY EAR
ob ia
Ġtrans feree
uc ing
ĠPresident s
ĠBh ushan
Ġrep ose
Ġconc urrent
Ġsl ide
Ch at
ĠMe et
akh apatnam
Ġschool ing
Ġdiff ers
Ġident ifies
ĠDo es
Ġ16 00
eb ted
com ings
Ġsust aining
Ġmultip lier
umn y
ĠCO L
Ġqual ify
Ġchief ly
Ġproud ly
ux iliary
comm on
ĠPM O
Ġfault y
Ġfet ters
utt ack
Ġbh akti
ĠAN Y
Ġasce nding
ĠDepos itory
ĠFull screen
Ġcater ing
Ġbroadcast ing
Mat ters
Major ly
ĠMot or
Ġpig s
ĠSubhash babu
Ġdrain age
ĠAmit abh
Ġinculc ate
Ġvic inity
ĠPE OPLE
ĠParish ad
ĠDEV ELOP
C ode
D yn
G ar
G rant
K it
M oz
P KCS
S af
c rim
c ourt
f an
o of
on aut
Ġc ope
Ġc oding
Ġb ol
Ġf ol
ou ched
an other
Ġd aring
ic ul
ve red
Ġwh it
Ġu pp
ĠS amb
ir bhar
ĠC ore
ĠC ap
ul ance
Ġst ing
Ġst yl
Ġst rove
Ġde ferred
Ġsu ffic
ĠG tk
ah o
ĠD D
Ġv ows
um dar
Ġr idge
ag ara
ĠF avor
Ġpe a
Ġun author
Ġper verse
Ġcl osure
Ġsc ream
Ġspe ar
Ġspe nds
Ġover l
aw ali
ĠBh im
ven ience
ĠMin es
Ġshe ath
up adi
Ġpass ions
An cient
Ġsm ite
Ġcar vings
Ġdet ached
Ġresp iration
Ġloc ust
Ġfac ade
Ġcontin ental
Ġprof iles
Ġhapp ily
ĠAn other
Ġexist ent
Ġconst raint
Ġcr ashed
Ġmus cular
Ġpriv acy
Ġcommit ments
Ġur ges
Ġtrust ees
Ġhon ours
Ġgri va
ĠCol umb
Ġlog ged
Ġsimilar ity
ĠPart ies
Ġtele gram
Ġcomb ines
ils on
Ġep och
Ġoccup ational
Ġutil ize
Ġconstruct ing
Ġneck ed
Ġlic ences
Ġmist aken
Ġsurv iving
Mon itoring
ĠPri y
Ġtur ban
Ġprefer ably
ĠSen ate
ĠLog in
Med ium
Ġ(* .
Ġdict ate
Bel ow
Ġinterview s
Ġindul ged
ĠMult i
Consider ing
oty pes
anz as
iat ric
accept able
Ġgal axy
Ġinstal ment
reason able
Ġpractition ers
ĠMC X
% ),
C ert
C hen
F ace
F ound
G ir
H igher
I de
M Y
N ature
T LS
m atch
m ukh
u ously
w d
is y
Ġb other
Ġd irt
ic emen
Ġn ost
Ġn ick
id war
am on
ĠS anchi
ir ous
ir med
ĠM ER
ĠM MP
ĠC aptain
ĠP ython
ul ators
Ġpro lif
ĠH ath
Ġwe avers
ĠG har
ĠG aut
ĠR ob
ĠF ateh
ip er
rou se
Ġsa iling
Ġout break
ren cies
ĠV ind
ĠTh read
Ġret ard
pr ise
Ġap s
Ġexp un
Ġfam ine
gg le
Se nder
Ġview er
par able
Ġdeal ers
ĠCongress men
Ġintegr ate
Pr incip
Ġnews group
ĠBi otechnology
ĠJud iciary
Ġattend ants
Ġcoll apsed
Ġbond age
ĠRec ip
Ġbroad er
AC K
dis believers
Ġsup remacy
Ġlisten ers
Ġunc omp
Ġdepartment al
Ġtend encies
organ ic
\\ \\
ogen esis
Ġappell ate
Ġhighlight s
Ġvacc ination
atin um
Ġrom ance
Ġflo at
isp here
disc iplinary
Ġpoison ous
Dem and
ĠMP s
Ġintim ation
Arch ive
bat ten
ocy te
Encry pt
Ġanticip ated
ĠCitiz en
Ġcod ec
Ġgh ost
Ġconfront ation
Ġol ive
Ġgarb age
Ġdissemin ate
Ġagg rav
Ġfract ure
dece it
Ġcylind rical
Ġendors ed
Viet namese
6 00
C ast
C IL
P ot
R AL
S erv
V ed
c op
c ould
d uring
f at
g un
l ive
n ad
s ervice
s plend
he ro
in ah
er ut
it ching
Ġb ay
Ġf iber
Ġin gratitude
Ġd ur
Ġd un
ve ll
Ġe ternity
Ġl ice
Ġg ear
ce phal
ad y
ad hara
ver ting
ĠA lexander
ow a
ĠS ound
ol ine
od ge
ter min
ĠH ir
Ġwe ighed
op ping
ĠD il
ĠD oub
ĠT irth
Ġme g
Ġab rupt
Ġj unior
Ġcont ra
rit er
Ġsc or
Ġsc ared
Ġpers ists
cy cle
Ġbl ot
Ġbl adder
), âĢĶ
Ġwhere upon
ĠBh at
âĢĿ ?
ash ila
Ġgl oom
ention al
Ġaff idavit
Pro xy
stitut es
Ġrest ricts
Ġpat ents
Ġpat rons
Ġdest ructive
ta ic
Ġmult if
Ġshort comings
Ġrecogn izes
Ġprogress ively
urs ing
Ġtor rent
Ġlow ered
Ġexc ise
Ġpow ered
Ġstructure d
Ġreform ers
ĠJan ata
ĠLo ad
Us ername
Ġstrugg led
Ġmot ives
asc al
Ġpred icted
ĠSah dev
fig ure
ĠQu ick
ĠKal idasa
Hind ust
Ġmission ary
Ġhero ine
Ġcoord inated
Ġsym met
ĠForm s
ĠHam id
ĠEngine ers
Ġcool ing
Ġwilling ness
Ġempower ing
ĠSim on
Ġconstitu ents
Ġextract ed
ĠTest ing
ĠCH IL
ĠKap il
Lab el
Ġglac ier
Ġconstitut ing
ĠCamp aign
Prepar ation
Ġexempt ed
Ġobe isance
Ġrelax ation
ĠThir u
Ġdestro ys
ĠArchitect ure
Ġenumer ated
ĠJee van
Ġcounse lling
ĠUnt il
8 1
A st
N as
O kay
T un
T afsir
X X
c ra
k hand
m ine
o ing
r ades
Ì §
Ġt ak
he ri
Ġthe at
Ġc s
Ġb anyan
al c
Ġl act
Ġl ane
am ples
ĠP AYS
pe a
and as
est ab
ĠR W
um m
ĠW ait
Ġr ally
Ġal gorithms
te nder
Ġall ocate
ag en
Ġdis perse
ĠK endra
Th row
ult ies
ĠU PS
Ġar oused
Ġte legraph
ree ments
Ġtime out
Ġsp okes
ĠIn box
sh ah
Ġtrans act
Ġexp iation
arn er
Ġconf ess
Ġbus es
Ġref ining
cl osure
ev a
St ore
Ġwrong s
az on
Ġca ption
Ġbank er
Ġemploy ing
Ġcommand er
Ġconst rained
Ġbo oty
Ġident ifier
osp ace
aff ection
ĠSat ish
Ġastr onomy
Ġ* ,
Ġfoc uss
AP P
Ġbi ogas
Rec on
Ġphilosop hers
Ġcompl ied
Man ilal
Ġswe ep
Ġcy ber
Ġrank ed
ĠNet anyahu
Ġwatch ful
ĠBab asaheb
Ġmid night
Ġignor ing
Ġdisput ing
Ġunf inished
Ġnut s
iy ar
lement ary
ĠAut onomous
ĠMand i
Ġmel od
ĠHa veli
Ġgentle man
ste in
Sche dule
ĠMir za
Ġsupplement ary
Ġdegr aded
Ġlust s
ĠField s
Div ision
Ġswit ched
Ġloud ly
Proper ties
Wait ing
Term inal
Ġmanip ulation
Ġdecre ased
Ġirre parable
fin ancial
Brah ma
Ġow es
Ġeloqu ent
Ult imately
Ġclos est
Ġnep hew
Ġanten na
6 7
6 9
B alt
C ance
F reedom
F ocus
K hand
L ittle
M agn
R ah
V ar
Y ear
b hasha
c i
c m
c ash
c alled
d ifferent
f arer
r mal
s orrow
s affron
w or
w ash
Ġt read
Ġa y
Ġo st
on str
Ġb ast
ed erates
Ġin sec
Ġd ir
Ġh oused
Ġn ails
ut ic
ut il
id ad
ĠI de
et e
ch ild
ĠP owers
op last
ĠB ottom
iv ary
ĠR h
ĠL oh
ĠW ide
un us
Ġat roc
Ġle ve
ag ram
ast rous
Ġad here
ĠJ ah
ass oci
Ġar ist
ĠCh audh
Ġwork man
Ġfo e
gr adation
Ġway farer
Ġinv ents
gan j
Ġed ifice
ick y
Ġdisc oura
Ġmon k
An alog
Ġcar pet
su it
Ġfull est
Ġbusiness men
Ġ10 5
Ġstr ides
Ġey eb
Ġsubject ive
Con stitution
go vern
Ġdeep ening
let ion
Ġexc lude
Ġindic ators
ĠSw adeshi
Ġstatus bar
de ep
ĠRec ent
Ġweek end
Ġacadem ia
Col lection
Ġneck lace
Ġsett ling
Ġexcess es
alg ia
Back up
ĠSind hu
ĠNag a
Part icular
Direct orate
Ġstamp s
Ant i
Ġsed ition
ĠNG O
Ġcolonial ism
ĠNat al
ĠCount ries
Dem ocracy
Ġoptim ism
Ġrecur rence
ĠSud an
ĠChak ra
Ġplural ism
ĠBagh dad
Ġsteep ed
ĠIdent ity
ĠMi B
subs cribe
Ġflank ed
Dele ting
ĠEar ly
ishth ana
ĠVijayan agar
Ġcarp ets
Ġmism atch
Ġdisgra ced
doub t
Ġungod ly
Priy obroto
A IM
C ross
C trl
P ension
Q uran
U t
V IS
b ull
b ury
g iz
l ig
t itle
Ġt iles
Ġin acc
Ġe g
ut ual
Ġg ast
ur ances
Ġwh ist
ay b
ig an
ig hest
Ġst airs
ĠB ern
ĠB ranches
ĠG ol
ak t
Ġ' ,'
Ġsh ine
ac ial
ĠO d
Ġab ased
ĠK ash
ĠK aran
Ġun real
rit e
Ġte en
Ġsc ores
Ġsub mer
we gian
Ġwork ings
Ġpo le
ĠGo nd
Ġinv aded
ĠPro xy
Ġinte ger
Ġret rieved
Ġrep ud
Ġgl itter
Ġfore cast
uk k
Ġhuman ism
Ġestab lishes
AT UL
ĠAr ctic
Ġmar ched
Ġfree ing
ĠMan aging
ĠMan chester
Ġcause th
br ing
ĠAl though
Ġ12 4
ĠMe asures
ĠAss ad
Ġwitness ing
Ġsum mar
ĠRe quest
Ġelect ron
ĠDo llar
Ġmag ical
Ġbar bar
Ġer ase
Ġer ring
rain ian
Ġansw ering
Ġste re
Ġsens ory
Ġà¤ ħ
Ġgovern or
Ġdisp ens
ĠMay a
ene z
ĠDis able
ĠAt lantic
Ġprec aution
Ġresol ving
Ġpill ow
rel igious
Trans l
ĠVis ual
UL AR
ĠCivil ization
ĠGr aduate
Aud it
Ġhighlight ing
Ġvacc ines
Ġpit ta
Ġdeaf ness
ĠLaksh adweep
ĠImport ant
Ġreact ors
Ġpoison ing
ĠRece ive
Ġresur rect
Ben ef
Ġster ling
GR ATUL
Ġtreacher ous
Ġrestaur ant
ĠArth ur
ĠPrin cess
Ġtwent ieth
Ġbree ze
Ġshack les
Purch ase
poc rites
ĠRashtra k
B udget
B adruddin
C itiz
H ouse
K ill
L in
M AN
P ul
S ide
T errorism
T ourist
Y usuf
m ala
o qu
s pecial
v ic
x i
Ġs ings
is ites
Ġf ires
Ġp omegran
an an
al ways
st rong
Ġl ament
ĠA II
am en
et ry
ĠM ilk
ill ity
ĠP ul
ĠH aw
ĠG eneration
iv an
ĠD C
ĠD ury
um my
ĠL A
Ġhas ty
Ġr ushing
oc ational
ĠE mir
ĠO mbudsman
ip a
Ġad herence
Ġind ent
ĠJ og
Ġ19 15
Ġacc ursed
Ġwould st
ĠCh a
Ġfo oth
Ġcre am
Ġfl aw
Ġpol ar
Ġtra cts
Ġhand loom
Ġmod em
Ġap es
oun cing
Ġmen ing
Ġcor al
uk t
Ġlook up
Ġrespect ing
ĠRes ults
ĠTe gh
Ġbuild s
Ġmar row
Ġhold ings
Ġcr ushing
Ġmor ale
ung al
Ġmention ing
Ġtown ships
Ġsecret ion
bl ast
Ġmeasure ments
requ ently
Ġrequest ing
uff ed
Ġseem ingly
force ment
ĠMugh als
ĠCON GRATUL
ĠBah rain
Ġsimpl est
ĠJain ism
Rest art
Ġdelic ious
Ġprompt s
Turk men
ĠCS R
ĠNat ak
Ġdh arma
Ġlod ged
ĠJob seeker
Ġeager ly
Ġweigh ing
want ed
Ġodd s
OU ND
Ġdisb ursement
Ġque ue
ĠChem icals
Ġinstal ments
Ġpars ing
ĠPanjab i
ĠTur ks
Ġhypot hesis
ĠDrug s
Ġmetall ic
ĠBrother hood
Prob ably
Ġadh ishthana
7 1
B ranch
C itrus
J ames
P sych
m ination
p ure
w alk
y i
z i
z ip
Ġw ins
Ġw ickets
Ġb osom
ou ins
as am
ver ance
et ically
ch al
ol ves
ĠP it
ĠP FRDA
Ġst anzas
ri val
Ġpro poses
ĠH orticulture
ĠB adr
nt hesis
um al
ĠL y
ĠW ilson
red ity
ĠN R
ĠâĢ İ
ĠE instein
Ġcan als
Ġcomp ost
Ġcont raction
ĠJ un
ĠV inc
port ed
form er
Ġrel oad
ĠSt ations
ĠSt ructure
sh ot
ved a
Ġpol io
Ġequ ations
Ġprom inence
EN AME
Ġdef iance
Ġdef iciencies
Ġbus hes
Ġaff iliated
Ġshow c
ĠWh ose
ret urn
Pro cedure
Ġmed al
Ġthink ers
Ġimportant ly
ĠOur selves
Ġdiv ides
Ġfr aming
ĠAn ant
Ġstr aying
Ġexpl oring
ĠAg ent
Ġanim ated
Ġelect ro
Or d
Ġcourt es
rec i
Ġdead ly
right ness
oo lean
Ġge o
Ph ys
Ġrepent ed
Ġtransgress es
Ġweight s
ĠÐ ²
Ġemphas ize
OL OG
Ġtable t
idy alaya
atab ases
Ġ190 9
Ġcoord inates
ĠAud acity
Ġidol at
Ġvir uses
atri x
atri ation
inst ru
Ġcrowd ed
Sk ype
Ġbacter ial
Ġhur ried
itud inal
Ġintense ly
Ġdiagn ostic
Ġparas itic
Ġancest ral
Ġremed ies
Ġham strung
Ġuntouch ables
ĠSultan ate
Kir ghiz
Ġcher ish
Ġtum or
Ġpharmaceut icals
Ġwholes ome
Ġcompens ate
Ġkins men
ĠVrind avana
Ġfisher men
Ġbere aved
terror ism
ĠDen mark
Excell ency
Ġunve iled
Repe at
Ġmotif s
Ġrehears ed
ĠSHG s
Ġbeque athed
Ġbicy cle
ĠTRU E
Ġthunderb olt
Ġtermin ology
Ġdw elt
Ġurg ently
E mer
F ish
I d
J acob
N P
R adi
S HA
i osis
j ar
k it
s pr
v o
Ġs abha
Ġw aking
ar aj
Ġm eth
ic ies
Ġre nd
Ġg ig
ĠA lam
Ġu mp
ĠM H
ĠC PI
ĠC uttack
ĠB CC
ĠB ikaner
all owed
ĠD ash
ĠR ivers
ĠL ala
ord in
Ġch aired
Ġwhe els
ĠF og
ĠK ong
ĠK end
Ġpe er
Ġag rees
Ġind ebted
ĠJ ati
ĠV ision
ĠV ertical
Ġapp let
Ġover fl
Ġrec re
aj ra
ob s
Ġtra il
Ġrep o
Ġdev iate
cl er
Ġsl ab
St rengthen
Ġsk e
ĠTe acher
Ġcro pping
Ġmet ro
tal ion
Ġyoung sters
pportun ities
Ġfinancial ly
ĠReg ister
Ġsuper annuation
Ġer u
ĠDr ama
Im ag
ĠPh ysics
Ad am
Ġmusic ian
ĠX II
Ġindic a
Ġindic ative
ĠHar vard
ĠCom plete
ps es
ĠShe et
Ġacadem ics
Ġreview s
Qu ant
Ġunc les
US E
ĠPer formance
ris is
enn ial
ĠDisc ard
ĠStud ents
Ġdivers ify
ĠLaksh mana
ĠProm ise
spe c
spe cified
Second ary
Ġsynt ax
jun ct
ĠRead ing
mod ern
ĠAj mer
Ġassert ion
Ġdimin ish
Ġther m
ĠVish w
ĠMut ual
ibh au
Kir giz
ĠOp ens
Ġacknowledge ment
Ġportray ed
eros ene
Ġembark ed
ĠEnc oding
option al
Ġconve ying
Ġincred ible
Ġrab bit
Ġpiv otal
ohann es
ĠMaury an
ĠCONGRATUL ATES
% %)
B order
B reak
H em
H our
L ith
L DAP
N H
P et
S qu
V a
V ij
d ated
d ata
m ax
p ired
s pect
Ġt ense
Ġthe ta
Ġo kay
Ġc d
Ġb ricks
Ġf als
Ġin active
Ġin quire
Ġl obe
id gin
Ġg ru
Ġg inger
ĠA PP
ig ma
ol utions
od ar
ĠC PS
ĠH idden
us k
Ġex otic
ĠD O
ĠD uties
ĠR ou
ĠL os
ĠL aj
ĠE li
ĠE stablishment
Ġdis astrous
Ġab omination
ĠK in
ok yo
Ġun organ
pl ine
ib lah
ach ariah
ian i
ĠCh atrik
Ġfo oting
Ġshould st
Ġinto xic
Ġcons erve
Ġsy ner
Ġpres idency
ĠComm issions
ten ess
Ġlit ig
Ġimp ed
Ġland ing
Ġint ra
Ġsur ge
Ġrest ructuring
AR CH
Ġdep riv
ĠMan ufacturing
ex port
Ġsing h
Ġmus h
Ġmater nity
IC Q
Ġdom inate
Ġill s
Ġthy self
Ġpot s
ĠCol ors
Ġexpect ing
aste red
ĠPol icies
ĠCal c
Ġgen ital
Ġsan ctions
Des ign
ĠApp le
Ġclean er
Res idence
ĠForg iveness
Ġsle pt
Ġimag inary
Ġtransport ed
ĠAy e
rate gy
ĠSar ala
Rep ository
Ġpan ic
Ġborrow ings
Trans port
Ġunf aith
Ġang les
alle led
redit ary
ĠVa ish
Mah abhar
Ġmotion less
See ing
Ġ189 0
Ġ188 5
Ġpu zzle
Ġliquid ation
199 9
ĠLa ure
Ġassemb lies
Connect ing
Ġstret ching
Ġbutter flies
ĠSev a
Ġware house
Ġpostp oned
Ġstrait ened
sil ver
ĠAnge les
Ġtheore tical
Ġdesper ate
ĠGree ce
Da ily
Ġbegg ar
Ġdiar rhoea
ĠPetition er
Ġintrins ic
B ose
B ottom
C ultural
D ia
E Y
F ill
L ic
M atch
M ohan
W OR
c um
d im
d efault
g us
g raph
h oly
p ul
he um
re nder
Ġs igh
Ġs ocket
on ce
is ofs
it ar
Ġc age
Ġp ython
Ġm oth
Ġm ails
Ġh ated
Ġbe aches
im an
ĠS ME
ch id
ĠM ud
od o
ĠC over
ĠC apacity
ĠD omin
ĠL ee
Ġr oused
Ġle ver
Ġch rist
ĠF as
Ġdis pro
Ġcomp ass
ĠU ND
Ġout lined
ub le
Ġrel iant
Ġpo orer
Ġfo ols
Ġher mit
Ġpres um
Ġpres ide
Ġord ination
uch istan
Ġchar ging
âĢĿ )
Ġmon keys
Ġins olence
arn ed
ov ie
Ġdef ining
Ġpartic le
Ġ18 50
ĠTe resa
Ġlight ed
Ġstr ife
Ġsupp lier
Ġcr ush
Show s
ibr ation
ĠComp rehensive
Ġter race
oid s
Ġhost ing
Ġemb od
Ġdig estion
Ġbit terness
Ġdisp ensation
rav ity
ĠProv isions
Comm it
Man agement
Ġrespond ing
Ġtravel ing
Ġtemper atures
abh adra
Ġprin cess
ĠNep ali
ĠHead s
Ġfee ble
Ġobst inate
Mon th
Ġamb itions
Ġinfl amm
Part icip
Ġlif eless
inst all
Ġpropag ate
ĠSwami ji
Ġpet itions
Ġ187 2
Ġabst ain
ĠJh ansi
Rev ision
Ġly ric
rolog ical
Prem ises
Prem chand
Ġcum ulative
Ġclimb ing
ĠTar get
à¤¦ à¤¨
beg in
Ġrevers ed
à¤ħ à¤Ń
ĠMoz ambique
ĠSix th
ĠJo ze
ĠEll ora
Ġsniff ing
Ġsnipp et
Chair man
Han uman
phthal m
Ġheark en
Ġemanc ipation
Ġdiscom fort
Ġutens ils
ĠDoub les
8 6
B uilding
D am
E ffect
E ffective
F ed
F icus
F etching
G anges
I esa
J ump
K on
M ission
N N
N orthern
O ri
R S
S W
T ir
T race
c ape
l at
l it
s ug
t ics
he ment
it amin
Ġc unning
es pecially
as an
Ġn ests
Ġre aff
ot iation
Ġg am
ĠA er
ĠI celand
ĠS urdas
et itive
ch ildren
ĠC G
Ġwith held
ĠH ai
th irty
ĠB ali
ĠG rowth
Ġsh attered
and o
ĠR OM
ĠT ube
ĠT ugh
ĠW ILL
Ġdo ings
ĠO ct
Ġad itala
Ġun pleasant
Ġres urg
Ġsc ald
Ġtw elfth
sh ow
Ġrem in
Ġrem orse
Ġob solete
Ġatt ractions
ĠAct ive
pr ayer
Ġins istence
Ġexp ound
man irbhar
Ġinf inity
ĠSc ott
Sh are
ĠWh oso
Ġgra zing
Ġoper atives
med icine
Ġbuild ers
Ġlight ly
ĠRaj araja
ĠAl ways
ĠAl bert
Ġmet eor
resent ative
ĠPl ain
Ġaut ocom
Ġvers a
ĠAb ode
Ġcred ibility
Ġ194 3
pro of
let tered
11 0
ĠKh ome
Ġconscious ly
Ġdam s
ĠForg ive
Ph il
Ġobl ong
Ġconce ive
Ġdiscip lined
ĠDes cendants
Ass am
MS N
Ġreflect ing
Ġdynam ics
Ge org
Through out
Ġshel tered
ĠSim plified
Ġfasc ist
Ġenthusi astic
Ġencl osure
Ġdiagn osed
Ġshout ing
Ġcomplim ented
Ġquar re
Ġmole cular
Stud y
Imp rove
ĠSil ver
Ġclin ic
ĠOrd ers
ĠGate way
Ġfors aken
dest roy
ĠPoet ry
Christ ian
ĠEconom y
Ġmonaster y
Ġmonaster ies
ENS ION
Ġdraf ted
ĠAns ari
Ġepile psy
Ġarre ars
A gn
B it
C roat
E ither
H ath
M aking
Q ur
S ant
T ub
e ast
s an
s ocial
s urely
t ight
Ġs ir
or iginal
Ġc it
es ity
Ġb iodiversity
Ġp omp
ar atha
Ġto ys
Ġh alo
om er
Ġre lic
ad ul
ad ri
ĠS aving
et ted
ol ph
ĠM it
Ġan us
ĠC B
Ġse als
ĠB urning
ĠG L
ist ible
pe ck
est ine
qu ar
ĠE C
ĠE V
Ġdis rupt
Ġen vironments
Ġres ides
In sect
Ġcont agious
ang am
Ġar k
ĠV el
Ġsub lim
ĠSt ory
Ġfo x
sh ore
arm ing
olog ic
pr us
ee red
Ġconf use
Ġspec ulation
ins on
Ġbook ed
Ġcommun ism
Un recognized
Ġdep ict
wh ole
lo oms
ustom ed
Ġport ent
Add ition
urs day
ĠComp ensation
Ġrele asing
Ġviol ate
Ġsubs istence
Ġtransfer ring
Ġfast s
Ġtyp ed
Not withstanding
fort y
ĠEv ents
Ġrich ness
irm ohan
bl ank
Ġfort ified
Per formance
AC E
Ġtable ts
Em ployment
Ġcritic ised
Over write
Ġestim ation
ĠPark s
Af ghan
Ġscholar ly
Raj ya
apur i
ĠPost al
ĠAsh utosh
Ġble nding
Ġovert akes
Ġfulfill ment
ĠUnder standing
Ġpick ing
Ġweakness es
riev al
Ġfrust ration
Ġtrek ker
ele phant
ĠOrd inance
ĠGovind a
Ġreserv oir
Ġadmire rs
Ġplun ged
Ġcompe lling
Ġveter an
Ġincons istent
Ġfluct uations
ĠPill ai
Beng ali
ĠLie utenant
Ġhaught y
mnip otent
ĠMonu ments
! !
D rop
K ann
L oss
M es
M ention
P neum
P ercent
R o
R ect
R obert
U C
V edic
W ood
d f
f i
f ood
g ae
r ines
r ators
v ocal
w ada
Ã Ĺ
in valid
Ġb aked
Ġp ist
Ġd ut
Ġd urable
Ġh orticultural
Ġn ickname
ro d
st ract
Ġl ame
Ġl ighter
ver i
ĠI MP
Ġhe redity
ra i
ĠH PCL
op ening
ĠB ig
ĠB olivia
ĠD DO
ĠR udra
Ġv il
ĠT ux
oc able
ĠF alls
Ġcan n
Ġman ages
Th ousands
He y
act ors
ĠCh id
ĠSt op
sh id
Ġem itted
Ġreg ulates
ĠSh an
ĠSh illong
à¤ ı
Ġac celeration
pen et
und ari
ha ir
Ġed itors
pr udence
Ġorder ly
ĠSc ot
Ġlist ener
ID E
Ġden otes
Ġdep rive
ogn ito
Ġ12 1
Ġcapital ist
Ġve ils
Ġlive ly
Ġimpro ves
men u
Or der
ĠReg iment
ĠEn velope
Ġsuper natural
Ġcheck sum
Tr aditional
ule kha
ĠMon itor
sec onds
Ġpack ets
miss ions
ĠGroup Wise
ĠGl ac
Col lect
Sp read
Ġbattle field
IF IC
sm ith
Ġrout ed
ĠAdv aita
trans fer
ĠEngine er
Ġstick y
Ġbell s
ĠRab i
Sign ing
Ġbomb ings
HO UT
Ġcul mination
Ġoppress ors
esc ope
Rece ived
Ġintim id
Ġwax ed
ograp hers
Ġpredomin ant
Ġdisb ursed
Ġunwill ingly
Ġanch or
Cam era
Ġbott les
Ġsupplic ate
ocular s
igraph y
Ġkap ha
Ġcess ation
ĠDub ai
Ġmisgu ided
Ġculp rits
ĠDeve ndranath
Ġunpar alleled
ERR OR
uks hetra
, âĢľ
9 3
9 4
A bsolute
C at
D UL
E ver
F ORM
H app
I ron
L ymph
P ap
P icture
S eries
T asks
c as
m ajor
n amma
[...]
