{"<|endoftext|>":0,"!":1,"\"":2,"#":3,"$":4,"%":5,"&":6,"'":7,"(":8,")":9,"*":10,"+":11,",":12,"-":13,".":14,"/":15,"0":16,"1":17,"2":18,"3":19,"4":20,"5":21,"6":22,"7":23,"8":24,"9":25,":":26,";":27,"<":28,"=":29,">":30,"?":31,"@":32,"A":33,"B":34,"C":35,"D":36,"E":37,"F":38,"G":39,"H":40,"I":41,"J":42,"K":43,"L":44,"M":45,"N":46,"O":47,"P":48,"Q":49,"R":50,"S":51,"T":52,"U":53,"V":54,"W":55,"X":56,"Y":57,"Z":58,"[":59,"\\":60,"]":61,"^":62,"_":63,"`":64,"a":65,"b":66,"c":67,"d":68,"e":69,"f":70,"g":71,"h":72,"i":73,"j":74,"k":75,"l":76,"m":77,"n":78,"o":79,"p":80,"q":81,"r":82,"s":83,"t":84,"u":85,"v":86,"w":87,"x":88,"y":89,"z":90,"{":91,"|":92,"}":93,"~":94,"¡":95,"¢":96,"£":97,"¤":98,"¥":99,"¦":100,"§":101,"¨":102,"©":103,"ª":104,"«":105,"¬":106,"®":107,"¯":108,"°":109,"±":110,"²":111,"³":112,"´":113,"µ":114,"¶":115,"·":116,"¸":117,"¹":118,"º":119,"»":120,"¼":121,"½":122,"¾":123,"¿":124,"À":125,"Á":126,"Â":127,"Ã":128,"Ä":129,"Å":130,"Æ":131,"Ç":132,"È":133,"É":134,"Ê":135,"Ë":136,"Ì":137,"Í":138,"Î":139,"Ï":140,"Ð":141,"Ñ":142,"Ò":143,"Ó":144,"Ô":145,"Õ":146,"Ö":147,"×":148,"Ø":149,"Ù":150,"Ú":151,"Û":152,"Ü":153,"Ý":154,"Þ":155,"ß":156,"à":157,"á":158,"â":159,"ã":160,"ä":161,"å":162,"æ":163,"ç":164,"è":165,"é":166,"ê":167,"ë":168,"ì":169,"í":170,"î":171,"ï":172,"ð":173,"ñ":174,"ò":175,"ó":176,"ô":177,"õ":178,"ö":179,"÷":180,"ø":181,"ù":182,"ú":183,"û":184,"ü":185,"ý":186,"þ":187,"ÿ":188,"Ā":189,"ā":190,"Ă":191,"ă":192,"Ą":193,"ą":194,"Ć":195,"ć":196,"Ĉ":197,"ĉ":198,"Ċ":199,"ċ":200,"Č":201,"č":202,"Ď":203,"ď":204,"Đ":205,"đ":206,"Ē":207,"ē":208,"Ĕ":209,"ĕ":210,"Ė":211,"ė":212,"Ę":213,"ę":214,"Ě":215,"ě":216,"Ĝ":217,"ĝ":218,"Ğ":219,"ğ":220,"Ġ":221,"ġ":222,"Ģ":223,"ģ":224,"Ĥ":225,"ĥ":226,"Ħ":227,"ħ":228,"Ĩ":229,"ĩ":230,"Ī":231,"ī":232,"Ĭ":233,"ĭ":234,"Į":235,"į":236,"İ":237,"ı":238,"Ĳ":239,"ĳ":240,"Ĵ":241,"ĵ":242,"Ķ":243,"ķ":244,"ĸ":245,"Ĺ":246,"ĺ":247,"Ļ":248,"ļ":249,"Ľ":250,"ľ":251,"Ŀ":252,"ŀ":253,"Ł":254,"ł":255,"Ń":256,"Ġt":257,"he":258,"Ġa":259,"in":260,"Ġthe":261,"Ġo":262,"re":263,"er":264,"nd":265,"Ġs":266,"at":267,"Ġw":268,"on":269,"is":270,"en":271,"Ġof":272,"it":273,"or":274,"Ġc":275,"es":276,"Ġb":277,"ed":278,"Ġf":279,"ou":280,"Ġp":281,"an":282,"al":283,"ar":284,"Ġin":285,"Ġand":286,"ing":287,"Ġto":288,"Ġm":289,"ion":290,"Ġd":291,"Ġh":292,"as":293,"ic":294,"le":295,"om":296,"Ġth":297,"ent":298,"ll":299,"Ġn":300,"Ġbe":301,"ve":302,"Ġe":303,"ct":304,"Ġre":305,"Ġis":306,"ro":307,"st":308,"Ġl":309,"Ġy":310,"ot":311,"ut":312,"se":313,"id":314,"Ġg":315,"Ġfor":316,"ation":317,"ur":318,"im":319,"ce":320,"Ġwh":321,"ay":322,"ly":323,"ad":324,"ver":325,"Ġyou":326,"ĠA":327,"The":328,"Ġu":329,"ow":330,"am":331,"Ġon":332,"ĠI":333,"ĠS":334,"et":335,"ir":336,"il":337,"ig":338,"Ġ-":339,"Ġthat":340,"ch":341,"ment":342,"Ġhe":343,"ith":344,"ol":345,"Ġit":346,"Ġas":347,"ra":348,"ĠM":349,"ill":350,"Ġan":351,"od":352,"Ġor":353,"if":354,"Ġnot":355,"ĠC":356,"ĠP":357,"ess":358,"ul":359,"ter":360,"Ġwith":361,"Ġst":362,"ri":363,"Ġare":364,"ge":365,"Ġ(":366,"her":367,"Ġha":368,"Ġpro":369,"Ġde":370,"ĠH":371,"ate":372,"Ġcon":373,"ld":374,"Ġsu":375,"Ġwe":376,"ab":377,"rom":378,"Ġse":379,"res":380,"âĢ":381,"th":382,"op":383,"ers":384,"ĠB":385,"ĠG":386,"ak":387,"nt":388,"ist":389,"Ġby":390,"Ġ'":391,"Ġcom":392,"ht":393,"Ġsh":394,"pe":395,"and":396,"ain":397,"Ġwas":398,"Ġhave":399,"Ġthey":400,"Ġfrom":401,"iv":402,"Ġthem":403,"Ġ1":404,"all":405,"Ġwill":406,"est":407,"ity":408,"us":409,"em":410,"Ġex":411,"ah":412,"Ġwho":413,"ĠD":414,"ĠR":415,"Ġv":416,"ore":417,"Ġthis":418,"ac":419,"ich":420,"ive":421,"ie":422,"ant":423,"um":424,"ĠT":425,"ĠL":426,"ĠW":427,"qu":428,"ction":429,"Ġhas":430,"Ġk":431,"pp":432,"un":433,"ies":434,"art":435,"ure":436,"os":437,"Ġat":438,"Ġr":439,"Ġwhich":440,"ia":441,"ort":442,"ould":443,"el":444,"Ġtheir":445,"ĠInd":446,"ard":447,"oc":448,"red":449,"ight":450,"our":451,"Ġne":452,"Ġhis":453,"ord":454,"ind":455,"ĠN":456,"Ġal":457,"pt":458,"ous":459,"ĠAll":460,"ose":461,"te":462,"ust":463,"Ġall":464,"ther":465,"ĠâĢ":466,"Ġle":467,"Ġdo":468,"Ġch":469,"ong":470,"Ġwhe":471,"ag":472,"ud":473,"Ġ2":474,"age":475,"ome":476,"ial":477,"ĠAllah":478,"Ġtr":479,"Ġwor":480,"ated":481,"ance":482,"cc":483,"ount":484,"Ġyour":485,"ĠE":486,"ĠO":487,"ĠF":488,"av":489,"Ġme":490,"ip":491,"ect":492,"Ġpl":493,"Ġgo":494,"ans":495,"rou":496,"ear":497,"ast":498,"Ġdis":499,"Ġsa":500,"Ġab":501,"ĠK":502,"ide":503,"ost":504,"ry":505,"Ġus":506,"able":507,"ff":508,"ame":509,"Ġany":510,"Ġcan":511,"ok":512,"Ġthere":513,"nder":514,"now":515,"Ġpe":516,"Ġim":517,"Ġbut":518,"Ġcomp":519,"ish":520,"And":521,"Ġman":522,"Ġup":523,"Ġen":524,"Ġad":525,"ĠIndia":526,"ap":527,"ary":528,"Ġhim":529,"Ġone":530,"og":531,"Th":532,"ĠHe":533,"so":534,"ult":535,"Ġun":536,"Ġbeen":537,"ice":538,"Ġother":539,"Ġso":540,"out":541,"Ġper":542,"one":543,"ople":544,"ru":545,"per":546,"Ġwere":547,"Ġj":548,"ical":549,"Ġres":550,"pl":551,"ik":552,"ence":553,"au":554,"ions":555,"gh":556,"Ġhad":557,"ib":558,"ire":559,"In":560,"Ġcont":561,"00":562,"ress":563,"ĠWe":564,"Ġthose":565,"are":566,"iz":567,"vel":568,"Ġ\"":569,"Ġsaid":570,"ake":571,"ine":572,"ĠU":573,"ime":574,"ail":575,"Ġpeople":576,"Ġwhen":577,"Ġam":578,"Ġag":579,"ations":580,"Ġknow":581,"ign":582,"very":583,"Ġshall":584,"orm":585,"ue":586,"ase":587,"ang":588,"ile":589,"Ġunder":590,"ade":591,"He":592,"vers":593,"Ġinc":594,"Ġout":595,"Ġpart":596,"ub":597,"It":598,"ath":599,"ings":600,"ens":601,"Ġind":602,"Ġno":603,"Ġ/":604,"ĠJ":605,"rit":606,"ace":607,"Ġits":608,"Ġbel":609,"ep":610,"Ġwhat":611,"ach":612,"to":613,"Ġalso":614,"Ġcl":615,"ass":616,"Ġif":617,"act":618,"ian":619,"Ġour":620,"Ġar":621,"ber":622,"Ġco":623,"Ġev":624,"ĠGod":625,"ious":626,"Ġmay":627,"Ġ19":628,"ren":629,"Ġcomm":630,"reat":631,"lic":632,"ise":633,"ĠV":634,"Ġte":635,"ĠLord":636,"du":637,"ual":638,"vern":639,"fore":640,"ĠThe":641,"port":642,"Ġapp":643,"fe":644,"ree":645,"erv":646,"fter":647,"ory":648,"ition":649,"ack":650,"ook":651,"ident":652,"Ġacc":653,"Ġsc":654,"Ġyear":655,"old":656,"urn":657,"Ġwould":658,"ike":659,"Ġspe":660,"Ġsub":661,"ove":662,"Ġonly":663,"Ġsuch":664,"form":665,"hed":666,"ject":667,"Ġrel":668,"sel":669,"Ġbec":670,"ause":671,"Ġtime":672,"we":673,"Ġprov":674,"Ġsp":675,"Ġpre":676,"ater":677,"ted":678,"Ġtw":679,"ĠCh":680,"Ġwork":681,"ational":682,"ric":683,"This":684,"rib":685,"Ġover":686,"Ġrec":687,"ities":688,"Ġthen":689,"Ġmade":690,"Ġear":691,"Ġbelie":692,"Ġpo":693,"ild":694,"ĠSt":695,"Ġday":696,"ĠIn":697,"Ġfo":698,"sh":699,"lect":700,"ward":701,"ound":702,"ied":703,"Ġshould":704,"Ġmore":705,"vernment":706,"Ġabout":707,"Ġthan":708,"wn":709,"ces":710,"Ġlike":711,"tern":712,"Ġqu":713,"Ġsome":714,"Ġmy":715,"ution":716,"ife":717,"Ġinto":718,"Ġnew":719,"Ġsay":720,"uth":721,"ert":722,"ite":723,"Ġass":724,"ful":725,"Ġbet":726,"ark":727,"Ġcount":728,"aj":729,"Ġem":730,"way":731,"Ġoff":732,"Ġfe":733,"We":734,"iss":735,"Ġrem":736,"ons":737,"Ġcons":738,"ĠGo":739,"velop":740,"ness":741,"gr":742,"Ġpr":743,"hen":744,"end":745,"own":746,"stit":747,"ĠâĢľ":748,"cept":749,"ific":750,"Ġtwo":751,"oy":752,"ec":753,"ank":754,"Ġreg":755,"ments":756,"ĠâĢĿ":757,"Ġgood":758,"Ġthese":759,"ily":760,"ne":761,"ĠY":762,"Ġafter":763,"ph":764,"led":765,"Ġform":766,"Ġ3":767,"ates":768,"ond":769,"llow":770,"Ġact":771,"ient":772,"ave":773,"Ġbefore":774,"Ġpers":775,"row":776,"..":777,"ts":778,"Ġdes":779,"Ġent":780,"01":781,"ple":782,"Ġagain":783,"ĠSh":784,"à¤":785,"Ġob":786,"eng":787,"cy":788,"ors":789,"Ġ[":790,"ght":791,"ved":792,"cess":793,"Ġright":794,"Ġsee":795,"ower":796,"ink":797,"Ġro":798,"Ġgu":799,"Ġdec":800,"ob":801,"resident":802,"Ġfir":803,"rough":804,"omm":805,"Ġher":806,"Ġlife":807,"cial":808,"aw":809,"Ġsy":810,"ced":811,"eth":812,"arm":813,"Ġgiv":814,"Ġtrans":815,"Ġbl":816,"Ġac":817,"erm":818,"ism":819,"ĠTh":820,"âĢĻ":821,"Ġcall":822,"Ġworld":823,"pect":824,"Wh":825,"amm":826,"ever":827,"rent":828,"ener":829,"Ġpres":830,"Ġbeing":831,"Ġthrough":832,"other":833,"),":834,"Ġdevelop":835,"Ġway":836,"Ġwhere":837,"But":838,"They":839,"ange":840,"Ġset":841,"eed":842,"Ġra":843,"ning":844,"les":845,"ally":846,"Ġevery":847,"Ġcre":848,"Ġgreat":849,"li":850,"ating":851,"int":852,"Ġdif":853,"uring":854,"ves":855,"xt":856,"uc":857,"igh":858,"ft":859,"Ġinv":860,"oth":861,"ull":862,"ative":863,"ĠIndian":864,"Ġserv":865,"ood":866,"ween":867,"ĠPro":868,"ided":869,"its":870,"Ġdown":871,"Ġcountry":872,"olog":873,"Ġthou":874,"ax":875,").":876,"ages":877,"Ġfl":878,"Ġmake":879,"Ġadd":880,"Ġpol":881,"Ġfollow":882,"ular":883,"Ġprodu":884,"Ġbetween":885,"Ġused":886,"Ġatt":887,"Ġcent":888,"ible":889,"Ġsec":890,"ĠPresident":891,"pen":892,"Ġbr":893,"con":894,"ublic":895,"ĠGovernment":896,"ural":897,"ised":898,"pos":899,"Ġpos":900,"stem":901,"the":902,"So":903,"Ġcould":904,"Ġdid":905,"ty":906,"und":907,"Ġke":908,"ble":909,"ĠHis":910,"gan":911,"There":912,"ĠBh":913,"Ġfirst":914,"oci":915,"als":916,"ĠPr":917,"Ġperson":918,"any":919,"Ġwell":920,"Ġyears":921,"Ġcome":922,"Ġinte":923,"Ġ_":924,"ĠHim":925,"Ġmost":926,"hi":927,"Ġeff":928,"Ġupon":929,"Ġmany":930,"pport":931,"Ġhel":932,"Ġsign":933,"ĠAnd":934,"ents":935,"ef":936,"ha":937,"ature":938,"ility":939,"ĠUn":940,"Ġret":941,"self":942,"lud":943,"ited":944,"ss":945,"ven":946,"Ġvery":947,"Ġearth":948,"Ġeven":949,"Ġunt":950,"Ġamong":951,"Ġback":952,"ister":953,"ting":954,"Ġhow":955,"Ġord":956,"Ġcol":957,"Ġmess":958,"Ġown":959,"fer":960,"Ġnum":961,"Ġagainst":962,"ving":963,"ĠAct":964,"Ġpur":965,"Ġdist":966,"elie":967,"ng":968,"air":969,"Ġed":970,"uch":971,"iew":972,"Ġ5":973,"aking":974,"Ġneed":975,"Ġget":976,"me":977,"ĠMin":978,"get":979,"Ġtra":980,"Ġrep":981,"ather":982,"Ġ200":983,"ission":984,"irect":985,"Ġhelp":986,"ont":987,"pr":988,"hes":989,"ati":990,"If":991,"ck":992,"Ġsent":993,"not":994,"ute":995,"of":996,"ision":997,"ures":998,"Ġinst":999,"ased":1000,"chn":1001,"Ġ4":1002,"Ġhand":1003,"ĠIs":1004,"ract":1005,"Ġval":1006,"formation":1007,"Ġend":1008,"Ġtake":1009,"Ġwrit":1010,"Ġdoes":1011,"Ġmem":1012,"Ġbelieve":1013,"round":1014,"Ġchar":1015,"Ġgiven":1016,"read":1017,"Ġuse":1018,"ants":1019,"Ġmod":1020,"ĠComm":1021,"Ġshe":1022,"rong":1023,"ick":1024,"ished":1025,"ices":1026,"Ġsystem":1027,"Ġdisc":1028,"Ġchild":1029,"up":1030,"âĢĿ":1031,"Ġturn":1032,"Ġmust":1033,"ee":1034,"Ġimport":1035,"Ġap":1036,"Ġrequ":1037,"Ġbu":1038,"Ġcert":1039,"ten":1040,"Ġjust":1041,"ives":1042,"Ġmat":1043,"ock":1044,"belie":1045,"Ġgr":1046,"pend":1047,"ash":1048,"Ġye":1049,"Ġmon":1050,"ital":1051,"rest":1052,"ctions":1053,"Ġplace":1054,"Ġins":1055,"ides":1056,"iness":1057,"Ġdiffe":1058,"ari":1059,"Ġpass":1060,"alth":1061,"arch":1062,"ror":1063,"ĠState":1064,"Ġbecause":1065,"ouse":1066,"Ġph":1067,"ivers":1068,"Ġaccount":1069,"Ind":1070,"Ġlong":1071,"Ġwom":1072,"Ġlit":1073,"ries":1074,"Ġexp":1075,"Ġhum":1076,"Ġpower":1077,"Ġ>":1078,"tle":1079,"Ġgive":1080,"ral":1081,"ew":1082,"An":1083,"arn":1084,"Ġequ":1085,"ork":1086,"ix":1087,"Ġav":1088,"ified":1089,"ars":1090,"Ġinclud":1091,"ata":1092,"You":1093,"ES":1094,"Ġgener":1095,"Ġsure":1096,"ĠDay":1097,"Ġprom":1098,"uthor":1099,"Ġcle":1100,"selves":1101,"Ġimp":1102,"ĠDe":1103,"Ġname":1104,"As":1105,"har":1106,"Ġaway":1107,"Ġsm":1108,"Ġcond":1109,"ug":1110,"Ġcar":1111,"Ġcap":1112,"Ġnow":1113,"Ġ201":1114,"ined":1115,"Ġfound":1116,"Ġnor":1117,"Ġmin":1118,"ale":1119,"Ġwater":1120,"Ġ&":1121,"ship":1122,"ety":1123,"day":1124,"Ġinter":1125,"oun":1126,"Ġlet":1127,"roup":1128,"Ġwant":1129,"less":1130,"ared":1131,"Ġlar":1132,".\"":1133,"ists":1134,"Ġstate":1135,"Ġnumber":1136,"tc":1137,"Ġgl":1138,"ana":1139,"Ġlead":1140,"Ġmen":1141,"angu":1142,"Ġheav":1143,"Ġduring":1144,"ters":1145,"ern":1146,"ict":1147,"eg":1148,"ody":1149,"Ġsame":1150,"ledge":1151,"When":1152,"Ġconf":1153,"Ġconc":1154,"Ġsection":1155,"ruct":1156,"imes":1157,"iod":1158,"Ġfin":1159,"Ġwhile":1160,"ys":1161,"On":1162,"Ġfam":1163,"lim":1164,"Ġmain":1165,"Ġwhom":1166,"ology":1167,"Ġlo":1168,"Ġspec":1169,"ired":1170,"Ġ<":1171,"ins":1172,"Ġeach":1173,"ered":1174,"Ġcase":1175,"Ġdevelopment":1176,"Ġpresent":1177,"ov":1178,"Ġocc":1179,"Ġfore":1180,"conom":1181,"Ġrece":1182,"Ġheart":1183,"man":1184,"Ġinf":1185,"Ġask":1186,"aken":1187,"All":1188,"ĠHind":1189,"Ġcur":1190,"Ġland":1191,"Ġdet":1192,"Ġhere":1193,"su":1194,"Ġest":1195,"ality":1196,"ption":1197,"Ġpay":1198,"ya":1199,"Ġprocess":1200,"ains":1201,"Ġstud":1202,"Ġcalled":1203,"Ġint":1204,"Ġresp":1205,"âĢľ":1206,"Ġboth":1207,"Ġetc":1208,"Ġcour":1209,"Ġanother":1210,"Ġorder":1211,"Ġart":1212,"Ġorgan":1213,"Ġbook":1214,"ner":1215,"ĠSc":1216,"Ġthings":1217,"Ġser":1218,"omp":1219,"Sh":1220,"ience":1221,"Ġtruth":1222,"ics":1223,"Ġlaw":1224,"wards":1225,"Ġloc":1226,"Ġadv":1227,"amp":1228,"lease":1229,"Ġcomple":1230,"Ġword":1231,"Ġreturn":1232,"ize":1233,"Ġeduc":1234,"Ġprev":1235,"Ġfac":1236,"ained":1237,"Ġcor":1238,"EN":1239,"Ġopen":1240,"bers":1241,"Ġdef":1242,"lish":1243,"Ġperiod":1244,"Ġdem":1245,"ĠCent":1246,"ention":1247,"For":1248,"Ġpublic":1249,"Ġdifferent":1250,"Ġindeed":1251,"Ġ6":1252,"Ġpartic":1253,"Ġlist":1254,"Ġbus":1255,"Ġstart":1256,"Ġfile":1257,"rop":1258,"Ġbeh":1259,"Ġmark":1260,"Ġbest":1261,"Ġfind":1262,"Ġcertain":1263,"Ġplay":1264,"Ġsur":1265,"Ġdev":1266,"Ġterm":1267,"Ġindust":1268,"To":1269,"Ġcame":1270,"uk":1271,"Ġce":1272,"Ġthree":1273,"mb":1274,"Ġcommun":1275,"Ġaff":1276,"Ġref":1277,"mit":1278,"Ġknowledge":1279,"Ġwithout":1280,"cl":1281,"Ġfact":1282,"Ġfil":1283,"Ġwind":1284,"Ġshow":1285,"Ġsou":1286,"stitution":1287,"ived":1288,"Ex":1289,"Ġtechn":1290,"ines":1291,"Ġeconom":1292,"Ġposs":1293,"Ġfear":1294,"Ġrelig":1295,"aid":1296,"Ġbro":1297,"ool":1298,"Ġmeans":1299,"Ġsupport":1300,"ĠWh":1301,"Ġfa":1302,"Ġread":1303,"ament":1304,"Ġinterest":1305,"stand":1306,"ploy":1307,"ĠMus":1308,"ai":1309,"Ġmuch":1310,"Ġavail":1311,"ĠCon":1312,"Ġprogr":1313,"Ġinformation":1314,"...":1315,"ither":1316,"ĠEx":1317,"ret":1318,"ination":1319,"Pro":1320,"Ġauthor":1321,"Ġgrow":1322,"Ġ0":1323,"ince":1324,"Ġlangu":1325,"ield":1326,"ough":1327,"Ġlook":1328,"dd":1329,"iving":1330,"Ġhigh":1331,"Ġ8":1332,"Ġrespect":1333,"Ġext":1334,"Ġtem":1335,"Ġstand":1336,"here":1337,"crib":1338,"ually":1339,"Ġpun":1340,"Ġty":1341,"ĠâĢĺ":1342,"Ġsl":1343,"Ġvis":1344,"riend":1345,"ĠMess":1346,"Ġ7":1347,"Ġdisbelie":1348,"ized":1349,"ccess":1350,"Ġexcept":1351,"Ġincre":1352,"ffic":1353,"oh":1354,"mer":1355,"rence":1356,":%":1357,"Ġdirect":1358,"Ġcontin":1359,"ocial":1360,"ev":1361,"Ġgovernment":1362,"Ġgra":1363,"Ġvar":1364,"Ġwomen":1365,"ged":1366,"ĠOF":1367,"ms":1368,"Ġfull":1369,"ify":1370,"St":1371,"Ġmed":1372,"Ġunto":1373,"Ġthink":1374,"ĠMinister":1375,"Ġhuman":1376,"esh":1377,"Ġmeet":1378,"Ġproject":1379,"Ġoper":1380,"Ġcreated":1381,"min":1382,"error":1383,"Ġben":1384,"thing":1385,"eds":1386,"Ġclear":1387,"ried":1388,"Ġcannot":1389,"ĠAs":1390,"Ġgroup":1391,"olution":1392,"ware":1393,"Ġsmall":1394,"ĠPar":1395,"Ġeffect":1396,"ctor":1397,"Ġsim":1398,"ĠYou":1399,"Ġimportant":1400,"ND":1401,"Ġsk":1402,"rap":1403,"Ġlast":1404,"ency":1405,"Ġprof":1406,"Ġexam":1407,"Ġhapp":1408,"lected":1409,"Ġbecome":1410,"ĠShri":1411,"asht":1412,"ĠMah":1413,"stitut":1414,"ĠOur":1415,"Ġproper":1416,"Ġcult":1417,"Ġappe":1418,"Ġ18":1419,"ĠâĢĵ":1420,"Ġmessage":1421,"âĢĶ":1422,"ĠRes":1423,"ways":1424,"inal":1425,"Ġbring":1426,"RB":1427,"Ġsom":1428,"Ġcompany":1429,"por":1430,"tend":1431,"ĠQ":1432,"Ġrest":1433,"ks":1434,"hip":1435,"older":1436,"Ġmer":1437,"work":1438,"ember":1439,"Ġtaken":1440,"ĠNational":1441,"Ġver":1442,"Ġamount":1443,"Ġbusiness":1444,"Ġtoday":1445,"ER":1446,"Ġknown":1447,"Ġnever":1448,"ider":1449,"Ġsurely":1450,"Ġestab":1451,"AR":1452,"oin":1453,"ases":1454,"Ġincome":1455,"gg":1456,"Ġpunish":1457,"Ġwrong":1458,"Ġdiv":1459,"az":1460,"What":1461,"akes":1462,"Ġmight":1463,"gress":1464,"Ġca":1465,"Ġchildren":1466,"bs":1467,"ID":1468,"Then":1469,"No":1470,"icy":1471,"Ġpat":1472,"istr":1473,"Ġche":1474,"idd":1475,"Ġpri":1476,"ĠBook":1477,"Ġvarious":1478,"ls":1479,"Ġhead":1480,"ey":1481,"Ġwithin":1482,"ote":1483,"Ġden":1484,"Ġapplic":1485,"Ġdays":1486,"Ġthemselves":1487,"reed":1488,"Ġactiv":1489,"Ġmonth":1490,"inc":1491,"Ġfr":1492,"Ġsch":1493,"Se":1494,"Ġfun":1495,"Ġele":1496,"Ġbetter":1497,"Ġput":1498,"ternal":1499,"lam":1500,"Ġaccept":1501,"Ġold":1502,"ĠFor":1503,"Ġview":1504,"ĠTr":1505,"lf":1506,"gy":1507,"Ġproble":1508,"Ch":1509,"Ġtimes":1510,"ĠMuslim":1511,"Ġdone":1512,"Ġbank":1513,"Ġfour":1514,"Ġfaith":1515,"Ġdest":1516,"Ġmind":1517,"ething":1518,"AT":1519,"Ġsuccess":1520,"ii":1521,"Ġallow":1522,"Ġevil":1523,"Ġsit":1524,"Ġide":1525,"Ġappro":1526,"Ġlarge":1527,"Ġfriend":1528,"rought":1529,"ĠAr":1530,"avan":1531,"Ġwindow":1532,"med":1533,"Ġbody":1534,"line":1535,"Ġothers":1536,"Ġreal":1537,"ining":1538,"ode":1539,"ĠTe":1540,"ues":1541,"Ġsocial":1542,"Ġforg":1543,"Ġmove":1544,"lished":1545,"These":1546,"Ġlevel":1547,"Ġemploy":1548,"Ġleft":1549,"rol":1550,"Ġeducation":1551,"Ġaddress":1552,"ically":1553,"Do":1554,"oint":1555,"ann":1556,"Ġbas":1557,"Ġgoing":1558,"Ġkeep":1559,"ulation":1560,"ium":1561,"Ġ9":1562,"par":1563,"ization":1564,"ery":1565,"Ġtoo":1566,"str":1567,"ĠAn":1568,"ator":1569,"Ġpar":1570,"ferred":1571,"alf":1572,"ession":1573,"Un":1574,"ury":1575,"Ġbuild":1576,"land":1577,"Ġexper":1578,"ON":1579,"atic":1580,"Ġsoci":1581,"rah":1582,"Ġpolit":1583,"itions":1584,"Ġtowards":1585,"Ġdep":1586,"Ġchang":1587,"Ġmar":1588,"Ġleg":1589,"iron":1590,"ENT":1591,"Ġsche":1592,"How":1593,"ead":1594,"Ġresult":1595,"oard":1596,"Ġbenef":1597,"Ġless":1598,"enger":1599,"Ġdue":1600,"Ġavailable":1601,"ief":1602,"Ġtre":1603,"ĠBut":1604,"ording":1605,"Ġinvest":1606,"ailed":1607,"alk":1608,"Ġquest":1609,"Ġpop":1610,"irc":1611,"ense":1612,"Al":1613,"Ġkind":1614,"ason":1615,"ĠRam":1616,"Ġheavens":1617,"Ġhist":1618,"ird":1619,"000":1620,"Ġissu":1621,"cri":1622,"Ġfree":1623,"Ġ10":1624,"201":1625,"Ġtrad":1626,"ances":1627,"ĠEng":1628,"ĠThey":1629,"Ġlight":1630,"Ġhealth":1631,"Ġjud":1632,"Ġlanguage":1633,"Ġbrought":1634,"Ġrev":1635,"Ġoffic":1636,"iversity":1637,"ĠMan":1638,"Ġunderstand":1639,"Ġdra":1640,"Ġcro":1641,"ex":1642,"Ġexist":1643,"ering":1644,"Ġprote":1645,"erc":1646,"Ġwar":1647,"Ġdr":1648,"ala":1649,"uss":1650,"Ġvalue":1651,"Ġpunishment":1652,"Ġcommand":1653,"ajor":1654,"Ġcause":1655,"iful":1656,"Ġpoet":1657,"br":1658,"ructure":1659,"be":1660,"ĠThis":1661,"Ġtas":1662,"ternational":1663,"Ġnational":1664,"Ġfamily":1665,"ately":1666,"ĠIt":1667,"Ġri":1668,"ising":1669,"ceed":1670,"wh":1671,"aim":1672,"ification":1673,"Ġsend":1674,"urity":1675,"Ġfood":1676,"ĠRaj":1677,"ready":1678,"ĠBhavan":1679,"uty":1680,"Ġconst":1681,"meric":1682,"That":1683,"used":1684,"orn":1685,"Ġchange":1686,"Ġassoci":1687,"Ġprogramm":1688,"put":1689,"section":1690,"rict":1691,"isions":1692,"hing":1693,"Ġlim":1694,"rial":1695,"Ġdeath":1696,"het":1697,"Ġclass":1698,"AN":1699,"ron":1700,"ocu":1701,"Ġspecial":1702,"Ġservice":1703,"Ġsomething":1704,"Ġstr":1705,"ĠAl":1706,"ource":1707,"Ġmarket":1708,"ential":1709,"ateg":1710,"Ġvill":1711,"Ġmo":1712,"na":1713,"ricult":1714,"Ġmet":1715,"Ġ199":1716,"irit":1717,"Ġ{":1718,"itte":1719,"ĠSe":1720,"ivid":1721,"Ġrun":1722,"ĠDel":1723,"ali":1724,"agement":1725,"nect":1726,"ĠMu":1727,"Ġprovided":1728,"ĠGu":1729,"Ġfather":1730,"Ġmatter":1731,"Ġey":1732,"ĠRs":1733,"ference":1734,"urther":1735,"Ġfar":1736,"Ġarea":1737,"ĠIslam":1738,"Ġhouse":1739,"ured":1740,"Ġsubject":1741,"Ġobject":1742,"rapati":1743,"Ġalready":1744,"Ġbre":1745,"ait":1746,"Ġreve":1747,"At":1748,"reng":1749,"Ġproduct":1750,"Ġru":1751,"Ġsupp":1752,"ĠCentral":1753,"Ġnear":1754,"Ġple":1755,"Ġdata":1756,"RES":1757,"iqu":1758,"Ġmembers":1759,"Ġlove":1760,"ability":1761,"gether":1762,"Ġtogether":1763,"Ġ:":1764,"Ġregard":1765,"raph":1766,"Ġop":1767,"oney":1768,"Ġhard":1769,"Ġhig":1770,"Ġ15":1771,"Ġfew":1772,"Ġcomput":1773,"Ġwhole":1774,"Ġgave":1775,"ashtrapati":1776,"Ġfield":1777,"io":1778,"IN":1779,"for":1780,"Ġdate":1781,"Ġcharact":1782,"ma":1783,"Ġsigns":1784,"eous":1785,"han":1786,"Ġservices":1787,"cing":1788,"Ġperform":1789,"Ġcountries":1790,"Ġtrue":1791,"Ġworship":1792,"Ġfund":1793,"oss":1794,"Ġrese":1795,"reen":1796,"Ġnight":1797,"come":1798,"Ġenc":1799,"ger":1800,"Ġnet":1801,"ancial":1802,"Ġfollowing":1803,"ges":1804,"iding":1805,"ently":1806,"Ġcommon":1807,"Ġeng":1808,"Ġann":1809,"eness":1810,"Ġnon":1811,"ran":1812,"ĠSo":1813,"Ġabove":1814,"tal":1815,"val":1816,"liament":1817,"Ġareas":1818,"ogn":1819,"Ġhimself":1820,"Ġliter":1821,"ians":1822,"Ġpray":1823,"Ġnation":1824,"Ġbased":1825,"Ġexpl":1826,"Ġparticular":1827,"Ġpract":1828,"Ġstreng":1829,"Ġprovide":1830,"itness":1831,"otion":1832,"oub":1833,"Ġtax":1834,"IT":1835,"Ġgod":1836,"Ġdel":1837,"Ġcal":1838,"ems":1839,"Ġpath":1840,"ĠSing":1841,"itor":1842,"ĠDelhi":1843,"Ġcare":1844,"Ġmajor":1845,"Ġsecond":1846,"ilities":1847,"aining":1848,"HE":1849,"Ġrespons":1850,"Ġage":1851,"Ġself":1852,"Say":1853,"ĠDep":1854,"ying":1855,"isation":1856,"Ġsw":1857,"Ġaction":1858,"ĠIf":1859,"ners":1860,"Ġ20":1861,"ĠNew":1862,"Ġ12":1863,"ling":1864,"artment":1865,"ividual":1866,"Ġhold":1867,"ĠMy":1868,"Ġpolicy":1869,"Ġlittle":1870,"Ġcost":1871,"Ġmaking":1872,"Ġplac":1873,"Ġbelong":1874,"adesh":1875,"Ġwords":1876,"Ġasse":1877,"à¥":1878,"Ġconsider":1879,"Ġthought":1880,"Ġhearts":1881,"ĠMe":1882,"Ġcr":1883,"oses":1884,"AL":1885,"Ġeconomic":1886,"ilit":1887,"aled":1888,"Ġtest":1889,"istry":1890,"ope":1891,"Ġable":1892,"En":1893,"Ġcapital":1894,"Ġhaving":1895,"lection":1896,"Ġeas":1897,"lo":1898,"Ġinit":1899,"ĠBrit":1900,"Ġseen":1901,"chie":1902,"ĠCommission":1903,"oura":1904,"iver":1905,"Ġbeg":1906,"ara":1907,"Ġreport":1908,"play":1909,"viron":1910,"Ġthough":1911,"Ġtook":1912,"Ġsector":1913,"Ġstill":1914,"idence":1915,"Ġsociety":1916,"ories":1917,"His":1918,"Ġuntil":1919,"Ġever":1920,"Ġaround":1921,"Ġcurrent":1922,"Ġnecess":1923,"ames":1924,"ĠAss":1925,"els":1926,"Ġoccas":1927,"icult":1928,"jee":1929,"Ġtype":1930,"akh":1931,"Ġplan":1932,"ises":1933,"ĠAd":1934,"Ġpain":1935,"Ġinstru":1936,"ammad":1937,"Ġsing":1938,"Ġfarm":1939,"Ġwhose":1940,"cil":1941,"uct":1942,"uro":1943,"Ġindividual":1944,"Ġalways":1945,"Ġve":1946,"andhi":1947,"resent":1948,"Ġbelievers":1949,"vironment":1950,"Ġ11":1951,"Ġeffort":1952,"ats":1953,"after":1954,"ĠCour":1955,"Ġalong":1956,"Ġnothing":1957,"Ġrul":1958,"Ġseek":1959,"Ġtherefore":1960,"Ġenter":1961,"ĠStates":1962,"Ġorig":1963,"by":1964,"ribut":1965,"Ġlocal":1966,"aring":1967,"Ġsol":1968,"Ġdeeds":1969,"Ġclause":1970,"Ġspirit":1971,"Ġexpress":1972,"ched":1973,"Ġincluding":1974,"Ġthing":1975,"Ġthee":1976,"ream":1977,"asure":1978,"Ġguid":1979,"Ġwhether":1980,"Ġpolitical":1981,"Ġbo":1982,"Ġfav":1983,"Ġfolder":1984,"Ġachie":1985,"ĠPl":1986,"Ġcreate":1987,"umb":1988,"arent":1989,"Ġaut":1990,"Ġcreat":1991,"Ġfurther":1992,"ails":1993,"Ġel":1994,"Ġreligion":1995,"af":1996,"Ġvers":1997,"ication":1998,"Ġwitness":1999,"eration":2000,"Ġ'%":2001,"Ġmill":2002,"epend":2003,"Ġpost":2004,"ours":2005,"ĠAb":2006,"IS":2007,"Ġschool":2008,"Ġmus":2009,"hammad":2010,"ta":2011,"reme":2012,"Ġyet":2013,"ustom":2014,"omes":2015,"Ġyoung":2016,"Ġpoint":2017,"Ġgrowth":2018,"cribed":2019,"Ġmean":2020,"pportun":2021,"just":2022,"Ġfive":2023,"ĠBeng":2024,"Ġreceived":2025,"Ġport":2026,"bar":2027,"ĠNo":2028,"atever":2029,"Ġinstitut":2030,"Ġbecame":2031,"Ġut":2032,"lling":2033,"udd":2034,"Ġcontrol":2035,"Ġmult":2036,"ier":2037,"ittee":2038,"pose":2039,"Ġnature":2040,"erve":2041,"Ġheld":2042,"ĠRashtrapati":2043,"Ġcomplete":2044,"ources":2045,"Ġlive":2046,"rael":2047,"Ġside":2048,"Ġlater":2049,"ama":2050,"atch":2051,"itional":2052,"illed":2053,"Ġtotal":2054,"Ġequal":2055,"ministr":2056,"Ġpeace":2057,"Ġsince":2058,"dom":2059,"ached":2060,"ards":2061,"incip":2062,"outh":2063,"gu":2064,"ribution":2065,"Ġsever":2066,"Ġhands":2067,"De":2068,"ĠMessenger":2069,"IDENT":2070,"Ġopportun":2071,"ukher":2072,"ences":2073,"Ġimpro":2074,"Ġoccasion":2075,"Ġhome":2076,"ĠSec":2077,"Ġnext":2078,"opy":2079,"ĠOr":2080,"Ġleave":2081,"ukherjee":2082,"Ġdocu":2083,"RESIDENT":2084,"Ġdiff":2085,"Ġquestion":2086,"OR":2087,"Ġrequired":2088,"Ġknows":2089,"Ġfunction":2090,"Can":2091,"hold":2092,"Ġes":2093,"Ġcred":2094,"Ġstrong":2095,"Ġregion":2096,"change":2097,"Ġshort":2098,"Ġrecord":2099,"Ġprevious":2100,"plement":2101,"ivil":2102,"She":2103,"ĠZ":2104,"Ġcirc":2105,"Ġreward":2106,"hy":2107,"ibility":2108,"ME":2109,"Ġselected":2110,"ĠBritish":2111,"Ġforth":2112,"Ġson":2113,"ior":2114,"Ġmater":2115,"Ġfeel":2116,"Ġbrother":2117,"My":2118,"Ġposition":2119,"ĠSingh":2120,"Ġpossible":2121,"Ġshare":2122,"Our":2123,"Ġreason":2124,"Ġkey":2125,"ened":2126,"Ġmor":2127,"stitute":2128,"Ġindustry":2129,"uation":2130,"most":2131,"India":2132,"Those":2133,"ross":2134,"Ġtext":2135,"Ġrelations":2136,"Ġmoney":2137,"cious":2138,"Ġactivities":2139,"cell":2140,"anab":2141,"urely":2142,"ĠTHE":2143,"Ġseveral":2144,"Ġconcern":2145,"Ġcertainly":2146,"Ġflow":2147,"ĠIsrael":2148,"Ġeither":2149,"aster":2150,"see":2151,"ouncil":2152,"earch":2153,"ude":2154,"Show":2155,"IC":2156,"pecial":2157,"Ġforeign":2158,"Ġapplication":2159,"ively":2160,"Ġresearch":2161,"ĠBank":2162,"Ġdise":2163,"men":2164,"IA":2165,"Ġpriv":2166,"ony":2167,"Ġauthority":2168,"rem":2169,"rodu":2170,"Con":2171,"icle":2172,"ault":2173,"Ġmother":2174,"Ġcontact":2175,"Ġcommit":2176,"amb":2177,"mission":2178,"Ġaccess":2179,"Ġconnect":2180,"ension":2181,"Ġitself":2182,"eneral":2183,"ĠEnglish":2184,"Ġtechnology":2185,"tt":2186,"Ġdom":2187,"Ġcharacter":2188,"Ġface":2189,"19":2190,"Ġwent":2191,"lu":2192,"uture":2193,"Ġrecogn":2194,"Ġmis":2195,"Ġerror":2196,"ĠGandhi":2197,"After":2198,"ully":2199,"Ġprogress":2200,"une":2201,"Ġanything":2202,"uf":2203,"aries":2204,"augh":2205,"Ġexample":2206,"Ġvisit":2207,"with":2208,"Ġplant":2209,"mber":2210,"One":2211,"velopment":2212,"Ġsat":2213,"Ġill":2214,"ĠAg":2215,"unt":2216,"Ġsum":2217,"isl":2218,"ION":2219,"Ġfinancial":2220,"Ġprovisions":2221,"ĠWho":2222,"Ġproduction":2223,"Ġrate":2224,"cent":2225,"Ġobs":2226,"Ġassess":2227,"Ġur":2228,"Ġdoub":2229,"reet":2230,"Ġlink":2231,"iation":2232,"ĠHindu":2233,"pur":2234,"ibr":2235,"ĠUniversity":2236,"Ġdon":2237,"ĠRe":2238,"bsite":2239,"ilt":2240,"Ġgrant":2241,"know":2242,"ĠPradesh":2243,"Ġtrust":2244,"Ġhistory":2245,"Ġestablished":2246,"Allah":2247,"imum":2248,"Ġanim":2249,"ĠParliament":2250,"ĠOffic":2251,"Ġdifficult":2252,"Ġusing":2253,"Ġproperty":2254,"Is":2255,"rab":2256,"aps":2257,"Ġworks":2258,"Ġpurpose":2259,"Ġrepresent":2260,"ograph":2261,"Ġquality":2262,"ches":2263,"ĠCong":2264,"Ġagricult":2265,"Ġz":2266,"ring":2267,"Ġx":2268,"Ġfall":2269,"Ġstat":2270,"Ġscheme":2271,"Ġdeal":2272,"ĠCourt":2273,"ilar":2274,"obal":2275,"Ġopp":2276,"Ġnecessary":2277,"Ġelect":2278,"Ġident":2279,"Ġenj":2280,"Ġtherein":2281,"ills":2282,"nov":2283,"Ġsuff":2284,"Ġharm":2285,"Ġstarted":2286,"Ġbehind":2287,"Ġded":2288,"Ġlab":2289,"Ġens":2290,"Ġsoul":2291,"atural":2292,"Ġcourse":2293,"ape":2294,"aun":2295,"Ġhath":2296,"Ġmercy":2297,"ĠHindi":2298,"Ġmaterial":2299,"ĠâĢĻ":2300,"Or":2301,"Ġimage":2302,"Ġmeeting":2303,"osed":2304,"Ġreferred":2305,"ĠDo":2306,"Ġtop":2307,"itiz":2308,"arat":2309,"Ġfiles":2310,"ably":2311,"Ġline":2312,"acity":2313,"Ġworking":2314,"irth":2315,"Ġentire":2316,"ĠMinistry":2317,"word":2318,"osp":2319,"Ġsave":2320,"urope":2321,"Ġair":2322,"Ġbig":2323,"Ġnetwork":2324,"ĠRep":2325,"Ġasked":2326,"Re":2327,"sp":2328,"airs":2329,"ethod":2330,"Ġdemand":2331,"Ġmag":2332,"Add":2333,"side":2334,"Ġfuture":2335,"esides":2336,"Ġsecurity":2337,"Ġimplement":2338,"Ġcontinu":2339,"Ġinstitutions":2340,"Ġfight":2341,"ĠIND":2342,"ging":2343,"Ġgot":2344,"Ġdri":2345,"Ġgreater":2346,"engers":2347,"then":2348,"Ġrelated":2349,"aged":2350,"Ġredu":2351,"Some":2352,"Ġdeb":2353,"mitted":2354,"ointed":2355,"Ġ196":2356,"over":2357,"ĠCongress":2358,"Ġhigher":2359,"Could":2360,"Ġ000":2361,"Ġcourt":2362,"Ġcommunity":2363,"anch":2364,"Ġwhatever":2365,"ĠRRB":2366,"urs":2367,"Ġrevealed":2368,"With":2369,"go":2370,"Ġstudents":2371,"rast":2372,"Ġfire":2373,"sw":2374,"ani":2375,"ton":2376,"ĠSub":2377,"Ġspecified":2378,"Ġhon":2379,"Ġener":2380,"Ġwarn":2381,"Ġmail":2382,"Ġvi":2383,"poses":2384,"Ġcity":2385,"Ġguidance":2386,"Ġcomes":2387,"olk":2388,"Ġagree":2389,"Ġtreat":2390,"Ġleaders":2391,"ĠUs":2392,"Ġwritten":2393,"Ġten":2394,"Ġonce":2395,"ram":2396,"Ġclose":2397,"Ġwebsite":2398,"atives":2399,"Ġpaid":2400,"Ġmonths":2401,"Ġsix":2402,"Ġones":2403,"ĠComp":2404,"erily":2405,"ĠHouse":2406,"uly":2407,"rec":2408,"Ġdecl":2409,"ones":2410,"Ġ195":2411,"Ġrepl":2412,"Ġliving":2413,"Ġforward":2414,"itation":2415,"Ġ16":2416,"ipp":2417,"Ġstri":2418,"aves":2419,"ruction":2420,"Ġsoon":2421,"Ġrele":2422,"Ġmodern":2423,"der":2424,"Ġtold":2425,"app":2426,"ĠReg":2427,"Ġbelieved":2428,"):":2429,"Ġrighteous":2430,"Ġgoods":2431,"ush":2432,"Ġverily":2433,"ĠAmeric":2434,"orrow":2435,"Ġstep":2436,"Ġi":2437,"Ġ25":2438,"hood":2439,"Ġhy":2440,"Ġmount":2441,"mp":2442,"Ġprep":2443,"Ġrole":2444,"Ġstory":2445,"Ġeyes":2446,"ĠServ":2447,"rish":2448,"itive":2449,"Ġlay":2450,"ji":2451,"Ġenvironment":2452,"ison":2453,"lled":2454,"Ġpast":2455,"ĠLRB":2456,"ĠPrime":2457,"Ġ198":2458,"ires":2459,"Ġdeterm":2460,"ĠDevelopment":2461,"Ġwis":2462,"Ġaccording":2463,"reedom":2464,"ung":2465,"medi":2466,"orth":2467,"ek":2468,"lier":2469,"Ġclaim":2470,"Ġtell":2471,"Ġthy":2472,"idered":2473,"Ġiniti":2474,"Ġdoing":2475,"aut":2476,"Ġproblem":2477,"ored":2478,"phet":2479,"abha":2480,"Ġ194":2481,"Ġpub":2482,"Ġforce":2483,"acher":2484,"Ġturned":2485,"istic":2486,"Ġbar":2487,"ideo":2488,"Ġparticip":2489,"Ġsin":2490,"Ġcentury":2491,"Ġbuilding":2492,"fully":2493,"Ġmethod":2494,"Ġoffice":2495,"ita":2496,"Ġextend":2497,"Ġcell":2498,"Ġlot":2499,"Ġtill":2500,"Ġsepar":2501,"roy":2502,"Ġparty":2503,"soever":2504,"Ġange":2505,"Ġgri":2506,"ival":2507,"ĠMuslims":2508,"Ġpot":2509,"Ġdesign":2510,"Ġhowever":2511,"Ġbasis":2512,"Ġappointed":2513,"Ġinvol":2514,"ĠQur":2515,"Indeed":2516,"ĠEn":2517,"cient":2518,"Ġparts":2519,"irt":2520,"att":2521,"Ġimm":2522,"Ġconsidered":2523,"Ġpurposes":2524,"ĠBengal":2525,"Ġneeds":2526,"Ġproblems":2527,"Ġwhy":2528,"Ġinternational":2529,"Ġcomputer":2530,"action":2531,"Ġenergy":2532,"hether":2533,"ke":2534,"ĠUnion":2535,"Ġsal":2536,"leg":2537,"Ġphys":2538,"Ġchanges":2539,"ina":2540,"Ġvari":2541,"Ġspeak":2542,"ĠConstitution":2543,"Ġmanner":2544,"essee":2545,"Ġmovement":2546,"Ġter":2547,"Ġloss":2548,"?\"":2549,"Dis":2550,"ificate":2551,"Ġadministr":2552,"cut":2553,"ets":2554,"ĠCol":2555,"Ġabs":2556,"ĠCommittee":2557,"rs":2558,"Go":2559,"Ġ14":2560,"acy":2561,"Ġlearn":2562,"Ġpersons":2563,"ulf":2564,"Ġ13":2565,"Ġking":2566,"oid":2567,"ological":2568,"ĠGovern":2569,"Ġintegr":2570,"Ġdiscuss":2571,"Ġess":2572,"Ġfru":2573,"ĠCont":2574,"Ġground":2575,"Ġterms":2576,"istan":2577,"Now":2578,"new":2579,"Ġcrit":2580,"asing":2581,"aff":2582,"ĠCouncil":2583,"Ġblood":2584,"Ġcitiz":2585,"ouses":2586,"ĠKnow":2587,"Ġserver":2588,"ategory":2589,"Ġprincip":2590,"aint":2591,"Ġtree":2592,"ane":2593,"Ġ197":2594,"Ġarch":2595,"Ġvillage":2596,"Ġsingle":2597,"Ġtor":2598,"Ġoften":2599,"Ġmention":2600,"Ġdisplay":2601,"bit":2602,"omb":2603,"Ġdeep":2604,"Ġtrade":2605,"Ġscient":2606,"Ġestablish":2607,"ech":2608,"Ġcustom":2609,"amed":2610,"ĠDirect":2611,"Ġbooks":2612,"eb":2613,"Ġvol":2614,"Ġmessages":2615,"Ġpassed":2616,"By":2617,"Ġacqu":2618,"Ġassist":2619,"aper":2620,"Ġassessee":2621,"aught":2622,"ript":2623,"cription":2624,"ox":2625,"Ġfirm":2626,"vey":2627,"Ġremember":2628,"Ġsuper":2629,"ixed":2630,"Ġprotect":2631,"Ġtask":2632,"rect":2633,"ousand":2634,"Ġhost":2635,"Ġspread":2636,"Pr":2637,"imate":2638,"Ġreligious":2639,"Ġissued":2640,"nic":2641,"Ġsense":2642,"oice":2643,"Ġpress":2644,"Ġmakes":2645,"Ġgives":2646,"Please":2647,"use":2648,"Ġcarry":2649,"ĠSay":2650,"pro":2651,"Ġallowed":2652,"sequ":2653,"Ġwealth":2654,"Ġmanagement":2655,"Be":2656,"Ġcheck":2657,"Your":2658,"atory":2659,"Ġbegin":2660,"Ġdestroy":2661,"Ġterror":2662,"tax":2663,"Ġmaint":2664,"Rem":2665,"Ġsac":2666,"ĠFire":2667,"Ġpoor":2668,"ĠDepartment":2669,"Ġpatient":2670,"Ġexpect":2671,"Ġconditions":2672,"Ġfreedom":2673,"Ġefforts":2674,"Ġreach":2675,"kind":2676,"Ġbenefit":2677,"Ġmach":2678,"ĠSy":2679,"ĠINDIA":2680,"Ġcompan":2681,"Who":2682,"Ġeverything":2683,"Ġtaking":2684,"Ġaware":2685,"Ġgeneral":2686,"hara":2687,"Ġsize":2688,"Ġwish":2689,"Ġsun":2690,"aste":2691,"aving":2692,"inary":2693,"Ġcivil":2694,"ift":2695,"uses":2696,"krit":2697,"rown":2698,"Ġ30":2699,"Ġviol":2700,"Ġthus":2701,"Ġnone":2702,"Ġmatters":2703,"Ġconduct":2704,"my":2705,"idden":2706,"ĠHigh":2707,"Ġsound":2708,"well":2709,"Ġinstitution":2710,"sc":2711,"itude":2712,"Ġmillion":2713,"Ġincrease":2714,"Ġundert":2715,"ples":2716,"believers":2717,"iet":2718,"Te":2719,"Ġpartners":2720,"let":2721,"com":2722,"Ġfel":2723,"itable":2724,"Ġnorm":2725,"war":2726,"Ġneither":2727,"Ġreject":2728,"Ġpen":2729,"Ġculture":2730,"Ġduty":2731,"cies":2732,"ĠMost":2733,"Ġer":2734,"Ġglobal":2735,"Ġreally":2736,"ĠDr":2737,"adh":2738,"Ġenjoy":2739,"Ġleast":2740,"Ġfig":2741,"Ġdeveloped":2742,"Ġdepend":2743,"Ġfollowed":2744,"Ġalone":2745,"Ġaud":2746,"rain":2747,"Ġjour":2748,"Ġthousand":2749,"etition":2750,"Ġsource":2751,"Select":2752,"Ġearly":2753,"iles":2754,"ĠMuhammad":2755,"chnology":2756,"attle":2757,"ilk":2758,"God":2759,"Ġsearch":2760,"Ġchall":2761,"Ġassessment":2762,"Ġtraining":2763,"Ġparent":2764,"Ġnatural":2765,"Ġ17":2766,"iveness":2767,"ental":2768,"ĠAf":2769,"adem":2770,"ĠMoses":2771,"ĠSche":2772,"Ġcover":2773,"Ġsubs":2774,"ots":2775,"rror":2776,"ĠSat":2777,"Ġstay":2778,"sue":2779,"ĠGeneral":2780,"eople":2781,"Ġastr":2782,"Ġmember":2783,"iction":2784,"orld":2785,"Ġopens":2786,"Ġlow":2787,"that":2788,"Cannot":2789,"Ġli":2790,"RA":2791,"vere":2792,"Ġtalk":2793,"Ġconsum":2794,"However":2795,"tp":2796,"ump":2797,"Whether":2798,"lete":2799,"Ġcreation":2800,"ptions":2801,"Ġtemple":2802,"PRESIDENT":2803,"urd":2804,"oke":2805,"uge":2806,"],":2807,"tings":2808,"Ġdoubt":2809,"Ġindepend":2810,"orpor":2811,"Ġtransfer":2812,"Ġfast":2813,"alay":2814,"emed":2815,"Ġcapacity":2816,"ned":2817,"Ġachieve":2818,"Ġliterature":2819,"Im":2820,"gment":2821,"rist":2822,"che":2823,"Ġ*":2824,"ĠIm":2825,"Ġoutside":2826,"Ġwoman":2827,"Ġbless":2828,"reg":2829,"abad":2830,"ĠPol":2831,"Ġcredit":2832,"Ġeat":2833,"RO":2834,"mir":2835,"usion":2836,"do":2837,"ĠCal":2838,"Ġprovision":2839,"Ġtou":2840,"Ġsaying":2841,"20":2842,"ulated":2843,"http":2844,"Ġpros":2845,"Ġconv":2846,"Ġtrib":2847,"Ġadop":2848,"Ġdisease":2849,"ardens":2850,"face":2851,"ĠFin":2852,"'s":2853,"ada":2854,"Ġdead":2855,"Ġdisbelieve":2856,"Ġgen":2857,"Ġrights":2858,"Ġindustrial":2859,"ĠEurope":2860,"Ġpayment":2861,"iddle":2862,"Ġpopulation":2863,"ĠProphet":2864,"Ġdrink":2865,"Ġmode":2866,"Ġtown":2867,"Ġdemoc":2868,"Am":2869,"Ġlog":2870,"Ġant":2871,"Ġdire":2872,"Ġangels":2873,"enty":2874,"Ġprogramme":2875,"ler":2876,"posed":2877,"ĠThen":2878,"Ġbirth":2879,"Ġwife":2880,"alse":2881,"Ġmankind":2882,"Ġremain":2883,"Ġaim":2884,"Ġpersonal":2885,"Ar":2886,"ĠBoard":2887,"Ġneg":2888,"ique":2889,"empt":2890,"wise":2891,"Ġevent":2892,"Ġsan":2893,"Ġwide":2894,"ĠMar":2895,"pir":2896,"Ġsaw":2897,"cle":2898,"ĠMukherjee":2899,"Ġresources":2900,"Ġsoft":2901,"Ġarr":2902,"rastructure":2903,"Ġexc":2904,"light":2905,"Ġlost":2906,"Ġreceive":2907,"Pl":2908,"ĠIndeed":2909,"Ġred":2910,"ĠPh":2911,"ĠMerc":2912,"ĠOn":2913,"Ġcharge":2914,"ĠChand":2915,"undred":2916,"Ġwrite":2917,"isf":2918,"Ġimmedi":2919,"va":2920,"Ġcases":2921,"Ġsust":2922,"Ġprogram":2923,"Ġdeny":2924,"ufact":2925,"Ġstru":2926,"pril":2927,"estern":2928,"Ġinclude":2929,"Ġsea":2930,"Ġsqu":2931,"uration":2932,"duc":2933,"Acc":2934,"isc":2935,"Ġinnov":2936,"Ġsugg":2937,"Ġalmost":2938,"Let":2939,"ested":2940,"ĠInformation":2941,"ares":2942,"Ġearlier":2943,"Prov":2944,"Ġansw":2945,"Ġtry":2946,"yn":2947,"anskrit":2948,"ĠMerciful":2949,"Ġkept":2950,"Ġhalf":2951,"Ġlakh":2952,"rew":2953,"Ġraised":2954,"Ġmass":2955,"Ġjudge":2956,"ols":2957,"ows":2958,"ĠSabha":2959,"Ġtorment":2960,"//":2961,"://":2962,"Ġrevel":2963,"ĠLe":2964,"ĠCo":2965,"ĠBe":2966,"Ġrule":2967,"Ġuser":2968,"ables":2969,"Ġcontinue":2970,"Ġexperience":2971,"EC":2972,"oly":2973,"Ġacross":2974,"Ġwriting":2975,"erved":2976,"gest":2977,"Ġtyp":2978,"Ġproducts":2979,"Ġsays":2980,"Ġsimilar":2981,"rection":2982,"Ġenough":2983,"ees":2984,"Ad":2985,"Not":2986,"Ġinstall":2987,"Ġstrength":2988,"uary":2989,"ĠTo":2990,"ĠSA":2991,"ĠTO":2992,"Ġdistrict":2993,"Ġcondition":2994,"ĠHere":2995,"ading":2996,"UR":2997,"Ġseven":2998,"Ġrequire":2999,"Ġfem":3000,"Ġdocument":3001,"Ġprojects":3002,"Ġfarmers":3003,"Ġofficial":3004,"Ġdeli":3005,"Ġspace":3006,"Ġlat":3007,"Ġtar":3008,"rences":3009,"anda":3010,"raw":3011,"Ġpow":3012,"Ġstructure":3013,"mark":3014,"lebr":3015,"Ġprice":3016,"yle":3017,"Ġhope":3018,"pecially":3019,"vert":3020,"ivity":3021,"Ġlaun":3022,"Ġcut":3023,"igation":3024,"Ġoperation":3025,"Ġastray":3026,"Ġapply":3027,"Ġstates":3028,"Ġlear":3029,"Ġthird":3030,"ĠInstitute":3031,"Ġnews":3032,"Ġenem":3033,"ww":3034,"Ġfront":3035,"Ġmultip":3036,"Ġscience":3037,"endar":3038,"ators":3039,"Ġaffect":3040,"Ġinvestment":3041,"Ġexec":3042,"Ġemer":3043,"oud":3044,"External":3045,"ales":3046,"Ġhundred":3047,"Ġprivate":3048,"Ġcarried":3049,"ager":3050,"fficient":3051,"ĠPart":3052,"ava":3053,"Ġinflu":3054,"Ġforms":3055,"Ġsignific":3056,"Ġfulf":3057,"haps":3058,"owed":3059,"Ġjob":3060,"Ġguide":3061,"Ġboy":3062,"Ġguard":3063,"Ġintrodu":3064,"Ġguided":3065,"Ġbelow":3066,"Ġdecided":3067,"Ġfailed":3068,"Ġconne":3069,"Ġteacher":3070,"ney":3071,"Thus":3072,"ening":3073,"inn":3074,"nds":3075,"agar":3076,"fort":3077,"Ġign":3078,"Ġprepared":3079,"Ġprovides":3080,"Ġhear":3081,"Ġdesire":3082,"Ġplaces":3083,"vi":3084,"ades":3085,"htm":3086,"Ġir":3087,"Ġwait":3088,"que":3089,"Ġreform":3090,"ĠNe":3091,"New":3092,"11":3093,"ĠCl":3094,"mon":3095,"Ġancient":3096,"Ġtour":3097,"ifest":3098,"Ġrural":3099,"oose":3100,"Ġpra":3101,"estic":3102,"AS":3103,"Ġrelating":3104,"Ġbehalf":3105,"Ġdraw":3106,"Ġeconomy":3107,"Ġdisbelievers":3108,"Ġattack":3109,"Ġbal":3110,"Ġapproach":3111,"Ġstrengthen":3112,"ĠDiv":3113,"umn":3114,"ĠIN":3115,"Ġmusic":3116,"Ġpal":3117,"Ġdecision":3118,"Ġexchange":3119,"Ġissues":3120,"ĠKh":3121,"Even":3122,"Ġissue":3123,"urance":3124,"Ġpromise":3125,"iture":3126,"vant":3127,"ĠMr":3128,"Ab":3129,"Ġbear":3130,"oon":3131,"Ġproduce":3132,"Ġimprove":3133,"ĠThat":3134,"Ġbuilt":3135,"Ġtransl":3136,"Ġeight":3137,"Ġcast":3138,"osop":3139,"Ġcrop":3140,"Ġlives":3141,"Ġmanufact":3142,"ĠYour":3143,"Ġled":3144,"inion":3145,"Ġaccord":3146,"Such":3147,"Ġfoc":3148,"Ġcoop":3149,"ĠPranab":3150,"sy":3151,"ĠPublic":3152,"ĠMahar":3153,"Ġproceed":3154,"ĠThere":3155,"ourage":3156,"Ġwhoever":3157,"Ġrad":3158,"Ġsituation":3159,"ports":3160,"ĠX":3161,"irst":3162,"aka":3163,"Ġensure":3164,"ĠBi":3165,"ĠApril":3166,"inter":3167,"icro":3168,"ĠBudd":3169,"aved":3170,"ĠJud":3171,"Ġpopular":3172,"Ġcrore":3173,"Ġpage":3174,"Ġdepos":3175,"gar":3176,"band":3177,"ici":3178,"jab":3179,"lear":3180,"Ġvideo":3181,"ĠEv":3182,"Ġ193":3183,"Ġgroups":3184,"rote":3185,"ibrary":3186,"Ġunbelievers":3187,"head":3188,"ĠJan":3189,"Ġprayer":3190,"Ġstudy":3191,"asures":3192,"adu":3193,"Ġdefe":3194,"Ġvalues":3195,"ĠWest":3196,"Ġprofession":3197,"Ġinstrument":3198,"ĠArab":3199,"Ġbound":3200,"ume":3201,"Ġfriends":3202,"Ġpublished":3203,"ban":3204,"Ġid":3205,"Ġsatisf":3206,"Ġbesides":3207,"ilosop":3208,"Ġhappy":3209,"Ġactually":3210,"Error":3211,"ĠOne":3212,"Ġrules":3213,"Ġopportunity":3214,"Ġstop":3215,"Ġ24":3216,"Spe":3217,"Ġindic":3218,".,":3219,"eral":3220,"ĠAcc":3221,"Tr":3222,"Ġmeaning":3223,"ground":3224,"Ġroad":3225,"Ġessential":3226,"urrection":3227,"ĠUS":3228,"ED":3229,"Ġregular":3230,"Ġfalse":3231,"Ġforb":3232,"Ġunivers":3233,"Ġoriginal":3234,"RI":3235,"'.":3236,"Ġespecially":3237,"mes":3238,"chan":3239,"ites":3240,"Ġconscious":3241,"Ġproviding":3242,"12":3243,"Ġsubst":3244,"ĠSw":3245,"Ġaccepted":3246,"anation":3247,"Ġcoming":3248,"Ġsecret":3249,"Ġrain":3250,"Ġcaused":3251,"Ġconcerned":3252,"Ġwall":3253,"Ġevidence":3254,"where":3255,"ĠChief":3256,"ulate":3257,"ĠEast":3258,"Ġriver":3259,"Ġattend":3260,"Ġdetails":3261,"Ġrich":3262,"Ġincreased":3263,"Ġwrote":3264,"Ġfacilities":3265,"Ġways":3266,"Ġreached":3267,"Ġphysical":3268,"Ġteach":3269,"ĠBrah":3270,"Ġspecific":3271,"Ġoccur":3272,"ĠLo":3273,"Ġdark":3274,"Ġgiving":3275,"oe":3276,"ott":3277,"irm":3278,"oday":3279,"Ġobt":3280,"Ġstage":3281,"Sub":3282,"kar":3283,"Ġbecomes":3284,"ley":3285,"App":3286,"Ġstatus":3287,"ras":3288,"vest":3289,"ĠSu":3290,"rica":3291,"ATION":3292,"ĠSanskrit":3293,"Ġnames":3294,"Ġda":3295,"Ġvict":3296,"aughter":3297,"bl":3298,"Ġlower":3299,"Ġste":3300,"Ġcitizens":3301,"Ġ100":3302,"Ġthereof":3303,"Ġbegan":3304,"Ġcelebr":3305,"hib":3306,"acc":3307,"ĠHereafter":3308,"iting":3309,"ĠKing":3310,"Ġprescribed":3311,"Ġprogrammes":3312,"Ġpossess":3313,"Ġbelongs":3314,"Ġeasy":3315,"gen":3316,"mbly":3317,"Cl":3318,"Ġinfrastructure":3319,"AP":3320,"ervation":3321,"10":3322,"ocation":3323,"ĠTechnology":3324,"set":3325,"rep":3326,"ĠAm":3327,"abled":3328,"Ġ50":3329,"Ġremind":3330,"ests":3331,"Ġfair":3332,"Ġletter":3333,"Ġcultural":3334,"ĠSp":3335,"uction":3336,"nding":3337,"Des":3338,"Ġwid":3339,"Ġrather":3340,"oll":3341,"Ġpercent":3342,"Ġyourselves":3343,".)":3344,"Ġroom":3345,"Ġmorning":3346,"Ġdam":3347,"Ġunless":3348,"ober":3349,"Ġsens":3350,"Ġarri":3351,"Ġexpend":3352,"Ġinstead":3353,"ĠCommissioner":3354,"ĠWorld":3355,"Ġimportance":3356,"Ġfeed":3357,"ĠOfficer":3358,"cribe":3359,"Ġmut":3360,"Ġcopy":3361,"char":3362,"Ġshown":3363,"je":3364,"II":3365,"omet":3366,"ĠPal":3367,"abor":3368,"Ġprevent":3369,"Ġmeasure":3370,"ĠUnited":3371,"Ġstra":3372,"Ġjustice":3373,"Ġappear":3374,"ĠPun":3375,"ĠIncome":3376,"Ġconcer":3377,"ST":3378,"hest":3379,"Ġchast":3380,"Ġplaced":3381,"Ġdie":3382,"Ġlanguages":3383,"fl":3384,"ouble":3385,"rows":3386,".'":3387,"resh":3388,"Ġdevice":3389,"Ġorigin":3390,"Ġreturned":3391,"Ġà¤":3392,"Ġsong":3393,"Ġemb":3394,"Open":3395,"gn":3396,"Ġbey":3397,"elf":3398,"ration":3399,"Ġaccounts":3400,"Ġresponsible":3401,"Ġmere":3402,"Category":3403,"ducation":3404,"encies":3405,"Ġtakes":3406,"Ġstone":3407,"Ġtele":3408,"Ġidea":3409,"uru":3410,"ecause":3411,"ĠSecret":3412,"Cont":3413,"Ġprim":3414,"ressed":3415,"Ġrivers":3416,"ili":3417,"Ġforest":3418,"Ġbeyond":3419,"Ġprior":3420,"Ġfail":3421,"ami":3422,"Ġcomb":3423,");":3424,"sect":3425,"Ġcolor":3426,"Have":3427,"Ġlies":3428,"though":3429,"Ġbill":3430,"ils":3431,"During":3432,"ĠOff":3433,"ĠGovernor":3434,"ule":3435,"oted":3436,"From":3437,"Ġdig":3438,"Us":3439,"rug":3440,"known":3441,"Ġhar":3442,"Ġmanifest":3443,"olar":3444,"Ġcentral":3445,"Ġpassword":3446,"Ġheard":3447,"Ġappoint":3448,"racy":3449,"Ġpotential":3450,"Ġanswer":3451,"Ġprop":3452,"Ġinform":3453,"ĠChrist":3454,"While":3455,"de":3456,"from":3457,"Ġeffective":3458,"Ġagreement":3459,"IL":3460,"arden":3461,"Ġsky":3462,"Ġservants":3463,"Ġpowers":3464,"tion":3465,"ropri":3466,"ĠSouth":3467,"aur":3468,"Ġaver":3469,"Ġcamp":3470,"Ġbit":3471,"rev":3472,"Are":3473,"Ġloan":3474,"Ġunderstanding":3475,"right":3476,"Ġbeginning":3477,"ĠMarch":3478,"Ġcoll":3479,"uck":3480,"Ġadded":3481,"Ġheaven":3482,"Ġgone":3483,"ĠApp":3484,"icles":3485,"iff":3486,"standing":3487,"riage":3488,"\".":3489,"Ġparents":3490,"rim":3491,"Ġexisting":3492,"haraoh":3493,"Ġbi":3494,"ĠLeg":3495,"rishna":3496,"Ġfort":3497,"Rec":3498,"body":3499,"Ġdi":3500,"Ġelse":3501,"Ġcontribut":3502,"Ġspiritual":3503,"ĠRepublic":3504,"Ġclean":3505,"Res":3506,"Ġunjust":3507,"add":3508,"inate":3509,"ĠMon":3510,"ĠIndust":3511,"Ġbird":3512,"aded":3513,"Ġgovern":3514,"oo":3515,"raham":3516,"Ġ+":3517,"anced":3518,"Ġsimple":3519,"Ġcoun":3520,"ĠService":3521,"road":3522,"Ġvision":3523,"ĠForg":3524,"Ġhistor":3525,"Ġstyle":3526,"ĠHell":3527,"Ġspeech":3528,"Ġquite":3529,"Ġphilosop":3530,"ctors":3531,"Ġweak":3532,"ertain":3533,"Ġconnection":3534,"Ġtreatment":3535,"ĠQuran":3536,"la":3537,"Ġcompet":3538,"Ġobey":3539,"Ġnotice":3540,"Ġarticle":3541,"Ġsetting":3542,"ĠCentre":3543,"Ġactivity":3544,"Ġpresented":3545,"Ġdefault":3546,"Ġburn":3547,"Ġder":3548,"Ġround":3549,"ĠAdd":3550,"equ":3551,"Ġlib":3552,"ommend":3553,"Ġmom":3554,"oting":3555,"Ġyouth":3556,"Ġoffer":3557,"Ġfolk":3558,"rick":3559,"ancy":3560,"Ġgir":3561,"erson":3562,"Ġgoes":3563,"Ġcontract":3564,"à¤¾":3565,"Ġexcell":3566,"Ġasset":3567,"antly":3568,"Ġconcerning":3569,"Americ":3570,"Ġlie":3571,"Ġexistence":3572,"ĠGuj":3573,"Ġstrugg":3574,"CC":3575,"Ġcertificate":3576,"ashmir":3577,"].":3578,"ĠWhen":3579,"Ġcolle":3580,"amil":3581,"Ġlegal":3582,"Ġfavour":3583,"Ġdeg":3584,"Ġknew":3585,"Ġproced":3586,"ĠPak":3587,"Ġfelt":3588,"aly":3589,"Why":3590,"Ġparties":3591,"Ġbad":3592,"Ġbreak":3593,"Ġscale":3594,"Ġwanted":3595,"Ġnar":3596,"Ġoption":3597,"ingu":3598,"Ġhouses":3599,"ĠResurrection":3600,"uls":3601,"Ġverses":3602,"Ġagricultural":3603,"Ġdisp":3604,"Ġpoin":3605,"cember":3606,"Ġ=":3607,"iva":3608,"Ġ26":3609,"Ġdirection":3610,"Ne":3611,"Ġship":3612,"Ġbond":3613,"Ġlearning":3614,"Use":3615,"ules":3616,"but":3617,"atures":3618,"Ġbasic":3619,"Ġoil":3620,"ulations":3621,"Ġaddition":3622,"isement":3623,"ĠProject":3624,"osition":3625,"Ġformed":3626,"ĠName":3627,"AY":3628,"List":3629,"Ġmentioned":3630,"under":3631,"Ġbeaut":3632,"Ġgetting":3633,"ĠDirector":3634,"Ġcommer":3635,"Ġexerc":3636,"Ġkill":3637,"Ġris":3638,"Ġunit":3639,"Ġemployment":3640,"has":3641,"ĠAk":3642,"ĠMay":3643,"Ġsystems":3644,"Failed":3645,"Ġfixed":3646,"ĠRec":3647,"ĠNot":3648,"ĠPur":3649,"igned":3650,"Ġgenerally":3651,"Ġrunning":3652,"Ġborn":3653,"upreme":3654,"Ġforces":3655,"Ġvirt":3656,"Ġ23":3657,"Ġcompl":3658,"Ġproduced":3659,"Ġaspect":3660,"Ġcontent":3661,"istered":3662,"ze":3663,"Ġfif":3664,"Ġwise":3665,"Ġplants":3666,"Ġge":3667,"Ġargu":3668,"Ġideas":3669,"ING":3670,"rav":3671,"ĠHar":3672,"Ġusually":3673,"Ġremove":3674,"oured":3675,"anga":3676,"porary":3677,"oved":3678,"âĢ¦":3679,"Ġweek":3680,"Ġmot":3681,"nal":3682,"Every":3683,"Ġtried":3684,"Ġund":3685,"Ġ21":3686,"ength":3687,"IR":3688,"ctober":3689,"Ġemp":3690,"ĠBl":3691,"ĠProv":3692,"Indian":3693,"Ġengine":3694,"sec":3695,"Ġplus":3696,"Ġnovel":3697,"Ġwishes":3698,"Ġimmediately":3699,"Ġpoll":3700,"Ġanimals":3701,"Cre":3702,"Ġwarm":3703,"Ġresponsibility":3704,"Ġassociated":3705,"umbai":3706,"enth":3707,"uman":3708,"ĠCO":3709,"ĠPlan":3710,"Ġsold":3711,"ĠMed":3712,"Ġcontinued":3713,"Ġgeneration":3714,"Ġunits":3715,"vis":3716,"itle":3717,"Ġgreet":3718,"lt":3719,"Lo":3720,"omen":3721,"planation":3722,"Ġcontro":3723,"Ġep":3724,"Ġdestroyed":3725,"Ġpractice":3726,"Ġopportunities":3727,"Ġpainful":3728,"Ġstatement":3729,"Aut":3730,"Ġpack":3731,"Ġprosper":3732,"Where":3733,"Ġcollect":3734,"miss":3735,"Ġregarding":3736,"Ġhus":3737,"AB":3738,"Ġnote":3739,"ĠScheme":3740,"Verily":3741,"Provided":3742,"Ġaw":3743,"ching":3744,"Ġcove":3745,"Ġpie":3746,"ĠMod":3747,"Ġsafe":3748,"Ġpresence":3749,"Ġlimit":3750,"Ġbanks":3751,"Ġpoetry":3752,"ole":3753,"Ġaward":3754,"urt":3755,"ĠON":3756,"Ġdream":3757,"Ġhor":3758,"ĠMoh":3759,"Ġfeet":3760,"Ġsight":3761,"iter":3762,"fect":3763,"ĠMem":3764,"Ġrevelations":3765,"Ġsymb":3766,"EL":3767,"Ġforgiveness":3768,"arily":3769,"Ġindustries":3770,"adi":3771,"ĠTrib":3772,"ovember":3773,"Ġincludes":3774,"Ġcompanies":3775,"Ġanyone":3776,"ildren":3777,"Ġitem":3778,"Ġcorrect":3779,"race":3780,"Ġfest":3781,"Ġsle":3782,"Ġsil":3783,"Ph":3784,"Ġ22":3785,"Ġfemale":3786,"tr":3787,"ĠAccount":3788,"Ġworkers":3789,"ttar":3790,"text":3791,"Ġactive":3792,"Ġnumbers":3793,"cend":3794,"Ġserious":3795,"Ġparticularly":3796,"fall":3797,"ĠWhat":3798,"ĠCorpor":3799,"ighty":3800,"Many":3801,"aximum":3802,"Ġbase":3803,"ĠInternational":3804,"Comm":3805,"aksh":3806,"ĠChair":3807,"Ġpurch":3808,"Ġversion":3809,"hab":3810,"Ġblind":3811,"Sc":3812,"Ġtri":3813,"Ġ\"%":3814,"ell":3815,"Ġcontains":3816,"cer":3817,"ĠFore":3818,"etic":3819,"ĠWise":3820,"Ġdirectory":3821,"Ġmand":3822,"ĠCom":3823,"Ġfamous":3824,"adise":3825,"Ġincreasing":3826,"Min":3827,"Ġconcept":3828,"Ġassistance":3829,"rid":3830,"Ġstor":3831,"ĠEducation":3832,"ĠResearch":3833,"Ġplease":3834,"ipur":3835,"Ġ31":3836,"ĠTrans":3837,"Ġinsect":3838,"avi":3839,"Ġgranted":3840,"anges":3841,"Ġtraditional":3842,"ĠProgr":3843,"Ġfully":3844,"Ġfold":3845,"ties":3846,"Ġpict":3847,"Ġplug":3848,"Ġtradition":3849,"ĠKashmir":3850,"Ġsupported":3851,"ĠAp":3852,"than":3853,"Ġrelevant":3854,"ĠPunjab":3855,"aches":3856,"Ġmedical":3857,"Ġcircum":3858,"Ġaccordance":3859,"iers":3860,"ateral":3861,"cutta":3862,"Ġrecommend":3863,"Ġjoin":3864,"Ġsevere":3865,"ays":3866,"Ġsession":3867,"ene":3868,"ĠLegisl":3869,"ply":3870,"Ġmilit":3871,"Ġlaid":3872,"Ġdesp":3873,"Ġwalk":3874,"icial":3875,"Ġpetition":3876,"ĠPeople":3877,"Ġformer":3878,"Ġsons":3879,"CT":3880,"Ġobl":3881,"ptember":3882,"Ġsuccessful":3883,"Ġsupply":3884,"Save":3885,"iling":3886,"ĠWork":3887,"Ġ2000":3888,"Ġlegisl":3889,"Ġlimited":3890,"ero":3891,"Per":3892,"ternet":3893,"ĠIslamic":3894,"order":3895,"aug":3896,"Ġattempt":3897,"Man":3898,"Ġprob":3899,"Ġscientific":3900,"Ġperhaps":3901,"Ġnormal":3902,"America":3903,"ids":3904,"Ġserve":3905,"izing":3906,"Surely":3907,"Ġrespond":3908,"Ġimag":3909,"Ġago":3910,"Ġteam":3911,"iverse":3912,"Their":3913,"ĠSurely":3914,"Ġcontribution":3915,"ĠAsse":3916,"Mu":3917,"Ġpolice":3918,"lied":3919,"ĠRight":3920,"Ġagriculture":3921,"ellect":3922,"itect":3923,"Ġapost":3924,"Ġsoftware":3925,"ĠNorth":3926,"oor":3927,"ĠSupreme":3928,"ĠSur":3929,"apter":3930,"Ġformat":3931,"Ġswe":3932,"Ġcollection":3933,"Ġmountains":3934,"Ġtarget":3935,"amental":3936,"Ġmoment":3937,"Today":3938,"Ġsufficient":3939,"Ġexpenditure":3940,"Ġ28":3941,"asa":3942,"Ġrepe":3943,"ĠBen":3944,"ĠDist":3945,"Therefore":3946,"Ġminister":3947,"ĠEd":3948,"Ġannoun":3949,"Ġchalleng":3950,"Ġworth":3951,"Ġblack":3952,"Ġvillages":3953,"Ġaf":3954,"Ġsn":3955,"Ġcities":3956,"wo":3957,"ĠEm":3958,"Ġconce":3959,"Ġassets":3960,"Ġconsist":3961,"ĠTruth":3962,"ini":3963,"requ":3964,"Ġchanged":3965,"Ġcross":3966,"alty":3967,"urb":3968,"ĠSch":3969,"Ġgods":3970,"Ġsacr":3971,"ugust":3972,"Ġbow":3973,"ĠSam":3974,"ĠCalcutta":3975,"Ġspend":3976,"Ġbroad":3977,"Ġdirectly":3978,"aran":3979,"Ġdenied":3980,"Ġautom":3981,"Ġfinal":3982,"Ġhusband":3983,"ET":3984,"Ġmeasures":3985,"apt":3986,"ional":3987,"ishn":3988,"Ġinsp":3989,"Ġ27":3990,"pense":3991,"Ġdistin":3992,"Ġmemory":3993,"Ġtransport":3994,"Ġcovered":3995,"Ġwhite":3996,"Ġbenefits":3997,"Ġadministration":3998,"hent":3999,"Ġfilm":4000,"urg":4001,"Ġlaws":4002,"inite":4003,"ĠVed":4004,"According":4005,"IV":4006,"ask":4007,"Ġforgive":4008,"Ġtypes":4009,"Ġcy":4010,"Ġdrug":4011,"Ġattention":4012,"ĠHow":4013,"50":4014,"ores":4015,"Ġdial":4016,"National":4017,"Ġrelation":4018,"onom":4019,"icit":4020,"obile":4021,"Ġopinion":4022,"Ġexpression":4023,"ĠAmerican":4024,"top":4025,"Ġrelationship":4026,"like":4027,"hem":4028,"ribute":4029,"Ġrepent":4030,"Ġdiscip":4031,"ĠPakistan":4032,"Ġsteps":4033,"Ġpaper":4034,"dden":4035,"iii":4036,"Ġfaces":4037,"Ġgreen":4038,"Ġtransgress":4039,"Ġpromised":4040,"Ġcooperation":4041,"ateful":4042,"Ġopened":4043,"hru":4044,"Ġlargest":4045,"Ġofficers":4046,"rog":4047,"iment":4048,"ae":4049,"urk":4050,"Ġpropos":4051,"ĠForgiving":4052,"ĠMad":4053,"ĠList":4054,"Ġattract":4055,"Ġsides":4056,"anes":4057,"ĠAy":4058,"ulpt":4059,"Ġstandard":4060,"Ġhours":4061,"Ġwills":4062,"Ġamend":4063,"Ġscript":4064,"Ġtravel":4065,"Ġselect":4066,"Create":4067,"Ġweight":4068,"Ġhighest":4069,"Ġlooking":4070,"ĠJanuary":4071,"board":4072,"ashtra":4073,"Ġmiddle":4074,"ĠSign":4075,"Ġinside":4076,"ps":4077,"Ġlonger":4078,"Ġseparate":4079,"Ġchastisement":4080,"Ġ$":4081,"Ġbeautiful":4082,"ropriate":4083,"ken":4084,"ratic":4085,"inent":4086,"ĠVerily":4087,"Ġproof":4088,"Ġmedic":4089,"ĠWill":4090,"osis":4091,"Ġpermission":4092,"Ġfruit":4093,"PS":4094,"Ġthreat":4095,"ĠSystem":4096,"Under":4097,"ĠAND":4098,"Ġshows":4099,"arer":4100,"atha":4101,"Ġdocuments":4102,"Ġpolic":4103,"Ġperformance":4104,"Ġdeemed":4105,"Ġsex":4106,"Ġphot":4107,"!\"":4108,"press":4109,"ĠLok":4110,"Ġtaste":4111,"ype":4112,"ĠShe":4113,"ĠRem":4114,"Ġupd":4115,"Ġmilk":4116,"Ġgold":4117,"verse":4118,"ĠAir":4119,"Ġ192":4120,"Ġadvance":4121,"Ġnations":4122,"Ġplayed":4123,"ĠMessengers":4124,"Ġprotection":4125,"Ġfra":4126,"Ġlength":4127,"Ġentered":4128,"ĠSpe":4129,"Ġqual":4130,"Ġquick":4131,"Ġresident":4132,"Ġimplementation":4133,"Set":4134,"ously":4135,"part":4136,"Ġsins":4137,"Ġincluded":4138,"Ġextent":4139,"Ġpattern":4140,"Ġcode":4141,"asc":4142,"Ġsomeone":4143,"Ġspeed":4144,"AC":4145,"Ġcompleted":4146,"istration":4147,"Ġcalc":4148,"oined":4149,"lict":4150,"icip":4151,"Ġoccup":4152,"Ġviolence":4153,"Ġarrange":4154,"Ed":4155,"ĠIT":4156,"ikh":4157,"ĠShah":4158,"Ġeducational":4159,"Ġchief":4160,"Ġrelease":4161,"icated":4162,"Ġdoers":4163,"Ġeye":4164,"Ġgame":4165,"Ġexceed":4166,"Ġrange":4167,"cast":4168,"hra":4169,"Ġpred":4170,"Ġitems":4171,"Ġstanding":4172,"Ġoffe":4173,"Ġsaved":4174,"ĠManagement":4175,"ĠJew":4176,"Ġleading":4177,"oga":4178,"Which":4179,"Ġenemy":4180,"Ġconstruction":4181,"\",":4182,"aud":4183,"Ġbelief":4184,"Ġmoon":4185,"ilateral":4186,"Ġfunds":4187,"14":4188,"omin":4189,"Ġcorru":4190,"pper":4191,"ĠFund":4192,"Ġnorth":4193,"ifying":4194,"umber":4195,"16":4196,"utes":4197,"Ġstream":4198,"ĠDes":4199,"Ġstruggle":4200,"alys":4201,"ĠTamil":4202,"Ġotherwise":4203,"ography":4204,"Ġconnected":4205,"ĠÐ":4206,"Ġcomplex":4207,"ospital":4208,"Ġburd":4209,"Ġinj":4210,"ĠOpen":4211,"Ġjoint":4212,"ĠUttar":4213,"Ġacadem":4214,"Ġspecies":4215,"rate":4216,"erous":4217,"urrent":4218,"Ġadvice":4219,"Ġrank":4220,"resp":4221,"Ġmechan":4222,"Par":4223,"Ġbra":4224,"Ġcentre":4225,"Ġsomet":4226,"Ġrupe":4227,"rene":4228,"ferences":4229,"Ġdemocracy":4230,"Ġsuggest":4231,"Other":4232,"oming":4233,"ĠSet":4234,"Ġappeal":4235,"Ġheight":4236,"phas":4237,"stances":4238,"aul":4239,"ought":4240,"Ġmental":4241,"raft":4242,"pty":4243,"Ġchann":4244,"Ġfurn":4245,"Ġconvey":4246,"hens":4247,"AM":4248,"Ġknowing":4249,"Ġjourney":4250,"Ġoperations":4251,"Ġbalance":4252,"ĠPharaoh":4253,"Ġdwell":4254,"tered":4255,"Ġapprec":4256,"Ġpure":4257,"Ġresults":4258,"ipt":4259,"Ġconfig":4260,"Ġstraight":4261,"ĠView":4262,"ĠAbraham":4263,"Ġcard":4264,"Ġpursu":4265,"Ġton":4266,"Ass":4267,"mar":4268,"Ġemployees":4269,"html":4270,"Ġstories":4271,"Ġexport":4272,"ĠTra":4273,"Ġsudden":4274,"Ġcontain":4275,"Ġfunctions":4276,"Ġfathers":4277,"Muhammad":4278,"200":4279,"enced":4280,"stituted":4281,"Ġunique":4282,"Ġfocus":4283,"Ġrequest":4284,"à¥į":4285,"ensive":4286,"dis":4287,"Ġ2014":4288,"onse":4289,"ĠNet":4290,"Ġpleasure":4291,"ĠFile":4292,"Ġexecut":4293,"ĠSri":4294,"Ġcalendar":4295,"ĠDis":4296,"Ġsuc":4297,"Ġsignificant":4298,"ĠVal":4299,"Ġsister":4300,"Ġprot":4301,"ĠBang":4302,"aya":4303,"nto":4304,"Ġgrowing":4305,"Ġschemes":4306,"Ġlocated":4307,"Ġsouth":4308,"Ġwatch":4309,"Ġrail":4310,"Comp":4311,"Ġmale":4312,"Ġdrive":4313,"Ġrecent":4314,"Ġready":4315,"Ġlabour":4316,"ĠSar":4317,"Ġtwenty":4318,"ombay":4319,"ĠIndians":4320,"MS":4321,"Ġterrit":4322,"Ġintellect":4323,"Ġconsideration":4324,"Sim":4325,"atically":4326,"Ġcam":4327,"Ġnamed":4328,"ops":4329,"osing":4330,"Ġfoot":4331,"Ġgrace":4332,"Ġsitu":4333,",\"":4334,"ĠCons":4335,"ahar":4336,"mukherjee":4337,"Ġstock":4338,"lication":4339,"pranab":4340,"pranabmukherjee":4341,"',":4342,"ĠBal":4343,"aker":4344,"ighb":4345,"Ġ(%":4346,"Ġuseful":4347,"uled":4348,"Ġstated":4349,"Section":4350,"Ġtrees":4351,"Rep":4352,"rant":4353,"Ġgardens":4354,"ĠAuthor":4355,"ĠDecember":4356,"Ġsite":4357,"Ġleaves":4358,"Ġhour":4359,"ĠBar":4360,"roud":4361,"Ġutil":4362,"odies":4363,"ĠPat":4364,"ĠSAW":4365,"Ġvalid":4366,"Ġhyp":4367,"Ġcommercial":4368,"ruary":4369,"Ġstaff":4370,"inery":4371,"itled":4372,"Ġfacilit":4373,"Ġwin":4374,"earing":4375,"oom":4376,"Ġrise":4377,"Ġrevolution":4378,"Ġcontained":4379,"Ġesc":4380,"ebruary":4381,"ĠAt":4382,"Ġperman":4383,"Unable":4384,"Ġadopted":4385,"ĠAssembly":4386,"Ġmighty":4387,"ĠJune":4388,"ĠSm":4389,"load":4390,"ora":4391,"Ġhelped":4392,"itch":4393,"ĠSah":4394,"Ġmarriage":4395,"Ġtemples":4396,"Ġheavy":4397,"uff":4398,"iled":4399,"aja":4400,"ĠEvolution":4401,"Ġapart":4402,"ĠMumbai":4403,"osen":4404,"Ġsecure":4405,"Ġminus":4406,"Ġleader":4407,"Ġdeclared":4408,"ĠInt":4409,"UT":4410,"Ġinvolved":4411,"Ġengaged":4412,"Ġcry":4413,"Ġframe":4414,"Ġcommitted":4415,"Ġfields":4416,"Ġpan":4417,"ĠGe":4418,".âĢĶ":4419,"Ġtal":4420,"Ġtool":4421,"olute":4422,"Ġpayable":4423,"Ġmedia":4424,"aters":4425,"ĠThou":4426,"fection":4427,"lands":4428,"ilies":4429,"Ġprec":4430,"Ġstorage":4431,"Ġcou":4432,"Ġcauses":4433,"Ġcells":4434,"ĠGujarat":4435,"Ġexists":4436,"Ġconsult":4437,"heck":4438,"rehens":4439,"Ġdivided":4440,"ĠFinance":4441,"Ġpolicies":4442,"Ġquestions":4443,"Ġtechnical":4444,"File":4445,"Ġwood":4446,"olid":4447,"Ġemphas":4448,"Ġamongst":4449,"OS":4450,"fig":4451,"ications":4452,"ented":4453,"Ġpromote":4454,"assion":4455,"Ġdisob":4456,"Ġtemper":4457,"rust":4458,"Ġpowerful":4459,"ĠWar":4460,"Ġimper":4461,"Ġregistered":4462,"Ġ40":4463,"ula":4464,"Ġrock":4465,"Ġprostr":4466,"ĠTag":4467,"ĠProgramm":4468,"athy":4469,"Ġmodel":4470,"riv":4471,"Ġconsequ":4472,"Ġdomestic":4473,"erala":4474,"Ġfruits":4475,"hand":4476,"Ġprocessing":4477,"Ġsculpt":4478,"Ġreview":4479,"AD":4480,"Ġevents":4481,"Ġdeveloping":4482,"Ġreading":4483,"Qu":4484,"Ġdeduction":4485,"Ġfamilies":4486,"OL":4487,"iry":4488,"Ġfigure":4489,"cher":4490,"Ġlived":4491,"Le":4492,"draw":4493,"Ġlines":4494,"Ġshares":4495,"Ġportion":4496,"icate":4497,"Ġhearing":4498,"Ġneighb":4499,"Ġofficer":4500,"ĠBab":4501,"Ġentry":4502,"Ġwon":4503,"arma":4504,"ĠNath":4505,"ounty":4506,"Ġdivine":4507,"Ġsucceed":4508,"Ġimages":4509,"Ġgain":4510,"Ġtable":4511,"ĠUp":4512,"cont":4513,"Ġsymbol":4514,"Move":4515,"lick":4516,"Fl":4517,"ĠBill":4518,"iences":4519,"shipp":4520,"Ġemail":4521,"co":4522,"Ġthinking":4523,"Ġmessengers":4524,"yan":4525,"aging":4526,"Ġwo":4527,"Ġhot":4528,"asons":4529,"ĠAsia":4530,"Of":4531,"alt":4532,"lying":4533,"ogle":4534,"Ġcircumstances":4535,"Ġreference":4536,"Ġstandards":4537,"ĠPolicy":4538,"RE":4539,"aling":4540,"Its":4541,"Ġinterests":4542,"Ġexpressed":4543,"Ġinfluence":4544,"Ġseem":4545,"Ġlikely":4546,"Ġremained":4547,"Ġdesires":4548,"ray":4549,"ĠOctober":4550,"efault":4551,"ĠScript":4552,"Ġseems":4553,"Ġblock":4554,"ĠBharat":4555,"Ġtrack":4556,"Ġprofit":4557,"ĠArt":4558,"Enter":4559,"Ġarchitect":4560,"nam":4561,"ĠGroup":4562,"unk":4563,"Ġrefuge":4564,"inet":4565,"Ġmid":4566,"ĠWhere":4567,"Ġresponse":4568,"RL":4569,"Ġappropriate":4570,"Ġextreme":4571,"Ġpraise":4572,"Ġsometimes":4573,"Ġtid":4574,"nes":4575,"ĠAfrica":4576,"Ġremains":4577,"ĠSecretary":4578,"Ġdated":4579,"Ġdepart":4580,"Ġgather":4581,"who":4582,"enge":4583,"Ġneeded":4584,"ĠQu":4585,"Ġveget":4586,"abh":4587,"ression":4588,"Ġanimal":4589,"oms":4590,"ĠIns":4591,"grat":4592,"atma":4593,"Ġnuc":4594,"ĠKrishna":4595,"reprene":4596,"ĠWestern":4597,"Ġkilled":4598,"Ġearn":4599,"uous":4600,"ĠGl":4601,"overy":4602,"llig":4603,"ĠBombay":4604,"Ġexcl":4605,"Ġdance":4606,"ĠTax":4607,"Any":4608,"auty":4609,"Ġtruly":4610,"15":4611,"xy":4612,"Ġpil":4613,"ĠPRESIDENT":4614,"ĠGh":4615,"Ġchoose":4616,"Ġrejected":4617,"Ġconsciousness":4618,"oj":4619,"Ġextended":4620,"Ġwel":4621,"cript":4622,"Ġpric":4623,"unal":4624,"Ġ80":4625,"Ġexpand":4626,"Ġelements":4627,"hered":4628,"Ġfit":4629,"usive":4630,"Ġenable":4631,"Ġ2015":4632,"Ġcorpor":4633,"Ġtaught":4634,"Ġcalls":4635,"Ġvariety":4636,"18":4637,"Ġtrial":4638,"atter":4639,"Ġinaug":4640,"Ġlevels":4641,"Ġincl":4642,"Ġraise":4643,"Ġadditional":4644,"pid":4645,"Ġwives":4646,"idy":4647,"Ġrefers":4648,"Most":4649,"Ġchosen":4650,"Ġworshipp":4651,"Ġremark":4652,"Ġterrorism":4653,"Ġshape":4654,"Ġexternal":4655,"aji":4656,"Ġinterp":4657,"Ġtouch":4658,"Ġweb":4659,"Ġresol":4660,"icked":4661,"Ġmagic":4662,"ĠFr":4663,"Ġbox":4664,"ĠConference":4665,"EM":4666,"asthan":4667,"Ġproud":4668,"Ġconstitution":4669,"Sw":4670,"Ġseed":4671,"Int":4672,"Ġsectors":4673,"ĠRel":4674,"iance":4675,"Ġwhosoever":4676,"pted":4677,"Ġpartnership":4678,"back":4679,"Ġmiss":4680,"Ġignor":4681,"Ġmilitary":4682,"Explanation":4683,"Ġlocation":4684,"Enable":4685,"ĠAmerica":4686,"erative":4687,"uries":4688,"Ġcompon":4689,"Ġsurface":4690,"Ġinput":4691,"Ġdece":4692,"ĠLaw":4693,"rated":4694,"Ġsort":4695,"Ġdescribed":4696,"Ġbrings":4697,"ĠCorporation":4698,"ishing":4699,"ĠSeptember":4700,"ti":4701,"ĠNovember":4702,"Ġaverage":4703,"ĠParadise":4704,"ij":4705,"Ġmaintain":4706,"Ġsaf":4707,"actions":4708,"2018":4709,"Col":4710,"Ġmouth":4711,"Ġevening":4712,"ĠOffice":4713,"Ġlack":4714,"ĠUN":4715,"Ġearned":4716,"Ġgraph":4717,"Start":4718,"Ġcrops":4719,"Ġtrying":4720,"ĠPalest":4721,"Ġgets":4722,"Here":4723,"Ġobserved":4724,"ĠKnowing":4725,"Ġcloud":4726,"Ġlarger":4727,"Ġextra":4728,"pped":4729,"Ġworked":4730,"Ġexpected":4731,"Rel":4732,"ĠAh":4733,"Ġvoice":4734,"Ġabroad":4735,"ĠHy":4736,"ivered":4737,"Ġattach":4738,"Ġ2007":4739,"Ġconstruct":4740,"Ġdied":4741,"ĠSan":4742,"istory":4743,"Ġreflect":4744,"Ġbrothers":4745,"nded":4746,"Ġdang":4747,"ifice":4748,"ĠPlease":4749,"Ġdistribution":4750,"oot":4751,"ompense":4752,"Ġmedium":4753,"Ġindependence":4754,"UN":4755,"eties":4756,"Ġperfect":4757,"Ġteachers":4758,"Ġpoems":4759,"Ġcolumn":4760,"Ġload":4761,"Ġcapt":4762,"Ġsup":4763,"Ġprint":4764,"ĠChairman":4765,"Reg":4766,"Ġdyn":4767,"Ġmutual":4768,"ĠCD":4769,"Ġapplications":4770,"Ġ1961":4771,"ktop":4772,"ague":4773,"Ġquant":4774,"aign":4775,"ĠSatan":4776,"Ġonline":4777,"Only":4778,"13":4779,"SS":4780,"eve":4781,"ube":4782,"ception":4783,"ĠScience":4784,"Ġtruthful":4785,"Ġadvant":4786,"Ġlooked":4787,"Ġlaunched":4788,"Ġtidings":4789,"Ġhell":4790,"Ġremem":4791,"Ġrisk":4792,"raf":4793,"Ġprem":4794,"Ġseries":4795,"Ġmachine":4796,"Ġcattle":4797,"Ġdifference":4798,"teen":4799,"Ġmaster":4800,"Ġdetermined":4801,"Ġintroduced":4802,"Ag":4803,"Ġfill":4804,"Ġdistance":4805,"Ġavoid":4806,"Ġclearly":4807,"hel":4808,"Ġskin":4809,"Ġoutput":4810,"âĢľâĢĿ":4811,"era":4812,"Ġplain":4813,"ĠChina":4814,"Did":4815,"Ġball":4816,"ĠExcell":4817,"Ġassociation":4818,"Ġboard":4819,"Ġborrow":4820,"ĠAT":4821,"Ġstore":4822,"Ġassociate":4823,"Ġobjective":4824,"Ġwisdom":4825,"AG":4826,"Ġforget":4827,"ĠNehru":4828,"ught":4829,"you":4830,"Ġ;":4831,"Ġsale":4832,"ĠII":4833,"Ġremoved":4834,"Ġ2006":4835,"ocal":4836,"ĠBihar":4837,"Ġlisten":4838,"ĠDh":4839,"look":4840,"Ġmessenger":4841,"Ġdefined":4842,"ius":4843,"Ġgar":4844,"ĠID":4845,"istics":4846,"Ġjoy":4847,"Ġpoly":4848,"Ġrupees":4849,"ĠAc":4850,"ologies":4851,"Ġhonour":4852,"ĠKal":4853,"Well":4854,"ĠProf":4855,"Ġsongs":4856,"Su":4857,"Ġhidden":4858,"Ġvast":4859,"ĠSchool":4860,"empl":4861,"Ġ2013":4862,"Ġcultiv":4863,"ousing":4864,"Ġspent":4865,"Ġmajority":4866,"ĠUr":4867,"Ġmagn":4868,"à¤¿":4869,"Ġ29":4870,"Bl":4871,"ARD":4872,"alted":4873,"Ġhomes":4874,"NA":4875,"ĠIS":4876,"Ġourselves":4877,"Ġdelivered":4878,"enture":4879,"nel":4880,"ams":4881,"ĠUnto":4882,"Ġimpact":4883,"Ġthroughout":4884,"ndra":4885,"ially":4886,"apers":4887,"Ġindependent":4888,"iny":4889,"Ġsubmit":4890,"Ġ2005":4891,"Ġoffered":4892,"amet":4893,"Ġfriendly":4894,"Ġliterary":4895,"Ġstudies":4896,"ML":4897,"rad":4898,"oph":4899,"Ġannual":4900,"Ġgains":4901,"Ġunc":4902,"Ġaffairs":4903,"Ġeasily":4904,"Ġdeliver":4905,"itis":4906,"uties":4907,"Ġarmy":4908,"Ġsafety":4909,"Ġsettle":4910,"Ġglad":4911,"Ġdisbelieved":4912,"ixt":4913,"enior":4914,"Ġstation":4915,"ĠDev":4916,"Ġcharacters":4917,"chand":4918,"Ġkm":4919,"venant":4920,"Ġsurround":4921,"Ġprocedure":4922,"rone":4923,"ira":4924,"Ġremote":4925,"Ġphilosophy":4926,"imal":4927,"Ġcash":4928,"ĠAugust":4929,"version":4930,"Ġassigned":4931,"ĠHindus":4932,"ĠMessage":4933,"Ġconfidence":4934,"irty":4935,"Ġequip":4936,"Ġcop":4937,"Ġfine":4938,"lex":4939,"verty":4940,"abilities":4941,"ĠKerala":4942,"ĠChildren":4943,"Ġideal":4944,"Ġmaximum":4945,"Ġwaste":4946,"Ġgreatest":4947,"Ġsleep":4948,"ĠAgricult":4949,"Ġbirds":4950,"ĠPand":4951,"Ġstead":4952,"Ġcontext":4953,"Ġpoverty":4954,"uel":4955,"Ġegg":4956,"ĠCan":4957,"ika":4958,"Ġcharges":4959,"Ġviews":4960,"Ġopening":4961,"ĠSoci":4962,"Ġscreen":4963,"Ġacademic":4964,"arant":4965,"urate":4966,"Ġelement":4967,"elines":4968,"Hind":4969,"Ġexercise":4970,"Ġroot":4971,"Ġpoints":4972,"istant":4973,"Ġunity":4974,"Ġseeking":4975,"ĠAmb":4976,"Ġfellow":4977,"Ġbreast":4978,"Ġschools":4979,"Ġsuffer":4980,"Ġinitiatives":4981,"More":4982,"ĠPra":4983,"una":4984,"ĠMaharashtra":4985,"Ġlik":4986,"ĠâĢľâĢĿ":4987,"ĠBuddh":4988,"Ġpill":4989,"Ġelectric":4990,"Ġenterpr":4991,"lege":4992,"Sp":4993,"Ġheed":4994,"ĠMal":4995,"aman":4996,"osh":4997,"Ġnamely":4998,"Ġcommunication":4999,"Ġapproved":5000,"Ġkinds":5001,"Ġbeauty":5002,"Ġsouls":5003,"Ġreplied":5004,"rel":5005,"Ġsettings":5006,"anguage":5007,"Ġorganisation":5008,"Ġauthent":5009,"Ġ60":5010,"Ġacts":5011,"Ġdepartment":5012,"Remove":5013,"Ġgoal":5014,"Ġblessings":5015,"ollow":5016,"aying":5017,"Ġcongrat":5018,"ĠChandra":5019,"ĠMission":5020,"ĠPort":5021,"aped":5022,"Ġsoil":5023,"dule":5024,"Ġinnovation":5025,"ĠJuly":5026,"Me":5027,"uris":5028,"imb":5029,"Ġreduced":5030,"ped":5031,"Ġempty":5032,"Ġarticles":5033,"det":5034,"ĠST":5035,"enses":5036,"Ġmainly":5037,"Ġyield":5038,"phone":5039,"kon":5040,"Ġchem":5041,"roll":5042,"ertificate":5043,"Ġfollows":5044,"Ġpleased":5045,"Ġforbidden":5046,"apital":5047,"ronic":5048,"Act":5049,"aneous":5050,"ĠOrgan":5051,"ĠURL":5052,"Ġ2008":5053,"Ġchallenges":5054,"DE":5055,"ĠPers":5056,"anged":5057,"Ġprofits":5058,"Ġhappen":5059,"ja":5060,"Ġmoving":5061,"Ġmachinery":5062,"ĠEuropean":5063,"alysis":5064,"Ġdoor":5065,"Ġgriev":5066,"atab":5067,"arter":5068,"Ġsections":5069,"Ġmerely":5070,"Ġdialog":5071,"Because":5072,"Ġinher":5073,"heduled":5074,"Ġkingdom":5075,"IP":5076,"Ġhospital":5077,"ĠPower":5078,"valid":5079,"Ġundertaking":5080,"Ġsquare":5081,"Ġflag":5082,"Ġhappened":5083,"Cent":5084,"Ġoath":5085,"Ġconver":5086,"ĠServices":5087,"ĠHome":5088,"OP":5089,"Ġdistingu":5090,"Ġgenerations":5091,"osphere":5092,"respond":5093,"Ġsell":5094,"Com":5095,"Ġfert":5096,"writ":5097,"Ġwelf":5098,"ĠFolder":5099,"ĠExchange":5100,"Ġwelfare":5101,"Ġdim":5102,"Ġinstalled":5103,"Ġexcellent":5104,"lies":5105,"Ġvital":5106,"Ġwherein":5107,"ĠAre":5108,"Ġturns":5109,"Ġsought":5110,"Ġcarrying":5111,"Ġrecompense":5112,"venue":5113,"Ġdevotion":5114,"rency":5115,"Ġpartner":5116,"Ġpractices":5117,"Ġholding":5118,"Ġappointment":5119,"Ġlest":5120,"Ġorganization":5121,"utions":5122,"ux":5123,"ĠIran":5124,"ataka":5125,"Ġwants":5126,"Ġpromotion":5127,"ilty":5128,"umar":5129,"Ġmerc":5130,"Ġregional":5131,"Ġjoined":5132,"Ġcreating":5133,"ĠRiver":5134,"Ġauthorities":5135,"oti":5136,"Ġcovenant":5137,"iously":5138,"Ġfrequ":5139,"izations":5140,"achal":5141,"Ġminimum":5142,"Ġnotification":5143,"à¤°":5144,"17":5145,"this":5146,"Ġreturns":5147,"force":5148,"Ġencoura":5149,"Ġdebt":5150,"rees":5151,"Ġdust":5152,"Ġ35":5153,"Ġwrongdo":5154,"Ġdivide":5155,"Ġfeeling":5156,"Trans":5157,"charge":5158,"ĠThus":5159,"Ġintellig":5160,"Ġ2016":5161,"uild":5162,"ips":5163,"ancing":5164,"ensation":5165,"Ġkeeping":5166,"Yet":5167,"ĠGerm":5168,"ĠThose":5169,"Ġfresh":5170,"aces":5171,"ĠFebruary":5172,"Ġprison":5173,"ĠPath":5174,"Delete":5175,"arth":5176,"Ġsustain":5177,"eace":5178,"oral":5179,"Ġminor":5180,"oad":5181,"Ġrapid":5182,"Ġlibrary":5183,"Ġshr":5184,"Ġhighly":5185,"Ġurban":5186,"ĠSection":5187,"Ġdiseases":5188,"Ġprimary":5189,"Sec":5190,"asi":5191,"Ġaffected":5192,"ĠDivision":5193,"Ġdaily":5194,"Description":5195,"Ev":5196,"ĠAnn":5197,"Ġfestival":5198,"Ġfilled":5199,"iring":5200,"Ġcommunities":5201,"Ġindividuals":5202,"Ġdry":5203,"Ġneck":5204,"30":5205,"Ġhuge":5206,"ayan":5207,"Ġprepar":5208,"Ġgas":5209,"Ġseason":5210,"Ġresource":5211,"Gu":5212,"Ġdispute":5213,"Besides":5214,"Pre":5215,"mi":5216,"atform":5217,"ĠVis":5218,"Ġbelieving":5219,"Ġinterv":5220,"eting":5221,"ĠMadh":5222,"Ġsubmitted":5223,"Ġji":5224,"Ġreasons":5225,"Ġaltern":5226,"Ġcompletely":5227,"Em":5228,"Ġaccomp":5229,"usiness":5230,"May":5231,"Ġthank":5232,"Ġprin":5233,"Ġconfident":5234,"Ġhousehold":5235,"iciency":5236,"Search":5237,"ĠJap":5238,"bell":5239,"tenance":5240,"Ġcampaign":5241,"ĠProgramme":5242,"Ġpositive":5243,"Ġbuy":5244,"Ġdestination":5245,"Ġrequirements":5246,"box":5247,"Ġbur":5248,"ĠKhan":5249,"ĠDistrict":5250,"comm":5251,"Ġmicro":5252,"Ġhide":5253,"Ġnine":5254,"seen":5255,"ura":5256,"ĠRoy":5257,"udget":5258,"Ġdrawn":5259,"Ġmaterials":5260,"arian":5261,"ĠTagore":5262,"Out":5263,"bal":5264,"Ġreceipt":5265,"Ġlatter":5266,"Ġentitled":5267,"Ġ2001":5268,"Ġprobably":5269,"ander":5270,"Ġjinn":5271,"Ġactual":5272,"Ġgreetings":5273,"Ġreality":5274,"Ġlic":5275,"ĠMo":5276,"Ġimpos":5277,"Ġgrad":5278,"Ġpassing":5279,"Ġprosperity":5280,"using":5281,"Ġsett":5282,"Ġbed":5283,"Ġexcess":5284,"Ġrelief":5285,"Ġwronged":5286,"Ġdegree":5287,"Moses":5288,"igible":5289,"ricts":5290,"Ġfeatures":5291,"Ġcance":5292,"oseph":5293,"Ġbranch":5294,"Ġpressure":5295,"iber":5296,"Ġrare":5297,"icient":5298,"Ġaspects":5299,"Ġburden":5300,"Ġbodies":5301,"Both":5302,"Ġfish":5303,"Ġduties":5304,"Ġult":5305,"Ġtheme":5306,"Ġintegral":5307,"Ġthereby":5308,"acter":5309,"Ġguilty":5310,"Ġleadership":5311,"HA":5312,"ayana":5313,"ĠRajasthan":5314,"ĠNep":5315,"Ġdelivery":5316,"which":5317,"ĠAuthority":5318,"Ġlad":5319,"Ġcritic":5320,"BI":5321,"Ġeast":5322,"Ġregions":5323,"ovind":5324,"imately":5325,"ĠGuru":5326,"Ġyourself":5327,"Ġagreed":5328,"Ġprinciples":5329,"Ġcold":5330,"Ġmeant":5331,"ĠBhag":5332,"Ġbackground":5333,"Ġlatest":5334,"Ġseized":5335,"Though":5336,"Ġreforms":5337,"asm":5338,"Ġwonder":5339,"ka":5340,"Ġshared":5341,"Ġcook":5342,"Ġslow":5343,"Ġperformed":5344,"Ġutter":5345,"Ġuniversal":5346,"Ġdemon":5347,"Ġadequ":5348,"Ġhypoc":5349,"Ðµ":5350,"ĠâĢľ%":5351,"ĠBengali":5352,"hu":5353,"Ġdisput":5354,"Ġfacility":5355,"Ġteaching":5356,"Ġopt":5357,"Ġlate":5358,"Ġfell":5359,"Ġeveryone":5360,"Ġdarkness":5361,"Ġappreci":5362,"Over":5363,"ued":5364,"Ġbattle":5365,"Ġhop":5366,"etro":5367,"ĠJust":5368,"Ġreply":5369,"Ġ2002":5370,"Ġtong":5371,"ĠHour":5372,"Ġimpl":5373,"Ġaid":5374,"clause":5375,"Ġmoral":5376,"Ġmethods":5377,"arati":5378,"ster":5379,"olars":5380,"Ġmoved":5381,"ĠNar":5382,"Ġcolour":5383,"Among":5384,"ĠAddress":5385,"Speaking":5386,"Ġprices":5387,"ĠWind":5388,"Ġvolunt":5389,"Ġinspired":5390,"Ġmission":5391,"ĠMary":5392,"ifications":5393,"US":5394,"will":5395,"ester":5396,"Ġfat":5397,"athi":5398,"isition":5399,"Ġmort":5400,"cean":5401,"Ġcompr":5402,"eav":5403,"Ġbeings":5404,"Ġparticipation":5405,"Ġtiss":5406,"itt":5407,"Ġbab":5408,"Ġselection":5409,"Ġjuris":5410,"Ġcorrespond":5411,"Ġcollabor":5412,"Ġusers":5413,"Ġmyself":5414,"OC":5415,"Since":5416,"Ġgarden":5417,"odes":5418,"Ġresolution":5419,"ĠThese":5420,"othing":5421,"sych":5422,"Ġvictory":5423,"TP":5424,"UL":5425,"Up":5426,"urities":5427,"Ġunf":5428,"Ġeditor":5429,"Ġlearned":5430,"Ġcand":5431,"Ġbestowed":5432,"IM":5433,"ĠRail":5434,"Ġincident":5435,"ĠRama":5436,"Ġplanning":5437,"Ġreleased":5438,"erver":5439,"Ġassum":5440,"Ġestablishment":5441,"india":5442,"ĠNob":5443,"rench":5444,"Ġestim":5445,"ricket":5446,"Ġcru":5447,"ĠPer":5448,"ĠGanga":5449,"ĠKarn":5450,"ĠMahatma":5451,"CE":5452,"Check":5453,"inated":5454,"grim":5455,"Ġencourage":5456,"Ġnut":5457,"Ġbutton":5458,"Asia":5459,"ĠCollege":5460,"Ġpetitioner":5461,"Copy":5462,"fast":5463,"aram":5464,"ocol":5465,"abric":5466,"pel":5467,"Ġdescription":5468,"Ġtransform":5469,"Ġgrand":5470,"Ġlimits":5471,"Ġoptions":5472,"Ġinner":5473,"ĠRed":5474,"ĠEngland":5475,"EE":5476,"Ġsources":5477,"rible":5478,"ĠGandhiji":5479,"ottom":5480,"Ġfolders":5481,"ĠScripture":5482,"Ġhair":5483,"umer":5484,"astic":5485,"going":5486,"ERS":5487,"Ġsuitable":5488,"60":5489,"comp":5490,"Ġcat":5491,"Ġforever":5492,"Ġplays":5493,"Ġnearly":5494,"Display":5495,"VD":5496,"Ġsick":5497,"ayer":5498,"Ġaudio":5499,"Ġpicture":5500,"eks":5501,"Ġadmon":5502,"Ġconsists":5503,"ĠAssam":5504,"Ġchallenge":5505,"jection":5506,"Ġdaughter":5507,"Ġregistration":5508,"Ġgovernance":5509,"Ġactions":5510,"Ġsand":5511,"ĠPark":5512,"Ġdelete":5513,"ĠHimalay":5514,"Ġinsurance":5515,"Ġgirl":5516,"Ġsacrifice":5517,"iy":5518,"swe":5519,"Ġmir":5520,"Ġstood":5521,"Ġclick":5522,"Ġchanging":5523,"Send":5524,"alg":5525,"Ġenabled":5526,"overed":5527,"Ġcritical":5528,"ingly":5529,"ĠMighty":5530,"Ġalthough":5531,"Ġsubstant":5532,"ĠAff":5533,"Ġstreet":5534,"een":5535,"ondon":5536,"Ġsubjects":5537,"People":5538,"Ġtitle":5539,"Ġahead":5540,"Import":5541,"Ġmist":5542,"Ġarrest":5543,"ĠGovernments":5544,"ĠGardens":5545,"Ġclimate":5546,"Ġentreprene":5547,"atience":5548,"Ġachieved":5549,"Ġdivision":5550,"Ġplugin":5551,"Ġrecently":5552,"isms":5553,"Ġintellectual":5554,"Ġwest":5555,"Ġexact":5556,"Ġorders":5557,"Ġic":5558,"Ġreminder":5559,"diction":5560,"istance":5561,"ubs":5562,"Ġtrave":5563,"Ġstring":5564,"Sy":5565,"ients":5566,"lly":5567,"ĠLast":5568,"Ġcontaining":5569,"ifies":5570,"rue":5571,"Ġ190":5572,"Ġsacred":5573,"Dep":5574,"Ġtab":5575,"Ġinn":5576,"inger":5577,"Ġagencies":5578,"Ġfoundation":5579,"rat":5580,"Ġpublication":5581,"gypt":5582,"Ġ00":5583,"Ġcharged":5584,"dess":5585,"Ġplatform":5586,"Ġcentres":5587,"Ġletters":5588,"Ġdeposit":5589,"Ġchannel":5590,"idge":5591,"ĠKovind":5592,"Ġgrass":5593,"rical":5594,"orial":5595,"Ġinternal":5596,"Ġatm":5597,"Ġdefence":5598,"ĠSuch":5599,"Ġinsects":5600,"Ġtreated":5601,"Ġreports":5602,"ĠWith":5603,"iant":5604,"iders":5605,"Ġupper":5606,"Ġdiss":5607,"Ġproved":5608,"Ġdelight":5609,"ĠOfficial":5610,"Ġreduce":5611,"Ð°":5612,"ĠSal":5613,"Ġang":5614,"Ġcrim":5615,"Ġiron":5616,"essing":5617,"hern":5618,"Ġmanager":5619,"claim":5620,"Ġrecorded":5621,"Ġnuclear":5622,"had":5623,"ĠExcellency":5624,"mn":5625,"ĠLibrary":5626,"Ġwaiting":5627,"Af":5628,"anj":5629,"Ġdrop":5630,"emporary":5631,"Ġglor":5632,"Ġwitnesses":5633,"Ġsuffering":5634,"Ġsurv":5635,"Ġforgiving":5636,"Ġcommanded":5637,"Ġpriority":5638,"Ġfailure":5639,"Ġhistorical":5640,"Ġpurchase":5641,"ĠDi":5642,"ĠHead":5643,"Ġbilateral":5644,"ĠMaj":5645,"Ġthanks":5646,"Ġapproval":5647,"atabase":5648,"CO":5649,"ĠMa":5650,"ĠPanch":5651,"Ġextension":5652,"Ġfighting":5653,"ĠYoga":5654,"ĠTribunal":5655,"ithm":5656,"ĠEmp":5657,"Ġserved":5658,"Ġendeav":5659,"à¥Ģ":5660,"Ġsanction":5661,"Ġproport":5662,"ĠGreat":5663,"Ġcerem":5664,"ributed":5665,"Ġvisited":5666,"ohn":5667,"oration":5668,"Ġdele":5669,"Ġregister":5670,"ris":5671,"Ġwild":5672,"ĠKnower":5673,"astern":5674,"esty":5675,"Ġscholar":5676,"ipl":5677,"stitu":5678,"Ġrequires":5679,"Ġwarner":5680,"Ġawareness":5681,"ection":5682,"ormal":5683,"Ġattached":5684,"Ġvisible":5685,"Ġvolume":5686,"bon":5687,"Ġfigures":5688,"Default":5689,"bed":5690,"Had":5691,"lar":5692,"Ġsigned":5693,"enance":5694,"Ġcaste":5695,"elp":5696,"Ġguides":5697,"Ġmanufacturing":5698,"rief":5699,"thern":5700,"Ġplot":5701,"ĠAndhra":5702,"Ġ1999":5703,"TH":5704,"Ġexamination":5705,"Ġuniversities":5706,"PM":5707,"atur":5708,"ammu":5709,"ĠHealth":5710,"Ġseeing":5711,"Ġrefer":5712,"raq":5713,"ĠCompany":5714,"PC":5715,"Ġ32":5716,"king":5717,"Ġconstituted":5718,"Ġpreced":5719,"ĠPalestin":5720,"Ġpi":5721,"Ġinstance":5722,"raid":5723,"ĠRules":5724,"ĠIndepend":5725,"Inst":5726,"âĢĿ.":5727,"Ġ2012":5728,"Ġsituated":5729,"ouch":5730,"ĠEnvironment":5731,"Ġanti":5732,"lal":5733,"Ġren":5734,"otic":5735,"ghan":5736,"Ġrelative":5737,"ammed":5738,"Ġphase":5739,"Ġproceedings":5740,"IF":5741,"Ġdouble":5742,"essor":5743,"ĠRuss":5744,"plit":5745,"Ġarm":5746,"esus":5747,"Ġsuccessfully":5748,"Ġcontacts":5749,"Ġmanufacture":5750,"Ġpresident":5751,"ĠParty":5752,"Ġban":5753,"ĠMark":5754,"Ġprivile":5755,"Ġcommitment":5756,"Ġability":5757,"Ġtend":5758,"luding":5759,"Ġadvantage":5760,"Dr":5761,"Ġfabric":5762,"orthern":5763,"Ġnewsp":5764,"Ġofficials":5765,"rehensive":5766,"Ġ01":5767,"alle":5768,"Ġmonitor":5769,"Ġappears":5770,"Ġhero":5771,"Ġpoem":5772,"Ġwhereas":5773,"ĠReserve":5774,"what":5775,"atus":5776,"Ġmarked":5777,"Edit":5778,"Ġdecades":5779,"Ġflu":5780,"Ġrecords":5781,"anned":5782,"Ġchemical":5783,"Ġreplace":5784,"piration":5785,"Ġsubsequ":5786,"Ġcounter":5787,"CH":5788,"omething":5789,"ords":5790,"ĠStand":5791,"Shri":5792,"ĠTrust":5793,"Ġgrown":5794,"endment":5795,"Ġelection":5796,"vision":5797,"reak":5798,"Ġparliament":5799,"Fin":5800,"ployment":5801,"Raj":5802,"Ġtoward":5803,"à¤¸":5804,"Ġinteresting":5805,"Ġhappiness":5806,"Ġannounced":5807,"eep":5808,"erves":5809,"Ġdefend":5810,"inity":5811,"oken":5812,"Ġlooks":5813,"ittees":5814,"Ġdistinct":5815,"ĠJews":5816,"ĠSociety":5817,"Ġdear":5818,"ĠBC":5819,"pta":5820,"Ġminutes":5821,"ĠBuddha":5822,"Ġfalsehood":5823,"Ġsupreme":5824,"athered":5825,"odh":5826,"Ġshowing":5827,"Ġpiece":5828,"inder":5829,"Ġscholars":5830,"Ġtonnes":5831,"othe":5832,"Ġhabit":5833,"ĠRa":5834,"Ġrates":5835,"anging":5836,"Ġfactors":5837,"Ġweeks":5838,"ibilities":5839,"erted":5840,"Ġdign":5841,"they":5842,"Ġstudent":5843,"Ġfaithful":5844,"aughters":5845,"Ġscientists":5846,"Ġspoke":5847,"Ġassured":5848,"Ġbran":5849,"Ġprinciple":5850,"Ġburning":5851,"Ġjurisdiction":5852,"alid":5853,"ulating":5854,"abinet":5855,"pected":5856,"Ġmerciful":5857,"hance":5858,"anc":5859,"omatic":5860,"Ġnotes":5861,"ĠâĢ¦":5862,"Ġdescend":5863,"Ġfollowers":5864,"Ġhelps":5865,"Ġproposed":5866,"Ġtransferred":5867,"ĠPM":5868,"ĠSum":5869,"Ġquot":5870,"Ġstrateg":5871,"Ġfundamental":5872,"Ġveh":5873,"holders":5874,"Ġdiscussion":5875,"ĠAkbar":5876,"ĠSir":5877,"issa":5878,"Ġ2017":5879,"Ġobjects":5880,"ĠBas":5881,"redit":5882,"Ġabund":5883,"Ġsmaller":5884,"ache":5885,"Ġuses":5886,"Ġwarning":5887,"Ġmountain":5888,"Bh":5889,"Ġmobile":5890,"Ġherit":5891,"Ġorient":5892,"Each":5893,"oples":5894,"Ġwhatsoever":5895,"Ġconflict":5896,"Ġshowed":5897,"Ġobtained":5898,"greg":5899,"ĠSocial":5900,"agh":5901,"Ġefficient":5902,"Ġcourts":5903,"Ġtom":5904,"Ġdisk":5905,"place":5906,"Ġbringing":5907,"Ġbecoming":5908,"Ġoffline":5909,"Two":5910,",âĢĶ":5911,"wa":5912,"ĠLim":5913,"apur":5914,"Ġapplied":5915,"Ġwriter":5916,"ĠChar":5917,"ĠPrincip":5918,"ica":5919,"Ġlock":5920,"Ġliqu":5921,"Ġswear":5922,"Ġacquired":5923,"Ġheritage":5924,"General":5925,"Ġleaf":5926,"anya":5927,"Ġrecognised":5928,"gin":5929,"last":5930,"release":5931,"Ġdaughters":5932,"Ġdeleg":5933,"Ġcoord":5934,"Ġbanking":5935,"Ġcurrently":5936,"Ġinstruments":5937,"Ġimplemented":5938,"ishnu":5939,"aced":5940,"Ġhealthy":5941,"ses":5942,"isations":5943,"ĠMS":5944,"Ġunable":5945,"Ġsole":5946,"Ġfriendship":5947,"Ġdelay":5948,"Ġsending":5949,"Ġmal":5950,"Ġelected":5951,"Ġenhan":5952,"Ġreckon":5953,"Ġeffects":5954,"ĠSa":5955,"Ġclasses":5956,"www":5957,"Yes":5958,"entions":5959,"rand":5960,"ĠNav":5961,"Ġexplo":5962,"ila":5963,"Ġabode":5964,"Ġdecide":5965,"Ġdecisions":5966,"Ġmatch":5967,"Ġsitting":5968,"Ġmultiple":5969,"Ġpatience":5970,"ĠModi":5971,"Ġabide":5972,"Invalid":5973,"Ġrecall":5974,"Ġtranslation":5975,"edia":5976,"à¤¨":5977,"Ġphone":5978,"Ġskills":5979,"Ġpolitics":5980,"Ġabsolute":5981,"icious":5982,"rites":5983,"ĠInternet":5984,"phant":5985,"Ġears":5986,"Ġsends":5987,"ĠIraq":5988,"Ġsus":5989,"Ġhasten":5990,"ourse":5991,"Ġbright":5992,"ĠCommun":5993,"Ġcourage":5994,"Ġadmit":5995,"Ġcoal":5996,"Ġrecon":5997,"Ġaccident":5998,"Ġtechnologies":5999,"Ġfault":6000,"Ġappeared":6001,"Ġpollution":6002,"Ġax":6003,"Ġwithdraw":6004,"Ġrice":6005,"eless":6006,"Another":6007,"Ġobjectives":6008,"ĠAffairs":6009,"rier":6010,"Ġplaying":6011,"president":6012,"Ġhill":6013,"Ġdoctor":6014,"Ġengineering":6015,"ĠMer":6016,"Ġweap":6017,"ĠNadu":6018,"plete":6019,"Ġobv":6020,"Ġcurrency":6021,"Ġbehold":6022,"ustral":6023,"Ġprofessional":6024,"Ġskill":6025,"Also":6026,"ishes":6027,"inding":6028,"Ġminds":6029,"Ġband":6030,"Ġbounty":6031,"iversary":6032,"Ġconfirm":6033,"Ġlawful":6034,"sha":6035,"Ġstands":6036,"when":6037,"Ġcave":6038,"anas":6039,"ceeds":6040,"Ġ-.":6041,"Ġcompared":6042,"Ġuniversity":6043,"ocument":6044,"ĠPost":6045,"Ġadult":6046,"Ġarrog":6047,"Ġsurpr":6048,"Ġthoughts":6049,"Ġinitiative":6050,"Ġdrugs":6051,"Ġequipment":6052,"ald":6053,"Ġorg":6054,"off":6055,"oser":6056,"Ġarchive":6057,"Ġconducted":6058,"Ġdamage":6059,"Ġadequate":6060,"arp":6061,"ĠMun":6062,"omever":6063,"pective":6064,"Ġconcent":6065,"Ġaddressed":6066,"ĠAssoci":6067,"unction":6068,"Ġadministrative":6069,"ĠBrahm":6070,"Ġgathered":6071,"Ġorganised":6072,"inese":6073,"Ġholds":6074,"ofindia":6075,"Ġdoesn":6076,"Ġorganized":6077,"Ġmaintained":6078,"Ġdemocratic":6079,"Ġheat":6080,"Ġprose":6081,"ĠVa":6082,"Ġfacts":6083,"ĠRajya":6084,"Ġordinary":6085,"Will":6086,"Ġbes":6087,"Ġstar":6088,"ĠEgypt":6089,"ankar":6090,"Ġafraid":6091,"Ġpermanent":6092,"presidentofindia":6093,"Ġeth":6094,"Ġenemies":6095,"Ġinherit":6096,"ĠLondon":6097,"ensions":6098,"ĠMinisters":6099,"while":6100,")?":6101,"Ob":6102,"Ġcandid":6103,"Back":6104,"aith":6105,"ĠRev":6106,"Ġinterpret":6107,"olved":6108,"ĠPan":6109,"Ġwilled":6110,"Ġescape":6111,"Cons":6112,"time":6113,"Ġrent":6114,"onds":6115,"Ġexamples":6116,"ĠJustice":6117,"jud":6118,"Ġwestern":6119,"ĠSelf":6120,"Ġstruct":6121,"antic":6122,"Ġidentified":6123,"ĠSind":6124,"ĠLanguage":6125,"ĠJammu":6126,"Ġcenturies":6127,"Ġcorruption":6128,"detail":6129,"how":6130,"ĠCivil":6131,"abhar":6132,"arya":6133,"izes":6134,"ĠGov":6135,"Ġnegative":6136,"ĠLegislative":6137,"Ġpages":6138,"ĠMen":6139,"Ġinitial":6140,"Ġterritory":6141,"ĠAsh":6142,",'":6143,"Ġnoted":6144,"Inc":6145,"brance":6146,"Ġoperating":6147,"Ġblessed":6148,"Ġdedicated":6149,"ĠNepal":6150,"Cal":6151,"Ġweather":6152,"Ġcontents":6153,"Ġsettled":6154,"Ġdia":6155,"Ġstars":6156,"ĠKumar":6157,"Ġsym":6158,"Ġdidn":6159,"State":6160,"Ġwelcome":6161,"Ġaims":6162,"col":6163,"yl":6164,"ĠNare":6165,"Ġ75":6166,"Ġcitizen":6167,"Ġirr":6168,"Ġatmosphere":6169,"Ġeld":6170,"Ġrej":6171,"ĠNag":6172,"ĠForm":6173,"Ġcompassion":6174,"Ġrecip":6175,"Ġfeature":6176,"Ġbranches":6177,"Ġsugar":6178,"Ġfee":6179,"Ġtransaction":6180,"Ġmaintenance":6181,"Ġtasks":6182,"ĠMugh":6183,"Ġcomfort":6184,"Ġpeoples":6185,"Once":6186,"Ġeligible":6187,"Ġdesigned":6188,"ĠKarnataka":6189,"care":6190,"ĠAD":6191,"Ġconference":6192,"Ġdistricts":6193,"Ġthousands":6194,"Mah":6195,"Ġreb":6196,"Ġincur":6197,"Ġarms":6198,"ĠInf":6199,"Ġattitude":6200,"ĠBenef":6201,"Mod":6202,"hat":6203,"lets":6204,"amin":6205,"ĠOut":6206,"Ġsolution":6207,"Ġmig":6208,"Ġrob":6209,"Ġdestruction":6210,"oring":6211,"Ġcompar":6212,"Ġmarketing":6213,"anish":6214,"Ġchoice":6215,"ĠElect":6216,"appe":6217,"Ġattain":6218,"Ġreported":6219,"23":6220,"atre":6221,"oman":6222,"quest":6223,"Ins":6224,"Ġsyn":6225,"Ġprayers":6226,"itual":6227,"ĠCON":6228,"luded":6229,"iced":6230,"iments":6231,"Ġdesert":6232,"Ġrespective":6233,"Ġargument":6234,"Ġbrows":6235,"ette":6236,"Ġenhance":6237,"Ġelectricity":6238,"umin":6239,"à¤¤":6240,"Ġflowers":6241,"Before":6242,"Ġdemonstr":6243,"ien":6244,"ĠMag":6245,"Ġrid":6246,"Ġsolar":6247,"ĠNoah":6248,"24":6249,"Europe":6250,"Ġ2009":6251,"Ġconstant":6252,"Ġcosts":6253,"Ġoffices":6254,"Ġblame":6255,"ĠMembers":6256,"ĠTurk":6257,"Ġgrateful":6258,"Mark":6259,"ni":6260,"ĠFOR":6261,"Ġclosed":6262,"Ġfinally":6263,"Mus":6264,"atar":6265,"Ġhrs":6266,"ĠCor":6267,"Ġafford":6268,"ĠIP":6269,"oles":6270,"ĠCode":6271,"Ġindig":6272,"Ġ|":6273,"ĠHT":6274,"Ġsuddenly":6275,"Ġhall":6276,"omic":6277,"ĠSH":6278,"Ġguarant":6279,"Ġheads":6280,"Ġprincipal":6281,"Ġmos":6282,"ĠYear":6283,"....":6284,"Ġlaunch":6285,"Ġsubstance":6286,"ĠForeign":6287,"aviour":6288,".%":6289,"HT":6290,"osers":6291,"Ġagency":6292,"acts":6293,"Ġconfiguration":6294,"ĠLab":6295,"Ġmemo":6296,"Ġidentity":6297,"Make":6298,"Ġlose":6299,"Ġkil":6300,"elve":6301,"ansion":6302,"Ġfelicit":6303,"Ġpilgrim":6304,"yr":6305,"ndered":6306,"Ġobst":6307,"Ġmedicine":6308,"rafts":6309,"RAN":6310,"Ġbrief":6311,"Ġlinks":6312,"Like":6313,"eries":6314,"Ġcovering":6315,"Ġbillion":6316,"rome":6317,"Ġmarry":6318,"PE":6319,"book":6320,"Ġchance":6321,"elievers":6322,"Ġtheory":6323,"ĠAud":6324,"ĠBose":6325,"Ġmarried":6326,"Ġoccurred":6327,"NO":6328,"ĠGaz":6329,"acific":6330,"Ġterrible":6331,"Mar":6332,"Ġwhomever":6333,"Ġfinance":6334,"Ġstrike":6335,"lement":6336,"Ġfactor":6337,"Ġforgot":6338,"Ġwidth":6339,"ĠBah":6340,"Ġdisg":6341,"there":6342,"Ġprocesses":6343,"Ġfavor":6344,"ladesh":6345,"sm":6346,"hets":6347,"Ġwage":6348,"Ġmock":6349,"Ġelections":6350,"Mon":6351,"Rashtrapati":6352,"Ġcommittee":6353,"ĠOrissa":6354,"house":6355,"asant":6356,"pring":6357,"Ġmarkets":6358,"life":6359,"Ġwhenever":6360,"Ġsanct":6361,"Ġidol":6362,"Name":6363,"pet":6364,"uta":6365,"ĠHam":6366,"ĠOb":6367,"avid":6368,"Ġamb":6369,"ĠProte":6370,"About":6371,"sl":6372,"ÑĤ":6373,"Ġfont":6374,"ĠTem":6375,"Ġcoast":6376,"Ġ2003":6377,"Ġadvanced":6378,"ĠJudge":6379,"ping":6380,"Ġthirty":6381,"raction":6382,"Ġseemed":6383,"Ġproperly":6384,"ranath":6385,"marks":6386,"Ġcateg":6387,"Change":6388,"ĠReport":6389,"ĠAfghan":6390,"Ġbul":6391,"Ġthereafter":6392,"Ġundertaken":6393,"Don":6394,"Ġsenior":6395,"Ġcommod":6396,"Ġarrived":6397,"resents":6398,"Unknown":6399,"sible":6400,"ĠSun":6401,"Ġmotion":6402,"ĠAut":6403,"Ac":6404,"MP":6405,"alam":6406,"Ġupgr":6407,"Ġmovements":6408,"derabad":6409,"Ġfertil":6410,"Ġanalysis":6411,"ĠDVD":6412,"Ġ500":6413,"Ġ2004":6414,"Ġproperties":6415,"ĠSikh":6416,"Ġfourth":6417,"akti":6418,"Ġritual":6419,"atio":6420,"Ġdisbelief":6421,"See":6422,"ola":6423,"assword":6424,"Ġinfl":6425,"olkata":6426,"ĠArabic":6427,"Ġinformed":6428,"Ġoblig":6429,"Prev":6430,"Ġdisplayed":6431,"operative":6432,"Ġpled":6433,"Ġ90":6434,"Ġfunctioning":6435,"Ġpenalty":6436,"gor":6437,"Ġwr":6438,"quiry":6439,"Ġmostly":6440,"Ġleads":6441,"Ġbrain":6442,"ĠBy":6443,"Ġadjust":6444,"Ġdiscl":6445,"Ġruns":6446,"Gl":6447,"aints":6448,"ĠDas":6449,"Ġvir":6450,"ipes":6451,"Ġplans":6452,"Ġturning":6453,"Ġloans":6454,"Ġpoets":6455,"Work":6456,"Ġpsych":6457,"Ġprime":6458,"lude":6459,"Ġtemporary":6460,"Ġaccused":6461,"Ġcurs":6462,"Ġapplicable":6463,"mary":6464,"Ġtrain":6465,"isher":6466,"ros":6467,"Ġrout":6468,"oked":6469,"ĠJoseph":6470,"à¤¯":6471,"Ġorganizations":6472,"Ġsurre":6473,"Ġenvironmental":6474,"gent":6475,"ĠAli":6476,"ibly":6477,"active":6478,"ourable":6479,"Ġimmense":6480,"Ġaccompan":6481,"Ġtomorrow":6482,"eal":6483,"Inter":6484,"Ġdifferences":6485,"Ġafflic":6486,"Ġjudgment":6487,"ĠMuse":6488,"Part":6489,"ĠCar":6490,"ĠDem":6491,"Ġunion":6492,"ĠArch":6493,"ĠAdv":6494,"Ġcreative":6495,"Ġfulfil":6496,"uity":6497,"zz":6498,"Ġlosers":6499,"Ġspot":6500,"oval":6501,"Ġsimpl":6502,"Ġgirls":6503,"TER":6504,"Ġil":6505,"edient":6506,"stood":6507,"ĠTime":6508,"ĠLet":6509,"Ġsquared":6510,"ĠSpeaker":6511,"Ġinhab":6512,"iger":6513,"Ġexpenses":6514,"Ġtemperature":6515,"22":6516,"View":6517,"Ġec":6518,"Ġgovernments":6519,"trans":6520,"Ġaside":6521,"ĠMand":6522,"pto":6523,"Ġdram":6524,"Prime":6525,"ĠJudgment":6526,"Ġgate":6527,"Ġdog":6528,"ĠFl":6529,"Ġ189":6530,"ĠImage":6531,"Ġapostles":6532,"brah":6533,"organ":6534,"ĠTool":6535,"apa":6536,"Ġjournal":6537,"anese":6538,"onial":6539,"ena":6540,"ĠFirst":6541,"Ġbroken":6542,"ĠDivine":6543,"izont":6544,"Choose":6545,"ĠIndependence":6546,"Ġworlds":6547,"criber":6548,"Ġapostle":6549,"adr":6550,"isted":6551,"Ġ1956":6552,"LE":6553,"tes":6554,"Ġcomment":6555,"Ġfilter":6556,"ĠMusa":6557,"da":6558,"asters":6559,"ilm":6560,"ĠHon":6561,"ardar":6562,"nergy":6563,"Ġreveal":6564,"Ġthrow":6565,"uli":6566,"Ġsev":6567,"Ġpride":6568,"Ġemployee":6569,"Ġwalls":6570,"Ġcompensation":6571,"Ġcapable":6572,"Ġgrieve":6573,"ĠApost":6574,"ĠSigns":6575,"Ġdeleted":6576,"iti":6577,"ĠSearch":6578,"Ġabsence":6579,"Net":6580,"hus":6581,"Ġalt":6582,"awahar":6583,"Ġrepresents":6584,"Ġexpert":6585,"Ġdeeply":6586,"Her":6587,"ĠCult":6588,"ĠInter":6589,"Ġentirely":6590,"oes":6591,"Ġequally":6592,"conomic":6593,"ĠAlm":6594,"Ġcreatures":6595,"ĠChristian":6596,"Ġextremely":6597,"Ġwrongdoers":6598,"Ġble":6599,"ĠMiddle":6600,"Ġhumanity":6601,"Ġfulfilled":6602,"omy":6603,"otton":6604,"Ġsees":6605,"ĠFound":6606,"Art":6607,"Ġsustenance":6608,"Ð¸":6609,"urved":6610,"ĠAdam":6611,"Mess":6612,"Ġsuit":6613,"Ġunknown":6614,"Ġrefused":6615,"Ġzero":6616,"Similar":6617,"Ġsculpture":6618,"uter":6619,"irs":6620,"ĠPen":6621,"ĠKar":6622,"Ġoffers":6623,"Ġbelonging":6624,"\\\\":6625,"Ġlif":6626,"ĠVice":6627,"à¤¹":6628,"ĠAware":6629,"iform":6630,"ĠPre":6631,"ĠSecurity":6632,"Ġchargeable":6633,"ooth":6634,"owing":6635,"anks":6636,"ESS":6637,"Ġdirected":6638,"Ġ188":6639,"rack":6640,"Ġcomposed":6641,"Ġroof":6642,"Ġmenu":6643,"Text":6644,"Ġpu":6645,"ĠEngine":6646,"ĠCompan":6647,"orthy":6648,"ĠFinancial":6649,"Ġproposal":6650,"Just":6651,"anta":6652,"Ġtransactions":6653,"Ġpossession":6654,"Ġsimply":6655,"Ġstrive":6656,"Ġinitiated":6657,"ĠApostle":6658,"Ġexhib":6659,"theists":6660,"Ġ2019":6661,"ilter":6662,"Ġorph":6663,"Ġdeity":6664,"ecut":6665,"Ġ2011":6666,"Ġexplain":6667,"ĠTer":6668,"ĠNations":6669,"Ġformal":6670,"Ġstarting":6671,"Sm":6672,"Ġfed":6673,"ĠWater":6674,"à¤Ĥ":6675,"Although":6676,"father":6677,"Ġspeaking":6678,"atri":6679,"Ġopposition":6680,"ĠDef":6681,"coming":6682,"ĠTraining":6683,"Ġproportion":6684,"ĠMuseum":6685,"Ġbelieves":6686,"à¤ķ":6687,"Ġmulti":6688,"ECT":6689,"Ġdigital":6690,"Nor":6691,"Ġstones":6692,"Ġtransp":6693,"Prof":6694,"ailing":6695,"Ġwherever":6696,"Ġnarrow":6697,"pes":6698,"uit":6699,"ayment":6700,"abet":6701,"ĠControl":6702,"Ġtourism":6703,"Ġupdate":6704,"can":6705,"Ġbottom":6706,"Ġfuel":6707,"ourism":6708,"Ġcenter":6709,"Ġbacks":6710,"Ġsurvey":6711,"Mem":6712,"gency":6713,"long":6714,"roc":6715,"ĠAwards":6716,"Ġoutstanding":6717,"ĠChapter":6718,"ĠSubs":6719,"Ġimprovement":6720,"Ġautomatically":6721,"Ġprostrate":6722,"Central":6723,"Click":6724,"Ġfought":6725,"ĠLife":6726,"Ġcommission":6727,"ĠConv":6728,"ĠNarendra":6729,"ym":6730,"edd":6731,"osa":6732,"Ġspecify":6733,"Ġinstructions":6734,"Ġsincere":6735,"Print":6736,"Ġhypocrites":6737,"rum":6738,"ename":6739,"Ġcalling":6740,"Ġexplained":6741,"ĠAdministr":6742,"swered":6743,"25":6744,"ĠSC":6745,"Ġrecited":6746,"FC":6747,"eath":6748,"Ġtheirs":6749,"Ġformation":6750,"Ġowners":6751,"Ġpromoting":6752,"Ġsustainable":6753,"room":6754,"Ġcris":6755,"Ġdynam":6756,"Ġequity":6757,"Ġbeneath":6758,"Ġhappens":6759,"Ġfifty":6760,"Ġarchitecture":6761,"Ġbefall":6762,"Ġdeed":6763,"osite":6764,"Ġ45":6765,"ĠHyderabad":6766,"Ġdistinguished":6767,"CD":6768,"Time":6769,"wan":6770,"Ġsequ":6771,"ĠLimited":6772,"IG":6773,"Ġbones":6774,"Ġprove":6775,"ĠNay":6776,"Ġpregn":6777,"Ġinvited":6778,"Ġsor":6779,"ĠAward":6780,"ogen":6781,"Ġ36":6782,"Ġglory":6783,"Ġcareer":6784,"withstanding":6785,"retc":6786,"erate":6787,"agers":6788,"Ġadmitted":6789,"ruit":6790,"Ġdealing":6791,"Ġtribal":6792,"fortun":6793,"Lord":6794,"Ġpension":6795,"ads":6796,"oding":6797,"ĠTel":6798,"ĠEastern":6799,"Ġperce":6800,"Ġtowns":6801,"ĠChristians":6802,"Ġtools":6803,"ĠAS":6804,"Ġsoldiers":6805,"ĠPrincipal":6806,"water":6807,"Ġcrow":6808,"Ġcouncil":6809,"Ġexports":6810,"ĠWeb":6811,"Ġrespectively":6812,"ĠInte":6813,"Africa":6814,"Ġliquid":6815,"ĠPress":6816,"NU":6817,"itory":6818,"unc":6819,"Ġvig":6820,"Ġarbit":6821,"uality":6822,"Ġrenew":6823,"ĠBel":6824,"Ġemotion":6825,"Ġdesktop":6826,"Ġrace":6827,"Ġowner":6828,"Ġwriters":6829,"Ġcontributions":6830,"First":6831,"kan":6832,"riends":6833,"à¥ĩ":6834,"Ġobtain":6835,"EP":6836,"Sat":6837,"Ġimpart":6838,"Ġcustomer":6839,"ĠForest":6840,"Ġpane":6841,"ĠText":6842,"Remember":6843,"Ġquickly":6844,"Ġtro":6845,"cts":6846,"andon":6847,"Ġclot":6848,"Ġallowance":6849,"Det":6850,"Ġcontribute":6851,"Ġrecite":6852,"Ġremaining":6853,"Ġsatisfied":6854,"Ġves":6855,"Ġuns":6856,"Ġtwelve":6857,"2014":6858,"DA":6859,"Ġconven":6860,"ĠGoogle":6861,"Ġdecor":6862,"ĠMohammed":6863,"Ġactor":6864,"Ġ02":6865,"Ġdepth":6866,"ĠAssistant":6867,"ĠMughal":6868,"Ġclay":6869,"Ġoverall":6870,"Ġconcl":6871,"Ġ08":6872,"asad":6873,"ĠGarden":6874,"199":6875,"rishn":6876,"Ġimmediate":6877,"uable":6878,"Ġcore":6879,"Ġanswered":6880,"ĠBest":6881,"ĠNature":6882,"Ġleaving":6883,"ishment":6884,"Ġsteel":6885,"Ġtwice":6886,")!":6887,"Ġbone":6888,"Ġhind":6889,"Ġconvers":6890,"their":6891,"Ġcommunications":6892,"Ġsolid":6893,"VE":6894,"gl":6895,"orter":6896,"oli":6897,"ĠInstitut":6898,"Ġoffering":6899,"Ġdrama":6900,"Ġtissue":6901,"yal":6902,"utation":6903,"ĠKor":6904,"ĠScheduled":6905,"ĠAssociation":6906,"ming":6907,"rary":6908,"Ġdrown":6909,"ĠNan":6910,"Ġemployed":6911,"Ġrecognition":6912,"Ġstayed":6913,"Ġjudgement":6914,"Co":6915,"Ġborder":6916,"otal":6917,"rie":6918,"Ġlegs":6919,"ĠDeputy":6920,"Ġcounsel":6921,"dev":6922,"Ġhurt":6923,"Ġunderstood":6924,"Ġcool":6925,"Ġcontinues":6926,"Ġera":6927,"Ġpieces":6928,"Something":6929,"Ġcategory":6930,"ĠKolkata":6931,"Ġcontemporary":6932,"Ġillust":6933,"Ġrailway":6934,"Ġneighbour":6935,"algam":6936,"ĠFiles":6937,"Ġpersonality":6938,"Except":6939,"Ġframework":6940,"rease":6941,"ĠMount":6942,"Ġscope":6943,"ounded":6944,"Ġintended":6945,"Ġavailability":6946,"Ġdepends":6947,"ĠNetwork":6948,"ĠBabu":6949,"alog":6950,"Ġdetailed":6951,"Ġbreed":6952,"ĠMother":6953,"ĠOf":6954,"gram":6955,"Ġasking":6956,"Ġdrinking":6957,"Ġrevenue":6958,"Ġregarded":6959,"ushed":6960,"Ġsolutions":6961,"ĠIndustrial":6962,"Ġ33":6963,"Ġtrading":6964,"garh":6965,"Ġfacilitate":6966,"Ġholy":6967,"Ġshad":6968,"ĠJag":6969,"anka":6970,"Ġfirmly":6971,"Ġsisters":6972,"Current":6973,"Ġcow":6974,"Ġmel":6975,"Ġshaped":6976,"Ġtrouble":6977,"Ġspect":6978,"Ġpreview":6979,"because":6980,"edience":6981,"ector":6982,"Ġhardly":6983,"Ġ2020":6984,"Form":6985,"Ġrender":6986,"Ġreligions":6987,"Ġclouds":6988,"ĠNoble":6989,"Ġties":6990,"Ġtea":6991,"Ġrepeated":6992,"ĠSettings":6993,"ĠUrdu":6994,"mic":6995,"Ġlying":6996,"Ġseeds":6997,"Ġvac":6998,"Ġcommunal":6999,"Ġrestrict":7000,"hetic":7001,"ĠAssessing":7002,"Ġderived":7003,"Ġsweet":7004,"Ġcrisis":7005,"Ġtim":7006,"ulty":7007,"Ġtrem":7008,"Ġeggs":7009,"Ġcricket":7010,"olic":7011,"Ġrising":7012,"ĠKa":7013,"Ġends":7014,"Ġequality":7015,"CA":7016,"DU":7017,"Further":7018,"rer":7019,"Ġarising":7020,"Ġtraditions":7021,"Key":7022,"OM":7023,"Red":7024,"ront":7025,"tic":7026,"ona":7027,"Ġcharity":7028,"Ġinterested":7029,"Ġstrate":7030,"Ġlabor":7031,"ĠIndustry":7032,"Ġtongue":7033,"Ġsam":7034,"Ġsorrow":7035,"Ġdiverse":7036,"Ġthread":7037,"ensity":7038,"Ġbuildings":7039,"Ġhardship":7040,"spring":7041,"Ġstake":7042,"ĠJesus":7043,"ĠUnivers":7044,"Ð¾":7045,"Ġwicked":7046,"Ġmap":7047,"Ġrect":7048,"ĠVishnu":7049,"Ġcrores":7050,"Ġguidelines":7051,"ĠIsraeli":7052,"Ġsuggested":7053,"ĠProvince":7054,"Ġcomprehensive":7055,"Ġaccom":7056,"Project":7057,"Config":7058,"Ġlayer":7059,"Ġintelligence":7060,"state":7061,"Ġdriven":7062,"ĠRet":7063,"ĠHimself":7064,"Ġ2010":7065,"Ġ1947":7066,"Ġacknow":7067,"ĠProper":7068,"Ġabsor":7069,"Ġconsumer":7070,"Ġrevelation":7071,"Ġships":7072,"eer":7073,"Ġdatabase":7074,"ĠLt":7075,"Ġflower":7076,"Ġimproving":7077,"Ġcustomers":7078,"Ġworshipped":7079,"ĠPersian":7080,"cry":7081,"ocks":7082,"ĠForce":7083,"Ġstrategy":7084,"Ap":7085,"Ge":7086,"Nay":7087,"Ret":7088,"law":7089,"Ġwaters":7090,"Ġaffair":7091,"ĠBangladesh":7092,"Ġsettlement":7093,"High":7094,"rd":7095,"arh":7096,"Ġhen":7097,"ĠMos":7098,"Ġstick":7099,"Ġdesired":7100,"iel":7101,"Ġentrust":7102,"Ġnumerous":7103,"ashing":7104,"justice":7105,"Ġdiscussed":7106,"Ġbag":7107,"Ġalarm":7108,"Ġevident":7109,"ommod":7110,"Ġestimated":7111,"Ġbegins":7112,"Ġrepentance":7113,"down":7114,"Ġhills":7115,"Ġalive":7116,"Ġovercome":7117,"Ġappell":7118,"Ġjudges":7119,"Government":7120,"Ext":7121,"Ġflood":7122,"Ġadvised":7123,"Ġachievement":7124,"Direct":7125,"inance":7126,"Ġonto":7127,"ĠCity":7128,"Ġindex":7129,"Ġpreferred":7130,"ĠRegional":7131,"Ġcelebrated":7132,"Ġicon":7133,"oz":7134,"Ġspr":7135,"Ġsets":7136,"Ġfiled":7137,"Ġgrain":7138,"Ġcomputing":7139,"Ġroads":7140,"esterday":7141,"brahim":7142,"iche":7143,"Ġenjoyment":7144,"Ġforests":7145,"Ġconceal":7146,"Flag":7147,"mal":7148,"ĠSpecial":7149,"iri":7150,"ĠDec":7151,"ftware":7152,"Ġdefinite":7153,"Ġarrangement":7154,"Ġexch":7155,"Ġefficiency":7156,"Ġpalm":7157,"no":7158,"van":7159,"Ġfacing":7160,"Ġslight":7161,"Ġdifficulty":7162,"Ġhorse":7163,"ĠPo":7164,"ĠGr":7165,"ignment":7166,"Ġ115":7167,"Ġobserve":7168,"ker":7169,"Ð½":7170,"Ġpermitted":7171,"Ġevolution":7172,"iliar":7173,"Ġnaught":7174,"Ġgrew":7175,"ĠSte":7176,"Ġdoll":7177,"ounter":7178,"Ġconsiderable":7179,"inating":7180,"Ġproclaim":7181,"emic":7182,"aren":7183,"Ġsymp":7184,"ĠFoundation":7185,"02":7186,"rance":7187,"Ġsplit":7188,"Ġhat":7189,"ota":7190,"ĠUnit":7191,"ĠArmy":7192,"Ġinvestments":7193,"Ġdeliber":7194,"Ġlinked":7195,"Aud":7196,"Find":7197,"Ġease":7198,"ĠMahabhar":7199,"Ġcouple":7200,"Ġcomponent":7201,"awaharlal":7202,"olit":7203,"Ġapparent":7204,"Ġbehaviour":7205,"Ġimproved":7206,"Ġthick":7207,"Ġlamp":7208,"ums":7209,"Ġvictim":7210,"Ġaccompl":7211,"oving":7212,"Ġfet":7213,"opal":7214,"ificial":7215,"Ġmillions":7216,"Ġfelicitations":7217,"Ġgift":7218,"Ġstages":7219,"ĠNA":7220,"Ġcho":7221,"welling":7222,"Ġinspiration":7223,"Last":7224,"asw":7225,"uted":7226,"pelled":7227,"Ġmeetings":7228,"Ġoffence":7229,"Ġcollected":7230,"Ġhighlight":7231,"Ġjudicial":7232,"Next":7233,"ĠAgriculture":7234,"mits":7235,"Ġbudget":7236,"ĠHouses":7237,"ĠGand":7238,"ĠWhy":7239,"being":7240,"Ġmasses":7241,"Ġimperial":7242,"Never":7243,"Ġchain":7244,"erving":7245,"Ġspan":7246,"Ġflat":7247,"Ġexpansion":7248,"Ġbusy":7249,"PI":7250,"Ġincorpor":7251,"Ġspite":7252,"Ġregulations":7253,"Ġacquisition":7254,"ĠPalestinian":7255,"Ġvessel":7256,"Ġhousing":7257,"ĠWord":7258,"2016":7259,"ributes":7260,"Ġdeposits":7261,"ĠMadhya":7262,"sub":7263,"ĠRural":7264,"Ġblue":7265,"Ġservant":7266,"Ġcompletion":7267,"Ġmailing":7268,"vestment":7269,"Close":7270,"Address":7271,"Ġincurred":7272,"ardon":7273,"Ġallot":7274,"asty":7275,"Ġworldly":7276,"Ġrecognized":7277,"Ġidentify":7278,"Ġdisobey":7279,"ĠJapan":7280,"och":7281,"Ġwa":7282,"asp":7283,"ĠKab":7284,"Ġharmony":7285,"Ġpious":7286,"Ġwilling":7287,"ĠLic":7288,"Ġlect":7289,"ĠFree":7290,"Through":7291,"Ġdecree":7292,"Ġintegrated":7293,"Ġemphasis":7294,"arters":7295,"ĠLal":7296,"upon":7297,"Ġconsumption":7298,"Ġphen":7299,"Ġhom":7300,"icent":7301,"ected":7302,"Ġreasonable":7303,"orge":7304,"Ġvia":7305,"Ġremembrance":7306,"Hindi":7307,"edkar":7308,"ĠRad":7309,"Ġorganisations":7310,"Ġidols":7311,"orse":7312,"utt":7313,"riya":7314,"Ġ'.":7315,"ears":7316,"izer":7317,"ĠYet":7318,"Ġflight":7319,"Ġcurse":7320,"Ġrespite":7321,"Ġfarmer":7322,"Ġdemands":7323,"Ġwarned":7324,"ĠEnter":7325,"iciary":7326,"ĠÂ":7327,"Ġamalgam":7328,"Ġouter":7329,"Ġexcellence":7330,"Ġempower":7331,"Ġconstructed":7332,"ĠBuddhist":7333,"bra":7334,"des":7335,"inst":7336,"Ġment":7337,"ĠData":7338,"Ġovert":7339,"Ġ70":7340,"Ġrulers":7341,"ographical":7342,"ĠSchedule":7343,"80":7344,"Prom":7345,"Ġdescrib":7346,"Ġdistributed":7347,"Ġtalking":7348,"Later":7349,"yas":7350,"Ġ~":7351,"odal":7352,"agn":7353,"Ġeval":7354,"Ġspoken":7355,"Ġfloor":7356,"urse":7357,"ĠWomen":7358,"Ġinvalid":7359,"Ġhelper":7360,"Would":7361,"ĠAv":7362,"Att":7363,"Ġpropag":7364,"ĠInsurance":7365,"Dev":7366,"enous":7367,"Ġrebell":7368,"ĠChen":7369,"umes":7370,"Ġratio":7371,"Ġconservation":7372,"Ġencomp":7373,"icipal":7374,"Ġimpossible":7375,"Ġtoler":7376,"Ġhun":7377,"ether":7378,"Ġwhomsoever":7379,"Ġdetail":7380,"ALL":7381,"ertainly":7382,"enn":7383,"otes":7384,"Ġstored":7385,"ĠFort":7386,"Ġgoals":7387,"Ġsignature":7388,"ĠCommittees":7389,"Ġ185":7390,"Ġsites":7391,"Ġcontinuous":7392,"Take":7393,"ureau":7394,"ĠKan":7395,"AGE":7396,"Ġfle":7397,"essions":7398,"Ġallows":7399,"Ġradio":7400,"ĠAfghanistan":7401,"orous":7402,"itya":7403,"2015":7404,"alaya":7405,"Ġtouched":7406,"Ġguardian":7407,"Post":7408,"dec":7409,"Ġmad":7410,"ĠPri":7411,"Ġshel":7412,"Ġbuff":7413,"ĠSecond":7414,"novation":7415,"Ġquantity":7416,"urch":7417,"asses":7418,"Ġfaithless":7419,"Ġinterface":7420,"date":7421,"Ġshop":7422,"pping":7423,"reement":7424,"Ġscen":7425,"Ġzone":7426,"chron":7427,"ĠHistory":7428,"ĠUT":7429,"ersonal":7430,"Os":7431,"Ġmixed":7432,"entle":7433,"Ġimpr":7434,"Ġvalley":7435,"Ġpointed":7436,"atics":7437,"ĠBan":7438,"ounds":7439,"Ġtransmission":7440,"Ġsecurities":7441,"Ġedge":7442,"uddin":7443,"Ġensuring":7444,"Ġaudit":7445,"Ġstruck":7446,"Due":7447,"Ġhast":7448,"ruly":7449,"Ġpersonnel":7450,"Ġmarks":7451,"Ġencry":7452,"Ġeastern":7453,"Ġdifficulties":7454,"Ġrepresentative":7455,"Ġsatisfaction":7456,"Ġremarkable":7457,"pat":7458,"Ġnotified":7459,"âĢĿ;":7460,"ART":7461,"Ġparamet":7462,"Ġrecognize":7463,"ĠSwami":7464,"cons":7465,"anath":7466,"ĠSol":7467,"ĠFrench":7468,"Ġacting":7469,"ugin":7470,"Ġwindows":7471,"Ġsocio":7472,"Ġirrigation":7473,"ima":7474,"imony":7475,"ĠSee":7476,"ĠBusiness":7477,"Ġstarts":7478,"Ġcollege":7479,"emplate":7480,"Ġcrowd":7481,"ham":7482,"asy":7483,"ĠHuman":7484,"Ġvacc":7485,"Ġnoble":7486,"ĠTheir":7487,"Ġraw":7488,"Ġfulfill":7489,"Ġtelephone":7490,"Ġsexual":7491,"ustralia":7492,"ecutive":7493,"Dec":7494,"Peace":7495,"Ġrelatives":7496,"Ġproductivity":7497,"Del":7498,"Ġcried":7499,"Ġpert":7500,"Ġbreath":7501,"Ġdirections":7502,"Ġsteadfast":7503,"Ġcategories":7504,"Ġaught":7505,"Ġdoom":7506,"Ġagent":7507,"Ġcommence":7508,"reek":7509,"Ġrot":7510,"Ġdownload":7511,"Ġfinds":7512,"ĠTrade":7513,"ĠGupta":7514,"Ġjobs":7515,"dent":7516,"ua":7517,"aron":7518,"Ġprohib":7519,"Ġrequested":7520,"izontal":7521,".âĢľ":7522,"PRO":7523,"Ġpet":7524,"Ġtot":7525,"Ġthor":7526,"ĠDisc":7527,"Ġherself":7528,"Ġelectronic":7529,"Ġhyd":7530,"Ġdiscussions":7531,"Ġviolent":7532,"Ġmirac":7533,"Ġcriminal":7534,"Ġinterpretation":7535,"ĠAz":7536,"aching":7537,"ĠStud":7538,"Ġwritings":7539,"Ġliberal":7540,"Ġvirtue":7541,"Writ":7542,"power":7543,"rove":7544,"Ġplanned":7545,"Ġreprodu":7546,"Ġoccurs":7547,"Get":7548,"ga":7549,"orship":7550,"ĠBack":7551,"Ġdisabled":7552,"Ġyellow":7553,"Ġfounded":7554,"Ġcrime":7555,"iya":7556,"Ġelim":7557,"Ġgall":7558,"Ġupto":7559,"ĠTop":7560,"Ġprepare":7561,"Similarly":7562,"Call":7563,"Ġpull":7564,"icted":7565,"ĠAtt":7566,"chief":7567,"ĠJohn":7568,"ĠTham":7569,"Ġparticipate":7570,"Ġstrengthening":7571,"OT":7572,"YS":7573,"Ġocean":7574,"ĠPrev":7575,"ĠNow":7576,"Ġtrained":7577,"Ġvegetables":7578,"Read":7579,"Ġinjustice":7580,"Ġdiversity":7581,"ĠSik":7582,"Ġdischarge":7583,"Ġrighteousness":7584,"Ġsuperior":7585,"ĠTemple":7586,"?'":7587,"Friends":7588,"Ġhaply":7589,"âĢĺ":7590,"Ġusual":7591,"Ġuniverse":7592,"Ġrealize":7593,"Ġfalls":7594,"Ġdegrees":7595,"ĠAmbedkar":7596,"Ġast":7597,"itting":7598,"Ġhtt":7599,"ĠDar":7600,"Ġclust":7601,"Ġ34":7602,"Ġdefin":7603,"Ġsuffered":7604,"ĠSubhas":7605,"Ġenterprise":7606,"Ġbaby":7607,"illa":7608,"Ġcourses":7609,"Ġbreasts":7610,"bered":7611,"ye":7612,"ĠAnt":7613,"cession":7614,"âĢĻ.":7615,"Ġaddresses":7616,"iques":7617,"Ġsympt":7618,"ĠTerrit":7619,"Type":7620,"usal":7621,"Ġemployer":7622,"Ġmetal":7623,"Ġclaimed":7624,"Ġconvention":7625,"Ġgradually":7626,"operation":7627,"ĠJain":7628,"Ġverse":7629,"Ġpractical":7630,"Ġmechanism":7631,"Believers":7632,"Ram":7633,"Sur":7634,"met":7635,"Ġdiet":7636,"ĠDate":7637,"lesh":7638,"Ġdiffer":7639,"ĠPrasad":7640,"Ġprominent":7641,"Ġvoluntary":7642,"ĠLink":7643,"Ġdomain":7644,"Tra":7645,"his":7646,"Ġaspir":7647,"ĠTri":7648,"Ġchapter":7649,"ffect":7650,"Ġjail":7651,"Ġowned":7652,"SA":7653,"atell":7654,"Ġabandon":7655,"Ġachievements":7656,"Ġharvest":7657,"Ġconvert":7658,"Ġwear":7659,"Ġvan":7660,"Ġadorn":7661,"ĠChait":7662,"Ġintention":7663,"aze":7664,"Ġliability":7665,"Ġwidely":7666,"Ġappearance":7667,"Ġdepartments":7668,"Ġpit":7669,"ulatory":7670,"Ġgreatly":7671,"Ġordered":7672,"Ġbug":7673,"Ġcomplaint":7674,"jan":7675,"Ġbat":7676,"aniel":7677,"Disable":7678,"Ġcorporate":7679,"was":7680,"your":7681,"Ġincreases":7682,"Ġeffectively":7683,"Ġanniversary":7684,"Ġinvolve":7685,"Ġliars":7686,"ĠGermany":7687,"tical":7688,"Ġtag":7689,"inations":7690,"Ġfix":7691,"Ġdivers":7692,"ĠTab":7693,"Ġenact":7694,"âĢĿ,":7695,"Group":7696,"lines":7697,"Ġsaving":7698,"amily":7699,"Ġmeat":7700,"Ġremoval":7701,"Ġattended":7702,"Ġawarded":7703,"Ġinfection":7704,"struction":7705,"Ġrou":7706,"orders":7707,"à¤²":7708,"Ġdetermination":7709,"Ġsignificance":7710,"Ġstopped":7711,"Ġcontributed":7712,"Ġattachment":7713,"ĠAcadem":7714,"onts":7715,"Ġduration":7716,"Ġeternal":7717,"istries":7718,"Ġwholly":7719,"Ġdispos":7720,"ĠUnder":7721,"Ġaggreg":7722,"Ġequals":7723,"END":7724,"Ġdevoted":7725,"Ġprograms":7726,"Ġstreams":7727,"Ġsake":7728,"Ġaccurate":7729,"Ġcondem":7730,"Ġdevices":7731,"Ġforwarded":7732,"Ġarrangements":7733,"Ġaxis":7734,"lock":7735,"inoy":7736,"Ġpalace":7737,"Bas":7738,"pre":7739,"wood":7740,"atin":7741,"Ġacid":7742,"ocate":7743,"legal":7744,"Ġboys":7745,"inces":7746,"lean":7747,"ĠYork":7748,"Ġsubjected":7749,"Ġclaims":7750,"Ġpillars":7751,"Ġprinted":7752,"ĠPanchay":7753,"Number":7754,"Ġ-,":7755,"tha":7756,"Ġyours":7757,"Ġmeas":7758,"Ġcompetition":7759,"ailable":7760,").\"":7761,"Ġneedy":7762,"Ġsouthern":7763,"Ġrecommendations":7764,"ĠMercy":7765,"HER":7766,"nai":7767,"Ġarmed":7768,"obe":7769,"ĠAsian":7770,"Ġolder":7771,"ronics":7772,"Ġ1992":7773,"Ġ1998":7774,"Ġcamel":7775,"UG":7776,"Ġinvestors":7777,"ĠManager":7778,"Ġbeside":7779,"ĠIbrahim":7780,"ĠSim":7781,"Ġdraft":7782,"ITY":7783,"Ġexecutive":7784,"CS":7785,"Ã©":7786,"Ġviz":7787,"ogg":7788,"Ġpanel":7789,"wing":7790,"Ġaccommod":7791,"ĠKingdom":7792,"Public":7793,"Ġpapers":7794,"celer":7795,"ĠPres":7796,"ĠNon":7797,"Ġdisturb":7798,"Ġ44":7799,"Ġsovere":7800,"Ġcovers":7801,"Ġcorner":7802,"Ġinhabit":7803,"Ġmov":7804,"aked":7805,"ĠOptions":7806,"icket":7807,"Ġcomponents":7808,"Ġaccompanied":7809,"retched":7810,"08":7811,"09":7812,"Ġtur":7813,"Ġpair":7814,"ĠLanka":7815,"Ġpermiss":7816,"Ġrecovery":7817,"Ġcontrolled":7818,"ĠAhmed":7819,"allel":7820,"Ġkings":7821,"peror":7822,"Ġtender":7823,"lihood":7824,"Ġdistress":7825,"Ġfaculty":7826,"Image":7827,"aturally":7828,"Ġdeities":7829,"ĠType":7830,"endra":7831,"Ġdetermine":7832,"Ġadapt":7833,"Ġstructures":7834,"ĠCompanies":7835,"Ġphenomen":7836,"Mr":7837,"Ġstamp":7838,"ĠLiter":7839,"ferent":7840,"Ġadmonition":7841,"Ġceremony":7842,"idi":7843,"olt":7844,"acing":7845,"ĠWay":7846,"Ġlege":7847,"ogether":7848,"Ġresc":7849,"Ġgrat":7850,"Ġspecially":7851,"Ġresolve":7852,"Ġshrine":7853,"Ant":7854,"Ref":7855,"Sk":7856,"attered":7857,"Ġbh":7858,"Ġbacter":7859,"ĠLot":7860,"Ġresort":7861,"Ġpartition":7862,"connect":7863,"Ġreceiving":7864,"ometimes":7865,"Ġsilver":7866,"gence":7867,"oram":7868,"imp":7869,"Ġunseen":7870,"Ġelev":7871,"Ġinaugur":7872,"Follow":7873,"Ġnurs":7874,"ĠPrem":7875,"Ġclar":7876,"Ġnegoti":7877,"Ġmonitoring":7878,"gorithm":7879,"HAR":7880,"Ġeve":7881,"ĠMicro":7882,"Ġrhy":7883,"angle":7884,"ĠJoint":7885,"Ġeducated":7886,"Ġprofile":7887,"azing":7888,"Ġacceptance":7889,"Ġstrategic":7890,"Ġweapons":7891,"Ġbrowser":7892,"Ġbell":7893,"Ġbears":7894,"Ġvain":7895,"Ġdisappe":7896,"Ġproducing":7897,"Ġsurg":7898,"Ġstrange":7899,"ĠGuard":7900,"Ġurge":7901,"DP":7902,"amber":7903,"ĠMove":7904,"ĠCabinet":7905,"Ġstress":7906,"Ġ187":7907,"Ġcompanions":7908,"ĠPolice":7909,"Ġdanger":7910,"gage":7911,"Ġtheatre":7912,"Ġcart":7913,"ĠSardar":7914,"Ġproxy":7915,"Ġungr":7916,"ĠJay":7917,"Ġseeks":7918,"ounce":7919,"Ġprefer":7920,"Ġsentence":7921,"Ġequival":7922,"Ġrealise":7923,"Ġcreates":7924,"Ġterrorist":7925,"lasting":7926,"Ġwrath":7927,"Ġhur":7928,"Ġaccum":7929,"Ġsubt":7930,"Ġtestimony":7931,"Ġencouraged":7932,"urveda":7933,"21":7934,"Ġsed":7935,"itra":7936,"leum":7937,"ĠSab":7938,"ĠHer":7939,"Ġlev":7940,"Ġplaint":7941,"ĠMadras":7942,"Allow":7943,"Good":7944,"Ġsad":7945,"Ġworst":7946,"Ġenforce":7947,"arest":7948,"Ġended":7949,"Ġaffection":7950,"Ġassembly":7951,"IB":7952,"Ġpark":7953,"ashion":7954,"Ġlessons":7955,"iculture":7956,"Keep":7957,"alore":7958,"again":7959,"ĠHimachal":7960,"Ġvaluable":7961,"Ġignorance":7962,"Ġoaths":7963,"Ġtremend":7964,")]":7965,"26":7966,"Apart":7967,"kh":7968,"sk":7969,"Ġrow":7970,"Ġdeaf":7971,"ĠHelp":7972,"artments":7973,"ĠRamayana":7974,"Ġpackage":7975,"Av":7976,"Ġinternet":7977,"Ġmak":7978,"etary":7979,"ĠMalay":7980,"term":7981,"Ġpermit":7982,"Ġindirect":7983,"Ġbridge":7984,"Ġ48":7985,"ĠAccounts":7986,"ĠPage":7987,"Ġsharing":7988,"Ġvide":7989,"Ġrub":7990,"ĠJa":7991,"Ġmyth":7992,"liest":7993,"Ġsubsequent":7994,"Gener":7995,"Look":7996,"ĠRab":7997,"ĠTor":7998,"Ġscene":7999,"Ġspring":8000,"Ġpersist":8001,"Ġdiscipline":8002,"Ġreckoning":8003,"ĠCertificate":8004,"Ġcloth":8005,"Ġmothers":8006,"Ġbiggest":8007,"Ġarranged":8008,"Ġinnovative":8009,"ECH":8010,"Laughter":8011,"Ġnorthern":8012,"Ġfaced":8013,"Ġslaves":8014,"Ġresulting":8015,"ĠLeague":8016,"AND":8017,"Right":8018,"SL":8019,"name":8020,"worthy":8021,"xx":8022,"idences":8023,"ĠSector":8024,"ĠLah":8025,"ĠCommer":8026,"Ġdawn":8027,"Ġrespondent":8028,"EF":8029,"Gandhi":8030,"Sign":8031,"uv":8032,"Ġpick":8033,"Ġclassical":8034,"Ġrepresentatives":8035,"Account":8036,"rase":8037,"Ġsilk":8038,"Ġpublish":8039,"Ġdistinction":8040,"rivate":8041,"Woe":8042,"Ġnav":8043,"Ġnode":8044,"ĠAra":8045,"Ġknoweth":8046,"Ġdreams":8047,"ria":8048,"Ġprophet":8049,"ĠOft":8050,"Whatever":8051,"IST":8052,"Ġentrusted":8053,"Special":8054,"Ìģ":8055,"Ġcos":8056,"omon":8057,"aming":8058,"ĠSen":8059,"ĠTable":8060,"Ġsubmission":8061,"Ġconstantly":8062,"Ġemerging":8063,"Ġlegislation":8064,"Ġqualities":8065,"Ġsubstantial":8066,"Ġfasc":8067,"olve":8068,"aks":8069,"Ġusage":8070,"Ġfinding":8071,"Ġplayer":8072,"Ġimagine":8073,"Ġcollaboration":8074,"oul":8075,"Ġdipl":8076,"oma":8077,"pection":8078,"emption":8079,"ĠBharati":8080,"Ġnormally":8081,"encing":8082,"ĠPad":8083,"ĠNPS":8084,"ĠEnergy":8085,"Ġaggress":8086,"Ġmyst":8087,"Ġpron":8088,"Ġlisted":8089,"Ġlesson":8090,"Ġpictures":8091,"ĠLtd":8092,"Ġconstitu":8093,"Ġvary":8094,"ĠLaksh":8095,"Ġ37":8096,"Ġfalling":8097,"Ġcompetent":8098,"':%":8099,"eper":8100,"rers":8101,"rupt":8102,"etroleum":8103,"Ġfluid":8104,"Know":8105,"Ġquiet":8106,"Ġauthorised":8107,"ĠSpirit":8108,"Ġmandapa":8109,"Ġignorant":8110,"Ġobvious":8111,"ĠEnt":8112,"Ġreaching":8113,"ABARD":8114,"ĠPandit":8115,"iam":8116,"Ġfly":8117,"Ġmur":8118,"ĠShiva":8119,"ĠBhut":8120,"Ġreader":8121,"Ġ09":8122,"Ġcarefully":8123,"Ġclosely":8124,"Ġhistoric":8125,"Ġcongratulate":8126,"Eng":8127,"rut":8128,"ãĥ":8129,"adur":8130,"oso":8131,"ĠOther":8132,"Ġfamiliar":8133,"Ġloves":8134,"ĠExalted":8135,"Ġrepresented":8136,"Ġsinners":8137,"Ġadopt":8138,"elfare":8139,"ĠLegislature":8140,"ĠEvery":8141,"Ġdebate":8142,"Ġdrawing":8143,"Ġmidst":8144,"Ġimprison":8145,"Ġworse":8146,"Ġpresentation":8147,"Ġpatri":8148,"Ġcommands":8149,"Ġfemales":8150,"Ġarguments":8151,"Ġdespite":8152,"ĠKoran":8153,"some":8154,"Ġcards":8155,"ller":8156,"ĠHave":8157,"ĠSaty":8158,"Ġcombination":8159,"Ġexactly":8160,"ĠRussia":8161,"Mail":8162,"Ġ@":8163,"Ġtube":8164,"Ġcup":8165,"ador":8166,"ema":8167,"Ġdecade":8168,"Ġtechnique":8169,"Ġpoetic":8170,"Ġtesting":8171,"Ġdealt":8172,"Ġauthentication":8173,"Ġwww":8174,"Ġordained":8175,"Ġsolve":8176,"Ġmusical":8177,"Ġhence":8178,"Pacific":8179,"cal":8180,"orters":8181,"Ġanc":8182,"ĠCard":8183,"ĠRoad":8184,"Ġ1948":8185,"Ġregularly":8186,"saying":8187,"usp":8188,"ĠNATION":8189,"Ġchair":8190,"Ġabst":8191,"achi":8192,"Ġtransformation":8193,"Ġconcerns":8194,"Ġproposals":8195,"Ġinjury":8196,"Ġvehicle":8197,"Ġarrogant":8198,"Ġungrateful":8199,"05":8200,"Ġwages":8201,"Ġeminent":8202,"Ġstudied":8203,"Ġdrag":8204,"ĠRights":8205,"Ġmissing":8206,"rich":8207,"Ġhit":8208,"step":8209,"Ġseats":8210,"ĠDal":8211,"agon":8212,"irement":8213,"Ġroots":8214,"Ġinvoke":8215,"Ġgradu":8216,"Ġinserted":8217,"Ġlargely":8218,"Ġcycle":8219,"Ġconsequences":8220,"85":8221,"Char":8222,"History":8223,"ÑĢ":8224,"Ġnom":8225,"ĠMember":8226,"ĠCirc":8227,"Ġhelping":8228,"Ġapprox":8229,"Ġpleases":8230,"Ġlivelihood":8231,"Ġhosts":8232,"heb":8233,"itud":8234,"ĠMaster":8235,"econom":8236,"Ġraising":8237,"Ġtechnological":8238,"Ġexperiences":8239,"2013":8240,"Ġengage":8241,"Contact":8242,"Ġcultivation":8243,"Ġdisgrace":8244,"ĠChaitanya":8245,"Down":8246,"President":8247,"ĠCreat":8248,"Ġcompuls":8249,"Ġflour":8250,"Ġdivor":8251,"Ġsalt":8252,"xts":8253,"Ġforced":8254,"ordinate":8255,"Ġimposed":8256,"ĠProcess":8257,"Ġ2018":8258,"Ġfearing":8259,"Ġdeclare":8260,"Ġgrief":8261,"Ġalternative":8262,"DUCT":8263,"Ġclient":8264,"Ġkeys":8265,"usuf":8266,"Ġsignal":8267,"Ġtraffic":8268,"Ġgenerated":8269,"ĠTechn":8270,"ĠArticle":8271,"Custom":8272,"Certificate":8273,"cles":8274,"ille":8275,"Ġslave":8276,"Ġgoddess":8277,"Ġtrium":8278,"ĠVedic":8279,"OV":8280,"Ġairc":8281,"cel":8282,"Ġconferred":8283,"Ġkg":8284,"ĠFood":8285,"Ġcloser":8286,"ĠYe":8287,"Ġnarr":8288,"Ġworthy":8289,"Ġpreparation":8290,"MB":8291,"Ġcotton":8292,"ĠProm":8293,"ĠEconomic":8294,"Ġquarter":8295,"ĠRaja":8296,"ba":8297,"bind":8298,"lin":8299,"pad":8300,"spe":8301,"vance":8302,"ifted":8303,"ĠProdu":8304,"Ġdirector":8305,"ĠParliamentary":8306,"Ġsubscribe":8307,"Ġtribes":8308,"Ġlearnt":8309,"Ġdiam":8310,"Ġconsisting":8311,"ĠMajesty":8312,"ĠLicense":8313,"bb":8314,"pal":8315,"rors":8316,"Ġwings":8317,"Ġreaction":8318,"ĠKnowledge":8319,"Ġrequirement":8320,"Ġkilling":8321,"Ġindigenous":8322,"Ġchose":8323,"Ġ07":8324,"ĠCourts":8325,"Ġtourist":8326,"ĠMSME":8327,"ĠTourism":8328,"ATE":8329,"criptions":8330,"Ġcivilization":8331,"Ġweakness":8332,"Ġoriented":8333,"Ġwished":8334,"Ġdu":8335,"Ġdwelling":8336,"ĠMat":8337,"Ġdeals":8338,"ĠOper":8339,"ĠExecutive":8340,"Ġ150":8341,"Ġattacks":8342,"ixty":8343,"CP":8344,"Ġbats":8345,"ĠDavid":8346,"ĠLine":8347,"Ġentity":8348,"aware":8349,"Ġpassion":8350,"Ġfinished":8351,"including":8352,"Ġinstruction":8353,"NAME":8354,"Ġdrowned":8355,"Ġtremendous":8356,"Data":8357,"Non":8358,"heart":8359,"Ġstrict":8360,"ĠChh":8361,"Ġoffspring":8362,"nex":8363,"Ġresponsibilities":8364,"Ġdeclar":8365,"ĠColor":8366,"Evolution":8367,"akk":8368,"nty":8369,"Ġalike":8370,"Ġadvis":8371,"Ġexecution":8372,"secution":8373,"Ġsucceeded":8374,"uilding":8375,"Wind":8376,"arita":8377,"ĠAN":8378,"ĠGold":8379,"eeds":8380,"Ġfarming":8381,"Ġemerged":8382,"Ġcommencement":8383,"za":8384,"aras":8385,"Ġinev":8386,"Ġfeelings":8387,"Ġflowing":8388,"Ġaimed":8389,"Ġconstitutional":8390,"ĠEarth":8391,"avings":8392,"Ġmanage":8393,"Ġprince":8394,"Ġrealised":8395,"Ġpainting":8396,"Hence":8397,"PG":8398,"ashi":8399,"ĠCe":8400,"hai":8401,"Ġdiscrim":8402,"Ġparticipants":8403,"Ġcustoms":8404,"Ġliable":8405,"Ġlakhs":8406,"Ġsensitive":8407,"Ġconsequence":8408,"Rest":8409,"pent":8410,"Ġyesterday":8411,"ayed":8412,"ĠGur":8413,"Ġbroke":8414,"Ġelephant":8415,"Ġcareful":8416,"ĠMaharaja":8417,"ĠVaishn":8418,"ias":8419,"pa":8420,"inals":8421,"Ġwat":8422,"onent":8423,"Ġmine":8424,"ĠDet":8425,"Ġmanaged":8426,"ĠChinese":8427,"ĠYoj":8428,"Ġcarbon":8429,"Ġtechniques":8430,"Ġamounts":8431,"Ġrepresentation":8432,"ĠSupport":8433,"urga":8434,"Ġentrepreneur":8435,"Run":8436,"normal":8437,"atra":8438,"Ġflesh":8439,"ĠSaud":8440,"ocent":8441,"ĠFed":8442,"amboo":8443,"40":8444,"point":8445,"inte":8446,"Ġmun":8447,"ĠIIT":8448,"ĠPRAN":8449,"izers":8450,"ĠâĢĿâĢľ":8451,"ugu":8452,"Ġpardon":8453,"stru":8454,"ĠPRO":8455,"Ġcontrary":8456,"Ġteeth":8457,"Ġhumili":8458,"ĠBritain":8459,"Ġruling":8460,"Ġfavours":8461,"Free":8462,"Ġventure":8463,"urning":8464,"Ġinfinite":8465,"Ġopposite":8466,"Ġsales":8467,"Ġstrengthened":8468,"Ġannounce":8469,"Ġcorresponding":8470,"ĠEmpire":8471,"otheism":8472,"yer":8473,"nda":8474,"Ġbath":8475,"Ġkn":8476,"break":8477,"tw":8478,"itors":8479,"Ġadj":8480,"icals":8481,"Ġminute":8482,"Ġhealthcare":8483,"Republic":8484,"Ġroute":8485,"ilal":8486,"ĠExt":8487,"Ġreserve":8488,"ensus":8489,"Ġ300":8490,"ictionary":8491,"Ġfeeding":8492,"oresaid":8493,"DF":8494,"cure":8495,"Ġfashion":8496,"chant":8497,"ĠVir":8498,"Ġprinter":8499,"Ġrightly":8500,"Ġsupposed":8501,"Second":8502,"Ġdignity":8503,"ĠHTML":8504,"husi":8505,"ĠHad":8506,"Ġenvis":8507,"Ġadmin":8508,"Ġearliest":8509,"Ġsymptoms":8510,"Ġfinger":8511,"ĠDAY":8512,"ĠLuc":8513,"issions":8514,"ĠProp":8515,"Ġending":8516,"Ġterminal":8517,"Ġsupporting":8518,"onym":8519,"ographic":8520,"ĠEditor":8521,"Ġconverted":8522,"Ġpledge":8523,"arc":8524,"abs":8525,"people":8526,"ĠNagar":8527,"ĠFrom":8528,"Ġintroduction":8529,"Spec":8530,"Ġcriticism":8531,"ĠUniversities":8532,"mat":8533,"ãģ":8534,"icity":8535,"Ġthrone":8536,"Ġego":8537,"ĠSem":8538,"Ġchrom":8539,"ĠVij":8540,"ariat":8541,"Ġideals":8542,"Application":8543,"Ġalle":8544,"Ġcarved":8545,"iso":8546,"rag":8547,"ĠHand":8548,"ĠNor":8549,"Ġcausing":8550,"ĠOfficers":8551,"Ġcalculated":8552,"ĠAnnual":8553,"PP":8554,"Ġsnow":8555,"itals":8556,"Ġbomb":8557,"Ġpix":8558,"oto":8559,"riev":8560,"Ġuniform":8561,"Ġenthusi":8562,"à¤µ":8563,"Ġmodified":8564,"ĠCommand":8565,"tense":8566,"Ġmonu":8567,"Ġstatements":8568,"Ġcommonly":8569,"guard":8570,"Ġequivalent":8571,"oil":8572,"view":8573,"Ġbearing":8574,"Ġclubs":8575,"Ġconsumers":8576,"ĠOnly":8577,"write":8578,"commun":8579,"ĠGazette":8580,"Sometimes":8581,"ician":8582,"ignty":8583,"Ġexpos":8584,"Ġbelied":8585,"ĠVidy":8586,"Ġsheet":8587,"ĠBanks":8588,"Ġopposed":8589,"Ġessentially":8590,"Has":8591,"wide":8592,"Ġpairs":8593,"Ġeating":8594,"Ġforty":8595,"osure":8596,"ificates":8597,"Ġsalary":8598,"Ġrecommended":8599,"HO":8600,"zy":8601,"Ġcaught":8602,"adation":8603,"ĠMail":8604,"Ġkne":8605,"ultaneous":8606,"ĠJh":8607,"Ġroyal":8608,"Ġshell":8609,"Ġhumble":8610,"Ġvisual":8611,"Ġexperiment":8612,"ĠImport":8613,"Inte":8614,"Ġnutrit":8615,"non":8616,"nut":8617,"uh":8618,"Ġ/%":8619,"Ġsynt":8620,"Ġdiscovered":8621,"Ġperforming":8622,"Ġprospect":8623,"Ġdeceased":8624,"even":8625,"ipe":8626,"Ġisol":8627,"ilation":8628,"ĠCopy":8629,"Ġvote":8630,"ĠTir":8631,"Ġkid":8632,"ĠJawaharlal":8633,"Ġrose":8634,"hesis":8635,"Ġhappening":8636,"Ġelabor":8637,"Ġpatients":8638,"TI":8639,"dish":8640,"Ġwoe":8641,"roat":8642,"Ġstations":8643,"Ġdelic":8644,"Ġwheat":8645,"ĠFaith":8646,"Ġnoise":8647,"Ġinvolving":8648,"Ġpossessed":8649,"Ġderiv":8650,"Ġfifteen":8651,"Ġaforesaid":8652,"Color":8653,"ĠAgricultural":8654,"ĠWindows":8655,"Ġinhabitants":8656,"roph":8657,"ĠTal":8658,"Ġcomplic":8659,"Ġtelling":8660,"ĠInc":8661,"ĠThrone":8662,"Ġkeen":8663,"Ġextract":8664,"Ġ1950":8665,",%":8666,"Ste":8667,"field":8668,"Ġpipes":8669,"idth":8670,"etan":8671,"Ġanger":8672,"ĠCredit":8673,"ivals":8674,"Ġoverse":8675,"inking":8676,"Ġdecreed":8677,"Ġproduces":8678,"ĠScreen":8679,"Ġperiods":8680,"ĠMahal":8681,"ranch":8682,"Ġwitnessed":8683,"Ġquestioned":8684,"Ġmaintaining":8685,"ĠComment":8686,"Ġamendment":8687,"Ġdisputes":8688,"ittle":8689,"Ġintense":8690,"Ġstim":8691,"Ġvim":8692,"ipher":8693,"Ġcancer":8694,"Shall":8695,"Ġdefeat":8696,"bug":8697,"inct":8698,"asks":8699,"Ġexalted":8700,"2019":8701,"Ġmischief":8702,"Ġintegrity":8703,"Ġmotor":8704,"ĠFrance":8705,"Ġprinting":8706,"Ġmob":8707,"Ġincent":8708,"Ġinvent":8709,"Ġprompt":8710,"Ġcease":8711,"Ġrestore":8712,"à¥ĭ":8713,"Ġtopic":8714,"Ġprocedures":8715,"Ġclothes":8716,"ĠNAME":8717,"iable":8718,"Ġbeat":8719,"olence":8720,"Ġshame":8721,"Ġgland":8722,"Ġimplementing":8723,"Ġinvolves":8724,"27":8725,"SE":8726,"utory":8727,"Ġran":8728,"Ġencl":8729,"Ġunited":8730,"Ġdevote":8731,"ibraries":8732,"Ġvarieties":8733,"Ġcompanion":8734,"Ġinfluenced":8735,"ĠAmendment":8736,"Mult":8737,"key":8738,"ĠAry":8739,"ques":8740,"ocratic":8741,"ĠChrome":8742,"Ġinteraction":8743,"ĠManipur":8744,"Ġillness":8745,"Ġbonds":8746,"Ġparliamentary":8747,"Off":8748,"ih":8749,"Ġsports":8750,"Ġbread":8751,"rian":8752,"Ġsecular":8753,"Ġpassage":8754,"Ġcarries":8755,"Ġoperational":8756,"ĠNews":8757,"Google":8758,"Ġprotected":8759,"Ġenterprises":8760,"NOME":8761,"arency":8762,"Ġtotally":8763,"ĠThamud":8764,"Ġ#":8765,"utch":8766,"ĠGita":8767,"Ġvent":8768,"ĠEver":8769,"Ġentertain":8770,"Ġsheep":8771,"Tell":8772,"Ġultimate":8773,"Message":8774,"Date":8775,"Ġrendered":8776,"estion":8777,"Ġalleg":8778,"avior":8779,"Ġdescribe":8780,"Ġseparated":8781,"Ġranks":8782,"Main":8783,"Ġtow":8784,"Ġnaturally":8785,"ĠHoly":8786,"unch":8787,"Ġhumans":8788,"Ġdefect":8789,"Ġconsultation":8790,"Ġanx":8791,"Ġseat":8792,"Ġfever":8793,"Ġsecre":8794,"Ġreaders":8795,"Ġinclusive":8796,"Ġpolytheists":8797,"Log":8798,"Ġhab":8799,"ĠHa":8800,"Ġquit":8801,"son":8802,"Ġbills":8803,"Ġanaly":8804,"those":8805,"osity":8806,"ikip":8807,"Ġattained":8808,"Ġempire":8809,"Ġcollective":8810,"Ġring":8811,"ukh":8812,"Ġachieving":8813,"Ġproofs":8814,"Ġprivilege":8815,"03":8816,"Ġrom":8817,"Ġconstitute":8818,"ĠLog":8819,"Ġbackward":8820,"ĠTele":8821,"Ġkeeps":8822,"Ġministers":8823,"Ġdiagn":8824,"more":8825,"ato":8826,"Ġreact":8827,"Ġgained":8828,"ifferent":8829,"actory":8830,"Ġserving":8831,"Ġinsert":8832,"ĠIslamist":8833,"Ġreduction":8834,"ipping":8835,"Ġcelebrate":8836,"ixture":8837,"ĠArabs":8838,"Hy":8839,"list":8840,"Ġflex":8841,"Ġ(.":8842,"ĠUse":8843,"Ġconsent":8844,"Ġpossibility":8845,"ĠIndustries":8846,"Ġendeavour":8847,"Ġenhanced":8848,"ĠMahabharata":8849,"DI":8850,"Med":8851,"liness":8852,"ĠSk":8853,"ĠWelfare":8854,"udra":8855,"oking":8856,"ĠMonotheism":8857,"Ġnewspaper":8858,"Ak":8859,"Fore":8860,"inf":8861,"Ġthrown":8862,"ĠGovernance":8863,"User":8864,"Perhaps":8865,"Ġpermanently":8866,"Bring":8867,"iate":8868,"night":8869,"orne":8870,"ige":8871,"ĠCustom":8872,"Ġstuff":8873,"agraph":8874,"Ġbliss":8875,"Ġpercentage":8876,"Ġguarantee":8877,"Network":8878,"Author":8879,"bh":8880,"anth":8881,"igate":8882,"ĠLad":8883,"ĠLand":8884,"atively":8885,"Ġretribution":8886,"Ġcomputers":8887,"Conf":8888,"ĠAppe":8889,"Ġtransgressors":8890,"eter":8891,"ĠBur":8892,"Ġarise":8893,"Ġadding":8894,"Ġ65":8895,"Ġchest":8896,"Ġparas":8897,"Ġstronger":8898,"Ġenjoyed":8899,"ĠSmall":8900,"chandra":8901,"Ġrapidly":8902,"ĠDefence":8903,"07":8904,"ãĤ":8905,"Ġwing":8906,"ĠCRA":8907,"ela":8908,"Ġenlight":8909,"aryana":8910,"Ġevidences":8911,"Ġimpress":8912,"Ġ1990":8913,"Ġarrested":8914,"Ġinaugurated":8915,"ikipedia":8916,"EG":8917,"None":8918,"aning":8919,"aha":8920,"except":8921,"Ġcircular":8922,"Ġsurrender":8923,"Ġdeclaration":8924,"End":8925,"mail":8926,"Ġtub":8927,"ĠBY":8928,"Ġadvert":8929,"assed":8930,"Ġcalam":8931,"ĠAbd":8932,"Ġdependent":8933,"Ġprimarily":8934,"Ġprotocol":8935,"45":8936,"ĠHearing":8937,"Ġseated":8938,"uscript":8939,"pert":8940,"Information":8941,"Ġdiscover":8942,"ipped":8943,"AK":8944,"Ġreaches":8945,"ĠKey":8946,"ĠLevel":8947,"Ġsequence":8948,"rin":8949,"ĠMode":8950,"usively":8951,"avas":8952,"Ġpreserve":8953,"Ġinvite":8954,"Ġpositions":8955,"ĠIslands":8956,"ĠSoftware":8957,"Class":8958,"Ġawards":8959,"ĠAng":8960,"igious":8961,"ĠCell":8962,"ulous":8963,"Ġ(*":8964,"Ġric":8965,"agra":8966,"Ġarg":8967,"Ġinfid":8968,"Ġ1996":8969,"Ġhonor":8970,"inced":8971,"rehe":8972,"Ġbull":8973,"Ġpace":8974,"ushing":8975,"ĠError":8976,"Ġcontrast":8977,"ensed":8978,"Ġruler":8979,"Ġgenu":8980,"Ġdespair":8981,"Ġkilomet":8982,"Configure":8983,"ĠClear":8984,"Ġselling":8985,"Ġpaying":8986,"Export":8987,"ĠMarathi":8988,"Ġassuredly":8989,"ĠYojana":8990,"Tax":8991,"UK":8992,"Ġcoc":8993,"Ġfate":8994,"Ġpup":8995,"Ġlaugh":8996,"Ġgross":8997,"Ġclip":8998,"oys":8999,"Ġchildhood":9000,"Ġavo":9001,"Ġsummer":9002,"BC":9003,"Har":9004,"kim":9005,"ĠSin":9006,"iven":9007,"acob":9008,"ohan":9009,"Does":9010,"Ġsocieties":9011,"Ġtrend":9012,"Ġaccordingly":9013,"Ġhundreds":9014,"Ġtranslated":9015,"Ġtalent":9016,"Ġgrievous":9017,"Ġentrepreneurs":9018,"Ġdynamic":9019,"Ġstakeholders":9020,"economic":9021,"Kh":9022,"rey":9023,"ĠKam":9024,"cedure":9025,"Ġfears":9026,"Ġgrave":9027,"Ġseconds":9028,"ĠSAYS":9029,"Ġnovels":9030,"Ear":9031,"ienced":9032,"Ġstability":9033,"ivekan":9034,"ships":9035,"Ġmonthly":9036,"ĠAlmighty":9037,"Prop":9038,"UB":9039,"alo":9040,"Ġthin":9041,"Ġislands":9042,"Ġalgorithm":9043,"ĠEle":9044,"Ġperpet":9045,"Ġdriver":9046,"Ġexceeding":9047,"Ġelder":9048,"Ġwilt":9049,"olent":9050,"rive":9051,"International":9052,"Ġworker":9053,"Ġmodels":9054,"lessly":9055,"Ġlasting":9056,"Ġpaintings":9057,"Organ":9058,"ĠEngineering":9059,"Bhar":9060,"Ġfib":9061,"Ġdress":9062,"Ġalter":9063,"grated":9064,"Ġreturning":9065,"Ġboost":9066,"Ġcriter":9067,"Whoever":9068,"ĠValley":9069,"Ġremembered":9070,"Clear":9071,"bi":9072,"Ġmould":9073,"Ġmuse":9074,"Ġdies":9075,"uri":9076,"abling":9077,"ĠLa":9078,"udh":9079,"Ġsmooth":9080,"Ġconfined":9081,"Ġrepresenting":9082,"Ġlayout":9083,"igital":9084,"ĠPeace":9085,"pless":9086,"Ġproviso":9087,"ĠDevi":9088,"Ġhonoured":9089,"Ġaircraft":9090,"ersion":9091,"ĠEven":9092,"ĠResource":9093,"Ġputting":9094,"Ġobserv":9095,"addy":9096,"Ġconversion":9097,"erty":9098,"Ġentering":9099,"Ġwinds":9100,"Ġeasier":9101,"Ġruled":9102,"Ġaudience":9103,"Ġwalking":9104,"Ġsurrounded":9105,"ĠProtection":9106,"Ġhatred":9107,"Ġrhyth":9108,"orious":9109,"Ġmix":9110,"Ġorn":9111,"Ġdisapp":9112,"Ġsomebody":9113,"ĠAny":9114,"Ġpeaceful":9115,"Ġconnectivity":9116,"Ġsummary":9117,"Ġarrive":9118,"chers":9119,"ĠRailway":9120,"%.":9121,"Having":9122,"vara":9123,"zing":9124,"Ġvit":9125,"acred":9126,"soft":9127,"ĠShow":9128,"Ġfactory":9129,"amese":9130,"Ġproceeding":9131,"Ġfifth":9132,"Ġchannels":9133,"Ġplaintiff":9134,"28":9135,"IME":9136,"TS":9137,"Ġcatch":9138,"ĠLight":9139,"Ġenorm":9140,"Ġunaware":9141,"amma":9142,"everal":9143,"Ġimported":9144,"ysical":9145,"ĠClass":9146,"Ġancest":9147,"35":9148,"MM":9149,"uce":9150,"wal":9151,"Ġtail":9152,"Ġpand":9153,"Ġmouse":9154,"rogen":9155,"atel":9156,"Ġvul":9157,"Ġmathem":9158,"ĠExport":9159,"Ġcheque":9160,"Ġfallen":9161,"Port":9162,"dist":9163,"orate":9164,"ĠShiv":9165,"Ġbestow":9166,"ĠExplanation":9167,"oughly":9168,"Ġoperative":9169,"Ġrestra":9170,"RESS":9171,"Ġdeduct":9172,"Ġinstallation":9173,"Ġmistake":9174,"Ġdefinition":9175,"Ġaggregate":9176,"mad":9177,"Ġ`":9178,"sem":9179,"ida":9180,"Ġgentle":9181,"ĠSwar":9182,"ĠCall":9183,"ulates":9184,"Ġnearer":9185,"aph":9186,"Ġunex":9187,"ĠChild":9188,"Ġflo":9189,"Ask":9190,"Ġheader":9191,"Ġprotector":9192,"ĠSummit":9193,"auses":9194,"dra":9195,"nity":9196,"ĠSome":9197,"Ġworry":9198,"Ġloose":9199,"ĠOrder":9200,"screen":9201,"Ġconclusion":9202,"Ġappellant":9203,"Turk":9204,"raight":9205,"rior":9206,"Ġ(_":9207,"andra":9208,"antra":9209,"apse":9210,"shi":9211,"Ġdevelopments":9212,"Ġpilgrimage":9213,"ruitment":9214,"Ġtriumph":9215,"Bal":9216,"Ġmarch":9217,"asts":9218,"Ġtexts":9219,"Ġassociates":9220,"Ġboat":9221,"Ġrevolutionary":9222,"Department":9223,"Ġcommodities":9224,"jun":9225,"aria":9226,"ĠTest":9227,"Ġdismiss":9228,"iki":9229,"ĠVol":9230,"Ġbeliever":9231,"ĠHinduism":9232,"Ġbigger":9233,"Ġundertake":9234,"Ġforbid":9235,"alal":9236,"Ġmax":9237,"icing":9238,"Ġthrew":9239,"eta":9240,"Ġexceeds":9241,"ĠTerm":9242,"Ġresidence":9243,"Ġregime":9244,"Ġcharacteristic":9245,"Ġorgans":9246,"PEECH":9247,"Access":9248,"Bar":9249,"Ñģ":9250,"isite":9251,"ĠGreen":9252,"ĠAllahabad":9253,"Ġpret":9254,"Ġfees":9255,"Ann":9256,"Ġresulted":9257,"Ġbeneficial":9258,"Ġmotiv":9259,"Ġslowly":9260,"ĠChennai":9261,"gments":9262,"rh":9263,"zer":9264,"ĠSita":9265,"ordinary":9266,"indranath":9267,"ĠEl":9268,"ĠFir":9269,"Ġmeal":9270,"Ġperfection":9271,"Ġarts":9272,"evil":9273,"Ġ1991":9274,"PRODUCT":9275,"isible":9276,"arious":9277,"idelines":9278,"estival":9279,"ĠRah":9280,"ĠRead":9281,"anti":9282,"Ġconsolid":9283,"Ġswift":9284,"ĠRegion":9285,"Play":9286,"Ġexecuted":9287,"stab":9288,"ainted":9289,"Ġengagement":9290,"naments":9291,"Micro":9292,"run":9293,"Ġreferences":9294,"Ġanywhere":9295,"Web":9296,"Ġ55":9297,"ĠBooks":9298,"Ġcombined":9299,"Ġprecise":9300,"JP":9301,"awn":9302,"Ð»":9303,"Ġrig":9304,"ammation":9305,"Ġ47":9306,"Ġoccasions":9307,"ĠZone":9308,"Ġkeyboard":9309,"ĠEdit":9310,"Ġemotional":9311,"ichever":9312,"ĠBhutan":9313,"Ġoverseas":9314,"Pharaoh":9315,"Rev":9316,"lla":9317,"ĠKann":9318,"ildo":9319,"Ġeverywhere":9320,"Ġhandle":9321,"Ġconfir":9322,"Ġ03":9323,"Ġinstitutes":9324,"Ġcompetitive":9325,"Ġnewspapers":9326,"Ġhunger":9327,"Ġdict":9328,"Ġapplies":9329,"Ġnewly":9330,"Ġartist":9331,"Ġsupports":9332,"Ġreplaced":9333,"Ġtells":9334,"Ġinstitutional":9335,"Ġblessing":9336,"ĠCreator":9337,"Ġcas":9338,"ĠEVE":9339,"Ġunbelie":9340,"Ġevolved":9341,"ĠStatus":9342,"Ġgrants":9343,"Ġexped":9344,"ĠBahadur":9345,"Ġshelter":9346,"Ġaspirations":9347,"November":9348,"aired":9349,"wara":9350,"ste":9351,"Ġgames":9352,"Ġcharm":9353,"achment":9354,"Ġinvented":9355,"ĠCommon":9356,"ENCE":9357,"Ġsanctioned":9358,"Perm":9359,"Server":9360,"owered":9361,"ĠSund":9362,"Ġje":9363,"Ġcountrymen":9364,"Ġorganisms":9365,"Ġsustained":9366,"Ġtourists":9367,"Ġobligation":9368,"Ġsacrific":9369,"ĠAirport":9370,"Ġlady":9371,"ĠGovt":9372,"Ġsprings":9373,"Ġpertaining":9374,"gi":9375,"about":9376,"Ġexposed":9377,"ĠIndo":9378,"ĠNG":9379,"ĠInnovation":9380,"Ġdistant":9381,"Ġvisits":9382,"Ġradical":9383,"Ġindicate":9384,"ĠPunjabi":9385,"Ġcrucial":9386,"ĠLabour":9387,"Unt":9388,"ext":9389,"eping":9390,"Ġrecover":9391,"à¤®":9392,"ounced":9393,"Ġswall":9394,"Ġplugins":9395,"CL":9396,"Ġtied":9397,"isp":9398,"Ġcul":9399,"Ġing":9400,"Ġascribe":9401,"ĠCS":9402,"tery":9403,"avana":9404,"ĠCentres":9405,"Ġplayers":9406,"Ġpatron":9407,"Ġconnections":9408,"Ġprevented":9409,"29":9410,"AO":9411,"South":9412,"ocated":9413,"Inf":9414,"ĠThy":9415,"liance":9416,"Ġattribute":9417,"ĠCenter":9418,"Ġcircle":9419,"Ġprogressive":9420,"Ġintegration":9421,"Ġgrounds":9422,"Ġspreading":9423,"Again":9424,"ĠWindow":9425,"Jan":9426,"rete":9427,"Ġsport":9428,"Ġash":9429,"ifically":9430,"ĠHall":9431,"Ġadm":9432,"ĠChange":9433,"Ġ05":9434,"ĠContact":9435,"Ġmassive":9436,"Ġimagination":9437,"ĠGlobal":9438,"Ġcandidates":9439,"rants":9440,"Ġcalf":9441,"icer":9442,"ulus":9443,"ĠStart":9444,"ĠIsa":9445,"Ġ186":9446,"Ġ1997":9447,"rishnan":9448,"Togg":9449,"rig":9450,"Ġduly":9451,"Ġnose":9452,"ulse":9453,"Ġuncle":9454,"Ġcolonial":9455,"Ġpayments":9456,"Ġrealized":9457,"Ġexperts":9458,"Ġfocused":9459,"ĠApplication":9460,"Cop":9461,"disc":9462,"wali":9463,"herent":9464,"igarh":9465,"ĠWould":9466,"ĠNABARD":9467,"Ġenv":9468,"plant":9469,"Ġpersu":9470,"Ġacceler":9471,"Ġvaried":9472,"Ġposts":9473,"Ġfestivals":9474,"Ġphoto":9475,"ĠGerman":9476,"fortunately":9477,"Äģ":9478,"eding":9479,"Ġcomments":9480,"ĠElection":9481,"ultan":9482,"Ġtwain":9483,"ĠYusuf":9484,"ĠSea":9485,"Ġmultiply":9486,"DAP":9487,"Ġsusp":9488,"acious":9489,"ĠVivekan":9490,"ĠMinistries":9491,"Ġmodule":9492,"retion":9493,"Ġparallel":9494,"Ġautonom":9495,"Ġindicated":9496,"Ġawa":9497,"Ġexclusively":9498,"04":9499,"Ġly":9500,"ĠSave":9501,"Ġshut":9502,"Ġresistance":9503,"âĢĻ,":9504,"Ġmaturity":9505,"ovable":9506,"Ġextensive":9507,"ilitation":9508,"Ġyounger":9509,"Ġreducing":9510,"ĠLeft":9511,"ĠRailways":9512,"Ġperceive":9513,"Elect":9514,"Ġwinter":9515,"Ġbount":9516,"Ġnearest":9517,"ĠNat":9518,"Ġdecline":9519,"Ġpresents":9520,"haust":9521,"Ġconversation":9522,"atellite":9523,"Bel":9524,"hash":9525,"oa":9526,"Ġice":9527,"Ġfaster":9528,"ĠTV":9529,"Ġkin":9530,"ĠNation":9531,"Ġhandic":9532,"Ġconvinced":9533,"Ġdangerous":9534,"ĠConvention":9535,"ashington":9536,"Ġpermissions":9537,"inth":9538,"isan":9539,"Ġlord":9540,"alled":9541,"EST":9542,"Ġmarg":9543,"Ġaccessible":9544,"Ġimmun":9545,"Ġcolleges":9546,"ĠMedical":9547,"Ġmurder":9548,"Ġgenuine":9549,"Dist":9550,"ystem":9551,"Ġbamboo":9552,"Ġoutcome":9553,"Ġevildo":9554,"Ġglass":9555,"Ġangel":9556,"lay":9557,"Ġtall":9558,"itate":9559,"Ġmiles":9560,"amation":9561,"rived":9562,"ĠRef":9563,"ricted":9564,"ĠGoa":9565,"Ġacted":9566,"plex":9567,"lessness":9568,"Ġrefuse":9569,"Ġ1980":9570,"ĠInstitutions":9571,"IAN":9572,"ino":9573,"ĠSov":9574,"ĠCapital":9575,"Ġdoors":9576,"ĠWell":9577,"Ġspons":9578,"Ġpoison":9579,"ofs":9580,"Ġoperate":9581,"Islam":9582,"Ġlegislative":9583,"Ġgathering":9584,"Ġexpanded":9585,"ĠLucknow":9586,"wark":9587,"Ġsucc":9588,"ĠBills":9589,"Ġshift":9590,"Init":9591,"shan":9592,"Ġremed":9593,"orses":9594,"ĠForum":9595,"Ġvillagers":9596,"ĠAdvis":9597,"ĠProperties":9598,"UD":9599,"yth":9600,"emb":9601,"Ġcolors":9602,"Ġlands":9603,"Ġtreasure":9604,"Ġmembership":9605,"Amendment":9606,"Ġsuggestions":9607,"Ġwatching":9608,"Creat":9609,"PL":9610,"Ġbin":9611,"Ġhire":9612,"Ġasce":9613,"ĠPension":9614,"ĠPatel":9615,"Ġexit":9616,"Ġprejud":9617,"Ġsecondary":9618,"Ġmuscle":9619,"ĠWhoever":9620,"Ġparameters":9621,"ĠSaudi":9622,"Children":9623,"ĠMohan":9624,"ymph":9625,"Ġtroops":9626,"Car":9627,"Video":9628,"Ġmil":9629,"andi":9630,"ĠFarm":9631,"ecess":9632,"nection":9633,"Ġblank":9634,"Ġmemor":9635,"ĠBrahman":9636,"Auto":9637,"ĠJewish":9638,"ĠBangalore":9639,"Bank":9640,"kes":9641,"mod":9642,"ĠCount":9643,"took":9644,"Ġsomewhat":9645,"Ġstartup":9646,"Ġtests":9647,"Ġdoubts":9648,"Ġdebug":9649,"Ġsilent":9650,"Ġwooden":9651,"Ġassumed":9652,"à¥Ģ)":9653,"Book":9654,"bet":9655,"inar":9656,"igence":9657,"Ġoral":9658,"Ġsharp":9659,"orted":9660,"ĠNumber":9661,"Ġentries":9662,"Ġentrance":9663,"Ġloaded":9664,"ARY":9665,"2017":9666,"Ġbelonged":9667,"Ġvisiting":9668,"Ġmagaz":9669,"Ġvirtuous":9670,"Ġforgotten":9671,"Ġillegal":9672,"ĠAcademy":9673,"Come":9674,"pay":9675,"var":9676,"zone":9677,"ashed":9678,"stone":9679,"raj":9680,"quer":9681,"Ġdoctors":9682,"fulness":9683,"atories":9684,"Ġregards":9685,"Ġsounds":9686,"Ġfairly":9687,"Ġfurnished":9688,"ĠTurkey":9689,"real":9690,"Ġsixty":9691,"Ġbinding":9692,"Ġmart":9693,"Ġdoth":9694,"struct":9695,"uran":9696,"ĠCast":9697,"ĠCALL":9698,"ĠGos":9699,"Ġshade":9700,"qual":9701,"rican":9702,"ocket":9703,"Ġimpression":9704,"Disc":9705,"Ġanswers":9706,"Ġdamaged":9707,"Ġexchanges":9708,"Him":9709,"erals":9710,"Ġvibr":9711,"Ġscheduled":9712,"Ġ38":9713,"Ġheaded":9714,"ĠUSA":9715,"ĠRao":9716,"film":9717,"ori":9718,"Ġinstitute":9719,"asion":9720,"ĠDepartments":9721,"pura":9722,"Ġembra":9723,"Ġutilised":9724,"Calendar":9725,"Audio":9726,"Ġbatsman":9727,"Dem":9728,"Sal":9729,"itative":9730,"ĠAj":9731,"igion":9732,"iginal":9733,"ifier":9734,"ĠDocument":9735,"ĠNic":9736,"Ġcomposition":9737,"Ġmanuscript":9738,"Ġearthqu":9739,"ername":9740,"Ġorganic":9741,"ĠAlso":9742,"Ġdepending":9743,"aurit":9744,"Ġcorporation":9745,"ĠCulture":9746,"Ġincorporated":9747,"mans":9748,"tocol":9749,"onia":9750,"Ġseal":9751,"Ġwheel":9752,"ĠKDE":9753,"ĠJi":9754,"Ġ39":9755,"Ġ43":9756,"Ġsinging":9757,"ĠHimalayan":9758,"Ġchromos":9759,"Certainly":9760,"five":9761,"free":9762,"whel":9763,"zen":9764,"incial":9765,"onies":9766,"amy":9767,"igg":9768,"ĠCH":9769,"rieve":9770,"Ġtherewith":9771,"Ġamid":9772,"Ġtaxes":9773,"Ġinnocent":9774,"ĠBeneficent":9775,"ĠMosque":9776,"coh":9777,"isal":9778,"Ġholder":9779,"ader":9780,"Ġhes":9781,"uni":9782,"Ġloved":9783,"Ġsimultaneous":9784,"Ġacceptable":9785,"Ġlotus":9786,"Ġemergency":9787,"Ġinspire":9788,"Ġcopies":9789,"Ġfrequently":9790,"MA":9791,"Said":9792,"Template":9793,"ĠPune":9794,"Ġstorm":9795,"ĠBinoy":9796,"Ġeverybody":9797,"Ġorganism":9798,"Should":9799,"Ġexception":9800,"Stand":9801,"Ġwarnings":9802,"Ġencouraging":9803,"\"%":9804,"good":9805,"Ġloy":9806,"ulum":9807,"avy":9808,"Ġwherewith":9809,"Online":9810,"Ġpunished":9811,"apped":9812,"Ġbitter":9813,"Ġorphans":9814,"Ġauth":9815,"Ġbore":9816,"ĠAch":9817,"ighth":9818,"Ġmisle":9819,"ĠProjects":9820,"ĠTelugu":9821,"Ġdiamonds":9822,"October":9823,"Val":9824,"car":9825,"aland":9826,"Ġdh":9827,"icians":9828,"Ġalph":9829,"à¤ģ":9830,"Ġexpiry":9831,"Ġgenerate":9832,"Ġloading":9833,"Ġagreements":9834,"rected":9835,"Ġphilosoph":9836,"Ġexclusive":9837,"Insert":9838,"ĠSHRI":9839,"Ġdramatic":9840,"dr":9841,"inue":9842,"Ġgap":9843,"imary":9844,"ifts":9845,"Ġadverse":9846,"ledged":9847,"Ġdeter":9848,"Ġcharacteristics":9849,"Ġurged":9850,"regard":9851,"ĠSurvey":9852,"Ġinjured":9853,"Ġmood":9854,"ico":9855,"omach":9856,"ahan":9857,"Ġassign":9858,"Ġruin":9859,"Ġnorms":9860,"Ġrecipients":9861,"Folder":9862,"Ġsaint":9863,"stream":9864,"ĠAfter":9865,"ĠFar":9866,"Ġmaybe":9867,"Ġassert":9868,"Ġexamine":9869,"Ġexperienced":9870,"Ġprayed":9871,"Ġstrongly":9872,"Ġbondmen":9873,"Moreover":9874,"Ġpreceding":9875,"Ġtun":9876,"Ġwave":9877,"oda":9878,"ĠPass":9879,"ĠHaryana":9880,"Ġscattered":9881,"Ġhanded":9882,"Ġreflected":9883,"Ġplanet":9884,"198":9885,"reciation":9886,"Ġresidential":9887,"ĠObama":9888,"ĠNATIONAL":9889,"06":9890,"MENT":9891,"Ġfost":9892,"Ġgates":9893,"ĠBush":9894,"Ġdisaster":9895,"elieve":9896,"ĠDepos":9897,"ĠSecretariat":9898,"Ġgeographical":9899,"Ġattractive":9900,"xygen":9901,"Ġinputs":9902,"Ġappreciate":9903,"Ġpiety":9904,"KS":9905,"Script":9906,"lation":9907,"ny":9908,"win":9909,"Ġfro":9910,"ĠSiva":9911,"uns":9912,"ĠFull":9913,"Ġfinancing":9914,"Ġgrains":9915,"ICE":9916,"Ġbarrier":9917,"ĠSuper":9918,"Ġappreciation":9919,"Ġcursed":9920,"Ġaltogether":9921,"ĠSikkim":9922,"fold":9923,"Ġdro":9924,"ĠAustralia":9925,"Ġpending":9926,"Ġprophets":9927,"Ġpatterns":9928,"Appe":9929,"Ġclipboard":9930,"CR":9931,"Ġll":9932,"Ġcust":9933,"Ġbought":9934,"icode":9935,"Ġnerve":9936,"Ġbef":9937,"ĠSant":9938,"Ġrational":9939,"airy":9940,"Ġ04":9941,"Ġfreely":9942,"Ġrevision":9943,"Ġnearby":9944,"Ġresear":9945,"Ġtribe":9946,"Ġtransportation":9947,"Ġoccupied":9948,"xide":9949,"Ġcord":9950,"Ġbare":9951,"anning":9952,"ĠAW":9953,"Ġshout":9954,"Ġhereafter":9955,"Ġcontrovers":9956,"Ġdwellers":9957,"Ġdynasty":9958,"Ġdelegation":9959,"Sche":9960,"rus":9961,"Ġwhichever":9962,"ĠMir":9963,"Ġornaments":9964,"Ġfool":9965,"Ġattracted":9966,"Ġabundant":9967,"yam":9968,"Ġseas":9969,"ĠNote":9970,"Ġregret":9971,"Ġroll":9972,"rolog":9973,"umpet":9974,"Ġinterview":9975,"Ġthankful":9976,"ĠNanak":9977,"DO":9978,"Several":9979,"kal":9980,"lause":9981,"Ġdread":9982,"Ġdrew":9983,"ĠTaj":9984,"quarters":9985,"Ġupright":9986,"ogram":9987,"Ġages":9988,"Ġrelie":9989,"Ġrecording":9990,"eches":9991,"onduct":9992,"Ġ400":9993,"archy":9994,"Ġapproaches":9995,"Ġdates":9996,"icular":9997,"Ġclosing":9998,"ĠViet":9999,"ighter":10000,"Ġcondol":10001,"Ġmoves":10002,"Ġepic":10003,"ĠAyurveda":10004,"Ġbrave":10005,"ĠOrganization":10006,"Ġenhancing":10007,"Bi":10008,"only":10009,"utosh":10010,"Ġreserved":10011,"Ġhelpers":10012,"ario":10013,"Ġboiling":10014,"Ġarrival":10015,"Ġshadow":10016,".).":10017,"Men":10018,"Mal":10019,"Wel":10020,"link":10021,"icide":10022,"Ġthrust":10023,"amination":10024,"essment":10025,"ankara":10026,"Ġguess":10027,"Ġcapabilities":10028,"Ġmining":10029,"Ġgrows":10030,"ĠMessages":10031,"Ġfrust":10032,"Ġtrek":10033,"Ġnecessity":10034,"ademi":10035,"Ġreminded":10036,"Ġwidget":10037,"Ġhttp":10038,"North":10039,"Prem":10040,"noon":10041,"Ġpear":10042,"omplete":10043,"Ġseize":10044,"ĠGra":10045,"Loading":10046,"Ġextraordinary":10047,"ĠJapanese":10048,"Ġdescendants":10049,"itudes":10050,"mind":10051,"ounder":10052,"otions":10053,"ĠDom":10054,"ĠDown":10055,"ĠFac":10056,"Ġpartly":10057,"à¤ª":10058,"them":10059,"Ġapplicant":10060,"Ġkindness":10061,"Ġ1987":10062,"ulses":10063,"Ġroutine":10064,"ĠSubscriber":10065,"ĠSoviet":10066,"have":10067,"opp":10068,"osted":10069,"ĠChamp":10070,"Ġfilms":10071,"Ġ06":10072,"Ġdrum":10073,"ĠGovernors":10074,"Ġlowest":10075,"Ġindicates":10076,"Autom":10077,"fare":10078,"hal":10079,"low":10080,"Ġcater":10081,"ĠBad":10082,"Ġshap":10083,"Ġ1000":10084,"Ġdisag":10085,"Ġspell":10086,"Soon":10087,"ĠMeeting":10088,"December":10089,"Ġcum":10090,"uti":10091,"Ġshock":10092,"ortal":10093,"Ġperse":10094,"Ġsinful":10095,"Command":10096,"Local":10097,"bo":10098,"log":10099,"po":10100,"llate":10101,"Ġnoticed":10102,"ĠBir":10103,"Ġoutlook":10104,"assador":10105,"Ġarises":10106,"Ġprest":10107,"aterial":10108,"Ġhandling":10109,"ĠQue":10110,"ATES":10111,"Ġmetres":10112,"Ġtested":10113,"Ġstatutory":10114,"Ġcutting":10115,"Abraham":10116,"Ġdialogue":10117,"Ġglorify":10118,"uspicious":10119,"god":10120,"lend":10121,"Ġisland":10122,"ĠMac":10123,"ĠThee":10124,"Ġopenly":10125,"Ġfavors":10126,"ĠAgra":10127,"Ġtalks":10128,"Email":10129,"hon":10130,"Ġcache":10131,"Ġmixture":10132,"ĠIII":10133,"Ġactively":10134,"Ġthinks":10135,"Ġliar":10136,"Ġeventually":10137,"Ġcommerce":10138,"Ministry":10139,"Ġpursued":10140,"Ġpremises":10141,"Ġoptim":10142,"ĠHimalayas":10143,"Ġexploitation":10144,"Ġvessels":10145,"capital":10146,"Ġlod":10147,"idity":10148,"iga":10149,"Ġstup":10150,"Ġalms":10151,"ĠJob":10152,"ervous":10153,"Ġpurity":10154,"ointment":10155,"Ġ1993":10156,"ĠBeing":10157,"Ġincreasingly":10158,"Ġscriptures":10159,"Ġgolden":10160,"'%":10161,"Password":10162,"div":10163,"juta":10164,"itarian":10165,"Ġbreat":10166,"akar":10167,"ĠTimes":10168,"Ġindul":10169,"Ġcommencing":10170,"Ġinsight":10171,"Ġlarva":10172,"Ġartificial":10173,"Always":10174,"Ġsupplied":10175,"Ġbegun":10176,"aunch":10177,"Ġcastes":10178,"Ġultimately":10179,"Ġwonderful":10180,"Water":10181,"bum":10182,"ca":10183,"iest":10184,"Ġreign":10185,"ĠTib":10186,"elt":10187,"Ġbackend":10188,"Ġmembr":10189,"Stop":10190,"Ġdepic":10191,"Ġwarrant":10192,"Ġencounter":10193,"Ġassemb":10194,"Ġ1986":10195,"ĠVedas":10196,"Ġinaugurate":10197,"born":10198,"lord":10199,"orrect":10200,"Ġma":10201,"Ġhunt":10202,"ĠPRES":10203,"asted":10204,"Ġperish":10205,"Ġpurify":10206,"Ġdemer":10207,"Ġinnovations":10208,"Ġhopes":10209,"Ġridic":10210,"Ġbacteria":10211,"against":10212,"Pun":10213,"ĠAction":10214,"ourn":10215,"âĢľ%":10216,"Ġputs":10217,"ĠAgreement":10218,"Ġtreaty":10219,"attis":10220,"Ġvolumes":10221,"Ġacquire":10222,"Ġcelebrations":10223,"Prophet":10224,"Ġevildoers":10225,"idian":10226,"ĠAaron":10227,"owers":10228,"olf":10229,"Ġclimb":10230,"Ġimports":10231,"Ġlocally":10232,"Ġrefund":10233,"Ġsupplement":10234,"Ġhardware":10235,"Ġconsidering":10236,"Ġplane":10237,"Ġtravelled":10238,"Ġvideos":10239,"VID":10240,"holder":10241,"range":10242,"eling":10243,"ancell":10244,"Ġpec":10245,"ĠURI":10246,"Ġprecious":10247,"Ġartists":10248,"Ġpreval":10249,"Ġprogramming":10250,"Ġ1988":10251,"ĠCalendar":10252,"Ġtribute":10253,"Ġobtaining":10254,"ĠProfessor":10255,"Ġabundance":10256,"Ġobligations":10257,"ball":10258,"rine":10259,"onut":10260,"ĠSer":10261,"thi":10262,"akrishnan":10263,"ĠJer":10264,"Ġinvestigation":10265,"Ġoriginally":10266,"Ġsilence":10267,"Ġchiefs":10268,"Ġpupp":10269,"fathers":10270,"lawful":10271,"Maximum":10272,"}.":10273,"Ġlung":10274,"Ġgn":10275,"Ġthemes":10276,"Ġenlar":10277,"Ġpreference":10278,"ankind":10279,"class":10280,"Ġprofound":10281,"Ġrestored":10282,"Ġmerit":10283,"Ġrealisation":10284,"Ġliteracy":10285,"Ġignored":10286,"ĠEnterpr":10287,"erity":10288,"also":10289,"llah":10290,"Ġeager":10291,"ĠIsh":10292,"illage":10293,"United":10294,"Ġexcav":10295,"Ġemerge":10296,"Ġconventional":10297,"xic":10298,"isk":10299,"Ġpion":10300,"Ġhung":10301,"odox":10302,"Ġoverwhel":10303,"Ġcultures":10304,"Ġ1995":10305,"Ġneglect":10306,"ĠAkademi":10307,"ĠMovement":10308,"she":10309,"Ġwaves":10310,"Ġfonts":10311,"Ġpest":10312,"Ġrepos":10313,"osc":10314,"Ġhumb":10315,"istrate":10316,"Ġphotograph":10317,"ĠRelated":10318,"Ġderivative":10319,"Ġpretty":10320,"del":10321,"Ġcav":10322,"Ġnodes":10323,"Ġgest":10324,"alli":10325,"Ġfeared":10326,"Ġconflic":10327,"Ġbrown":10328,"Ġ85":10329,"ĠSelection":10330,"Ġdomin":10331,"Ġrecognise":10332,"Ġsubsidy":10333,"Ġexcessive":10334,"ĠLiterature":10335,"BS":10336,"lor":10337,"Ġtries":10338,"itted":10339,"Ġtherefrom":10340,"Ġadvers":10341,"Ġretain":10342,"Ġrepair":10343,"Ġschedule":10344,"oubted":10345,"Ġprotecting":10346,"ĠNotwithstanding":10347,"Ġcorrectly":10348,"Ġfragment":10349,"Related":10350,"ĠTopics":10351,"fire":10352,"inning":10353,"Ġmales":10354,"Ġasc":10355,"ĠMet":10356,"ĠMake":10357,"Ġvoc":10358,"ĠFestival":10359,"Ġblown":10360,"Ġrequests":10361,"Ġintu":10362,"ĠArun":10363,"Connect":10364,"Ġidolaters":10365,"steps":10366,"Ġpump":10367,"Ġcontend":10368,"ĠGang":10369,"Ġcomplim":10370,"Ġ\"{":10371,"ĠVid":10372,"Ġworksh":10373,"Ġpursue":10374,"Ġ56":10375,"Ġinvested":10376,"Ġbreaking":10377,"197":10378,"Ġnetworks":10379,"Ġpatiently":10380,"Ġlogin":10381,"ĠSolomon":10382,".]":10383,"ele":10384,"ishe":10385,"illing":10386,"ĠWashington":10387,"phants":10388,"ologist":10389,"Ġoldest":10390,"ĠPlugin":10391,"ĠRece":10392,"sequently":10393,"Ġattacked":10394,"ĠSpace":10395,"ĠWorking":10396,"Ġconveyed":10397,"Ġcamera":10398,"CI":10399,"eenth":10400,"uated":10401,"Ġwire":10402,"Ġwider":10403,"Ġbio":10404,"Ġdiver":10405,"ĠPassword":10406,"occ":10407,"oused":10408,"ago":10409,"Three":10410,"Ġinstruct":10411,"before":10412,"Ġcalm":10413,"Ġdedication":10414,"ĠBrahma":10415,"Ġtransparency":10416,"Ġownership":10417,"Ġaccommodation":10418,"ĠCommerce":10419,"vas":10420,"Ġdaniel":10421,"Ġholid":10422,"ĠRBI":10423,"ĠExternal":10424,"Process":10425,"Ġsummon":10426,"Ġtargets":10427,"Ġallotted":10428,"VS":10429,"aar":10430,"pite":10431,"Ġmm":10432,"Ġhorses":10433,"iliation":10434,"ĠCur":10435,"ĠCurrent":10436,"uma":10437,"Ġplains":10438,"Ġenables":10439,"ĠVideo":10440,"Ġassume":10441,"Ġcolours":10442,"Ġslay":10443,"Ġskilled":10444,"loaded":10445,"Applause":10446,"Ġsituations":10447,"Ġgrievances":10448,"ESSAGE":10449,"Ġargue":10450,"Page":10451,"Sam":10452,"gon":10453,"Ġwand":10454,"Ġped":10455,"Ġrein":10456,"Ġrear":10457,"ĠMas":10458,"istor":10459,"isting":10460,"istence":10461,"agues":10462,"oka":10463,"anger":10464,"acharya":10465,"Ġvertical":10466,"Ġcomputed":10467,"Ġseparately":10468,"ĠAyat":10469,"Ġupdated":10470,"Ġslightly":10471,"Ġdisposal":10472,"Ġlegend":10473,"ĠIM":10474,"Ġwearing":10475,"happ":10476,"Ġreposted":10477,"Ġmodify":10478,"Ġtestify":10479,"akhand":10480,"Ġcontinuously":10481,"Ġhotel":10482,"Help":10483,"Ye":10484,"Ñĸ":10485,"atomic":10486,"Ġtooth":10487,"verage":10488,"ĠMor":10489,"ĠLib":10490,"Ġrans":10491,"Ġdevelopmental":10492,"roduction":10493,"Ġdominion":10494,"apping":10495,"Ġsnake":10496,"Ġangry":10497,"Ġsovereignty":10498,"Oh":10499,"Ġdegr":10500,"ĠTar":10501,"ĠâĢĶ":10502,"Ġbutt":10503,"wealth":10504,"Ġresemb":10505,"plementation":10506,"ĠOneness":10507,"Ġradiation":10508,"Ġbroadcast":10509,"Ġbulk":10510,"edded":10511,"Ġpregnancy":10512,"ĠAbdul":10513,"Ġenormous":10514,"Ġawaits":10515,"33":10516,"Four":10517,"Ġnomin":10518,"Ġlust":10519,"Ġsuck":10520,"Ġsemi":10521,"ĠBAR":10522,"emat":10523,"rits":10524,"ervice":10525,"Ġforefathers":10526,"ĠUser":10527,"Ġbounds":10528,"API":10529,"IVERS":10530,"Ġfurnish":10531,"Ġadults":10532,"ĠMunicipal":10533,"ĠLahore":10534,"ĠPRESENT":10535,"Pres":10536,"RU":10537,"cular":10538,"due":10539,"ford":10540,"sa":10541,"vation":10542,"ĠJacob":10543,"Ġafflict":10544,"ĠWhite":10545,"Ġgracious":10546,"September":10547,"Ġagenda":10548,"Ġlabel":10549,"Ġgenetic":10550,"ĠGujarati":10551,"Ġphotos":10552,"ĠSahib":10553,"iceroy":10554,"oubtedly":10555,"EV":10556,"course":10557,"Ġexhaust":10558,"Ġallocation":10559,"Ġplate":10560,"ĠVerm":10561,"formed":10562,"Ġprovince":10563,"Ġspades":10564,"anguages":10565,"ĠHindust":10566,"Ġbookmarks":10567,"ĠSelect":10568,"Ġexplanation":10569,"Ġcredited":10570,"Ġerrors":10571,"Ġadoption":10572,"Ġrisks":10573,"Ġflags":10574,"nagar":10575,"Ġaer":10576,"Ġfails":10577,"Ġ()":10578,"orticulture":10579,"ĠNa":10580,"Ġchat":10581,"avour":10582,"ĠKap":10583,"Ġquar":10584,"Ġestate":10585,"Ġdevil":10586,"Ġjinns":10587,"Ġdescribes":10588,"48":10589,"Tar":10590,"Ġstret":10591,"ĠRay":10592,"soon":10593,"ĠGoddess":10594,"Ġpool":10595,"Ġfeels":10596,"Forward":10597,"ĠSmt":10598,"ĠArea":10599,"adruddin":10600,"Hide":10601,"hari":10602,"lined":10603,"ĠRule":10604,"Ġlease":10605,"Ġdisorder":10606,"Ġcomprom":10607,"Ġpartial":10608,"Ġgoodness":10609,"ĠDirectors":10610,"Adv":10611,"Ġcomplaints":10612,"Ġglorious":10613,"Ġcompassionate":10614,"Ġunexpected":10615,"JEE":10616,"dy":10617,"Ġmac":10618,"Ġrely":10619,"ĠFe":10620,"ammar":10621,"Exp":10622,"ĠConstitu":10623,"Ġmole":10624,"Development":10625,"Ġcontinuing":10626,"Ġmachines":10627,"Subject":10628,"Ġsubsequently":10629,"ĠTorah":10630,"hum":10631,"Ġfing":10632,"Ġreass":10633,"ĠMESSAGE":10634,"quire":10635,"Ġresign":10636,"Ġedit":10637,"Ġ49":10638,"Ġignore":10639,"ĠTribes":10640,"Ġsurrounding":10641,"System":10642,"Ġdevotees":10643,"Give":10644,"Ġtack":10645,"Ġwound":10646,"Ġborne":10647,"Ġnative":10648,"idal":10649,"idency":10650,"irl":10651,"Ġsegment":10652,"emia":10653,"ĠEk":10654,"Ġrecur":10655,"Ġbrill":10656,"Ġnumer":10657,"otechnology":10658,"Ġdestiny":10659,"Ġconnecting":10660,"Ġattempts":10661,"Ġterritories":10662,"Ġcongratulated":10663,"Ġdimin":10664,"Ġsuspend":10665,"abetes":10666,"Source":10667,"Ġwine":10668,"ĠSize":10669,"herry":10670,"ĠKe":10671,"ĠKath":10672,"Ġ46":10673,"tlement":10674,"Ġfoods":10675,"Ġcircuit":10676,"Ġsixth":10677,"Ġ1970":10678,"Ġestablishing":10679,"Ġpackages":10680,"aeological":10681,"Ġheights":10682,"ĠGeorge":10683,"assionate":10684,"Ġrestrictions":10685,"ĠVivekananda":10686,"attisgarh":10687,"ds":10688,"Ġpour":10689,"ancies":10690,"ĠAble":10691,"ournal":10692,"Ġenabling":10693,"Ġ51":10694,"clamation":10695,"2012":10696,"Ġamended":10697,"Ġcorrupt":10698,"Ġlikeness":10699,"Ġcomprising":10700,"Ġvirus":10701,"Ġdecorated":10702,"Ġvimana":10703,"Rs":10704,"eers":10705,"Ġward":10706,"Ġlake":10707,"Ġsemin":10708,"Ġkit":10709,"astri":10710,"ffee":10711,"Ġreserves":10712,"plus":10713,"Ġscar":10714,"Ġsmoke":10715,"Ġswitch":10716,"Ġharmful":10717,"Ġvariable":10718,"Ġpenet":10719,"Ġtelevision":10720,"ĠEmployment":10721,"Ġwinning":10722,"Small":10723,"Ġmuseum":10724,"Ġtears":10725,"eneration":10726,"Ġadvise":10727,"Ġlegacy":10728,"Ġnecessarily":10729,"Ġports":10730,"ĠAgency":10731,"ĠAfrican":10732,"ĠReminder":10733,"Ġgarments":10734,"Ġappreciated":10735,"Ġrejoice":10736,"Ġmosque":10737,"Ġexpertise":10738,"Ġenacted":10739,"Iss":10740,"Nothing":10741,"bas":10742,"onic":10743,"Ġluck":10744,"ĠGora":10745,"ĠWrit":10746,"orts":10747,"okes":10748,"ĠGood":10749,"Ġequation":10750,"Ġdividend":10751,"Ġtank":10752,"Ġnurt":10753,"Ġbeach":10754,"Ġlingu":10755,"Ġenquiry":10756,"ĠVen":10757,"Ġafterwards":10758,"Ġpreserved":10759,"Ġintest":10760,"Ġ99":10761,"Ġvisitors":10762,"Ġspeaks":10763,"Ġsecretly":10764,"acco":10765,"habilitation":10766,"ĠPatna":10767,"Ġvaccine":10768,"Ha":10769,"Ms":10770,"ju":10771,"Ġtales":10772,"Ġther":10773,"stan":10774,"ĠBer":10775,"Ġindec":10776,"Ġretirement":10777,"loading":10778,"ISO":10779,"Ġseriously":10780,"Ġrocks":10781,"Ġpremium":10782,"ĠAdministration":10783,"EX":10784,"LS":10785,"squ":10786,"Ð´":10787,"Ġhect":10788,"ĠNI":10789,"ustrial":10790,"Ġcertificates":10791,"Ġmargin":10792,"Ġstrings":10793,"Ġdesigns":10794,"ĠOffices":10795,"Minimum":10796,"Ġdisciples":10797,"Ġresolved":10798,"Ġlicense":10799,"Ġwithdrawal":10800,"Ġimprisonment":10801,"ĠVietnam":10802,"Ent":10803,"bro":10804,"bab":10805,"dem":10806,"Ġshed":10807,"Ġmud":10808,"igher":10809,"ĠBus":10810,"Ġvouch":10811,"Ġtroub":10812,"ertical":10813,"Ġ54":10814,"Ġloft":10815,"Short":10816,"Ġidentification":10817,"Ġlogic":10818,"Ġteachings":10819,"Ġstreets":10820,"Financial":10821,"Ġdefendant":10822,"Ġtolerance":10823,"IND":10824,"take":10825,"ĠIC":10826,"Ġstomach":10827,"ĠFilter":10828,"ĠVik":10829,"ĠProcedure":10830,"Ġsuccession":10831,"Ġaddressing":10832,"Ġtape":10833,"Ġbold":10834,"ctive":10835,"olving":10836,"ĠMath":10837,"rik":10838,"Ġthereon":10839,"Ġsubstituted":10840,"Ġguests":10841,"Ġdecimal":10842,"Ġwhereof":10843,"ĠRegistration":10844,"nath":10845,"pass":10846,"sal":10847,"otism":10848,"utra":10849,"Ġdischar":10850,"Ġaccounting":10851,"Ġexamined":10852,"Ġelsewhere":10853,"ĠValue":10854,"ĠPortug":10855,"ĠStandards":10856,"Home":10857,"cers":10858,"net":10859,"Ġoxygen":10860,"ĠSacred":10861,"hta":10862,"Ġchart":10863,"Ġresur":10864,"ĠVish":10865,"Ġ42":10866,"Ġ66":10867,"Ġresting":10868,"ĠIslamists":10869,"Ġessence":10870,"Ġpurchased":10871,"Ġrepeat":10872,"ĠSheikh":10873,"ĠNarayan":10874,"Ġvehicles":10875,"Object":10876,"disha":10877,"ython":10878,"author":10879,"ĠMUK":10880,"Ġstem":10881,"ĠIndira":10882,"Ġcommend":10883,"ĠChal":10884,"pported":10885,"Ġutility":10886,"Ġautomatic":10887,"Ġsculptures":10888,"ĠISO":10889,"Ġconfirming":10890,"English":10891,"March":10892,"Vis":10893,"pi":10894,"ĠLam":10895,"Ġabnormal":10896,"Ġbutter":10897,"Ġspeeches":10898,"Ġlistening":10899,"Ġprotein":10900,"ANG":10901,"Ġstriving":10902,"Ġ1989":10903,"Ġ1976":10904,"Ġdefeated":10905,"Ġcolleagues":10906,"Ġvirtual":10907,"Ġprotest":10908,"ĠIsaac":10909,"Bet":10910,"Ġthunder":10911,"sex":10912,"ĠSang":10913,"ĠMP":10914,"ĠGNOME":10915,"ocracy":10916,"Ġmanual":10917,"Ġunlike":10918,"Ġwrites":10919,"ĠConfig":10920,"ĠAbdu":10921,"ĠRegulations":10922,"Ġ1974":10923,"TO":10924,"di":10925,"rous":10926,"reens":10927,"ĠAM":10928,"irable":10929,"ulent":10930,"Ġwithhold":10931,"Ġvot":10932,"ĠNH":10933,"ificent":10934,"Ġformula":10935,"Ġmineral":10936,"Ġspecifically":10937,"Ġdeposited":10938,"ĠBrahmin":10939,"Ġawait":10940,"Leave":10941,"HERJEE":10942,"ĠMUKHERJEE":10943,"Ah":10944,"IAL":10945,"Mat":10946,"map":10947,"saf":10948,"two":10949,"orph":10950,"Ġtoken":10951,"Ġisn":10952,"raise":10953,"ĠMut":10954,"Ġstable":10955,"thodox":10956,"ĠBureau":10957,"ĠNam":10958,"Ġnobody":10959,"ĠVIS":10960,"ĠâĢĺ%":10961,"Ġapproximately":10962,"drawn":10963,"bre":10964,"hot":10965,"Ġq":10966,"ĠServer":10967,"iler":10968,"Ġcometh":10969,"arkar":10970,"Ġ>%":10971,"Ġpromises":10972,"Ġintermedi":10973,"Ġoppress":10974,"Ġancients":10975,"Ġcooperative":10976,"Ġdivorce":10977,"stablish":10978,"mount":10979,"ref":10980,"erable":10981,"Ġsme":10982,"Ġcrafts":10983,"Ġborders":10984,"ĠField":10985,"Ġformulation":10986,"Ġobedient":10987,"Ġinteract":10988,"ĠScient":10989,"ĠPlanning":10990,"Ġoccupation":10991,"Ġdwellings":10992,"Ġempowerment":10993,"connected":10994,"DRESS":10995,"Font":10996,"Lab":10997,"Mac":10998,"Ġbatter":10999,"Ġflying":11000,"entation":11001,"ĠMoney":11002,"ĠIsland":11003,"ĠQuality":11004,"Ġfright":11005,"itoring":11006,"Ġcredits":11007,"Ġshareholders":11008,"Ġrighteously":11009,"Ġgenius":11010,"Ġfortune":11011,"Ġpreparing":11012,"Install":11013,"Satan":11014,"onymous":11015,"agraha":11016,"Ġauthors":11017,"August":11018,"Major":11019,"enary":11020,"orizontal":11021,"Ġdil":11022,"ilak":11023,"Ġthereto":11024,"Ġclim":11025,"ĠViceroy":11026,"Ġspending":11027,"Ġadvances":11028,"Ġ125":11029,"Ġgenes":11030,"Ġincidents":11031,"Ġvictims":11032,"ĠSwaraj":11033,"NR":11034,"ĠPe":11035,"ĠHan":11036,"Ġabol":11037,"ĠVig":11038,"pector":11039,"Ġserves":11040,"Ġcouldn":11041,"ĠBhar":11042,"ysore":11043,"''":11044,"eem":11045,"group":11046,"mist":11047,"oices":11048,"Ġexh":11049,"ĠIndus":11050,"Ġjump":11051,"Ġoutward":11052,"Ġestimate":11053,"Ġpublications":11054,"Ġ64":11055,"Ġextrem":11056,"Stud":11057,"Ġurgent":11058,"Ġenjoined":11059,"ospitals":11060,"Ġconducting":11061,"Ġbeliefs":11062,"Ġsymbolic":11063,"osoever":11064,"Ġhabits":11065,"def":11066,"Ġsavings":11067,"Ġwont":11068,"ese":11069,"Ġpag":11070,"stall":11071,"ĠBa":11072,"ĠOver":11073,"ilee":11074,"Ġblow":11075,"limate":11076,"Ġeconomies":11077,"Ġjudiciary":11078,"Ġlinkages":11079,"Ġlosses":11080,"aranasi":11081,"Ġcomprises":11082,"ĠRussian":11083,"Muslim":11084,"Ġcommodity":11085,"uliar":11086,"Ġorphan":11087,"Ġvulner":11088,"Ġunlawful":11089,"ĠUP":11090,"Ġdiscovery":11091,"ĠAnand":11092,"Ġcreature":11093,"Ġmeanings":11094,"adhakrishnan":11095,"Ġconviction":11096,"Subs":11097,"Ġrailways":11098,"ĠOrganisation":11099,"Ġafflicted":11100,"manship":11101,"Ġbind":11102,"Ġmaid":11103,"Ġhorn":11104,"ĠMart":11105,"ĠClick":11106,"ĠPerson":11107,"ĠDam":11108,"ĠRest":11109,"ĠKav":11110,"Ġpassengers":11111,"Ġcorn":11112,"Ġexplains":11113,"Ġtrusted":11114,"ĠSupp":11115,"ĠPraise":11116,"Ġdimension":11117,"Ġtransparent":11118,"ĠProphets":11119,"Life":11120,"igration":11121,"ĠHari":11122,"ĠGrand":11123,"ĠInvestment":11124,"Ġgenerous":11125,"ĠSciences":11126,"Ġpossibly":11127,"Ġslain":11128,"Ġdenial":11129,"anna":11130,"ĠGovernorate":11131,"Ġpregnant":11132,"Ġlevied":11133,"Ġinfidels":11134,"Pat":11135,"Ġtomb":11136,"Ġdow":11137,"Ġling":11138,"ĠAuro":11139,"ĠBro":11140,"ĠGram":11141,"ĠOcean":11142,"perm":11143,"Ġagents":11144,"Ġspir":11145,"Ġshoulder":11146,"Ġpharm":11147,"Ġspecim":11148,"Ġreceives":11149,"Selected":11150,"Ġpaths":11151,"Ġ1971":11152,"rasero":11153,"ĠHowever":11154,"ĠMalayalam":11155,"Great":11156,"cow":11157,"first":11158,"rait":11159,"ĠGan":11160,"emen":11161,"acle":11162,"ĠTask":11163,"obar":11164,"theless":11165,"Ġdetect":11166,"Ġharmon":11167,"Ġ1957":11168,"Ġchecked":11169,"Ġsatisfy":11170,"Ġcursor":11171,"Ġsurgery":11172,"AA":11173,"GP":11174,"Pal":11175,"Zoom":11176,"mates":11177,"person":11178,"eda":11179,"Ġdrought":11180,"ĠMult":11181,"ĠWild":11182,"Ġcompliance":11183,"ologists":11184,"Ġstudying":11185,"Ġaccepts":11186,"Ġparticulars":11187,"Ġdemanded":11188,"Ġbreeding":11189,"gra":11190,"moon":11191,"Ġwal":11192,"Ġla":11193,"ersed":11194,"Ġalien":11195,"aven":11196,"ĠYes":11197,"ferior":11198,"ĠResp":11199,"Ġlabou":11200,"Ġtypical":11201,"ĠCanada":11202,"Ġmortal":11203,"Ġransom":11204,".),":11205,"Nep":11206,"Pol":11207,"rating":11208,"utter":11209,"ĠAur":11210,"Ġplastic":11211,"apore":11212,"ĠStation":11213,"ĠâĢĿ.":11214,"ĠForces":11215,"nership":11216,"Ġdesignated":11217,"Ġadministrator":11218,"ĠINA":11219,"Ġresidents":11220,"Ġdisputed":11221,"Ġmovie":11222,"Ġearthquake":11223,"Def":11224,"iac":11225,"poly":11226,"inv":11227,"anim":11228,"leep":11229,"ĠMant":11230,"Ġallied":11231,"ĠFamily":11232,"Ġpeak":11233,"ĠStreet":11234,"conf":11235,"Ġframed":11236,"ilitary":11237,"Ġpreviously":11238,"ĠAmericans":11239,"Place":11240,"ĠTransport":11241,"Ġmedicines":11242,"Ġworshipping":11243,"ĠBuddhism":11244,"Ġcooking":11245,"Ġrituals":11246,"Ġpandemic":11247,"Top":11248,"Und":11249,"ĠMang":11250,"Ġhaz":11251,"Ġdeeper":11252,"teenth":11253,"avor":11254,"Ġplenty":11255,"Ġqueen":11256,"Ġemails":11257,"ending":11258,"Ġforming":11259,"ĠMegh":11260,"Ġterrorists":11261,"Ġsearching":11262,"Ġtalked":11263,"ĠSamaj":11264,"hentication":11265,"Ġaffliction":11266,"Ġenforcement":11267,"esc":11268,"arge":11269,"asse":11270,"ĠJam":11271,"Ġtransmitted":11272,"Ġexperiments":11273,"Ġflows":11274,"Ġenjoin":11275,"ROM":11276,"Ġbirthday":11277,"ĠPhone":11278,"Ġdigit":11279,"Ġtoolbar":11280,"Ġprisoners":11281,"Document":11282,"dig":11283,"dep":11284,"uis":11285,"anic":11286,"advant":11287,"ĠPaul":11288,"rious":11289,"ĠLDAP":11290,"Ġlending":11291,"okia":11292,"arkhand":11293,"ajan":11294,"Produ":11295,"Ġdenomin":11296,"Ġelephants":11297,"Ġutmost":11298,"Ġbalanced":11299,"ĠArabia":11300,"hibition":11301,"ĠIranian":11302,"Ġrelatively":11303,"uminous":11304,"100":11305,"Air":11306,"Total":11307,"Ġtons":11308,"Ġsessions":11309,"Ġwond":11310,"Ġfre":11311,"Ġbearer":11312,"imental":11313,"ĠMW":11314,"ifting":11315,"Ġprosecution":11316,"ĠRai":11317,"ĠNir":11318,"ĠUnseen":11319,"Ġedited":11320,"Ġcrown":11321,"Ġelectrical":11322,"words":11323,"Rece":11324,"scape":11325,"Ġaffects":11326,"Ġexecute":11327,"Automatic":11328,"Ġ${":11329,"Until":11330,"cohol":11331,"Ġpeculiar":11332,"31":11333,"Full":11334,"Imp":11335,"OD":11336,"chen":11337,"araja":11338,"omas":11339,"ĠIss":11340,"ĠICT":11341,"ĠSil":11342,"iration":11343,"Ġweigh":11344,"ĠBeg":11345,"ordan":11346,"Ġaged":11347,"Ġenters":11348,"Ġprocessed":11349,"Ġintim":11350,"Ġtempt":11351,"Ġheaders":11352,"Ġparticipated":11353,"Ġ1930":11354,"olly":11355,"Ġthreatened":11356,"Ġutterly":11357,"Ġsurprise":11358,"Ġinevitable":11359,"Note":11360,"Po":11361,"Till":11362,"make":11363,"vati":11364,"Ġlibraries":11365,"urable":11366,"ĠCheck":11367,"ĠEX":11368,"Ġgov":11369,"Ġadmission":11370,"izoram":11371,"ĠVer":11372,"Ġrelate":11373,"neath":11374,"rowse":11375,"à¤¦":11376,"Ġinterval":11377,"Ġlocations":11378,"Ġverified":11379,"Ġdepreciation":11380,"remember":11381,"wellery":11382,"Arch":11383,"Ġoccurrence":11384,"Ġcomplain":11385,"ĠMedia":11386,"Ġprosperous":11387,"Ġjointly":11388,"Ġsuggestion":11389,"Ġcomplicated":11390,"Div":11391,"Tag":11392,"want":11393,"èĳ":11394,"Ġpestic":11395,"agari":11396,"Ġregulation":11397,"ĠSharma":11398,"awan":11399,"Ġmini":11400,"Ġrestricted":11401,"Ġguardians":11402,"Ġprofessionals":11403,"Ġepis":11404,"ĠSindhi":11405,"Ġsympathy":11406,"ĠAzad":11407,"Ġincentives":11408,"warkanath":11409,"ĠGracious":11410,"èĳī":11411,"LO":11412,"mah":11413,"sun":11414,"itated":11415,"Ġham":11416,"ĠSud":11417,"ĠMIME":11418,"hers":11419,"akings":11420,"ĠDid":11421,"ogue":11422,"Ġrecomp":11423,"Ġhelpful":11424,"Ġinspection":11425,"Ġrespects":11426,"Ġ1949":11427,"Ġliberty":11428,"Ġreferring":11429,"Instead":11430,"Ġobviously":11431,"Ġmarginal":11432,"such":11433,"inner":11434,"Ġodd":11435,"ania":11436,"ĠSl":11437,"ĠMur":11438,"ĠBra":11439,"icha":11440,"Ġclin":11441,"Ġrelates":11442,"Ġendowed":11443,"Ġlegit":11444,"Ġassessed":11445,"Ġdetermining":11446,"Ġseparation":11447,"Ġsymbols":11448,"Switch":11449,"Ġlicence":11450,"Ġdiscrimination":11451,"Ġenthusiasm":11452,"ĠAppellate":11453,"den":11454,"iency":11455,"Ġrows":11456,"itter":11457,"ĠPrivate":11458,"Ġsupr":11459,"ivest":11460,"aga":11461,"Ġhelpless":11462,"Ġglac":11463,"errorism":11464,"ĠSingles":11465,"ĠCompassionate":11466,"Ġfootsteps":11467,"ĠUrban":11468,"roller":11469,"Ġburst":11470,"Ġchemicals":11471,"Ġsolemn":11472,"Consider":11473,"ĠBenefit":11474,"ĠJudgement":11475,"Ġflee":11476,"usalem":11477,":'":11478,"Size":11479,"War":11480,"World":11481,"bat":11482,"human":11483,"lining":11484,"}'":11485,"Ġtone":11486,"Ġpaddy":11487,"ĠMach":11488,"ulator":11489,"ĠGame":11490,"ĠGanges":11491,"ancel":11492,"ĠEnd":11493,"ĠKol":11494,"Ġafternoon":11495,"Ġpersonally":11496,"Ġproductive":11497,"Ġairports":11498,"Behold":11499,"ĠUpanish":11500,"Ġimperialism":11501,"ĠGuardian":11502,"Ġpixels":11503,"Met":11504,"iot":11505,"oty":11506,"Ġconstitut":11507,"aba":11508,"pered":11509,"ubilee":11510,"aceut":11511,"Ġearning":11512,"Ġgenerating":11513,"Ġsurve":11514,"cribers":11515,"unto":11516,"Ġmandatory":11517,"Ġborrower":11518,"ĠToolbar":11519,"32":11520,"oves":11521,"Ġaest":11522,"Ġlists":11523,"ĠCamp":11524,"ĠGriev":11525,"ĠFive":11526,"Ġindia":11527,"Ġquery":11528,"Ġgoodly":11529,"Ġmodification":11530,"Whenever":11531,"Ġadvent":11532,"ĠWhom":11533,"Additional":11534,"Ġfraction":11535,"ĠDesign":11536,"Ġinterpre":11537,"bindo":11538,"Miss":11539,"full":11540,"Ġtiny":11541,"atta":11542,"ĠSad":11543,"ĠCre":11544,"Ġshot":11545,"Ġallies":11546,"Ġju":11547,"Ġquoted":11548,"Were":11549,"phal":11550,"ĠPrince":11551,"Ġmatches":11552,"Ġconcluded":11553,"Ġrests":11554,"Ġcancel":11555,"ĠKabir":11556,"Ġcm":11557,"oult":11558,"arse":11559,"Ġlac":11560,"ĠGNU":11561,"ĠNE":11562,"Ġperception":11563,"Ġcomplement":11564,"Ġeleven":11565,"Ġfunding":11566,"Ġrewarded":11567,"ROW":11568,"Ġawaken":11569,"Agricult":11570,"ĠJagann":11571,"44":11572,"FS":11573,"IES":11574,"SH":11575,"TA":11576,"sur":11577,"Ġpicked":11578,"ĠMs":11579,"ĠMot":11580,"Ġwithdrawn":11581,"ĠHus":11582,"employment":11583,"ĠNIT":11584,"agu":11585,"Ġanyway":11586,"Thank":11587,"ĠJava":11588,"Ġ1960":11589,"Ġmutually":11590,"ridge":11591,"Ġtravelling":11592,"Ġpipe":11593,"DM":11594,"Put":11595,"bing":11596,"Ġtributes":11597,"Ġafore":11598,"into":11599,"Ġho":11600,"Ġthirst":11601,"ĠSource":11602,"ĠChe":11603,"riers":11604,"Ġproceeds":11605,"acular":11606,"ocy":11607,"Ġdoct":11608,"Ġabdom":11609,"ĠYam":11610,"Ġdiscount":11611,"Ġdiscourse":11612,"Ġconfusion":11613,"ĠRaman":11614,"Ġswit":11615,"Encry":11616,"Ġangle":11617,"Ġcandidate":11618,"ĠAbdullah":11619,"Draw":11620,"NG":11621,"Syn":11622,"Ġpig":11623,"Ġnigh":11624,"Ġreven":11625,"ĠLocal":11626,"ĠNarm":11627,"Ġanybody":11628,"Inv":11629,"Ġperspective":11630,"Ġconcrete":11631,"Ġbehavior":11632,"Ġrestart":11633,"ĠOrd":11634,"Ġfunctional":11635,"Ġpalms":11636,"Accordingly":11637,"Ġdisobedience":11638,"Ġtissues":11639,"Ġsimultaneously":11640,"Sar":11641,"kash":11642,"wait":11643,"Ġloud":11644,"amar":11645,"ĠHas":11646,"thren":11647,"aki":11648,"quet":11649,"ĠNatural":11650,"Ġdisable":11651,"Ġrecovered":11652,"Ġconspir":11653,"Proper":11654,"Ġinvestig":11655,"Ġnights":11656,"Develop":11657,"Ġimmovable":11658,"Ġhosted":11659,"comed":11660,"Ġcaptured":11661,"Cha":11662,"FA":11663,"diss":11664,"four":11665,"isans":11666,"Ġcra":11667,"ĠPrab":11668,"ĠKen":11669,"plate":11670,"feren":11671,"Ġrope":11672,"Ġintensity":11673,"Ġcaut":11674,"Ġtenant":11675,"Ġdeclined":11676,"Ġirres":11677,"Ġsafeguard":11678,"auritius":11679,"36":11680,"fix":11681,"atical":11682,"itably":11683,"etus":11684,"ĠCP":11685,"Ġscroll":11686,"Ġacute":11687,"Ġbride":11688,"Ġpasses":11689,"oints":11690,"annel":11691,"Ġmuscles":11692,"Ġextends":11693,"Ġlots":11694,"ĠContacts":11695,"Ġpursuit":11696,"Ġheedless":11697,"ĠMoosa":11698,"Ġrendering":11699,"Ġrebellion":11700,"Ġmakers":11701,"Ġphilosophical":11702,"!'":11703,"fly":11704,"uate":11705,"ceans":11706,"igin":11707,"ieval":11708,"iph":11709,"apacity":11710,"Ġunp":11711,"Ġintend":11712,"Ġcurric":11713,"rapy":11714,"Ġendeavours":11715,"Article":11716,"ĠDetails":11717,"ĠPRANAB":11718,"Ġbounties":11719,"Filter":11720,"mas":11721,"intend":11722,"Ġsq":11723,"itary":11724,"cho":11725,"ĠLove":11726,"Ġmanaging":11727,"ĠJinn":11728,"Ġtimely":11729,"ĠStat":11730,"Ġdesist":11731,"Ġretired":11732,"Ġprevention":11733,"Ġpossibilities":11734,"Ġbarren":11735,"ĠEvil":11736,"Ġwelcomed":11737,"Ġexpanding":11738,"Ġrename":11739,"Ġabsolutely":11740,"Ġphenomenon":11741,"Ġprevalent":11742,"ĠAurobindo":11743,"Eat":11744,"Light":11745,"Location":11746,"rot":11747,"ĠBranch":11748,"ĠRu":11749,"quired":11750,"Ġleather":11751,"ĠKore":11752,"Ġsubstitute":11753,"ĠTell":11754,"ĠEmperor":11755,"ĠNetaji":11756,"Ġindirectly":11757,"Ġromantic":11758,"Path":11759,"iated":11760,"yles":11761,"Ġtap":11762,"Ġwretched":11763,"ĠSev":11764,"ĠPOP":11765,"ĠRat":11766,"ĠLead":11767,"Ġtrig":11768,"Ġmanpower":11769,"Ġcommem":11770,"obi":11771,"Ġretreat":11772,"Ġdiscard":11773,"ĠDelete":11774,"Alif":11775,"ursed":11776,"Without":11777,"ĠSubject":11778,"Ġchecking":11779,"Ġcoverage":11780,"Ġunjustly":11781,"Ġcontrols":11782,"Ġmouths":11783,"Ġdollar":11784,"Ġrebellious":11785,"ĠPrize":11786,"ĠAhmedabad":11787,"Ġcompulsory":11788,"Ġmaxim":11789,"Ġfingers":11790,"Ġvouchsaf":11791,"34":11792,"elect":11793,"tar":11794,"Ġwax":11795,"asis":11796,"Ġnervous":11797,"ilance":11798,"ĠHousing":11799,"ĠDon":11800,"Ġcha":11801,"Ġabiding":11802,"Ġcoin":11803,"Ġcoins":11804,"ĠInstitution":11805,"anny":11806,"Ġrevised":11807,"ĠCooperation":11808,"Ġconcepts":11809,"Ġblocks":11810,"Ġminority":11811,"Ġsurvive":11812,"Download":11813,"Ġcriteria":11814,"ivestock":11815,"37":11816,"Dh":11817,"Pay":11818,"cat":11819,"fers":11820,"Ð²":11821,"Ġconcess":11822,"akat":11823,"ressal":11824,"ĠActs":11825,"ickets":11826,"Ġcrude":11827,"amba":11828,"Ġlaying":11829,"Remote":11830,"Ġsubsidi":11831,"Ġsanitation":11832,"Ġcriminals":11833,"Ġsecrets":11834,"Ġavoided":11835,"BB":11836,"SP":11837,"kin":11838,"rates":11839,"Ġtight":11840,"Ġought":11841,"itime":11842,"Ġmit":11843,"Ġgro":11844,"ĠMim":11845,"ĠHaj":11846,"Ġweaken":11847,"reshold":11848,"ĠNaz":11849,"Ġadmir":11850,"Ġunderneath":11851,"Ġobedience":11852,"Ġhumility":11853,"Ġextending":11854,"Ġrainfall":11855,"Ġpossessions":11856,"ĠBasava":11857,"Ġfertilizers":11858,"Gandhiji":11859,"Leg":11860,"Rot":11861,"card":11862,"mother":11863,"uer":11864,"org":11865,"ĠPay":11866,"ĠHO":11867,"ĠOdisha":11868,"apati":11869,"Ġunus":11870,"ĠVaj":11871,"Ġsplend":11872,"Ġsecured":11873,"Ġintimate":11874,"Ġ600":11875,"Ġslope":11876,"ĠResources":11877,"ERN":11878,"Ġsuggests":11879,"ĠTherefore":11880,"iciaries":11881,"ĠWorlds":11882,"Ġarchitectural":11883,"Ġcopper":11884,"Ġinheritance":11885,"Ġdefinitely":11886,"Ġlecture":11887,"curement":11888,"Ġriches":11889,"El":11890,"Mer":11891,"Power":11892,"isive":11893,"Ġstores":11894,"oshi":11895,"Ġtrash":11896,"Ġcontempt":11897,"Ġbetray":11898,"Ġwhereon":11899,"ĠBhai":11900,"Ġappend":11901,"Ġdeprived":11902,"iscal":11903,"Initial":11904,"Sum":11905,"rise":11906,"Ñĥ":11907,"Ġwake":11908,"owance":11909,"ĠKon":11910,"Ġincomplete":11911,"berg":11912,"Ġcreed":11913,"haz":11914,"Ġcoloured":11915,"Ġliabilities":11916,"Ġrooms":11917,"Ġaverse":11918,"INGS":11919,"Ġcolumns":11920,"Ġelaborate":11921,"CB":11922,"Human":11923,"KDE":11924,"Ser":11925,"beg":11926,"gal":11927,"natural":11928,"Ġbid":11929,"icable":11930,"ĠBach":11931,"ĠWIT":11932,"Ġcontrad":11933,"ĠChak":11934,"Thereafter":11935,"Ġcapability":11936,"Ġparagraph":11937,"Ġclassified":11938,"Ġexplore":11939,"Nav":11940,"held":11941,"isa":11942,"itaries":11943,"Ġnest":11944,"adhan":11945,"Ġchamber":11946,"Ġcomprehe":11947,"ritish":11948,"ĠInvest":11949,"Ġuntouch":11950,"Ġexisted":11951,"196":11952,"Ġ250":11953,"fortune":11954,"Assistant":11955,"Ġreceipts":11956,"Ġscholarship":11957,"Ġweapon":11958,"ĠQueen":11959,"42":11960,"Card":11961,"Tube":11962,"imm":11963,"ĠSultan":11964,"Ġvoting":11965,"ĠOwn":11966,"ibh":11967,"Ġfactories":11968,"Chinese":11969,"Ġlesser":11970,"Ġbrethren":11971,"Ġengineers":11972,"ĠUttarakhand":11973,"Ġdollars":11974,"Ġinvolvement":11975,"Ġcalamity":11976,"Ġconfirmed":11977,"Wait":11978,"Ġauspicious":11979,"onents":11980,"Ġbits":11981,"Ġpurely":11982,"ĠSuf":11983,"ĠHel":11984,"ĠBay":11985,"Ġunsu":11986,"ĠProtocol":11987,"Ġendure":11988,"Ġinitially":11989,"ĠSecurities":11990,"Ġ1946":11991,"Being":11992,"Ġdisobedient":11993,"Ġtransformed":11994,"Ġupgrade":11995,"Ġcondemned":11996,"ĠJaipur":11997,"ĠPromotion":11998,"38":11999,"Education":12000,"OU":12001,"RC":12002,"Ġhole":12003,"verted":12004,"Ġvoid":12005,"cca":12006,"ĠVaranasi":12007,"ternally":12008,"Ġretrieve":12009,"Ġordin":12010,"Ġartistic":12011,"isco":12012,"Ġhoriz":12013,"Ġhouseholds":12014,"Ġtongues":12015,"Ġsynchron":12016,"ĠStudies":12017,"ĠTerritory":12018,"Ġlofty":12019,"uting":12020,"thal":12021,"Ġvested":12022,"ĠEstate":12023,"Ġagro":12024,"ounding":12025,"Ġintercourse":12026,"Ġdivisions":12027,"Ġ1972":12028,"Ġsignificantly":12029,"Ġcapture":12030,"Ġarmies":12031,"Ġbefalls":12032,"Business":12033,"RD":12034,"WA":12035,"mity":12036,"mus":12037,"atal":12038,"ĠAccess":12039,"Ġul":12040,"ĠIr":12041,"ĠCy":12042,"ĠHill":12043,"Ġ',":12044,"ĠLocation":12045,"ograp":12046,"Ġaccru":12047,"Ġdeserve":12048,"Ġgrade":12049,"ĠParis":12050,"Ġpleasant":12051,"Ġhonest":12052,"Ġsensit":12053,"ĠWilliam":12054,"Ġpredomin":12055,"Ġconcentration":12056,"ĠInterest":12057,"rieved":12058,"UGUR":12059,"Ġsupramental":12060,"Ben":12061,"Capital":12062,"Mount":12063,"Nokia":12064,"Was":12065,"sis":12066,"Ġnice":12067,"ĠCA":12068,"Ġprolong":12069,"ardly":12070,"ptic":12071,"Ġrand":12072,"Ġdiffered":12073,"Ġdeaths":12074,"Ġobservation":12075,"Ġneglected":12076,"IVE":12077,"Ġcomparison":12078,"Ġconvenient":12079,"rame":12080,"world":12081,"inema":12082,"Ġster":12083,"alian":12084,"arus":12085,"ingle":12086,"Ġdumb":12087,"Ġbew":12088,"rose":12089,"Ġlion":12090,"ĠMysore":12091,"ĠGrace":12092,"usha":12093,"Ġvag":12094,"acles":12095,"Ġadul":12096,"inea":12097,"Ġgoodwill":12098,"ĠShait":12099,"Ġinvitation":12100,"Ġcharitable":12101,"Ġmeters":12102,"Ġshortcut":12103,"Tele":12104,"Ġnucle":12105,"Ġdupl":12106,"ĠINAUGUR":12107,"Green":12108,"MOR":12109,"mand":12110,"Ġbent":12111,"Ġinmates":12112,"Ġbeet":12113,"stant":12114,"ĠGreek":12115,"Ġwhoso":12116,"Ġkids":12117,"Ġjunk":12118,"seless":12119,"ĠStraight":12120,"position":12121,"Ġreputation":12122,"Ġminim":12123,"istrar":12124,"Along":12125,"ĠRegulation":12126,"Ġassistant":12127,"Ġpenis":12128,"Ġexcuse":12129,"Ġliberation":12130,"ĠBlack":12131,"ĠConsumer":12132,"ĠPalestine":12133,"ĠRevolution":12134,"ĠMenon":12135,"ĠKanpur":12136,"Ġadorned":12137,"Ġmeasured":12138,"Ġmembrane":12139,"ĠEnterprises":12140,"DL":12141,"Sl":12142,"Women":12143,"bow":12144,"Ġsatellite":12145,"Ġreception":12146,"Ġseiz":12147,"andum":12148,"ĠFace":12149,"Ġformulated":12150,"Ġ77":12151,"Ġsimilit":12152,"uese":12153,"Ġ1951":12154,"Ġlays":12155,"Ġabsent":12156,"ĠContract":12157,"ĠNext":12158,"ĠTransfer":12159,"ĠRoyal":12160,"Ġevaluation":12161,"Es":12162,"gic":12163,"ieth":12164,"pread":12165,"Ġâ":12166,"erk":12167,"Ġfer":12168,"Ġmature":12169,"Ġgerm":12170,"rip":12171,"Ġlend":12172,"Ġdisb":12173,"Ġenrich":12174,"Ġtransition":12175,"Status":12176,"Ġaccepting":12177,"à¥ģ":12178,"Ġlogical":12179,"ĠDesktop":12180,"Ġmechanisms":12181,"Ġrescue":12182,"Ġnarrative":12183,"Ġrepository":12184,"Cur":12185,"may":12186,"true":12187,"Ġaug":12188,"Ġforged":12189,"ĠSend":12190,"ĠCam":12191,"ĠTruly":12192,"Ġremun":12193,"Ġminerals":12194,"Ġconfused":12195,"Ġhonourable":12196,"Ġanticip":12197,"URL":12198,"Despite":12199,"Neither":12200,"Ġrenewable":12201,"Ġaccumulated":12202,"ĠRabindranath":12203,"Ġmobil":12204,"semination":12205,"ĠKannada":12206,"Ġvibrant":12207,"Ġbuttons":12208,"Ġvouchsafed":12209,"February":12210,"UM":12211,"Ġfount":12212,"anz":12213,"Ġhoney":12214,"ĠHaz":12215,"ĠBul":12216,"ĠGate":12217,"ruption":12218,"Ġsciences":12219,"forms":12220,"ĠShakti":12221,"Ġtempor":12222,"Ġnationalism":12223,"white":12224,"Ġexplos":12225,"Ġweaker":12226,"ĠStandard":12227,"zzle":12228,"Details":12229,"Ġmiracles":12230,"Ġhumiliating":12231,"Pop":12232,"Ġcad":12233,"ĠSidd":12234,"ĠCitiz":12235,"Ġstro":12236,"ĠEqu":12237,"Ġcompos":12238,"Ġjustified":12239,"Ġpromoted":12240,"Ġintercess":12241,"Ġintercession":12242,"Ġ74":12243,"ĠRajput":12244,"Ġmailbox":12245,"Ġ1985":12246,"Ġscientist":12247,"ĠNotification":12248,"Ġvegetation":12249,"ĠBhagat":12250,"Ġmistakes":12251,"ĠPalestinians":12252,"Ġcoordinate":12253,"ĠSikhs":12254,"unciation":12255,"Toggle":12256,"Ġrandom":12257,"Bad":12258,"Max":12259,"Ġstern":12260,"Ġpy":12261,"secut":12262,"ĠMA":12263,"Ġorthodox":12264,"ĠPerm":12265,"rium":12266,"pex":12267,"ĠWOR":12268,"ĠNight":12269,"Ġdisability":12270,"Income":12271,"adevi":12272,"Ġfond":12273,"ĠPrat":12274,"Young":12275,"Ġ885":12276,"Ġensured":12277,"Ġoriginated":12278,"Ġfortun":12279,"ĠRemember":12280,"alinga":12281,"ĠKalam":12282,"Ġfrequency":12283,"ĠNobel":12284,"ĠReview":12285,"Ġnominated":12286,"Kir":12287,"NS":12288,"Ġbon":12289,"otee":12290,"olita":12291,"Ġnotifications":12292,"ĠGRE":12293,"ustain":12294,"Ġtrick":12295,"ĠOp":12296,"Ġprovinces":12297,"pleted":12298,"Ġwherefore":12299,"Ġrains":12300,"Ġeveryday":12301,"Ġpurified":12302,"Ġpresently":12303,"ĠConf":12304,"Ġsuccessors":12305,"Ġreporting":12306,"Ġintelligent":12307,"Prepar":12308,"Ġprivileges":12309,"ĠCultural":12310,"Ġentertainment":12311,"Ġcoconut":12312,"ĠNicobar":12313,"Sha":12314,"Ġsaints":12315,"itage":12316,"start":12317,"Ġfors":12318,"ĠSession":12319,"rage":12320,"Ġsealed":12321,"Ġplural":12322,"ĠHearer":12323,"ĠUK":12324,"angular":12325,"henna":12326,"Ġguiding":12327,"Ġmonsoon":12328,"ĠDecc":12329,"Ġparable":12330,"Ġreveals":12331,"Ġexpressions":12332,"Ġ1952":12333,"proofs":12334,"Ġpraises":12335,"Ġfavourite":12336,"Ġargued":12337,"Ġlimitations":12338,"Ġadvantages":12339,"ĠAmbassador":12340,"Ġtendency":12341,"Ġneighbouring":12342,"Ġmonuments":12343,"bank":12344,"iah":12345,"uced":12346,"Ġ,":12347,"Ġninet":12348,"Ġgifts":12349,"emale":12350,"Ġrat":12351,"Ġranging":12352,"Ġchains":12353,"aunt":12354,"Hell":12355,"Ġclothing":12356,"ĠShankar":12357,"Ġprevailing":12358,"ropical":12359,"Ġbeneficiaries":12360,"Ġlights":12361,"loom":12362,"Ġzoom":12363,"regular":12364,"ĠPuri":12365,"Ġaccompany":12366,"small":12367,"Ġlectures":12368,"Ġgratitude":12369,"Ġnegotiations":12370,"anqu":12371,"Ġmah":12372,"Ġhears":12373,"ĠBagh":12374,"ĠGar":12375,"ĠGas":12376,"ĠRA":12377,"agger":12378,"Ġmanif":12379,"Ġmodes":12380,"Ġmisfortune":12381,"Ġfrequent":12382,"ĠADDRESS":12383,"Ġfulfilment":12384,"ĠGandh":12385,"Ġbuffer":12386,"Ġabandoned":12387,"ĠChaluk":12388,"Build":12389,"Position":12390,"Term":12391,"deeds":12392,"eh":12393,"wari":12394,"Ġinquiry":12395,"oper":12396,"ĠDigital":12397,"ĠTH":12398,"Ġray":12399,"ĠEr":12400,"ĠJordan":12401,"Ġbeloved":12402,"Ġequitable":12403,"Ġministry":12404,"Ġhereby":12405,"Ġcorp":12406,"Ġheadquarters":12407,"Ġtraders":12408,"Ġcharacterized":12409,"Ġ*.":12410,"black":12411,"Ġmechanical":12412,"Ġshrines":12413,"Ġcoastal":12414,"oultry":12415,"West":12416,"dest":12417,"rind":12418,"zil":12419,"inions":12420,"inety":12421,"Ġexempt":12422,"ĠKitt":12423,"Ġobe":12424,"Ġpreservation":12425,"ĠBhav":12426,"ĠUniverse":12427,"Ġbusinesses":12428,"Ġminded":12429,"Ġconsistent":12430,"Ġquantities":12431,"Ġmagnetic":12432,"Ġsurprised":12433,"ĠInfrastructure":12434,"Ġaffordable":12435,"Ġscenario":12436,"Ġexposure":12437,":âĢĶ":12438,"DR":12439,"PAT":12440,"Sir":12441,"Tw":12442,"anmar":12443,"Ġlump":12444,"Ġlux":12445,"aditional":12446,"ĠPoll":12447,"Ġrises":12448,"actor":12449,"Ġtrace":12450,"Ġmoderate":12451,"Ġcapac":12452,"Ġfiling":12453,"Ġgraves":12454,"Ġallowing":12455,"Enc":12456,"Ġparticipating":12457,"aduate":12458,"Ġsubstances":12459,"Common":12460,"ĠProgram":12461,"ĠSystems":12462,"Ġseventy":12463,"Ġ8859":12464,"39":12465,"joy":12466,"juna":12467,"lib":12468,"atable":12469,"Ġcher":12470,"Ġcure":12471,"ĠPall":12472,"ĠBand":12473,"ĠBudget":12474,"Ġambit":12475,"Ġsubtle":12476,"ployed":12477,"Ġdriving":12478,"Ġgoverned":12479,"Ġempowered":12480,"Ġhorizontal":12481,"iterate":12482,"Ġconceived":12483,"ĠLaws":12484,"Ġreconcil":12485,"Ġdisclose":12486,"ĠJerusalem":12487,"Fort":12488,"bound":12489,"iat":12490,"ki":12491,"ked":12492,"Ġtiger":12493,"Ġinferior":12494,"Ġhospitals":12495,"illy":12496,"uda":12497,"ĠKi":12498,"Ġreliable":12499,"aternity":12500,"Ġgreatness":12501,"ĠPrint":12502,"Ġbuying":12503,"Ġdevils":12504,"ĠEuropeans":12505,"ĠPhil":12506,"Ġtranslations":12507,"Ġexercised":12508,"Ġcontrolling":12509,"Ġdeceive":12510,"Finally":12511,"Ġconfirmation":12512,"Ġsubtract":12513,"Foreign":12514,"ĠCastes":12515,"East":12516,"Pack":12517,"cam":12518,"lad":12519,"tra":12520,"Ġoceans":12521,"Ġcod":12522,"Ġfur":12523,"icine":12524,"adhy":12525,"Ġsung":12526,"open":12527,"uds":12528,"ĠVict":12529,"ĠChancell":12530,"awa":12531,"Ġloving":12532,"aimed":12533,"Ġmoist":12534,"Real":12535,"Amount":12536,"Ġboundaries":12537,"ĠDirectorate":12538,"ĠWorks":12539,"Ġcrossing":12540,"Ġalleged":12541,"':":12542,"70":12543,"Long":12544,"sn":12545,"Ġwet":12546,"Ġnic":12547,"semin":12548,"ĠSaf":12549,"ĠMore":12550,"ulph":12551,"Ġstressed":12552,"Ġwast":12553,"ĠLake":12554,"udi":12555,"astra":12556,"ĠJunk":12557,"ocuments":12558,"Ġtopics":12559,"Ġproceeded":12560,"Apply":12561,"Ġcrossed":12562,"Ġspectrum":12563,"Ġacknowledged":12564,"ĠTerritories":12565,"Ġdominant":12566,"ĠArunachal":12567,"ĠVISIT":12568,"Ang":12569,"vals":12570,"Ġhol":12571,"Ġwhis":12572,"lymp":12573,"ĠSolar":12574,"ĠMobile":12575,"ĠRich":12576,"ĠRadhakrishnan":12577,"Ġclock":12578,"Ġworldwide":12579,"Ġedition":12580,"print":12581,"Ġmonetary":12582,"Ġsmart":12583,"eshwar":12584,"Ġ95":12585,"ercul":12586,"Ġruined":12587,"Ġstriking":12588,"blis":12589,"Ġlikes":12590,"Ġacknowledge":12591,"Ġthoroughly":12592,"Ġcautious":12593,"Cs":12594,"July":12595,"John":12596,"PA":12597,"SM":12598,"VAN":12599,"dh":12600,"Ġcows":12601,"Ġinherent":12602,"omination":12603,"ĠSE":12604,"ĠCert":12605,"ĠGDP":12606,"ivities":12607,"osph":12608,"Ġride":12609,"Ġjack":12610,"Ġjute":12611,"adequ":12612,"assing":12613,"Ġemotions":12614,"Ġremoving":12615,"Ġobjection":12616,"Ġrepayment":12617,"Ġcheap":12618,"Ġapproached":12619,"ĠINDIAN":12620,"ĠSubhash":12621,"Ġcritics":12622,"Ġrecommendation":12623,"Ġreflects":12624,"Ġdescribing":12625,"Ġpublishing":12626,"Ġmagazine":12627,"Press":12628,"QU":12629,"Sri":12630,"him":12631,"wah":12632,"Ġtum":12633,"ĠCR":12634,"essed":12635,"Ġshifted":12636,"ĠRang":12637,"Ġkh":12638,"udev":12639,"Ġenduring":12640,"Ġinsult":12641,"Ġcorners":12642,"ĠYouth":12643,"Ġstatistics":12644,"Couldn":12645,"Ġ1973":12646,"Ġdiabetes":12647,"ĠCOVID":12648,"Ġwalked":12649,"Ġdignitaries":12650,"ĠInstitutes":12651,"ĠConstituent":12652,"Rad":12653,"cise":12654,"lator":12655,"pic":12656,"itles":12657,"orage":12658,"Ġcrack":12659,"Ġshops":12660,"ivided":12661,"ĠRani":12662,"indra":12663,"rupted":12664,"achh":12665,"Ġscales":12666,"arna":12667,"Ġglob":12668,"ictions":12669,"Program":12670,"Ġ79":12671,"Ġbasically":12672,"Ġ1963":12673,"Ġmeaningful":12674,"Ġjoining":12675,"Ġburdens":12676,"Ġnecks":12677,"Ġhomage":12678,"ĠChhattisgarh":12679,"Specify":12680,"Personal":12681,"Social":12682,"Ġsoph":12683,"Ġheir":12684,"Ġascend":12685,"ĠMight":12686,"ĠBI":12687,"istical":12688,"Ġsho":12689,"Ġvice":12690,"Ġpeas":12691,"Ġsomewhere":12692,"armed":12693,"Ġadds":12694,"Ġtract":12695,"Ġcontinent":12696,"gedy":12697,"Ġmarble":12698,"Ġrevival":12699,"Ġencoding":12700,"anchi":12701,"Ġsubscriber":12702,"Ġinclusion":12703,"Guj":12704,"Ġrarely":12705,"ĠSucharita":12706,"ĠPreferences":12707,"Ġaccomplished":12708,"Ġclusters":12709,"Copying":12710,"75":12711,"Oper":12712,"post":12713,"Ġtact":12714,"Ġdances":12715,"roots":12716,"ĠMizoram":12717,"ĠDwarkanath":12718,"ĠRen":12719,"accept":12720,"Ġranges":12721,"Ġworn":12722,"olders":12723,"ricity":12724,"Ġinstant":12725,"Ġsupplies":12726,"Within":12727,"Ġcollecting":12728,"Following":12729,"Ġamidst":12730,"%)":12731,"Rename":12732,"every":12733,"high":12734,"Ġapt":12735,"Ġowing":12736,"ananda":12737,"Ġgh":12738,"amount":12739,"ĠIts":12740,"Ġstip":12741,"ĠDurga":12742,"Ġmanip":12743,"izational":12744,"Ġtends":12745,"Ġspaces":12746,"Ġdecent":12747,"Ġ72":12748,"Ġannum":12749,"Ġconception":12750,"Ġdevotional":12751,"Ġjihad":12752,"Ġinflation":12753,"Ġexhibition":12754,"ĠVijay":12755,"\";":12756,"HI":12757,"front":12758,"Ġawe":12759,"outhern":12760,"Ġpush":12761,"icating":12762,"Ġlips":12763,"Ġasunder":12764,"ĠBuilding":12765,"osystem":12766,"ĠNaw":12767,"Ġrelax":12768,"Ġregulatory":12769,"Ġprevail":12770,"Ġ68":12771,"Ġdirectors":12772,"Ġlightning":12773,"Ġassociations":12774,"Ġ1984":12775,"Ġharness":12776,"Ġundoubtedly":12777,"Hindu":12778,"Ġintervention":12779,"ĠBhagav":12780,"Ġorientation":12781,"ĠGolden":12782,"Equ":12783,"Ġtorn":12784,"ito":12785,"ĠPoint":12786,"ulc":12787,"throp":12788,"ĠDNA":12789,"Ġclauses":12790,"Ġdiscretion":12791,"Ġwombs":12792,"Ġparticles":12793,"ioxide":12794,"Ġconsiderably":12795,"ĠAssistance":12796,"Ġuter":12797,"ORE":12798,"Ġpropri":12799,"riday":12800,"ĠFrame":12801,"Ġburnt":12802,"Background":12803,"Ġdisobeyed":12804,"ĠTechnical":12805,"Ġenvisaged":12806,"EB":12807,"Ma":12808,"sum":12809,"Ġcogn":12810,"Ġfare":12811,"ĠPetroleum":12812,"ĠHo":12813,"Ġsect":12814,"through":12815,"ĠOil":12816,"apable":12817,"Ġforehead":12818,"Ġ86":12819,"Ġtemplate":12820,"Ġtreasures":12821,"Ġnationalist":12822,"Ġhyper":12823,"prof":12824,"Ġmanufactured":12825,"ĠEmail":12826,"ĠVeda":12827,"Ġamendments":12828,"Ġleaflet":12829,"ĠTripura":12830,"January":12831,"Ġcustody":12832,"Prior":12833,"mult":12834,"arct":12835,"Ġgreed":12836,"ĠPO":12837,"ĠNorthern":12838,"ĠVers":12839,"Ġshoulders":12840,"Ġque":12841,"Ġoffences":12842,"aws":12843,"Ġ52":12844,"Ġsystematic":12845,"ups":12846,"Ġcement":12847,"Ġideology":12848,"ierce":12849,"atching":12850,"achers":12851,"Ġbreaks":12852,"Ġmedicinal":12853,"Ġearnings":12854,"Ġstrategies":12855,"aswati":12856,"ichael":12857,"June":12858,"Ġtang":12859,"Ġlin":12860,"ĠMIN":12861,"ĠNodal":12862,"ĠOriya":12863,"ondition":12864,"liant":12865,"Ġ41":12866,"Ġ1994":12867,"Ġdetermines":12868,"ĠPartnership":12869,"Ġaccorded":12870,"Ġgender":12871,"ĠSanct":12872,"Update":12873,"Ġdelighted":12874,"Ġancestors":12875,"ĠDeccan":12876,"Joseph":12877,"iety":12878,"vent":12879,"whether":12880,"Ġtired":12881,"Ġpests":12882,"thood":12883,"eline":12884,"Ġdisadvant":12885,"rowth":12886,"Ġdecre":12887,"White":12888,"exp":12889,"ANT":12890,"ORT":12891,"Ġpopularity":12892,"Ġcollections":12893,"Ġearnest":12894,"Ġdistinguish":12895,"Ġdimensions":12896,"Ġwrongdoing":12897,"ĠNagaland":12898,"Ġprohibited":12899,"Ġconflicts":12900,"bacco":12901,"kay":12902,"rator":12903,"inence":12904,"Ġnodal":12905,"rained":12906,"Ġconform":12907,"ortion":12908,"ĠFROM":12909,"iple":12910,"Ġsail":12911,"Ġupl":12912,"Ġintensive":12913,"Ġdense":12914,"Ġparse":12915,"mael":12916,"Ġstatue":12917,"Ġ1962":12918,"Ġhostile":12919,"Ġstaying":12920,"Ġintroduce":12921,"Ġsteep":12922,"riminal":12923,"ĠMemorial":12924,"Ġupdates":12925,"Ġgrievance":12926,"Ġsickness":12927,"ĠTurkish":12928,"Ġstretch":12929,"ĠShaitan":12930,"Task":12931,"Ġauction":12932,"Ġmamm":12933,"adra":12934,"Ġconject":12935,"usions":12936,"ĠLanguages":12937,"Ġki":12938,"ĠIndex":12939,"ocus":12940,"Ġresurrection":12941,"Ġunderlying":12942,"ĠUnbelievers":12943,"Ġtrains":12944,"idespread":12945,"Ġimpose":12946,"Ġmedieval":12947,"Ġverify":12948,"idding":12949,"Ġbreach":12950,"Ġdebts":12951,"doers":12952,"system":12953,"ĠCorporate":12954,"ĠHamas":12955,"Members":12956,"fortunate":12957,"Ġrhythm":12958,"Arab":12959,"Count":12960,"Gov":12961,"Ġovers":12962,"Ġrehabilitation":12963,"ĠIdent":12964,"âĢĵ":12965,"ĠGir":12966,"Ġexempl":12967,"ĠLut":12968,"Ġdisregard":12969,"Ġscrut":12970,"Ġretained":12971,"Ġsentiments":12972,"ĠExpress":12973,"Noah":12974,"Ġzeal":12975,"Ġoppose":12976,"Ġpowder":12977,"Ġwidow":12978,"Ġembry":12979,"Ġundivided":12980,"Ġwildlife":12981,"Writing":12982,"ĠHeritage":12983,"Interest":12984,"Akbar":12985,"Ġresearchers":12986,"Ġcontroversy":12987,"Ġbrilliant":12988,"ferencing":12989,"Moh":12990,"cre":12991,"case":12992,"lantic":12993,"Ġcaves":12994,"Ġthroat":12995,"idance":12996,"Ġgun":12997,"ĠSav":12998,"Ġalcohol":12999,"rying":13000,"Ġbrid":13001,"Ġ92":13002,"Union":13003,"INK":13004,"Ġcrash":13005,"udden":13006,"Ġshortage":13007,"swer":13008,"Ġpressing":13009,"Ġrelationships":13010,"Ġdeparture":13011,"Ġliked":13012,"Ġdiplom":13013,"Ġimpressive":13014,"Earlier":13015,"Ġautonomous":13016,"Ġsponsored":13017,"Creating":13018,"Ġmanuscripts":13019,"isheries":13020,"wad":13021,"heast":13022,"Ġaqu":13023,"ints":13024,"Ġconfer":13025,"Ġsender":13026,"Ġsects":13027,"ĠBadruddin":13028,"Ġshirt":13029,"ĠTrue":13030,"agg":13031,"Ġsubordinate":13032,"itement":13033,"Ġemig":13034,"Ġgrid":13035,"ĠAbhi":13036,"Ġcredential":13037,"Ġsenses":13038,"Ġbiological":13039,"Load":13040,"asaheb":13041,"Ġhusbands":13042,"ĠFront":13043,"Ġmagnificent":13044,"ĠIPv":13045,"edding":13046,"Ġnursing":13047,"Automatically":13048,"Ġcavity":13049,"ĠKittur":13050,"Truly":13051,"nals":13052,"Ðº":13053,"itic":13054,"alim":13055,"llers":13056,"ĠMauritius":13057,"Ġhaven":13058,"Ġexpelled":13059,"ahi":13060,"unath":13061,"ĠOri":13062,"ĠJournal":13063,"urna":13064,"Ġprovider":13065,"à¤Ł":13066,"Ġattributes":13067,"ĠAndaman":13068,"Ġexpensive":13069,"Ġserpent":13070,"Ġdevotee":13071,"Ġskins":13072,"Ġjudged":13073,"Ġrevive":13074,"ĠBanking":13075,"ĠComputer":13076,"Ġbrand":13077,"ĠSahitya":13078,"Ġcanceled":13079,"ĠPoet":13080,"Vol":13081,"Very":13082,"iro":13083,"Ġbot":13084,"Ġhub":13085,"Ġbeware":13086,"ĠMain":13087,"riel":13088,"allabh":13089,"quiet":13090,"Ġsphere":13091,"Ġretail":13092,"penditure":13093,"Ġimpressed":13094,"Ġheavily":13095,"Ġ800":13096,"Ġmeets":13097,"genus":13098,"Ġgoverning":13099,"Ġqualified":13100,"ĠConsult":13101,"ĠGlory":13102,"Ġrejo":13103,"Previous":13104,"Ġarbitration":13105,"Ġlaboratories":13106,"Normal":13107,"bour":13108,"bhar":13109,"Â°":13110,"Ã¡":13111,"Ġware":13112,"Ġcraft":13113,"Ġmurd":13114,"Ġdancing":13115,"asim":13116,"Ġongoing":13117,"ĠSenior":13118,"abil":13119,"ĠBet":13120,"ĠDefault":13121,"Ġjung":13122,"Ġconsiders":13123,"Ġproducer":13124,"Ġcertainty":13125,"Prote":13126,"recogn":13127,"irtual":13128,"Ġcontracts":13129,"Ġresponded":13130,"ĠGehenna":13131,"ojini":13132,"ĠObject":13133,"Ġhindi":13134,"Ġcondemn":13135,"ĠJharkhand":13136,"Ġvulnerable":13137,"Ġrecompensed":13138,"Fund":13139,"Kal":13140,"Tom":13141,"aq":13142,"hor":13143,"oria":13144,"Ġinward":13145,"acent":13146,"ĠLear":13147,"Ġchick":13148,"ĠEach":13149,"Ġcommittees":13150,"ĠVillage":13151,"these":13152,"Ġ58":13153,"Ġ59":13154,"Ġequipped":13155,"fficiency":13156,"Ġpatent":13157,"Ġtrends":13158,"Ġpractised":13159,"Ġstrikes":13160,"Ġjournals":13161,"jections":13162,"ĠPersons":13163,"Ġcoordination":13164,"Ġisolated":13165,"ĠConfiguration":13166,"Ġsmell":13167,"Ġcapacities":13168,"wind":13169,"Ġcabinet":13170,"Ġdying":13171,"Ġeco":13172,"Ġreverse":13173,"ĠSRI":13174,"orest":13175,"ĠFour":13176,"Ġundergo":13177,"ĠChurch":13178,"Ġraj":13179,"Ġbackup":13180,"Ġgrammar":13181,"Ġinfect":13182,"Ġdeficiency":13183,"Ġdrain":13184,"Ġliterally":13185,"ĠCooperative":13186,"Ġneighbours":13187,"ARDS":13188,"Ġnutri":13189,"Ġ1857":13190,"Ġbellies":13191,"payee":13192,"Ġsubsidiary":13193,"Cor":13194,"Hand":13195,"La":13196,"Mad":13197,"Sort":13198,"fearing":13199,"vii":13200,"imet":13201,"ĠSom":13202,"odied":13203,"ĠCare":13204,"Ġstir":13205,"opard":13206,"ĠTake":13207,"perial":13208,"Ġblast":13209,"Ġrepro":13210,"Ġirre":13211,"ĠReligion":13212,"Ġlocked":13213,"ĠPanchayat":13214,"ĠFederation":13215,"Ġlabourers":13216,"OUR":13217,"oins":13218,"erated":13219,"Ġbeasts":13220,"ĠAge":13221,"amas":13222,"ĠPacific":13223,"Ġ'{":13224,"ĠFig":13225,"assment":13226,"Ġrespected":13227,"ĠXML":13228,"Ġspeedy":13229,"Ġtracks":13230,"Ġ1908":13231,"ĠSalat":13232,"Ġprejudice":13233,"46":13234,"Sa":13235,"THE":13236,"Wise":13237,"bles":13238,"Ġdictionary":13239,"etch":13240,"ĠMall":13241,"Ġdeer":13242,"ĠDesh":13243,"Ġrough":13244,"Ġdisposed":13245,"apu":13246,"adeva":13247,"Ġours":13248,"Ġscore":13249,"Ġflame":13250,"Ġavailed":13251,"Ġclearance":13252,"cellaneous":13253,"Ġ1975":13254,"Ġtouching":13255,"Ġaffecting":13256,"Ġ245":13257,"drawal":13258,"ĠIntegrated":13259,"erculosis":13260,"Ty":13261,"bad":13262,"nar":13263,"wear":13264,"ĠĠ":13265,"Ġhollow":13266,"adha":13267,"ormally":13268,"ango":13269,"Ġsmile":13270,"Authentication":13271,"Ġfederal":13272,"Window":13273,"Ġjewellery":13274,"April":13275,"Vertical":13276,"comes":13277,"Ġwidespread":13278,"Ġlivestock":13279,"ĠAP":13280,"Ġcompelled":13281,"Ġaccur":13282,"Ġdesirable":13283,"Ġattraction":13284,"Ġ53":13285,"Ġconfront":13286,"Ġforemost":13287,"Ġslaughter":13288,"Ġboundary":13289,"Ġrupee":13290,"PCL":13291,"Ġcomfortable":13292,"ĠElectronics":13293,"ĠCorona":13294,"Ġgraduate":13295,"ĠProcessing":13296,"Ġsar":13297,"oned":13298,"itations":13299,"ĠAIR":13300,"Ġexalt":13301,"Health":13302,"Ġquote":13303,"Ġcenters":13304,"elief":13305,"Ġedges":13306,"Ġforgives":13307,"Ġfasting":13308,"ASS":13309,"Ġtelecommun":13310,"Ġobeyed":13311,"ĠRemove":13312,"Ġinclined":13313,"Mean":13314,"Ġmortgage":13315,"Ġmirror":13316,"ĠCommunity":13317,"Ġpsychological":13318,"ĠGandhar":13319,"Ġscenes":13320,"Delhi":13321,"ĠAcharya":13322,"Ġmislead":13323,"BM":13324,"British":13325,"Pur":13326,"Ġfan":13327,"Ġpa":13328,"ample":13329,"ĠHot":13330,"ĠHospital":13331,"ĠTat":13332,"ĠWitness":13333,"Ġreservation":13334,"Ġrecruitment":13335,"Ġconserv":13336,"Ġaffirm":13337,"ussion":13338,"alih":13339,"Ġviable":13340,"Ġvariations":13341,"Ġ1977":13342,"Ġapplying":13343,"ollen":13344,"Ġlaboratory":13345,"Ġnutrition":13346,"ĠChampions":13347,",.":13348,"Test":13349,"yers":13350,"Ġdioxide":13351,"Ġnotwithstanding":13352,"abul":13353,"avati":13354,"Ġpermits":13355,"pled":13356,"ertil":13357,"cedented":13358,"Ġtragedy":13359,"Ġasks":13360,"Ġceiling":13361,"Ġtaxation":13362,"ĠDirectory":13363,"Ġexpects":13364,"Ġ1939":13365,"ATIONS":13366,"missible":13367,"Minister":13368,"Ġwinners":13369,"Ġicons":13370,"Ġrobust":13371,"Ġmiracle":13372,"Ġcompliment":13373,"ĠVenk":13374,"Ign":13375,"OI":13376,"ugh":13377,"Ġol":13378,"reach":13379,"iser":13380,"Ġbinary":13381,"stal":13382,"ĠSOC":13383,"Ġusername":13384,"Ġcounted":13385,"Ġvalued":13386,"Ġinspir":13387,"Ġsurplus":13388,"Ġdevour":13389,"IDS":13390,"Ġclassification":13391,"ependent":13392,"ĠRevenue":13393,"Ġ1955":13394,"Ġerad":13395,"Ġeaten":13396,"Ġirrit":13397,"ĠSwed":13398,"Ġà¤ª":13399,"Ġwarming":13400,"Ġstructural":13401,"ĠGovind":13402,"ECTED":13403,"Ġbreathing":13404,"Ġentrepreneurship":13405,"Ġanxious":13406,"Ra":13407,"bird":13408,"ho":13409,"Ġfounder":13410,"Ġnit":13411,"ĠMaul":13412,"ifully":13413,"ĠIndones":13414,"Ġenvelop":13415,"Ġenmity":13416,"ĠVA":13417,"Ġspots":13418,"Ġtranscend":13419,"Ġphrase":13420,"Ġlover":13421,"forced":13422,"Replace":13423,"keys":13424,"Ġexpectations":13425,"Everyone":13426,"casting":13427,"Black":13428,"Ġsubstantially":13429,"ĠBrahmins":13430,"ĠHTTP":13431,"Ġsanctum":13432,"Ġunbelief":13433,"Ġcompromise":13434,"Ġsuspended":13435,"San":13436,"Ur":13437,"Western":13438,"heres":13439,"inates":13440,"Ġmask":13441,"Ġyoga":13442,"Ġ-%":13443,"cha":13444,"rapped":13445,"rix":13446,"Ġconqu":13447,"aryn":13448,"others":13449,"Ġfloral":13450,"Ġfinest":13451,"Ġdetected":13452,"Ġpublicity":13453,"bsolute":13454,"Ġviewed":13455,"exc":13456,"Ġeverlasting":13457,"ducational":13458,"Ġsleeping":13459,"Ġimplications":13460,"Ġpreceded":13461,"ffective":13462,"precedented":13463,"Ġwalks":13464,"Service":13465,"Taste":13466,"lings":13467,"lves":13468,"uj":13469,"Ġii":13470,"Ġsperm":13471,"Ġcant":13472,"ilst":13473,"ilated":13474,"olu":13475,"ifference":13476,"ĠHIV":13477,"ĠGames":13478,"Ġvoices":13479,"unning":13480,"ocity":13481,"Ġchol":13482,"Ġchap":13483,"Ġcompact":13484,"sole":13485,"cede":13486,"Ġwritable":13487,"Ġpassenger":13488,"Ġconclude":13489,"Ġcurt":13490,"Ġslip":13491,"ĠForward":13492,"brid":13493,"ĠItaly":13494,"holding":13495,"ĠOnline":13496,"Ġcyl":13497,"Ġfraud":13498,"contin":13499,"ĠGhosh":13500,"Ġsteady":13501,"Ġcruel":13502,"Ġmanufacturers":13503,"Ġreconstruction":13504,"ursement":13505,"Ġvarying":13506,"ĠVaishnava":13507,"Ġdelicate":13508,"ĠCommonwealth":13509,"ĠAdvisory":13510,"Appeals":13511,"ritsar":13512,"polytheists":13513,"Bang":13514,"Food":13515,"both":13516,"cence":13517,"mble":13518,"vy":13519,"entures":13520,"Ġliver":13521,"ĠSEL":13522,"mental":13523,"illary":13524,"thy":13525,"ĠAllowance":13526,"okh":13527,"ĠStar":13528,"Ġassault":13529,"pletion":13530,"Ġacres":13531,"Ġproducers":13532,"Ġintends":13533,"Ġinfant":13534,"Ġholders":13535,"Ġ1942":13536,"Ġpressed":13537,"ĠPolit":13538,"Used":13539,"Ġlegislature":13540,"Ġfurniture":13541,"Ġreviewed":13542,"Ġborrowed":13543,"Format":13544,"Basic":13545,"Ġknees":13546,"babu":13547,"lisher":13548,"master":13549,"uctions":13550,"uja":13551,"Ġpound":13552,"ĠSon":13553,"ĠSrin":13554,"ĠMAPI":13555,"ĠGopal":13556,"ivable":13557,"Ġspont":13558,"rics":13559,"Ġtransmit":13560,"ĠYouTube":13561,"Chand":13562,"ĠArmed":13563,"Ġissuing":13564,"Ġpostp":13565,"Ġportal":13566,"Ġairport":13567,"ĠSchemes":13568,"Ġchallenged":13569,"Ġcamels":13570,"Ġcultivated":13571,"Global":13572,"rieving":13573,"Highlight":13574,"Ġencrypted":13575,"Ġdiplomatic":13576,"Ġcasual":13577,"Ġalphabet":13578,"\")":13579,"Circ":13580,"Person":13581,"Sol":13582,"bath":13583,"faces":13584,"Ġticket":13585,"Ġwars":13586,"alas":13587,"asagar":13588,"Ġna":13589,"Ġgang":13590,"ĠMajor":13591,"abar":13592,"Ġwasn":13593,"Ġvotes":13594,"ĠNuh":13595,"Ġalert":13596,"inees":13597,"Ġproviders":13598,"ĠYog":13599,"ĠBhatt":13600,"ployees":13601,"Ġsolved":13602,"Ġurine":13603,"Ġrelevance":13604,"Ġstrait":13605,"Ġà¤ķ":13606,"Ġattempted":13607,"Ġbrack":13608,"Addressing":13609,"Ġencryption":13610,"Ġirrespective":13611,"Tor":13612,"based":13613,"folk":13614,"reth":13615,"Ġlag":13616,"idas":13617,"ĠPART":13618,"estone":13619,"Ġcompound":13620,"Ġreserv":13621,"ĠShort":13622,"Ġhearted":13623,"Ġreflection":13624,"Ġmeditation":13625,"Ġsuccessor":13626,"Ġmarine":13627,"Ġ120":13628,"Ġpainted":13629,"ĠHighness":13630,"III":13631,"ometry":13632,"Ġpasswords":13633,"Ġrefugees":13634,"Ġhospitality":13635,"Ġsurvival":13636,"Preview":13637,"ĠProperty":13638,"ĠEverlasting":13639,"EA":13640,"Jesus":13641,"Sanskrit":13642,"Ver":13643,"page":13644,"Ġov":13645,"itzer":13646,"alter":13647,"arb":13648,"rolled":13649,"Ġonwards":13650,"raisal":13651,"ĠChem":13652,"ĠStaff":13653,"lessed":13654,"fficial":13655,"Ġstrayed":13656,"Ġfavoured":13657,"Ġversions":13658,"Ġcommitting":13659,"Ġharsh":13660,"second":13661,"Ġfacilitating":13662,"Ġimperative":13663,"repreneur":13664,"Guidelines":13665,"Ġcorrespondence":13666,"ĠSocialist":13667,"Ġsurprising":13668,"Ġcosmic":13669,"ĠGREET":13670,"Cut":13671,"RIs":13672,"file":13673,"Ġhier":13674,"ĠAL":13675,"ĠDa":13676,"iece":13677,"ĠFDI":13678,"Ġunfortunate":13679,"Ġouts":13680,"reatment":13681,"oths":13682,"Ġlandlord":13683,"Ġdisbelieving":13684,"IDBI":13685,"Ġ97":13686,"ĠSingapore":13687,"Ġswim":13688,"Ġmisdeeds":13689,"Ġconsume":13690,"ĠTOMOR":13691,"Ġguarded":13692,"Speech":13693,"flammation":13694,"Committee":13695,"ĠTrack":13696,"ĠInspector":13697,"ĠFormat":13698,"ĠPanchayats":13699,"Ġfoolish":13700,"ĠVajpayee":13701,"ĠTOMORROW":13702,"atible":13703,"ĠGive":13704,"ĠTy":13705,"ĠTwo":13706,"Ġ57":13707,"Ġservers":13708,"Ġbench":13709,"Ġprofessor":13710,"Ġstray":13711,"Ġsuppose":13712,"ĠMyanmar":13713,"Connection":13714,"Ġelectronics":13715,"Ġimmortal":13716,"URE":13717,"Ġpraised":13718,"Ġpillar":13719,"Ġsurrendered":13720,"ĠAdministrative":13721,"Ġproclaimed":13722,"Ġcluster":13723,"Ġstrictly":13724,"Ġwatched":13725,"Ġresurrected":13726,"ĠYamuna":13727,"dar":13728,"ean":13729,"}%":13730,"Ġbatch":13731,"Ġtobacco":13732,"roid":13733,"ĠBody":13734,"emon":13735,"ĠDutt":13736,"ĠTilak":13737,"Ġincoming":13738,"rition":13739,"Ġcere":13740,"Ġ88":13741,"ĠArts":13742,"Ġfavourable":13743,"ĠPlant":13744,"Ġdocumentation":13745,"Ġindicating":13746,"equal":13747,"Ġteams":13748,"Ġpursuance":13749,"UNT":13750,"HTRA":13751,"Accept":13752,"Write":13753,"Ġcondolences":13754,"Welcome":13755,"Ġadversity":13756,"Ġlinguistic":13757,"55":13758,"table":13759,"Ġvel":13760,"Ġfart":13761,"Ġrewards":13762,"Ġgal":13763,"ifth":13764,"Ġwebs":13765,"Ġrites":13766,"ipation":13767,"Ġdisabilities":13768,"Ġimb":13769,"arman":13770,"ĠDeb":13771,"Ġevils":13772,"Ġlimitation":13773,"Ġpractically":13774,"Ġauto":13775,"ursor":13776,"Ġsatisfactory":13777,"Ġpriorities":13778,"ĠRecord":13779,"aksha":13780,"ĠSpeech":13781,"Ġconstructive":13782,"Success":13783,"Ġsanctuary":13784,"ĠPenalty":13785,"Ġgallery":13786,"Ġdisappear":13787,"Ġaggression":13788,"Ġpronounced":13789,"ĠSeminar":13790,"Ġvitamin":13791,"Ġswallow":13792,"Ġhungry":13793,"Emp":13794,"FF":13795,"OK":13796,"PN":13797,"cor":13798,"cience":13799,"iatic":13800,"jid":13801,"west":13802,"Ġtie":13803,"inge":13804,"Ġdairy":13805,"Ġeighth":13806,"adas":13807,"ĠImp":13808,"uler":13809,"Ġsegments":13810,"Ġshore":13811,"Ġshoes":13812,"Ġwash":13813,"ivate":13814,"ĠTw":13815,"ĠLook":13816,"Ġlean":13817,"Ġdisl":13818,"Ġabuse":13819,"ulture":13820,"Ġunn":13821,"bert":13822,"Ġactors":13823,"Ġsignals":13824,"Ġexpired":13825,"Ġfoundations":13826,"Ġdefine":13827,"Ġ67":13828,"Ġ87":13829,"Ġappeals":13830,"oining":13831,"Ġoppressed":13832,"Ġsupervision":13833,"Ġconfigure":13834,"Ġconfigured":13835,"Ġutilization":13836,"Ġfilling":13837,"Ġbabies":13838,"Ġgrassroots":13839,"odhya":13840,"ĠNavy":13841,"Ġabsorbed":13842,"OVERN":13843,"Ġadministered":13844,"Ġdeducted":13845,"ĠPortuguese":13846,"Day":13847,"Roy":13848,"bel":13849,"great":13850,"lah":13851,"isdom":13852,"Ġine":13853,"Ġdensity":13854,"ĠMuk":13855,"ĠCE":13856,"Ġstyles":13857,"Ġneut":13858,"ĠKrish":13859,"Ġunprecedented":13860,"Ġassurance":13861,"arium":13862,"Ġherein":13863,"Ġlawyer":13864,"Ġportray":13865,"ĠAhmad":13866,"Ġladen":13867,"umerable":13868,"Ġfabricated":13869,"Available":13870,"Ġkidney":13871,"ĠNGOs":13872,"GE":13873,"Language":13874,"hard":13875,"mis":13876,"ayat":13877,"ĠClimate":13878,"ĠGen":13879,"aine":13880,"ĠWikipedia":13881,"ĠFather":13882,"Ġcoat":13883,"endars":13884,"ĠShu":13885,"ighters":13886,"Ġinterven":13887,"Ġintr":13888,"Ġdeniers":13889,"Ġcirculation":13890,"Ġelectoral":13891,"Ġ1981":13892,"Plugin":13893,"ĠRecovery":13894,"Ġstoring":13895,"Ġbowl":13896,"Parliament":13897,"ĠProgrammes":13898,"EMB":13899,"Ġrecalled":13900,"ĠConvocation":13901,"Ġsorry":13902,"ĠVerma":13903,"Ġpagans":13904,"AIN":13905,"Cost":13906,"cery":13907,"Ġavert":13908,"aser":13909,"leys":13910,"Ġnour":13911,"ĠSM":13912,"Ġheirs":13913,"ĠMasters":13914,"opter":13915,"unctions":13916,"Weather":13917,"Ġdecrease":13918,"Ġinstances":13919,"Ġgran":13920,"Ans":13921,"icture":13922,"ATED":13923,"umbent":13924,"compl":13925,"Ġsimilarly":13926,"Ġemergence":13927,"Ġpollut":13928,"Ġgreeted":13929,"Ġcouches":13930,"ĠBaba":13931,"Ġuncertain":13932,"Ġadjustment":13933,"Ġdismissed":13934,"Ġadmire":13935,"Ġworkshops":13936,"FR":13937,"Jap":13938,"Joint":13939,"Sun":13940,"Various":13941,"leness":13942,"Ġinadequ":13943,"Ġrejection":13944,"ĠRoman":13945,"ĠTaur":13946,"ĠEmer":13947,"Ġplun":13948,"Ġunav":13949,"angz":13950,"Ġroles":13951,"Ġturnover":13952,"Ġ69":13953,"Ġplead":13954,"Ġassisted":13955,"Ġimprovements":13956,"Ġadvancement":13957,"OLD":13958,"Ġremarks":13959,"Ġperfectly":13960,"Ġunfair":13961,"Ġfaults":13962,"Ġrecipient":13963,"Ġecosystem":13964,"Ġaccomplish":13965,"Ġlarvae":13966,"Cong":13967,"Dom":13968,"ben":13969,"fin":13970,"kha":13971,"arshan":13972,"Ġlosing":13973,"ĠSqu":13974,"ĠPaper":13975,"Ġsuicide":13976,"ĠBelieve":13977,"Ġshar":13978,"ĠLike":13979,"ĠKisan":13980,"Ġmango":13981,"ĠJoshi":13982,"Ġspo":13983,"onscious":13984,"ĠThir":13985,"Ġrepaid":13986,"Ġeconomically":13987,"Ġ78":13988,"Ġdestined":13989,"Unfortunately":13990,"Ġrival":13991,"Ġbreeds":13992,"Ġtextile":13993,"Ġmisery":13994,"Ġsync":13995,"Ġupgradation":13996,"Ġabstract":13997,"Ġremedy":13998,"happy":13999,"Mumbai":14000,"SI":14001,"Solar":14002,"SPEECH":14003,"itious":14004,"Ġnemat":14005,"Ġumb":14006,"ĠMany":14007,"ĠPack":14008,"ĠHem":14009,"ĠBE":14010,"ĠBirth":14011,"Ġexemption":14012,"ĠRate":14013,"ĠLabor":14014,"Ġenric":14015,"ritical":14016,"blem":14017,"Ġgeneric":14018,"Ġadvoc":14019,"Ġlistened":14020,"Ġslot":14021,"Ġdenying":14022,"Ġgodfearing":14023,"Ġpenit":14024,"ĠImm":14025,"Ġsecretary":14026,"Ġmeasurement":14027,"ĠCommunication":14028,"Ġethnic":14029,"Ġapparently":14030,"Bharat":14031,"Ġcompositions":14032,"cro":14033,"hin":14034,"rified":14035,"Ġtenth":14036,"Ġtoile":14037,"Ġrehe":14038,"ĠPreet":14039,"terior":14040,"Ġkms":14041,"Ġcanal":14042,"areth":14043,"ĠJubilee":14044,"ĠShall":14045,"Ġguest":14046,"ĠBhopal":14047,"Ġinterference":14048,"limited":14049,"Ġintens":14050,"Ġadventure":14051,"Ġadvocate":14052,"Ġceased":14053,"ERT":14054,"Ġfourteen":14055,"Ġsuccessive":14056,"Ġinfluences":14057,"ĠLoan":14058,"ĠAdditional":14059,"Ġweekly":14060,"Ġmilitant":14061,"Period":14062,"Ġtransgression":14063,"Ġneighbourhood":14064,"Ġamalgamation":14065,"Ġflexible":14066,"Ġconspiracy":14067,"Cy":14068,"King":14069,"brew":14070,"Ġpulses":14071,"odder":14072,"Ġconsecut":14073,"ĠDR":14074,"ĠToday":14075,"ĠNand":14076,"ĠFran":14077,"ĠFilm":14078,"ĠKu":14079,"iketan":14080,"Ġwhereby":14081,"Ġrepay":14082,"Ġbookmark":14083,"Ġauthorized":14084,"Ġdestro":14085,"Ġsocialism":14086,"ĠAssamese":14087,"Ġveil":14088,"Ġ1945":14089,"Ġacquiring":14090,"Ġgene":14091,"ĠCoast":14092,"ĠAmritsar":14093,"Ġgreeting":14094,"Commun":14095,"Ġseller":14096,"Ġdisappeared":14097,"ĠBIHAR":14098,"43":14099,"EAR":14100,"UST":14101,"pers":14102,"ÌĪ":14103,"Ġbeds":14104,"Ġbureau":14105,"Ġlift":14106,"Ġgrey":14107,"cending":14108,"ĠCause":14109,"ĠPRA":14110,"Ġshalt":14111,"ĠDur":14112,"Ġtrunk":14113,"Ġupset":14114,"rup":14115,"Ġspare":14116,"grade":14117,"note":14118,"ĠCentury":14119,"Ġopinions":14120,"Ġcrimes":14121,"Ġinstituted":14122,"Ġidle":14123,"Ġmomentum":14124,"Ġthreats":14125,"ĠSettlement":14126,"Event":14127,"ĠEnvironmental":14128,"ĠDemocratic":14129,"Device":14130,"Ġmystic":14131,"ĠCircular":14132,"Ġannouncement":14133,
[...]
