#version: 0.2 - Trained by `huggingface/tokenizers`
à ¤
Ġ à¤
à ¥
à¤ ¾
à¤ °
à¥ ĩ
à¥ į
à¤ ¿
Ġà¤ ķ
à¤ Ĥ
à¤ ¨
à¥ Ģ
à¤ ¤
à¤ ķ
à¥ ĭ
à¤ ¯
à¤ ¸
Ġà¤ ¹
à¤ ®
Ġà¤ ¸
à¤ ¹
à¤ ²
à¥ ģ
Ġà¤ ª
à¥ Ī
à¤ µ
Ġà¤ ®
à¤ ¦
à¤ ª
à¤ Ĺ
à¥ĩ à¤Ĥ
Ġà¤ ľ
Ġà¤ ħ
Ġà¤ µ
Ġà¤ ¨
à¤ ľ
à¤ ¼
à¥ĭ à¤Ĥ
Ġà¤ ¬
à¥ Ĥ
Ġà¤ ¤
à¥ ¤
Ġà¤ ¦
Ġà¤ ī
à¤ ¶
à¤ ¬
Ġà¤ ²
Ķ à¤°
à¤ Ł
à¤ ı
Ġà¤ °
à¤ §
Ġà¤ Ķà¤°
à¤ ·
Ġà¤ķ à¤°
à¤ ļ
à¤ ¡
à¤ ¥
Ġà¤ Ĩ
à¤ £
Ġà¤ Ń
Ġà¤ ¯
à¤ ĸ
Ġà¤ Ĺ
à¤ Ń
Ġà¤ª à¤°
à¥Ī à¤Ĥ
Ġ (
Ġà¤ ĩ
Ġà¤ ı
Ġà¤ ļ
à¤ Ī
à¥Ī à¥¤
Ġà¤ī à¤¨
Ġà¤ ¶
à¤° à¤¤
à¤ «
Ġà¤ī à¤¸
à¥Ģ à¤Ĥ
à¤ª à¤¨
Ġà¤ ĸ
à¤ ĩ
Ġà¤ı à¤ķ
Ġà¤ ¥
Ġà¤¸ à¤®
Ġà¤¨ à¤¹
à¤¾ à¤Ĥ
à¤ ģ
Ġà¤ĩ à¤¸
à¤ Ľ
Ġà¤ķà¤° à¤¨
à¥ ĥ
à¥ Į
à¤ ħ
Ġà¤ «
Ġà¤° à¤¹
à¤ķ à¤°
Ġà¤¹ à¤®
Ġà¤ħ à¤ªà¤¨
à¤° à¤ķ
à¤¼ à¤¾
Ġà¤ħ à¤¨
à¤¾ à¥¤
à¤ Ĩ
Ġà¤µ à¤¹
à¤ķ à¤¤
Ġà¤¯ à¤¹
à¤ ł
à¤µ à¤°
Ġà¤ķà¤° à¤¤
Ġà¤ħ à¤§
Ġà¤īà¤¨ à¤ķ
à¤¤ à¤°
à¤ ī
à¤ ĵ
Ġà¤ķ à¤¹
à¤¾ ,
à¤ª à¤°
à¥Ī ,
Ġà¤Ĺ à¤¯
à¤° à¤£
Ã ł
Ġà¤¬ à¤¨
Ġà¤īà¤¸ à¤ķ
à¤¯ à¤ķ
Ġà¤ ¡
â Ģ
à¤ľ à¤¨
à¤ Ķà¤°
Ġà¤ī à¤ª
à¤¿ à¤Ĥ
Ġ 1
à¤ ĥ
à¥Īà¤Ĥ à¥¤
Ġà¤¸ à¤ķà¤¤
à¥ ī
à¤ĩ à¤¸
Ġà¤¤ à¤¥
à¤ Ŀ
Ġà¤ª à¤¹
à¤¾ à¤ģ
Ġà¤ §
à¤° à¤®
Â ¤
Ĳ à¤¸
à¤ ¢
Ġà¤ħ à¤²
à¤¼ à¥ģ
à¥ĩ à¥¤
à¤¸ à¤°
Ġà¤ Ľ
à¤¯ à¤¤
Ġà¤Ĩ à¤ª
à¤¨ à¤ķ
à¤¹ à¤°
à¤¼ à¥Ģ
à¤Ĺ à¤°
à¤° à¤¹
Ġà¤ Ĳà¤¸
Ġà¤¤ à¤ķ
Ġà¤ ĺ
à¤¯ à¤®
à¤¤ à¤¨
à¥Ī .
à¤ª à¤¤
à¤² à¤¨
à¤° à¤¦
à¤° à¤¸
Ġà¤² à¤Ĺ
à¤¸ à¤®
Ġà¤° à¤ĸ
à¤¹ à¤¤
Ġà¤ľ à¤¬
à¤² à¤¤
à¤¨ à¤¤
Ġà¤¸ à¤¹
à¤¼ à¤¿
à¤µ à¤¨
Ġà¤µ à¤°
Â¤ Â
à¥Ģ à¥¤
Ġà¤¬ à¤¹
à¥ĩ ,
à¤ ŀ
Ġ 2
à¤¶ à¤¨
à¤® à¤¨
Ġà¤ Ł
à¤¼ à¥ĩ
Ġà¤ī à¤¤
à¥Ģ ,
à¤¯ à¤¹
à¤¸ à¤ķ
à¤ļ à¤¨
à¤ ĺ
à¤® à¤¤
à¤Ĺ à¤¤
à¤¬ à¤°
Ġà¤ħ à¤µ
Ġà¤¸ à¤¬
à¤· à¤£
à¤° à¤¯
à¤¸ à¤¨
Ġà¤Ĩ à¤¯
Ġà¤ Ī
Ġà¤ªà¤¹ à¤²
Ġ "
Ġà¤ķ à¤®
à¤Ł à¤°
à¤¯ à¤¨
Ġà¤¬ à¤¡
à¤² à¤¯
Ġà¤® à¤¹
Ġà¤ ĵ
Ġà¤¸ à¤ķ
à¤¦ à¤°
à¤° à¤µ
Ġà¤ī à¤¦
0 0
à¤¦ à¤¨
à¥ĩ )
Ġà¤¸à¤® à¤¯
Ġà¤ħ à¤Ń
à¤ķ à¤²
Ġà¤ħ à¤¤
Ġà¤¤ à¤°à¤¹
Ġà¤ĩ à¤¨
Ġà¤¸ à¤Ń
à¥ĭ ,
à¤¾ .
Ġà¤ĩà¤¸ à¤ķ
Ġà¤ª à¤¤
à¤ķà¤° à¤£
à¤µ à¤¸
à¤® à¤ķ
à¤ı à¤Ĺ
à¤¹ à¤®
à¤µ à¤¤
à¤µ à¤¹
Ġà¤¸ à¤°
à¤° à¤ªà¤¤
à¤§ à¤¨
Ġà¤Ĺ à¤Ī
Ġà¤Ĺ à¤ı
Ġà¤¸ à¤°à¤ķ
Ġà¤Ĩ à¤µ
à¥Ĥ à¤Ĥ
à¤Ł à¤¨
Ġà¤ĵ à¤°
Ġ âĢ
à¥ģ à¤Ĥ
Ġà¤¬ à¤¢
à¤° à¤Ń
Ġà¤ħ à¤°
à¥Īà¤Ĥ ,
à¤ı à¤ķ
à¤ĩ à¤¨
à¤¾ )
âĢ į
Ġà¤Ĩ à¤¦
Ġà¤¤ à¤°
à¥Ĥ à¤ģ
Ġà¤¹à¤® à¤¨
à¤¶ à¤ķ
à¥Ģ )
Ġà¤¹ à¤°
à¥į âĢį
à¤ī à¤¨
à¤µ à¤²
à¤ĩ à¤²
Ġà¤° à¤¸
Ġ s
Ġà¤ħ à¤ļ
Ġà¤ Ŀ
Ġà¤Ĩ à¤§
Ġ1 9
Ġà¤ª à¤¡
Ġà¤¬ à¤¦
Ġà¤ı à¤µ
. .
Ġà¤Ī à¤®
Ġà¤¦ à¤°
à¤¯ à¤¦
à¤¯ à¤°
à¥ĩà¤Ĥ ,
à¤° à¤¶
Ġà¤¸à¤® à¤Ŀ
à¤ Ĳ
à¥ĭ à¥¤
Ġà¤Ĩ à¤°
Ġà¤ Ĭ
Ġà¤ħ à¤¸
Ġà¤¯ à¤¦
Ġà¤ļ à¤²
Ġà¤ħ à¤ª
Ġà¤īà¤ª à¤¯
à¤¤ à¤ķ
Ġà¤Ĩà¤ª à¤ķ
Ġà¤Ĩ à¤¤
Ġà¤¬ à¤ļ
Ġ( _
à¤ª à¤ķ
à¤¨ à¤¨
à¤¸ à¤²
Ġà¤ ł
à¤® à¤²
Ġà¤ľ à¤¹
0 1
Ġ '
à¥Ģ .
à¤² à¤¬
Ġà¤Ĩ à¤Ĺ
à¤¼ à¥į
Ġà¤® à¤¨
à¤® à¤°
Ġà¤¸ à¤¦
o n
Ġ à¥
Ġà¤¸ à¤¤
Â ¥
Â¥ Â
à¤¾ -
à¤Ĺ à¤²
Ġà¤¬ à¤²
à¤ħ à¤¨
Ġà¤Ĩ à¤ķ
à¤° à¤¬
à¤ľ à¤¬
à¤¤ à¤µ
à¤° à¤¨
à¥ģ à¤ģ
à¤¤ à¤®
Ġà¤ħ à¤¬
Ġà¤ľ à¤¨
Ġà¤¶ à¤ķ
Ġà¤Ĩ à¤ľ
Ġà¤¬à¤¦ à¤²
à¤ķ à¤¨
Ġà¤ħ à¤Ĺà¤°
m e
à¥Īà¤Ĥ .
Ġà¤ķ à¤²
à¤¥ à¤µ
à¤¼ à¥ĭ
Ġà¤ħ à¤ķ
à¤ĸ à¤¨
à¥Ģ -
Ġà¤ ¢
t i
à¤¿ ,
à¥ĭà¤Ĥ ,
Ġà¤ī à¤ł
Ġà¤¬ à¤¸
Ġà¤® à¤¹à¤¤
à¤Ł à¤ķ
Ġ 3
à¤¨ à¤®
Ġà¤° à¤¬
à¤¨ à¤µ
Ġà¤Ĩà¤µ à¤¶
à¤ķ à¤¡
à¥ ¦
à¤¡ à¤°
Ġà¤ī à¤ļ
à¥ĩà¤Ĥ à¥¤
à¤² à¤ķ
à¤ľ à¤°
à¥ĩ -
à¤ĩà¤¸ à¤ķ
i n
Ġ n
à¤¯ à¤µà¤¸
Ġà¤īà¤¸ à¤¨
Ġà¤°à¤¹ à¤¤
Ġà¤ª à¤¶
à¤® à¤¸
à¥ĩ .
Ġà¤ľ à¤²
à¤¬ à¤¨
à¤µà¤° à¤£
à¤µ à¤ª
Ġà¤ª à¤¦
Ġà¤Ń à¤°
Ġà¤ľ à¤°
Ġà¤¸à¤¬ à¤¸
Ġà¤Ĩ à¤¨
Ġà¤ ĳ
à¤¨ à¤°
Ġà¤ķà¤¹ à¤¤
à¤· à¤ķ
à¤ı à¤¸
Ġà¤µ à¤¸
Ġà¤¤à¤° à¤«
à¤· à¤¯
a n
à¤ Ĭ
Ġà¤ħ à¤¥à¤µ
Ġà¤īà¤ª à¤²à¤¬
Ġà¤ªà¤° à¤µà¤°
Ġà¤¶ à¤°
à¤¬ à¤²
Ġà¤Ĺ à¤°
à¤ħ à¤²
Ġà¤ĺ à¤°
Ġà¤ľ à¤®
Ġà¤¬ à¤°
Ġà¤¸ à¤ļ
Ġà¤°à¤ĸ à¤¤
Ġà¤ªà¤°à¤µà¤° à¤¦
Ġ Ãł
à¤ķ à¤Ł
à¤¹ à¤¨
à¤Ń à¤µ
à¤ļ à¤¯
Ġà¤īà¤¸ à¤¸
à¤ī à¤¸
ti on
à¤µ à¤¯
Ġà¤īà¤¨ à¤¸
à¤« à¤²
Ġà¤® à¤¦
à¤ħ à¤ªà¤¨
à¤ª à¤¯
Ġà¤ĩ à¤¨à¤ķ
Ġà¤ħ à¤ľ
Ġà¤¬ à¤¤
Ġà¤ Ķ
à¥Ī ?
Ġà¤¤ à¤¬
Ġà¤°à¤ĸ à¤¨
Ġà¤Ĩ à¤¸
à¤ĩ à¤Ł
e r
à¤ķ à¤¸
à¤ī à¤¨à¤ķ
à¤¨ à¤²
à¤Ĩ à¤°
à¤¯ à¤ª
à¤Ĺ à¤®
à¤ĸ à¤¤
a me
à¤ª à¤·
à¤· à¤®
Ġà¤ķà¤° à¤ķ
à¤ Ĳà¤¸
à¤Ĩ à¤Ī
à¤µ à¤ķ
à¥ĭ )
à¥ĩà¤Ĥ )
Ġà¤° à¤ķ
à¤¦ à¤®
à¤ª à¤¸
Ġà¤ĩà¤¸ à¤®
Ġà¤ħà¤µ à¤¸à¤°
Ġà¤°à¤¹ à¤¨
Ġà¤īà¤¨ à¤®
Ġà¤¸à¤¦ à¤¸
à¤° à¤§
à¤ļ à¤°
Ġ t
Ġà¤ķ à¤Ń
§ à¥
p r
à¤ł à¤¨
à¤¼ à¥Į
Ġà¤ħ à¤®
Ġà¤² à¤¡
à¤£ à¤¨
à¤¬ à¤¦
à¤¯ à¤µ
Ġà¤ķ à¤Ī
Ġà¤ī à¤²
à¤¶ à¤¤
âĢ Ļ
à¤°à¤¦ à¤°
à¤¨ à¤¸
Ġà¤ª à¤¢
e s
Ġà¤¸à¤® à¤°
Ġ 5
Ġà¤ Ĳ
à¤¥ à¤®
Ġà¤ħà¤² à¤Ĺ
Ġ2 01
à¤¼ à¥ĭà¤Ĥ
Ġà¤īà¤¸ à¤®
Ġ 4
Ġà¤Ĩ à¤¶
à¤¡ à¤²
à¤® à¤¹
Ġ2 00
Ġà¤¡ à¤°
à¤ ĭ
à¤¸ à¤¤
à¤Ľ à¤²
à¤¸ à¤¦
Ġà¤µ à¤ķ
Ġà¤ķà¤¹ à¤¨
Ġà¤¶ à¤¬
à¤µ à¤µ
Ġà¤§ à¤°
à¤¥ à¤¨
à¤° à¤ľ
à¤¯ à¤²
Ġà¤ĸ à¤°
Ġà¤Ĭ à¤ªà¤°
à¤¨ à¤¦
Ġà¤² à¤ķ
Ġà¤ª à¤ķ
Ġà¤¸à¤® à¤¸
ĠâĢ ĺ
à¤Ł à¤²
a l
à¥Ģà¤Ĥ à¥¤
Ġà¤ĩ à¤¤
Ġà¤ħà¤µ à¤§
Ġà¤¤ à¤¤
Ġà¤ ĭ
à¥ĩà¤Ĥ .
Ġà¤® à¤¤
à¤· à¤¤
Ġà¤® à¤§
Ġà¤Ĩ à¤Ī
à¤ħ à¤¤
Ġà¤Ĺ à¤¤
à¤ĸ à¤°
à¤² à¤Ĺ
à¤¬ à¤¸
Ġà¤¨ à¤µ
à¤§ à¤¤
à¤¦ à¤ķ
à¤Ń à¤Ĺ
Ġà¤Ń à¤µà¤¨
Ġ d
Ġ a
à¤¯ à¤ķà¤¤
Ġà¤ľ à¤Ĺ
Ġà¤¨ à¤Ī
Ġà¤® à¤°
Ġà¤® à¤ľ
à¤¹ à¤ķ
Ġà¤ĩà¤¸ à¤²
Ġà¤®à¤¦ à¤¦
à¤ļ à¤²
Ġà¤¸ à¤¨
1 9
Ġ &
l a
.. .
i t
à¤ī à¤¸à¤ķ
Ġà¤ĩà¤¸ à¤¸
Ġ #
à¤ľ à¤²
o r
à¤¤ à¤¤
Ġà¤Ĩ à¤ı
à¤¬ à¤¤
Ġà¤ħ à¤Ĺ
à¤¬ à¤¹
Ġà¤¦ à¤¸
Ġà¤Ĩ à¤®
à¥Ģà¤Ĥ ,
Ġà¤Ń à¤²
Ġà¤¯ à¤ķ
à¤¤à¤° à¤£
Ġà¤¸ à¤ľ
Ġà¤ħ à¤¦
2 01
à¥Ī ;
à¤¹ à¤²
à¤¸ à¤¸
à¤¯ à¤¸
Ġà¤ĩ à¤¤à¤¨
à¤· à¤®à¤¤
Ġà¤ĸ à¤¡
Ġà¤§ à¤°à¤¤
Ġà¤²à¤Ĺ à¤¤
Ġà¤¨ à¤¯
à¤ħ à¤¬
Ġà¤¸ à¤«
à¤µ à¤§
à¤ħ à¤§
i c
Ġà¤¬ à¤ľ
Ġà¤ķ à¤µ
à¤ı à¤®
4 4
Ġà¤ľ à¤¨à¤¤
à¤ľ à¤¹
à¤¼ à¥Ī
Ġà¤¹ à¤ķ
Ġà¤¹ à¤Ł
Ġà¤¸à¤¹ à¤¯
Ġà¤ķ à¤ł
à¤ª à¤Ł
Ġà¤ĩ à¤²
e e
à¤¾ /
à¤ħ à¤ª
à¤® à¤Ĺ
Ġ k
Ġà¤ľà¤Ĺ à¤¹
à¤¦ à¤Ĺ
Ġà¤ľà¤¬ à¤ķ
à¤¼ à¥Ĥ
Ġ 6
h t
à¤Ń à¤°
à¤¿ )
Â ¾
à¤® à¤¦
à¤Ĩ à¤ª
à¤Ĺ à¤łà¤¨
Ġà¤¸ à¤²
Ġà¤²à¤Ĺ à¤Ńà¤Ĺ
Ġà¤Ĩ à¤¯à¤¤
Ġà¤¶ à¤¹à¤°
Ġà¤ī à¤®
Ġà¤ĭ à¤£
à¤µ à¤ľ
à¤¦ à¤¤
à¥Ī )
à¤£ à¤¯
à¤¹ à¤°à¤£
Ġà¤ļ à¤°
Ġà¤¶ à¤ĸ
Ġà¤Ĩ à¤ĸ
à¤§ à¤°
à¤¼ à¥ĩà¤Ĥ
Ġ :
à¤¸ à¤µ
à¤¾ à¤ĥ
ĠâĢ ľ
à¤ķ à¤¹
à¤ł à¤²
à¤ħ à¤°
o p
Ġà¤« à¤°
à¤ķ à¤®
à¤ı à¤²
à¤Ĺ à¤¨
à¤¹ à¤¤à¤°
Â¥Â į
a b
à¤ª à¤£
à¤ħ à¤Ĺà¤°
ĠâĢ Ŀ
e n
à¤¸ à¤Ń
à¤¾ ?
à¤² à¤®
Ġà¤Ĩà¤¦ à¤®
à¤¸à¤² à¤®
Ġà¤īà¤ª à¤§
Ġà¤¹ à¤¸
Ġà¤ı à¤¸
à¤ļ à¤ķ
à¤ĩ à¤¯
à¤µ à¤¶
à¤° à¤²
Ġ à¥¤
o t
à¤ī à¤¸à¤¨
à¤ħ à¤Ń
Ġà¤¶ à¤¤
Ġà¤§ à¤¨
à¤ĺ à¤°
Ġà¤ļ à¤²à¤¤
à¤² à¤¸
Ġà¤¦ à¤ķ
Ġà¤® à¤Ĺà¤°
Ġ 7
à¤° à¤Ĺ
à¤¨ à¤¯
à¤® à¤ļ
Ġà¤¨ à¤®
Ġ1 8
à¤ł à¤ķ
Â¤Â ķ
Â¤Â °
g m
à¤¹ à¤¸
Ġ 0
Ġ' '
à¤µ à¤ļ
à¤° à¤ļà¤¨
à¥ĩ ?
Ġ <
i i
à¤§ à¤ķ
Ġk gm
l e
a r
Ġà¤® à¤¸
à¤ Ķ
à¤¾ ;
à¥Īà¥¤ "
Ġ 8
à¤² à¤°
Ġà¤ħ à¤ªà¤°
Ġà¤ªà¤¹ à¤ļ
âĢ Ŀ
Ġ _
à¤® à¤¯
r an
à¤° à¤¥à¤®
Ġà¤ķ à¤Ł
a t
à¤¸ à¤¬
à¤Ĩ à¤ľ
Ġà¤ł à¤¹à¤°
Ġà¤ħà¤µ à¤¸
Ġà¤¨ à¤ı
N ame
à¤· à¤°
à¥Į à¤Ĥ
à¤¶ à¤°
Ġà¤Ĩ à¤¸à¤®
Ġà¤¹ à¤²
à¤Ł à¤®
à¤¿ -
à¤ı à¤¨
Ġà¤¤ à¤¹à¤¤
Ġn ame
à¤° à¤ļ
Ġà¤ľ à¤µ
Ġà¤¦ à¤¯
à¥Ĥà¤Ĥ à¥¤
à¤ī à¤¤
Ġà¥ §à¥
à¤² à¤ķà¤°
à¤² à¤µ
à¥¦ à¥¦
00 0
Ġà¤¨ à¤¦
à¤° à¤ª
à¤¶ à¤²
Ġà¤¦ à¤²
Ġà¤° à¤ļà¤¨
à¤ķ à¤µ
à¤Ń à¤ķ
Ġà¤¸à¤¬ à¤ķ
Ġ1 0
à¥ §à¥
Ġà¤ı à¤¨
à¤£ à¤¤
à¤¥ à¤°
à¤ħ à¤®
Â¥Â ĩ
à¤¯ à¤¯à¤¨
à¥ĭà¤Ĥ )
à¤Ĺ à¤¦
Ġà¤ĺ à¤Łà¤¨
à¤ĩà¤¸ à¤²
Ġà¤® à¤ķ
à¤Ĺ à¤¡
à¥Ī -
à¥į -
à¤° à¤Ĺà¤¤
Ġà¤Ń à¤µ
à¤¥ à¤²
Ġà¤¸ à¤µ
Ġà¤¹ à¤µ
à¥Īà¤Ĥ ?
à¤Ĩ à¤ªà¤ķ
Ġà¤ķ à¤¨
op tion
à¥Ģ à¤ĥ
à¤°à¤® à¤£
Ġà¤ĩ à¤ķ
à¤ ĳ
à¤ª à¤¦
Ġà¤¨ à¤ķ
Ġà¤īà¤ª à¤¸
Ġ S
s t
à¤ī à¤¦
à¤¯ à¤µà¤¹
à¤¤ à¤²
Ġà¤ª à¤¸
Ġà¤ħ à¤«
¯ à¥
à¤ľ à¤ķ
à¤ı à¤«
Ġà¤¨ à¤¸
Ġ -
ran s
Ġà¤ĳ à¤«
Ġ c
Ġà¤ª à¤Ł
à¤· à¤¦
à¤Ĩ à¤¤
Ġà¤Ĭ à¤°
Ġà¤¸à¤®à¤Ŀ à¤¤
à¤µ à¤ľà¤¨
à¤ľ à¤¸
à¤Ł à¤¤
Ġà¤¤à¤ķ à¤¨
rans la
Ġà¤Ī à¤¸
option al
Ġà¤ª à¤ķà¤¡
à¥Ī à¤ĥ
Ġà¤¦ à¤¶
Ġà¤ħà¤µ à¤¶
à¤¹ à¤®à¤¨
Ġà¤Ĺ à¤µ
Ġà¤¹ à¤ľ
Ġà¤ªà¤° à¤®
Ġà¤Ĩ à¤ķà¤°
à¤ļ à¤¤
à¤Ĺ à¤µ
Ġà¤īà¤ª à¤¬
Ġ pr
à¤¦ à¤¯
Ġt ransla
Ġ1 5
à¤ħ à¤ľ
Ġ C
Ġà¤ħ à¤Ĺà¤²
à¤ħ à¤¸
Ġà¤¨ à¤ľ
Ġà¤¨ à¤°
Ġà¤Ĺ à¤£
à¤ľ à¤Ĺ
Ġà¤¸à¤« à¤²à¤¤
Ġ2 0
à¤Ĭ à¤£
Ġ 9
Ġà¤® à¤ľà¤¬
Ġà¥ ¨
Ġà¤Ĩà¤ª à¤¸
l y
à¤ĸ à¤²
à¤ª à¤¡
r e
Ġà¤īà¤¨ à¤ªà¤°
Ġà¤¤ à¤®
o m
Ġ A
à¤¯ à¤¯
Ġà¤¯ à¤¥
à¤ĩà¤¸ à¤®
Ġà¤Ĺ à¤¹à¤°
à¤ĩ à¤¡
à¤°à¤¸ à¤¨
Ġà¤ı à¤®
à¤¤ à¤¬
Ġà¤ļ à¤¯à¤¨
à¤¯ à¤¶
Ġà¤īà¤ª à¤ķà¤°à¤£
à¤¥ à¤ķ
à¤Ĥ ,
Ġà¤ī à¤¡
à¤¸ à¤¹
it y
Ġ19 9
o b
à¥ĭ !
à¤® à¤®
à¥ ¨
à¥Īà¤Ĥ )
Ġà¤ľà¤¹ à¤¨
Ġà¤ķ à¤¬
à¤°à¤¹ à¤£
Ġà¤¬ à¤¯
Ġ I
Ġ1 2
/ /
Ġà¤ĩ à¤ļ
à¤ĸ à¤ķ
à¤°à¤ķ à¤Ł
à¤ĵ à¤Ĺ
Â¤Â ¸
à¤ľ à¤¤
Â¤Â ¿
h e
: //
- #
Ġà¤¤ à¤²
à¤° à¤°
Ġà¤µ à¤ľà¤¹
âĢ ĵ
Ġà¤Ķà¤° à¤¤
à¤¼ à¥ī
à¤ħ à¤ļ
Ġà¤Ĩ à¤²
Ġà¤ıà¤ķ à¤¤
Ġà¤® à¤¶
Ġà¤ħ à¤¸à¤®
à¤ī à¤ª
Ġd o
Ġtransla tion
t p
Â¤Â Ĥ
à¥ĭ -
ee d
Ġ1 1
à¤Ł à¤µà¤°
Ġn ot
à¤ĥ %
Ġà¤ª à¤²
Ġà¤¸à¤® à¤ķ
à¥ĥ à¤Ĥ
à¤¬ à¤¡
ht tp
Ġà¤Ľ à¤µ
à¤¸ à¤ª
à¤ķ à¤ª
Ġà¤°à¤ķ à¤®
Ġn eed
Â¤Â ¨
à¥Ĥà¤ģ à¥¤
à¤ħ à¤µ
Ġà¤« à¤²
Ġà¤¦ à¤¬
) ,
à¤ĩà¤¸ à¤¸
à¤¤ à¤ľ
Ġà¤¸ à¤ĸ
à¤¬ à¤Ī
Ġ @
à¤ľ à¤µ
à¥ ħ
à¤Ł à¤µ
à¤¨ à¤¹
à¤Ĺ à¤£
à¤° à¤ĸ
Ġà¤¬ à¤ĸ
s e
Ġà¤ĺ à¤Ł
à¤ĩ à¤ķ
Ġà¤ī à¤ªà¤¨
à¤ª à¤¹à¤²
1 2
Ġà¤Ĩ à¤¦à¤°
Ġdo es
ab ly
Ġpr ob
n t
Ġprob ably
à¤¨ à¤ķà¤°
Ġà¤Ń à¤¯
C ity
à¤£ à¤ªà¤¤
à¤® à¤£
à¤¡ à¤¨
- -
Ġà¤Ķ à¤¦
o l
o u
Ġà¤Ĺ à¤²à¤¤
à¤ħ à¤ķ
Ġà¤ı à¤²
Ġà¤« à¤°à¤®
à¤ª à¤¶
à¤µ à¤µà¤°
à¤¶ à¤¬
Ġà¤ĩ à¤¬
Ġà¤¸ à¤«à¤²
à¤¹ à¤¦
à¤£ à¤µà¤¤
Ġà¤ı à¤ľ
Ġà¤¬ à¤§
à¤Ĩ à¤¨
à¤® à¤ªà¤°
à¤ľ à¤®
à¤ª à¤²
à¤¨à¤¤ à¤®
i s
à¤® à¤Ĺà¤°
à¤¦ à¤²
à¤² à¤Ń
Ġ19 6
Ġà¤ħà¤° à¤¬
o f
Ġà¤ķ à¤¦à¤®
Ġà¤µ à¤¨
à¤ľ à¤¯
Ġ P
Ġà¤¨ à¤Ĺà¤°
Ġ T
Â ²
Ġ M
à¤« à¤°
) :
Ġà¤ªà¤° à¤¨
h er
2 0
à¤Ĺ à¤¦à¤°
à¤Ľ à¤¤
à¥ĩà¥¤ "
n ic
à¤ī à¤Ł
à¤Ĩ à¤¯
à¤¸ à¤°à¤ķ
1 1
Ġà¤¸ à¤ª
à¤¸à¤® à¤¯
Ġà¤Ī à¤¶
à¤¯à¤¤ à¤¨
i l
Ġ p
Ġ b
à¤¶ à¤µ
à¤ļ à¤¯à¤¨
Ġ {
à¤¤à¤° à¤°
à¤¿ .
à¤ªà¤° à¤¨
à¥ĭà¤Ĥ à¥¤
Ġà¤ª à¤¥
Ġà¤ķ à¤¥
à¤°à¤£ à¤¬
à¤¿ à¥¤
Â ª
à¤° à¤Ķ
à¤¼ )
à¥ĭ ?
2 00
à¤ķ à¤Ń
Ġà¤¬ à¤°à¤¸
à¥ĭ .
à¤°à¤Ķ à¤¨
Ġà¤ĸ à¤¤à¤°
e t
Ġ19 5
Ġà¤ļ à¤²à¤¨
à¤ľà¤¨ à¤ķ
w w
-# -#
à¥Ģà¤Ĥ )
à¤¤ à¤ļ
à¤ķ à¤²à¤¨
à¤¿ à¤ĥ
Ġ2 5
1 0
Ġà¤ļ à¤¢
Ġà¤¡ à¤°à¤¤
à¤¦ à¤¶
Ġà¤ķ à¤¡
ht m
à¥ «
à¥Ĥ -
Ġà¤ĺ à¤¡
Ġà¤ķ à¤ķ
Ġà¤¬à¤¨ à¤¨
Ġ F
à¤¦ à¤°à¤¤
âĢ ĺ
Ġ1 6
d i
à¤µ à¤Ł
Ġ19 8
Ġ' %
à¤° à¤µà¤°
' '
Ġà¤ī à¤ªà¤°
à¤ Ļ
à¤® à¤§
Ġà¤Ĩ à¤¬
à¤ķà¤¤ à¤°
Ġ B
Ġà¤¸ à¤¦à¤¨
Âª Ãł
me nt
à¤¸ à¤ļ
Ġà¤ħà¤¸ à¤«à¤²
Ġà¤ķà¤® à¤ľ
à¤¹à¤° à¤¬
Ġà¤¸ à¤¡
à¤® à¤µ
Ġà¤ļ à¤ķ
Ġà¤ĩ à¤¬à¤°
à¤Ĩ à¤§
à¤¨ à¤µà¤°
r a
à¤ķà¤¤ à¤®
à¤Ĥ à¥¤
Ġ f
à¤Ĩ à¤ķ
Ġà¤Ŀ à¤Ĺà¤¡
à¤Ĩ à¤ĸ
Ġà¤« à¤¸à¤²
Ġ19 4
à¤¯ à¤§
Ġà¤° à¤µ
à¤ħà¤² à¤Ĺ
Ġ m
Ġà¤Ĩ à¤¹
Ġà¤ª à¤¨
Ġà¤² à¤ĺ
à¤ĺ à¤¨
Ġà¤ī à¤¤à¤¨
Ġ D
Ġà¤Ń à¤Ĺà¤µ
Ġà¤ļ à¤°à¤£
à¤ĺ à¤Łà¤¨
à¤¤ à¤ª
Ġ [
Ġà¤ļ à¤¨
Ġ1 3
Ġà¤ªà¤° à¤¸
à¤µà¤¹ à¤¨
à¤® à¤ľ
à¤¬ à¤°à¤¦
à¤¹ à¤¬
Ġ19 7
Â¤Â ®
à¤µ à¤¯à¤¨
Ġà¤¦ à¤¶à¤ķ
Ġà¤īà¤ª à¤Ń
à¥ĭà¤Ĥ /
Ġ1 4
à¤ª à¤ļ
Ġ R
à¥Ģ /
à¤¯ à¤¥
à¤° à¤¥
à¤¦ à¤¸
Ġà¤¤ à¤Ł
à¤° à¤«
à¥ §
à¤ĩ à¤®
Ġà¤ķ à¤¶
à¤Ĺ à¤ľ
Ġà¤ħ à¤¶
Ġ U
à¤Ľ à¤µ
Ġà¤ĩ à¤®
à¥ ©
Â¥Â Ģ
à¤ı à¤µ
Ġ N
à¤¸ à¤°à¤£
Ġà¤ı à¤¶
Ġà¤ľà¤¨ à¤¸
Ġà¤¤ à¤¨
1 8
Ġ1 7
à¥ ¬
Ġà¤¹à¤° à¤Ĺ
Ġà¤®à¤¹ à¤¸
Ġt he
Ġà¤ĩ à¤°
à¤Łà¤° à¤¨
à¥ ª
Ġ w
à¥ ľ
âĢ ľ
Ġ3 0
à¤¶ à¤¯
Ġà¤® à¤²
à¤¾à¥¤ "
Ġà¤ī à¤°
Ġà¤¸à¤°à¤ķ à¤¶
à¤Ī à¤²
à¤· à¤ľ
Ġà¤¹ à¤¤
Ġà¤¨ à¤¬
à¤ĸ à¤ķà¤°
à¤¯ à¤£
Ġà¤ĩ à¤ľà¤°
Â¤ Â¤
à¤¹ à¤Ł
Ġà¤¸à¤® à¤¨
à¤ĸ à¤¦
à¥ĩ ;
Ġà¤ħ à¤®à¤°
Ġà¤īà¤ª à¤ļ
à¤ī à¤ļ
e l
Ġ L
Ġà¤¹ à¤¦
Ġà¤¤ à¤¯
Ġà¤¸à¤¹ à¤®à¤¤
Ġ e
à¤° à¤·
Ġà¤¸à¤° à¤²
à¥Īà¤Ĥ -
Ġà¤¬à¤¦ à¤²à¤¨
à¤¾à¤Ĥ ,
à¥ĭà¥¤ "
Ġà¤®à¤¤ à¤²à¤¬
à¤ħ à¤«
Ġ G
ĠâĢ ĵ
Ġà¤° à¤ľ
Ġà¤ķ à¤¦
à¤¯ à¤Łà¤¨
Ġà¤Ĺà¤£ à¤°
à¥ ®
Ġ h
à¥ĩà¤Ĥ ...
Ġà¤ī à¤Ĺ
3 0
à¤¨ à¤Ł
Ġ in
Ġà¤¸ à¤°à¤¦
à¤ª à¤ı
à¥ī .
à¤ª à¤®
Ġà¤¸à¤®à¤Ŀ à¤¨
Ġ H
Ġà¤¬ à¤Ĺ
Ġà¤° à¤¦
c e
Ġà¤ĩà¤¨ à¤®
Ġà¤ħ à¤ĸ
pr es
à¤ĩ à¤ª
à¥ Ń
à¤¡ à¤µ
Ġà¤¤à¤ķ à¤²
à¤¾ !
à¤ĩ à¤¶
à¤ĩ à¤ľ
Ġà¤ı à¤«
Ġà¤Ł à¤¨
1 5
Ġ x
Ġà¤ķ à¤ªà¤¡
u t
à¤¡ à¤®
à¥ī à¤ģ
Ġà¤īà¤¸ à¤ªà¤°
Ġà¤² à¤®
Ġà¤Ĩ à¤ļ
à¥Ģ ;
Â¤Â Ł
Ġà¤ķà¤° à¤µ
à¤¶à¤¨ à¤²
Ġà¤Ĩ à¤ªà¤¨
à¤ı à¤ļ
à¤ī à¤ľ
Ġ g
Ġà¤ľ à¤¡
Ġà¤ħ à¤¹
à¤ĸ à¤Ń
i d
Ġà¤ªà¤° à¤¹
Â¤Â ¯
Ġ5 0
à¤¬ à¤ļ
à¥ĩà¤Ĥ à¤ĥ
Ġà¤ī à¤¤à¤°
Ġà¤¨à¤¹ à¤°
Ġ E
Ġà¤¤ à¤¸
à¥ģ -
en t
à¥Ĥà¤ģ ,
à¥Ī !
à¥ģ .
Ġà¤¸à¤ľ à¤¦
à¤µ à¤Ń
à¤Ĺ à¤ķà¤°
à¤¬ à¤ķ
Ġà¤ĺ à¤¨
à¤µ à¤¦
Ġà¤Ĩ à¤ıà¤Ĺ
à¤ª à¤¥
à¥Ģà¤Ĥ .
Ġà¤īà¤ª à¤ķ
Ġà¤Ń à¤ķ
Ġ O
Ġà¤Ĩ à¤Ń
à¤Ŀ à¤¸
Ġà¤¹ à¤¡
à¤Ł à¤ķà¤°
Ġ +
Ġà¤¸à¤¹ à¤ķ
à¤Ĥ .
Ġà¤ľà¤¨ à¤µà¤°
om ment
1 4
à¤² à¤ļ
à¤¦ à¤¬
1 6
Ġà¤ĩ à¤ķà¤Ł
à¤Ń à¤µà¤¤
Â¥Â ĭ
à¤ħ à¤Ĺà¤²
Ġà¤Ĺ à¤²
Ġà¤¨ à¤·
e d
Ġà¤ĩ à¤ľ
u k
à¤° à¤ķà¤°
e c
à¥Ģ ?
à¤ı à¤¶
à¤¤à¤° à¤¦
à¤¨ à¤Ī
à¤¶ à¤®
à¤¼ -
Ġà¤ª à¤µ
Ġ1 00
Ġà¤Ľ à¤¤
Ġà¤Ĳ à¤¤
Ġ2 4
C omment
à¥ °
à¤ī à¤ªà¤¯
à¤· à¤§
à¤ĩà¤¨ à¤®
à¤ķ à¤ķ
à¤ħ à¤Ĺ
5 0
: %
à¤ĩ à¤¨à¤ķ
Ġà¤ı à¤ļ
à¤Ĩ à¤µ
Ġà¤ľ à¤Ł
Ġ =
à¤µ à¤¦à¤°
a c
Ġà¤ķ à¤¸
Ġà¤¨ à¤ľà¤°
à¤ł à¤Ń
à¤° à¤¯à¤¤
Ġà¤ī à¤ķ
Ġà¤¹à¤® à¤²
.. ..
htm l
1 3
à¤ķ à¤Ī
à¤Ĺ à¤¢
Ġà¥§à¥ ¯à¥
a il
Ġà¤¦ à¤µ
à¤Ĩ à¤¸
à¤ĩ à¤¬
Ġà¤Ĺ à¤łà¤¨
à¤Ī à¤®
i v
Ġ u
à¤¾à¤ģ ,
Ġà¤Ķ à¤²
Ġà¤ª à¤¸à¤¨
à¤¨ à¤ª
Ġà¤ķ à¤ª
Ġà¤µ à¤ļà¤¨
Ġà¤°à¤¹ à¤®
Ġà¤¬à¤¨ à¤¤
Ġà¤ķà¤® à¤°
à¤¨ à¤¬
Ġà¤ļ à¤ĸ
à¤Ł à¤¶à¤¬
à¤ķ à¤¦à¤®
Ġà¤ħà¤¸à¤® à¤°
à¤µ à¤¸à¤¨
à¥ģ ,
Ġà¤¨ à¤«
à¤ĩ à¤µ
à¤¦ à¤µ
à¤ľ à¤ª
Ġà¤ī à¤§
à¤ļ à¤¤à¤®
m uk
à¥¤ "
Ġà¤¸ à¤¶à¤ķ
Ġà¤Ĩ à¤ł
Ġà¥ §
à¤īà¤¨ à¤²
pr an
in g
Ġà¤Ĩ à¤«
j ee
à¤ħ à¤®à¤¤
à¤Ĩ à¤Ĺ
ab muk
her jee
pran abmuk
pranabmuk herjee
Ġà¤ī à¤Ń
Ġà¤Ĺ à¤ł
Ġà¤¹ à¤¥
pr h
r i
à¤® à¤ª
Ġà¥ ©
Ġà¤ĩà¤¸ à¤°
à¤ª à¤¹
Â ¹
à¥Īà¤Ĥ à¤ĥ
Ġà¤Ĩ à¤°à¤®
à¤¤ à¤¥
Ġà¤Ľ à¤¹
à¤¡ à¤ķ
Ġà¤®à¤ľ à¤¦
Ġà¤Ĩ à¤īà¤Ł
q u
à¤Ī à¤¸
Ġà¤ħà¤Ĺ à¤¸
à¤¶ à¤¦
à¤° à¤Ĩà¤¨
Ġà¤¦ à¤°à¤µ
à¤· à¤ķà¤°
à¤ķ à¤¥
Ġà¤ľ à¤¯
à¤¶ à¤¸
à¤¤ à¤¸
2 5
à¥ĩà¤Ĥ ?
à¥Īà¤Ĥ :
Ġà¤ıà¤ķ à¤®
Ġ of
à¤¡ à¤¬
à¤§ à¤µ
Ġà¤¦ à¤°à¤®
Ġà¤® à¤Ī
à¤¸ à¤«
Ġà¤Ĩ à¤¨à¤¨
Ġà¤¬à¤¹ à¤¨
Ġà¤¤ à¤Ń
à¤¾à¤ĥ %
Ġà¤¹à¤® à¤¸
Ġ2 6
à¤ķ à¤¶
Ġà¤°à¤¹ à¤®à¤¤
Ġ( %
Ġà¤ķà¤² à¤ķà¤¤
à¤¯ à¤ľ
Ġà¤Ĩ à¤ĵ
à¤ī à¤²
M E
Ġà¤® à¤Ľà¤²
Ġà¤ī à¤ľ
à¥Ī. ..
à¥Īà¤Ĥ ;
a se
Ġ l
Ġà¤ħ à¤¹à¤®
à¤² à¤¡
à¤ķ à¤²à¤¤
à¤Ľ à¤¨
Â µ
à¤Ĺ à¤£à¤¨
Ġà¤ĺ à¤Łà¤ķ
à¤¯ à¤Ĺ
201 8
à¤¾ :
à¤® à¤°à¤£
ĠâĢĿ -
Ġà¤ħà¤¨ à¤ķ
à¤¸à¤® à¤Ŀ
Ġà¤Ĺ à¤£à¤¨
Ġà¤ľà¤¨ à¤ľ
ii i
à¤ľ à¤§
v i
à¤¸ à¤ľ
à¤Ľ à¤¡
u r
à¤¡ à¤ª
Ġà¤ĸ à¤¤
Ġà¥¨ à¥¦à¥¦
Ġ19 3
Ġà¤Ĩà¤¸ à¤ª
à¤ł à¤¤
0 8
h i
à¤¨ à¤·
Ġ2 8
o w
à¤ŀ à¤¤
à¤¹ à¤µ
à¤ħ à¤¦
Ġà¤Ķ à¤·à¤§
2 3
Ġ Z
Ġà¤Ķ à¤¸à¤¤
Ġà¤¸à¤¤ à¤¹
Ġà¤¬ à¤Łà¤¨
Ġà¤¸à¤® à¤Ĺ
Ġà¤ªà¤² à¤Ł
Ġà¤ĳ à¤¨à¤²
Ġà¤®à¤¹ à¤²
Ġà¤ħà¤µ à¤ľ
> >
1 7
ww w
Ġà¤ı à¤ĸ
à¤¤ à¤ķà¤°
à¤¼à¤¾ à¥¤
à¤°à¤ķ à¤¤
à¤® à¤¶
à¤Ń à¤²
à¤²à¤Ĺ à¤ĩà¤¨
à¥Ī :
à¤ķ à¤®à¤¤
Ġà¤ħà¤ª à¤®
f o
à¤° à¤ļà¤²
Ġà¤Ń à¤¤
à¤ªà¤° à¤¸
Ġ2 3
e m
Ġà¤Ń à¤Łà¤ķ
ĠâĢ ¦
à¤£ à¤ķ
à¤¦ à¤ª
Ġà¤ľà¤² à¤µ
Ġà¤Ī à¤°
Âµ Ãł
Ġ200 0
Ġ196 1
Â¤Â ¦
à¥§à¥ ¯à¥
à¤ĩ à¤¤à¤¨
Ġà¤¹à¤Ł à¤ķà¤°
Ġà¤ıà¤ķ à¤²
Ġà¤ħà¤¸ à¤²
Ġà¤¸à¤¹ à¤ľ
Ġ2 7
Ġà¤ķ à¤¤
Ġà¤ª à¤ļ
Â¤Â ı
2 2
Ġà¤ħ à¤¡
à¤¨ à¤¶
à¤Ĺ à¤ł
Ġ2 1
o g
à¥ģ à¤ĥ
Ġà¤¬ à¤ķ
Ġà¤² à¤ķà¤¡
Ġà¤īà¤ª à¤ĸ
Ġà¤īà¤² à¤Ł
à¤Ĩ à¤®
Ġ3 1
Ġ201 5
di a
Â¤Â ľ
Ġ W
Ġ201 4
à¤² à¤¦
Ġà¤ħà¤µ à¤¤à¤°
Ġà¤ĩà¤¨ à¤¸
Ġà¤¬à¤ļ à¤¤
ĠâĢ İ
Ġà¤ªà¤¹ à¤¨
in fo
Ġà¤ķ à¤ļ
Ġà¤ı à¤¹à¤¸
Ġà¤°à¤¹ à¤¸
Â¤Â Ĺ
2 4
à¥ĩ !
à¤¯ à¤¬
à¤¸ à¤µà¤°
Ġà¤«à¤° à¤µà¤°
à¥ ¯
Ġ8 0
à¤īà¤¨ à¤®
Â ¼
le ase
Ġà¤ļ à¤Ł
à¤Ĺ à¤¶
6 0
Â¤Â ¡
à¤ª à¤£à¤¨
à¤ľ à¤Ń
à¤ĩ à¤¤
Ġà¤µà¤° à¤¨
Ġ2 2
\ \
Ġ4 0
A N
à¤ģ ,
à¤ľà¤¨ à¤¨
0 9
à¥Ī? "
à¥ĭ ;
Ġà¤Ń à¤¡
Ġ /
Ġà¤« à¤ľ
Ġà¤īà¤ª à¤ľ
à¤ĩ à¤°
o me
à¤¸ à¤¬à¤¸
à¤® à¤ķà¤¤
à¤¹ à¤Ĺ
u s
à¤¼à¤¾ )
a g
Ġà¤Ĩ à¤®à¤¤
à¤¯à¤® à¤¨
Ġ201 6
Ġà¤µ à¤Ĺ
201 4
à¤¨ à¤ı
à¤¼ ,
Ġà¤Ĩ à¤°à¤ķ
Ġà¤ĸ à¤¨
Ġà¤īà¤ª à¤¦
Ġ qu
à¤¨ à¤Ĺà¤°
19 9
Ġà¤® à¤£
à¤¶ à¤ĸ
à¤Ī à¤¯
Ġà¤ħ à¤¯
' %
) ...
à¤² à¤¹
Ġà¤ĸ à¤ľ
Ġà¤īà¤ł à¤¤
Ġà¤ħ à¤¹à¤²
Ġà¤¨à¤ķ à¤¦
à¥Ĥà¤Ĥ ,
à¤¸ à¤ķà¤°
à¤¸ à¤ªà¤°
Ġà¤Ĺ à¤¦
Ġà¤Ń à¤°à¤¨
Ġ" %
à¤¸ à¤Ł
Ġà¤ļ à¤¤
Ġ201 3
à¤« à¤²à¤¤
Ġà¤ĸ à¤£
Ġà¤® à¤ļ
Ġà¤ħ à¤¸à¤°
Ġà¤ħà¤ķ à¤¬à¤°
a s
à¤°à¤¹ à¤µ
Ġà¤ľ à¤¤
à¤£ à¤µ
à¤¾ '
à¤¨ à¤µà¤¤
Ġt o
Ġqu ot
à¤Ĩ à¤¦
à¤ķ à¤¬
Ġà¤¸à¤¹ à¤Ń
Ġà¤Ł à¤°
à¤ĸ à¤¡
A T
Ġà¤ľ à¤Ĺà¤¤
à¤ħ à¤ªà¤°
à¤°à¤® à¤¶
A P
Ġà¤ķà¤¹ à¤²
Ġà¤®à¤¤ à¤¦
S L
à¤Ĩ à¤²
à¤¤ à¤Ĺ
in dia
an d
Ġà¤¹à¤® à¤ķ
Ġ Y
Ġà¤Ĺ à¤¨
à¤Ĩ à¤īà¤Ł
âĢ Ķ
à¤¾ âĢĻ
à¥Ĥ ,
Ġ y
à¤¯ à¤Łà¤ķ
i on
à¤ħ à¤¶
Ġà¤¸à¤¤ à¤¤
à¥Ģ !
Ġà¤ľ à¤ľ
0 7
o c
Ġà¥ «
a tion
Ġà¤ķ à¤·
i st
a d
Ġà¤ªà¤° à¤¤
à¤Ĩ à¤¶
Â¤Â «
à¤ĺ à¤ķ
à¥ Ĭ
à¤¯ à¤ķà¤°
0 2
0 5
Ġà¤ªà¤° à¤¦
Ġ i
Ġà¤ħ à¤µà¤°
O R
Ġà¤¬à¤¦ à¤²à¤¤
et ail
at e
à¤µ à¤°à¤ķ
à¥ĩà¤Ĥ -
Ġ< /
Ġà¤¬ à¤ļà¤¨
) à¥¤
à¤ª à¤¬
à¤¡ à¤ķà¤°
Ġà¤Ķ à¤ľ
à¤¬ à¤Ĺ
Ġà¤¸ à¤¸
Ġà¤ī à¤Ńà¤°
Ġà¤ªà¤° à¤µ
Ġ201 7
pres s
à¤¯à¤ķ à¤²
Ġà¤® à¤Ĺ
Ġà¤Ĺ à¤¢
Ġà¤ħà¤¨ à¤¨
à¤Ł à¤¸
à¤¹ à¤²à¤¤
à¤£ à¤¸
à¤ļ à¤°à¤£
2 1
) .
Ġà¤ķ à¤¥à¤¨
à¤¦à¤¨ à¤¶
à¤ĭ à¤£
à¥ĭà¤Ĥ -
Ġà¤¬à¤¨ à¤ķà¤°
à¤īà¤¨ à¤¸
Ġ V
Ġà¤²à¤Ĺ à¤¨
Ġ200 6
Ġà¤¦ à¤«
à¤°à¤¬ à¤¨
à¤¸à¤® à¤°
Ġà¤Ń à¤Ł
Ġà¤¬à¤¦ à¤ķ
Ġ3 5
Ġà¤ªà¤° à¤¸à¤¤
Ġ v
à¤ į
Ġà¤Ĺ à¤¹à¤¨
Ġà¤¶ à¤°à¤£
id ent
c h
Ġà¤ħ à¤Ł
à¤ŀ à¤ª
Ġ6 0
Ġà¤Ĭ à¤¤à¤ķ
I N
à¤¶ à¤²à¤¤
à¤ľà¤¬ à¤ķ
Ġà¤ı à¤ª
Ġà¤® à¤¸à¤²
Ġà¤¬ à¤®
Ġ200 7
à¤ľ à¤¦
Ġà¤¸ à¤ªà¤¨
pres ident
of india
à¤¼à¥ĩ -
à¥Ĥ .
Ġà¤ļ à¤®à¤ķ
president ofindia
Â¤Â ¬
à¤² à¤ª
Ġà¤¨ à¤²
re lease
Ġf or
à¥ Ĩ
à¤¹ à¤¶
d etail
e x
" ,
â ĺ
" %
Ġà¤¸à¤° à¤ªà¤°à¤¸
A R
à¤« à¤¤
2 8
à¥į ;
Ġ r
à¤ģ .
Ġà¥ ª
Ġ200 5
a m
à¤® à¤¡
à¤ª à¤Łà¤¨
Ġà¤ħ à¤®à¤²
à¥Ģ '
à¤ļ à¤¤à¤°
Ġà¤¦à¤° à¤¬
/ -
à¤Ĭ à¤ªà¤°
Ġà¤¬à¤ľ à¤Ł
a o
à¤ļ à¤µ
à¤ĸ à¤£
Ġà¤ĳ à¤¡
à¤²à¤ļ à¤¸
à¤Ĩà¤Ī à¤¸
Ġà¤Ĺ à¤¡
Ġ2 9
Ġà¤¨à¤µ à¤®
à¤ķ à¤£
à¤¤ à¤¯
Ġà¤®à¤¦à¤¦ à¤Ĺ
Ġà¤ı à¤¡
à¤ķ à¤¦
Ġà¤¢ à¤ķ
Ġà¤Ķ à¤ªà¤ļ
Ġà¤ĩà¤¸ à¤¨
à¤¹ à¤ľ
Ġà¤« à¤Ł
ĠâĢĺ âĢĺ
Â¤Â ¶
Ġà¥ ¬
Ġà¤¬ à¤Ł
Ġà¤Ĩà¤ļ à¤°à¤£
u b
à¤¿ /
Ġà¤° à¤¤
-#-# -#-#
à¤¯ à¤·
Ġà¤Ĺ à¤µà¤°
Ġà¤ı à¤¹à¤¦
2 6
2 7
Ġà¤¬à¤¹ à¤¸
0 3
i a
Ġà¤¨ à¤¤
Ġ *
à¤¬ à¤¢
à¤² à¤ľ
à¤¶ à¤¹à¤°
Ġà¤°à¤ĸ à¤ķà¤°
0 4
à¤ĩ à¤ı
à¤¯à¤¤ à¤¯
à¤¥ à¤¤
Ġà¤ħà¤¸ à¤¹
Ġà¤īà¤ª à¤¹
Ġà¤¬à¤¹ à¤ķ
Ġà¤ħà¤µ à¤ķ
Ġà¤® à¤°à¤¨
Ġà¤° à¤£à¤¨
201 5
Ġc om
n g
Ġ X
à¤¯ à¤°à¤¤
à¤¬à¤°à¤¦ à¤¸
à¤ļ à¤²à¤¨
Ġà¤Ĩà¤¦ à¤¤
à¤Ĺà¤£ à¤ķ
Ġà¤¤ à¤ĸ
à¤¬ à¤µ
Ġà¤ªà¤¥ à¤Ń
à¤ļ à¤ķà¤°
Ġà¤Ľ à¤ª
Ġ re
Ġà¤Ń à¤°à¤¤
à¤¨ à¤ļ
à¤² à¤ĺ
Ġà¤ĳ à¤ªà¤°
à¤ģ à¥¤
à¤ĳ à¤«
à¤ī à¤¡
à¤ĩ à¤¬à¤°
Ġà¤ľà¤¨ à¤°à¤²
à¤ı à¤Ł
âĺ »
0 6
à¤Ń à¤°à¤¤
2 9
à¤¯ à¤µà¤°
à¤¹ à¤¨à¤¤
à¤ľ à¤¹à¤¨
à¤¼ à¤Ĥ
à¤Ĩ à¤ªà¤¨
Ġà¤¦ à¤¹
à¤ı à¤¡
à¤¬à¤¦ à¤²
Ġà¤° à¤¨
Ġà¤° à¤ļ
a y
à¤¦ à¤¦
Ġ( )
à¥ Ľ
Ġà¤Ńà¤° à¤ª
à¤Ĩà¤Ī à¤Ł
à¤¹à¤° à¤²
à¤° à¤ľà¤¨à¤¨
Ġà¤ħà¤ª à¤µ
à¤¼à¤¾ ,
à¥Ĥà¤ģà¥¤ "
à¥ĭà¤Ĥ !
o v
Ġ200 1
t r
à¤ľ à¤ªà¤¤
Ġ201 9
l d
à¤°à¤¦ à¤¤
Ġà¤ĵ à¤¡
19 4
Ġà¤Ĩà¤ķ à¤²à¤¨
Ġ201 2
à¥į ,
Â¥Â Ī
à¤ı à¤ª
Ġà¤¸à¤¹ à¤¨
in d
t h
à¤µ à¤£
Ġà¤« à¤²à¤¸
Ġà¤ħà¤¹à¤® à¤¦
ĠU R
Ġà¤ķ à¤£
. âĢĵ
à¤¾ %
Ġà¤¬ à¤°à¤¤
à¤ħ à¤¯
à¤¯ à¤Ł
à¤¶ à¤¹
8 5
A ME
à¤¡ à¤¸
à¥Ģà¤Ĥ ?
à¤ķà¤¸ à¤Ń
u m
Ġ or
à¤ıà¤® à¤Ī
à¤¼ à¥ĩà¥¤
à¤Ĺ à¤ª
à¤Ĩà¤° à¤ı
Ġà¤¤ à¤¸à¤¬
à¤Ń à¤¦
Ġ200 8
à¤¸à¤¬ à¤ķ
R AN
Ġà¤ ·
Ġc on
à¥ĩ /
à¤¾? "
t er
Ġà¤¦ à¤®
à¤« à¤ķ
à¤« à¤°à¤®
à¤ī à¤¸à¤®
Ġà¤¹à¤ķ à¤¦
en er
à¤¦ à¤ķà¤¤
à¤¯ à¤Ń
d e
Ġà¤µ à¤¨à¤¸
à¤ľ à¤°à¤¤
Ġà¤ıà¤ķ à¤¦à¤®
à¤ħ à¤¸à¤²
à¤¼à¥Ģ -
l i
Ġà¤¥ à¤ķ
201 6
à¤¸ à¤ĸ
à¤µ à¤Ĺ
à¥ī à¤Ĥ
Â¥Â ģ
à¤°à¤¬ à¤²
Ġà¤Ĩà¤¶ à¤¯
e at
Ġà¤¬ à¤¹à¤°
19 7
à¤¸à¤¦ à¤¸
à¤¾ à¤¾
201 3
à¤¨ à¤¯à¤¨
Ġà¤ĩ à¤ĸ
-- --
à¤Ĭ à¤¦
Ġà¤Ĩ à¤ªà¤°
19 5
Ġà¤ķ à¤ļà¤°
à¤ªà¤° à¤®
Ġà¤ĩà¤¸ à¤ªà¤°
à¤¸ à¤¶
Ġà¤ķ à¤¤à¤°
a p
à¤¦ à¤¹
à¤¼ à¥ĩ,
Ġà¤ķà¤° à¤®
Ġà¤ĸ à¤¬à¤°
o o
à¤ķ à¤ħà¤ª
à¤¬ à¤ľ
à¤ª à¤µ
Ġà¤¨ à¤°à¤®
à¤ļ à¤¢
ĠâĢľ %
Ġ20 20
Ġà¤Ĩà¤ª à¤¦
Ġà¤¸à¤ķ à¤¨
Ġ# -#-#-#-#
ag e
h is
à¥Ģ :
Â¥Â Ĥ
Ġà¤² à¤¹à¤°
à¤· à¤ª
à¤ªà¤° à¤µ
Ġà¥ ¦
à¤Ĺ à¤µà¤¤
à¤· à¤Ĺ
Ġà¤®à¤¤ à¤Ń
à¤ª à¤¢
Ġà¤¦à¤° à¤ĸ
à¤Ī à¤¶
eat her
Ġà¤¸ à¤¤à¤°
Ġà¤® à¤°à¤¤
Â¤Â ĩ
Ġà¤¸à¤ļ à¤®
à¤¶ à¤®à¤¨
o s
h at
à¥ĩ à¤ĥ
à¤¦à¤° à¤Ĺ
Ġ200 2
Ġà¤¸ à¤Ł
à¤¾à¤ģ )
19 8
à¥Īà¥¤ -
Ġà¤¸à¤® à¤¤
Ġà¤¶ à¤¹
Ġà¤¯ à¤¤
! "
Ġà¤¬ à¤¹à¤¤
à¤¼à¥Ģ )
e w
Ġà¤ħ à¤Łà¤²
Ġ7 5
à¥ĩ %
Ġà¤§ à¤¨à¤°
Â¤Â ļ
u l
Ġà¤ĩ à¤¤à¤°
Ġà¤ĩà¤¨ à¤ª
Ġ11 5
Ġà¤ħà¤« à¤Ĺ
Ġ9 0
M L
Ġà¤ħà¤µ à¤²
à¤ı à¤¬
à¤°à¤ķ à¤²
Ġ199 9
u n
à¤Ł à¤«
Ġà¤§ à¤®à¤ķ
à¤µ à¤®
Ġà¤ı à¤¯à¤°
à¥¨ à¥¦à¥¦
w eather
à¤· à¤°à¤¤
Ġà¤ħà¤µ à¤¯à¤µ
à¤ī à¤°
Ġà¤ªà¤¤ à¤²
à¤¼à¥ĩ )
à¥ĩ? "
Ġà¤ĩ à¤·
Ġà¤ı à¤¹à¤ķ
à¤¤ à¤¯à¤¶
Ġà¤® à¤°à¤®
Ġ4 5
o x
à¤²à¤Ĺ à¤Ńà¤Ĺ
à¤² à¤Ŀ
Ġà¤ħà¤² à¤¬à¤¤
à¤¼à¥Ģ ,
à¤ĺ à¤Ł
Ġà¤¸à¤ķ à¤²
à¤¨ à¤ľ
à¤µ à¤¥
à¤ı à¤¶à¤¨
à¤Ĺ à¤®à¤¨
3 9
er s
Ġà¤ĩ à¤¶
or t
Ġà¤µ à¤¶
à¤ıà¤« à¤¸
à¥Ģ âĢĻ
à¤® à¤¹à¤¤
Ġà¤Ĩà¤īà¤Ł à¤ª
à¤¬ à¤ĸ
à¤Ĺ à¤¸
à¤Ń à¤¨
Ġà¤¶ à¤²
à¤¿ à¤ĥ%
3 5
i g
à¤®à¤¹ à¤²
Ġà¤¹ à¤«
à¤¸à¤® à¤¸
E R
Ġà¤ª à¤¬
à¤Ĺ à¤ķ
ĠO F
19 6
k e
m p
Ġà¤Ĩà¤Ī à¤¡
r ic
Ġà¤µà¤¹ à¤¨
à¤Ł à¤ħà¤ª
Ġà¤Ĩ à¤¡
w or
à¤¯ à¤¡
Ġà¤¹à¤® à¤ªà¤°
à¤Ķ à¤¦
Ġ $
Ġà¤ļ à¤®à¤¤
ĠT RAN
OR S
à¥ Ŀ
AT ORS
SL ATORS
ĠTRAN SLATORS
Ġ o
à¤° à¤Ĺà¤°
Ġ3 6
à¤¤ à¤¶
à¤· à¤¸
à¤¤ à¤¹
Ġ3 2
Ġà¥§à¥ «
Ġà¤¤ à¤¯à¤¶
à¤Ī à¤Ł
Ġà¤°à¤ĸ à¤°à¤ĸ
I I
à¤ıà¤¸ à¤ıà¤¸
à¤Ł à¤¬
à¤ī à¤ªà¤°
Â ħ
Ġà¤° à¤«
3 1
à¤¤ à¤¦
Ġ200 3
Ġ18 9
T P
à¤¬ à¤§
à¤« à¤²à¤ķ
Ġà¤Ľ à¤ł
Ġà¤ħà¤Ĺà¤° à¤ļ
8 0
à¤ ³
à¤µ à¤¤à¤¨
à¤£ à¤®
à¤®à¤¦ à¤¦
à¤ī à¤®
à¤ıà¤® à¤ıà¤¸
Ġà¤ĩà¤¬ à¤°à¤¤
à¤ª à¤¹à¤°
à¤Ń à¤ª
Ġà¤¤ à¤¹
à¤¥ à¤Ĺ
Ġà¤ı à¤°
Â¤Â ĸ
c ol
Ġ K
à¤¾à¤ģ -
es s
à¤µ à¤ļà¤¨
Ġà¤ļ à¤¶
à¤ķà¤° à¤¨
Ġà¤ĸà¤¤à¤° à¤¨
Ġà¤¨ à¤®à¤ķ
Ġà¤ħà¤ĸ à¤¬
I S
Ġà¤ħ à¤£
Ġ201 1
à¤¼à¤¾ -
à¤¤à¤¨ à¤¤
Ġà¤¬à¤¨ à¤µ
Ġ200 4
à¤ĳ à¤¡
à¤¸ à¤¡
la b
à¥Īà¤ĥ %
à¤ª à¤Łà¤²
Ġà¤µ à¤ľà¤¨
Ġà¤¦ à¤¤
C on
à¤¨ à¤¡
à¤ĩ à¤«
Ġ ;
e f
t le
y p
Ġà¤¬ à¤°à¤¬
à¤ħ à¤®à¤°
Ġà¤ĺ à¤°à¤µ
à¤® à¤Ł
à¤¤à¤° à¤¹
Ġà¥§à¥ ®
Ġà¤ķ à¤µà¤°
à¤¹ à¤¡
Ġà¤®à¤¹ à¤«
: -
Ġà¤¨ à¤ķà¤²
à¤« à¤¡
à¤Ĩà¤Ī à¤ıà¤¸
à¤£à¤¤ à¤¯
n ome
à¥ĩà¤Ĥ ;
à¤¬ à¤Ł
Ġà¤² à¤²
Ġà¤² à¤¶
Ġ195 6
à¤¦ à¤Ń
à¤ħ à¤¸à¤®
Ġà¤īà¤² à¤Ŀ
Ġ it
à¥ħ à¤¾
Ġà¤µ à¤²
4 0
Ġà¤ĺ à¤¬à¤°
Ġà¤ĭ à¤·
âĺ» âĺ»
Ġ J
M A
à¤¨ à¤Ĺ
à¤¡ à¤¤
Ġà¤°à¤¹ à¤ķà¤°
à¥§à¥ ®
Ġà¤µ à¤ľ
à¤² à¤Ł
à¤Ŀ à¤ķ
Ġà¤Ĺ à¤®
Ġà¤Ĩ à¤µà¤°à¤£
Ġà¤¯ à¤ľ
la tion
à¤ī à¤ªà¤¨
I L
Ġà¤Ĩà¤Ī à¤Ł
Ġà¤¨ à¤¶
Ġà¤ķà¤® à¤²
Ġ201 8
Ġà¤¡ à¤¬
à¤īà¤¸ à¤¸
Ġ201 0
Ġà¤¸ à¤°à¤¸
Ġà¤¶ à¤ªà¤¥
Ġà¤« à¤²à¤ķ
Ġà¤¦à¤° à¤Ĺ
r ee
Ġà¤¶ à¤¸
l ic
à¤¤ à¤°à¤ķ
Ġà¤ıà¤ķ à¤ľ
Ġà¤Ĺ à¤£à¤¤
à¤ĩà¤¨ à¤¸
. )
/ %
7 5
Ġ Ġ
Ġà¤Ĩà¤¯ à¤ķà¤°
à¤Łà¤° à¤ª
Ġà¥ Ń
4 5
c t
Ġà¤¬ à¤ķà¤°
Ġà¤² à¤ª
à¤§ à¤ª
Ġà¤¸à¤¹ à¤¸
Ġà¤Ĩà¤® à¤¦à¤¨
Ġtransla t
Ġà¤® à¤ĸ
Â¤Â ģ
201 9
ti ng
à¤ĩà¤¸ à¤¨
n u
Ġà¤ı à¤£
Ġà¤¢ à¤²
à¤Ĭ à¤°
Ġà¤ĭ à¤¤
à¤īà¤ª à¤ķà¤°à¤£
Ġ http
à¤¾ "
Ġ( .
Â¤Â Ĩ
à¤Ł à¤ª
m i
Ġà¤¹à¤® à¤®
à¤ħ à¤°à¤¬
Ġà¤īà¤ª à¤Ĺ
Ġà¤ħà¤µ à¤Ĺà¤¤
a f
en d
Ġ7 0
, %
Ġ is
Ġà¤¤ à¤°à¤ķ
Ġà¤ĺ à¤®
à¤¶à¤¨ à¤°
à¤¹ à¤¯
Ġs t
à¤² à¤¯à¤¨
Ġ me
Ġà¤Ĩà¤Ĺ à¤®à¤¨
à¤Ĩà¤Ī à¤¡
vi r
à¤ıà¤® à¤ıà¤²
à¤ĵ à¤ıà¤¸
Ġà¤Ł à¤ķà¤°
Ġà¤ĵ à¤¬
à¤Ŀ à¤ªà¤°
à¤°à¤¸ à¤µ
er v
à¤Ĺ à¤²à¤¤
Ġà¤ĵ à¤ªà¤¨
Ġ200 9
T ML
a st
h ou
Ġ `
à¥Ģ) ,
à¤£ à¤Ĺ
Ġà¤¬à¤ļ à¤ªà¤¨
n d
à¤¹ à¤£
à¤ĸà¤¨ à¤Ĭ
Ġà¤¨à¤ľ à¤¦
ec t
à¤° à¤¸à¤°
à¤ļ à¤®
Ġà¤ħà¤« à¤¸
Ġà¤ıà¤® à¤ıà¤¸
Ġà¤ĩà¤¸ à¤¹
Ġ Â
à¤® à¤ļà¤¨
à¥Ĥà¤ģ .
v e
à¥ ¯à¥
à¤Ĺ à¤Łà¤¨
Ġà¤ı à¤Ł
st el
Ġà¤īà¤Ń à¤°à¤¤
à¤ľ à¤®à¤¹à¤²
Ġà¤¬ à¤¦à¤°
Ġà¤¦à¤° à¤ľ
Ġà¤īà¤ł à¤¨
Ġà¤łà¤¹à¤° à¤¨
1 00
Ġà¤¬ à¤°à¤ķà¤¤
à¤² à¤«
Ġà¤ª à¤ł
Ġà¤ľ à¤¨à¤¨
à¤Ī à¤ľ
Ġà¤ĵ à¤µà¤°
Ġ0 2
à¤¯ à¤ķà¤°à¤£
à¤¸à¤® à¤¨
s s
à¤ĩà¤¸ à¤°
à¤¼à¥Ģ à¥¤
Ġà¤¸ à¤¶à¤¸
Ġà¤Ĺ à¤ľ
à¥Ģà¤Ĥ -
Ġà¤ªà¤¦ à¤ķ
Ġà¤ħà¤µ à¤¤
Ġà¤ļ à¤°à¤®
à¤¢ à¤¨
201 2
Ġà¤² à¤¯
Ġb e
stel lation
i le
Ġà¤¤ à¤¦à¤¬
Ġ3 3
à¤¼ à¤¿à¤Ĥ
Ġà¥ ®
à¤¨ à¤ªà¤°
à¤ķ à¤ł
O N
Ġà¤ĳ à¤¸
à¤īà¤ª à¤Ń
a h
à¤ı à¤°
à¤§ à¤°à¤£
Ġà¤¤à¤° à¤²
à¤Ĩà¤° à¤ıà¤²
à¤§ à¤®
à¤Ĩ à¤¦à¤®
à¤®à¤² à¤µ
Ġ18 5
Con stellation
Ġà¤² à¤Łà¤ķ
à¤· à¤¯à¤ķ
à¤Ĩ à¤ĩ
Ġà¤¬ à¤¶à¤°
à¤ħ à¤µà¤¸
Ġà¤Ĩ à¤ĺ
Ġ194 7
âĢĿ à¥¤
Ġ 01
à¤¤ à¤°à¤¤
in e
Ġà¤ª à¤¤à¤¨
à¤°à¤¹ à¤®
Ġ18 8
à¤¤ à¤Ń
Ġà¤¬ à¤Ĺà¤²
à¥Ĥ )
à¤Ī à¤ķ
à¤īà¤ª à¤²à¤¬
Ġà¤Ĩà¤ª à¤¤
ti tle
ar e
200 1
Ġà¤² à¤¦
à¤¤à¤ķ à¤¨
à¤®à¤° à¤¨
à¥§ à¥¦
3 6
b ox
Ġà¤ª à¤łà¤¨
à¤¬ à¤®
Ġà¤² à¤ļ
Â¥Â ī
Ġp o
Ġà¤®à¤¨ à¤®
à¤ħ à¤ĸ
Ġ4 4
à¤Ķ à¤ľ
Ġà¤« à¤¸
M S
Ġà¤Ń à¤Ĺ
à¤¯à¤° à¤§
à¤¨à¤¸ à¤Ń
col or
Ġà¤¨ à¤°à¤¸
Ġà¤¬ à¤Ľà¤¡
à¤ħ à¤µà¤°
à¤Ńà¤Ĺ à¤µ
à¤ĵ à¤¸
Ġà¤ĸ à¤ªà¤¤
Ġ15 0
à¥ ŀ
à¤ı à¤ľ
à¤Ĩà¤Ī à¤ª
à¤Ŀ à¤ķà¤°
Ġà¤§ à¤ķ
à¤¨ à¤ľà¤¨à¤ķ
à¤ķ à¤ķà¤°
à¤¸ à¤°à¤¤
à¤ª à¤°à¤ķ
Ġà¥¨ à¥¦
à¤® à¤ķà¤°à¤£
à¥ĭà¤Ĥ ?
Ġà¤Ľ à¤¡
ener ic
Ġà¤¤ à¤«
à¤ħ à¤¹
Ġ5 00
à¤¾ à¥į
Ġà¤ķ à¤ªà¤Ł
à¤°à¤µ à¤£
201 7
Ġà¥§ à¥¦
s p
à¤ķ à¤ļ
à¤Łà¤° à¤«
o og
à¥Ĥà¤ģ ?
Ġà¤ħà¤ª à¤¶
ex t
oog le
Ġb ut
Ġà¤¤ à¤¸à¤¦
à¤Ĩ à¤¹
a a
Ġà¤µ à¤¯à¤¸
Ġà¤ı à¤¨à¤ķ
Ġà¤§ à¤¡
Ġ18 7
Ġà¤ħà¤¨ à¤¦
Ġà¤Ĩà¤Ī à¤¸
à¤µ à¤°à¤¤
Ġà¤®à¤° à¤¯à¤®
Ġà¤· à¤¡
3 4
à¤¯ à¤ļ
Ġà¤ļ à¤®à¤¡
Ġà¤ī à¤·
Ġà¤ıà¤ķ à¤¡
Ġà¤ħà¤¸ à¤«à¤²à¤¤
g u
à¥ĭà¤Ĥ .
p p
à¤Ń à¤¯
à¤°à¤¦ à¤¸
Ġ199 2
à¤ħà¤ķ à¤¬à¤°
ĠUR L
Ġà¤® à¤¹à¤°
à¤ĺ à¤¡
ĠI D
à¤°à¤¹ à¤ķ
à¤ĩà¤¨ à¤°
Ġà¤¹ à¤°à¤ķà¤¤
à¤ľ à¤¶
Ġ4 8
h an
Â¤Â ·
Ġà¤¸à¤®à¤Ŀ à¤¦
Ġ194 8
à¤² à¤²
à¤Ī à¤ª
à¤¿ :
à¤ľà¤¨ à¤¯
à¥Īà¤Ĥ: -
à¤¿ ;
à¤¾. ..
Ġà¤ħà¤ª à¤²
2 000
Ġà¤² à¤¤
à¤ĩ à¤ľà¤°
à¥ĭ? "
R O
Ã ī
Ġ and
à¤¯ à¤°à¤¸
Ġà¤®à¤ķ à¤¬à¤°
à¤Ī à¤¨
âĢĻ âĢĻ
Ġà¤ħà¤¸ à¤¤
M AP
Ġ3 7
3 3
à¤§ à¤ķà¤°
à¤Ĺ à¤ªà¤¤
Ġà¤ħ à¤¥
à¤« à¤¨
5 00
Ġà¤ĸ à¤¨à¤¨
à¤ĳ à¤¨à¤²
( )
or y
Ġ3 4
à¤¯ à¤ľà¤¨à¤ķ
Ġà¤ªà¤° à¤ľ
à¤°à¤¤ à¤®
Ġà¤ª à¤Łà¤²
à¤ª à¤ķà¤°
à¥Ģà¤Ĥ ;
N AME
i al
à¤ª à¤°à¤¤
Ġà¤ªà¤¹ à¤¨à¤¤
G eneric
à¤µ à¤¡
Ġà¤¦ à¤®à¤¨
à¤¾) ,
la mi
at lami
ra vir
Ġà¤ħà¤Ł à¤ķà¤²
ravir atlami
} "
Ġà¤² à¤ĸà¤¨à¤Ĭ
Ġà¤Ĩà¤ķ à¤¸
Ġh i
f or
à¤° à¤«à¤²
Ġà¤ľ à¤¨à¤ķ
à¤§ à¤°à¤¤
ind ow
à¤ħ à¤Ł
à¥Ģà¥¤ "
Ġà¤ļà¤² à¤ķà¤°
a in
Ġà¤ī à¤¬
à¤¥ à¤¶
Ġà¤ħà¤Ń à¤¯
Ġà¤¸à¤®à¤ķ à¤ķ
ion s
Ġà¤Ľ à¤²
à¤¨ à¤«
à¤ļ à¤µà¤°
à¤®à¤¨ à¤¦
Ġà¤ĳ à¤ķ
Ġà¤ľà¤Ĺ à¤¨
à¥¦à¥¦ à¥¦
lab el
Ġà¤¤ à¤¦
Ġà¤ĸ à¤²
Ġà¤ķà¤¹ à¤ķà¤°
Ġ195 0
à¤Ĺ à¤°à¤£
à¤¶ à¤Ńà¤ķ
Ġà¤ĳ à¤Ł
à¤ıà¤¸ à¤¸
Ġà¤ĩ à¤«
Ġà¤ĳ à¤°
à¤§ à¤¡
Ġ( &
à¤Ĩ à¤¸à¤®
ar d
à¥§à¥ «
O P
i r
Ġà¤® à¤²à¤¯
" "
à¤Łà¤ķ à¤Ł
Ġà¤Ĩ à¤Ĺà¤°
à¤°à¤¶ à¤¸
Ġà¤¤ à¤®à¤¨
Ġà¤¸à¤¬ à¤¬
ou r
' ,
à¤¸ à¤Ĺà¤¢
Ġà¤¹ à¤¨
Ġà¤° à¤¥
Ġà¤®à¤¹ à¤ľ
ar t
Ġw hat
à¤ħ à¤µà¤§
it em
Ġor g
à¤Ī à¤°
à¤ĩ à¤µà¤°
Ġà¤¸à¤° à¤²à¤¤
Ġà¤ħà¤ķ à¤¡
à¤¶ à¤ľ
ac tion
Ġà¥§à¥¯à¥ ¯à¥
Ġà¤®à¤°à¤¤ à¤¬
3 8
e v
Ġà¤ľ à¤²à¤¨
à¤ł à¤ķà¤°
à¥Īà¤Ĥà¥¤ "
st his
ou nt
Ġwhat sthis
3 7
h r
Ġà¤Ĩ à¤¹à¤°à¤£
à¤ī à¤ªà¤¸
Ġà¤¦à¤¶ à¤®à¤²à¤µ
MA IL
Ġ1 000
Ġà¤¤ à¤¦à¤¨
Ġà¤ıà¤ķ à¤ķ
Ġ199 8
Ġ3 00
à¤ĳ à¤ķ
n c
à¤· à¤¬
Ġ Name
à¤ĵ à¤°
à¤¹ à¤ª
Ġà¤¸à¤¹ à¤¨à¤¶
Ġà¤ĵ à¤²
er m
à¤ı à¤ĵ
à¤§ à¤²
Ġ" "
à¤ıà¤¸ à¤Ł
Ġ www
à¤Ŀ à¤¤
à¤Ĥ /
à¤ķ à¤ļà¤°
à¤ı à¤®à¤¸
ĠâĢ Ļ
3 2
o d
à¤Ĥ -
à¤ł à¤°
t on
à¤¶ à¤ª
à¤Ĩ à¤µà¤ľ
Ġà¤ľà¤¬ à¤°à¤¦à¤¸
Ġà¥§à¥ ¨
e b
à¤Ĩ à¤µà¤¶
à¤ĥ -
Ġà¤¦ à¤¹à¤²
I C
à¤² à¤ªà¤¤
Ġà¤ĩ à¤§à¤°
à¥§à¥ ¨
yp e
à¤² à¤ĸ
à¤ĸ à¤¨à¤¨
à¤Ĩà¤° à¤Ĩà¤Ī
R e
à¤¤ à¤ĸ
I T
u st
Ġ ,
Ġà¤ıà¤¨ à¤ª
c ri
à¤¸ à¤ĺ
à¤® à¤¦à¤°
à¥ĩà¤Ĥ %
à¤ĸ à¤Ł
à¤ĵ à¤¡
à¤ĺ à¤²
à¤ħà¤¤ à¤ıà¤µ
E A
E MAIL
Ġ j
Ġà¤¸ à¤ĭ
Ġà¤Ĩ à¤µà¤°
à¤Ń à¤µà¤¨
à¤Ĩà¤° à¤Ł
s er
ï ¿
Ġà¤ ĥ
à¤¨ à¤¤à¤°
à¤² à¤¶
à¤· à¤ľà¤¨à¤ķ
à¤Ĩ à¤¬
à¤¹à¤° à¤Ĺ
ti c
Ġà¤ªà¤¡ à¤¤
Ġà¤ĳ à¤¨
Generic Name
ï¿ ½
I D
Ġà¤² à¤ľ
à¥Ĥà¤Ĥ .
di tion
Ġà¤ī à¤ĸ
Ġà¤¯ à¤®
Ġ199 1
à¤£ à¤°
à¥ĥ .
U R
Ġ on
Ġà¤ª à¤Łà¤¨
ĠB AR
9 9
à¥ĭ %
Ġà¤® à¤ł
Ġà¤ľ à¤ķà¤¡
à¤£ à¤ª
Ġà¤ľ à¤¯à¤ª
Ġà¤ħ à¤·
à¤Ĩ à¤ı
Ġà¤Ī à¤¸à¤µ
Ġ4 2
or e
a ol
à¤ı à¤¨à¤¸
Ġà¤Ĩ à¤¸à¤¨
Ġ0 8
à¤Ī à¤µ
x x
à¤® à¤¬
à¤· à¤¯à¤µà¤¸
à¤ĩà¤¨ à¤²
Ġà¤Ĭ à¤¨
Ġ199 7
Ġà¤īà¤¤ à¤°à¤¤
201 1
Ġ198 7
) -
Ġà¤µ à¤«
Ġà¤¬ à¤°à¤¹à¤ķ
Ġà¤Ĺ à¤°à¤®
à¤Ĩ à¤¡
E N
Ġà¤ľà¤¬ à¤¤à¤ķ
n j
ran ce
ec ast
Ġfor ecast
Ġà¤Ń à¤£
à¤Ĩ à¤ĩà¤ı
à¤ĭ à¤¤
Ġ18 6
cri p
à¤¹ à¤ľà¤¹
h ar
g nome
Ġà¤ħ à¤®à¤¨
Ġà¤µ à¤§
à¥Īà¤Ĥ !
i m
à¤ı à¤ķà¤²
à¤ĸ à¤µ
à¤Ī à¤¡
Ġà¤« à¤ķ
à¤®à¤¨ à¤ªà¤¸
Ġà¤ļ à¤¹
à¤Ī à¤¦
Ġà¤īà¤¦ à¤¯
ut a
à¤ķ à¤Ĺ
Ġà¤¤ à¤ľ
Ġà¤¸à¤¦ à¤ķ
) ;
Ġà¤µ à¤¬
Ġà¤ĩ à¤£
u g
à¤ķ à¤¹à¤¤
Ġà¤µ à¤°à¤¦
Ġà¤¤ à¤µ
à¤¬ à¤¹à¤°
Ġà¤ı à¤Ĺ
à¤ģ ?
à¤ĺ à¤µ
Ġà¤Ŀ à¤²à¤ķ
hou ld
Ġà¤¨ à¤¨
Â¤Â ¥
Ġà¤®à¤¨ à¤ªà¤¸
ĠN AME
c k
à¤¾ à¥°
Ġà¤ª à¤£
Ġà¤ħ à¤°à¤µ
Ġ6 5
Ġà¤¨à¤Ĺà¤° à¤ª
Ġà¤¦ à¤£
Ġà¤¡ à¤ķ
wor ld
à¤Ĺ à¤¹à¤°
Ġà¤¬ à¥Ŀ
Ġà¤Ķ à¤ļ
Ġà¤¸à¤« à¤°
à¥¨ à¥¦
à¤Ĥ )
D AP
O M
j ect
à¤ĺ à¤Łà¤ķ
nj uta
r y
à¤¿ %
à¤¤ à¤§
à¤Ĩ à¤ł
à¤ł à¤¹à¤°
à¤¯à¤® à¤¯
Ġ3 8
5 5
Ġà¤ī à¤§à¤°
à¤Ĺà¤® à¤Ĺ
ĠUR I
à¤Ĩ à¤Ń
Ġcon dition
g e
h ort
à¥Ģ "
Ġà¤Ĭ à¤·
Ġ4 7
à¤Ĩà¤īà¤Ł à¤ª
E X
Ġà¤Ĩà¤ł à¤µ
à¤¾ à¤¿
Ġà¤¹ à¤²à¤ķ
Ġà¤ļ à¤®
à¤Ŀ à¤²
à¤µà¤¨ à¤¸
à¥§à¥ Ń
Ġ198 6
ric a
on g
Ġ199 6
à¤¤ à¤¦à¤¨
C T
I ME
à¤ļ à¤¸
Ġà¤Ĩ à¤ĩ
Â¤Â Ī
is s
ĠG N
4 8
à¤® à¤ĸ
à¤ī à¤ķ
à¤¸à¤° à¤²
à¤ıà¤¸ à¤¡
Ġà¤ į
Ġà¤¬ à¤¦à¤¨
à¤¬ à¤µà¤¤
Ġà¤Ń à¤Ĺà¤¤
Ġ199 3
ah oo
f rance
Ġà¤ª à¤¥à¤°
Ġà¤ļ à¤®à¤ķà¤¤
Ġà¤« à¤¤
Ġà¤¡ à¤°à¤¨
Ġ198 0
Ġà¤¨ à¤Ĺ
à¤ĥ ,
à¤ıà¤¸ à¤Ĩà¤Ī
a i
Ġà¤¸ à¤īà¤¦
à¤Ĺ à¤¯
à¤ľà¤¨ à¤¸
à¤ķà¤Ł à¤¤
ab le
à¥§à¥ ©
Ġà¤ħ à¤¹à¤¸
à¤ĵ à¤ª
Ġ198 8
à¤Ĩ à¤°à¤¸
à¤¨à¤ķ à¤¦
Ġà¤ķà¤² à¤®
à¥§à¥ ª
à¥§à¥ ¬
7 0
c on
à¥ĩ :
à¤ª à¤¸à¤¨
à¤¶ à¤Ĺ
Ġà¤ħà¤¨ à¤ľ
à¤ī à¤§à¤°
Ġà¤Ĩà¤Ī à¤ª
Ġà¥§à¥ ¯
Ġà¤ħà¤« à¤¸à¤°
à¤ªà¤¹ à¤ļ
6 4
d er
Ġà¤¤ à¤²à¤µ
200 7
ĠG oogle
à¤¸ à¤ĭ
à¤ī à¤£
à¤¯à¤° à¤²
ĠH TML
b er
à¤¾ âĢĿ
à¤ĩ à¤ķà¤²
à¤ħ à¤²à¤¬
ti me
en se
S A
S I
S T
Ġà¤¤ à¤ªà¤¸
à¤ħ à¤µà¤ķ
Ġà¤§ à¤¬
Ġ an
Ġà¤¬ à¤°à¤ķ
Ġà¤ķà¤° à¤£
à¤ľà¤¨ à¤¤
à¤¾ à¥Ģ
Ġà¤¸à¤® à¤¤à¤²
à¤¶à¤ķ à¤¶
à¤¸ à¤¹à¤ķ
Ġà¤ĩ à¤Łà¤²
à¤ħ à¤¡
Ġà¥§à¥ ¬
9 0
à¤Ĺ à¤¬
à¤ľ à¤¬à¤°
Ġà¤īà¤ª à¤µ
Ġà¤® à¤µ
à¤Ľ à¤ª
Ġà¤īà¤ª à¤Ĺà¤¤
à¤°à¤ļ à¤²à¤¨
a v
à¤¤ à¤¸à¤°
à¤¾) à¥¤
à¤Ĩà¤° à¤¡
à¤Ĩà¤Ī à¤ĵà¤ıà¤¸
a k
à¤ľ à¤¡
à¤¥ à¤ª
à¤Ķ à¤·à¤§
oc k
à¤ķ à¤ľ
Ġà¤¹ à¤ł
on e
à¤ĳ à¤¸
à¤² à¤Ĺà¤¤
Ġà¤ħà¤§ à¤°
à¤¯à¤µ à¤¶
à¤ıà¤¨ à¤ª
he l
à¤¤ à¤®à¤ķ
à¤ª à¤ħà¤ª
Ġà¤Ĺ à¤§
Ġ4 3
u e
Ġ ï¿½
à¤Ĺ à¤¹
à¤ĸ à¤®
Ġ5 5
it e
ar y
Ġà¤ķ à¤ľ
à¤Ń à¤¤
Ġà¤¬à¤¢ à¤¤
Ġà¤¬à¤¸ à¤µ
Ġ195 7
Ġtranslat e
% )
n a
à¤ķà¤Ł à¤µà¤°
ĠI S
ou nd
ao M
i z
à¤° à¤ªà¤Ł
Ġà¤ķ à¤«
à¤® à¤Ľà¤²
Ġà¤¤ à¤²à¤¬
à¤ľà¤¨ à¤°à¤²
Ġ z
à¤® à¤Ī
Ġà¤ª à¤µà¤¨
ub lic
Ġà¤ıà¤®à¤ıà¤¸ à¤ıà¤®à¤Ī
5 9
à¤ī à¤Ĺ
à¤°à¤® à¤¤
ic ense
i f
à¤« à¤¸à¤²
Ġà¤¬à¤¦à¤² à¤ķà¤°
à¤¬à¤¤ à¤¦
à¤ļ à¤²à¤¤
à¤¡ à¤Ĺ
à¤¡ à¤ĭ
à¤Ĩ à¤ļ
à¥Ģà¤Ĥà¥¤ "
à¤ıà¤® à¤ª
à¥§à¥ ¯
i p
Ġà¤ī à¤ķà¤¸
Ġà¤Ĩà¤ľ à¤ķà¤²
Ġà¥§à¥¯à¥ ®
9 6
à¤¨ à¤¹à¤°
à¤¬ à¤Łà¤¨
à¤°à¤® à¤°
o de
à¤¾ à¤¼
à¤¤ à¤¬à¤²
à¤ķ à¤¯
à¤ħ à¤µà¤¶
à¤µ à¤¨à¤ķ
Ġà¤¤ à¤ª
Ġà¤Ĩ à¤Ł
à¤°à¤¤ à¤µ
es t
85 9
---- ----
3 00
K C
Ġà¤§ à¤®à¤¨
Â¤Â £
Ġà¤¦à¤¸ à¤µ
Ġ0 3
Ġà¥¦ à¥¦à¥¦
m a
à¤¾ à¥ĩ
à¤Ĺ à¤µà¤°
à¤¼ à¥ĭ,
Ġà¤Ł à¤²
à¤¦à¤® à¤¯
Ġ199 5
Ġà¤¯ à¤¨
à¤¼à¥ĩà¤Ĥ ...
ĠC hr
.... ..
à¤īà¤² à¤Ł
E L
Â¤Â §
Ġà¤ĵ à¤¸
Ġ197 6
Ġà¤ħà¤µ à¤¹
Ġà¤¦à¤¹ à¤ķà¤¤
à¥ī )
a ti
} '
Ġà¤ļ à¤¯
à¤¾à¤Ĥ à¥¤
à¤Ĩ à¤¨à¤¨
à¤¸à¤° à¤¦
à¤ıà¤¸ à¤ıà¤²
un it
g t
à¤ħ à¤£
Ġ3 9
Ġ0 9
à¥§à¥¯à¥ ¯à¥
? "
à¤¹ à¤®à¤¤
à¤ľà¤¨ à¤µà¤°
Ġs hould
in k
Ġ199 0
Ġà¤ľ à¤¹à¤°
à¤ļ à¤¡
Ġà¤ªà¤° à¤²
. %
Ġ Q
Ġà¤¶ à¤¨
à¤« à¤Ł
à¤Ĩ à¤ĵ
Ġà¤ĵ à¤ľ
Ġà¤ħà¤ª à¤¡
S S
u re
v ii
à¥ ¥
Ġà¤¸ à¤ĺà¤¨
Ġ5 4
à¥ģ à¥¤
à¤ı à¤¦
à¤ľà¤² à¤µ
à¤Ĩà¤ľ à¤ķà¤²
à¤¼ à¥ĭà¥¤
Ġà¤ĸ à¤¦
à¤ī à¤Łà¤²
Ġà¤ħà¤¤ à¤ıà¤µ
Ġà¤µà¤ļà¤¨ à¤¬à¤¦
6 6
à¤ª à¤²à¤¬
Ġà¤° à¤®
à¤Ĩ à¤®à¤¤
ov in
Ġï¿½ \
à¤ĸ à¤ĸ
Ġà¤Ĩà¤° à¤ľ
Ġà¤¬à¤² à¤°
Ġà¤Ńà¤¯ à¤Ń
ĠL icense
Ġà¤ķ à¤¸à¤®
à¤® à¤ļà¤°
à¤ĩ à¤²à¤¨
Ġà¤ħà¤µ à¤®
à¤ıà¤¨ à¤ı
Ġ197 1
id e
Ġà¤ļ à¤¬
Ġà¤¸à¤¬ à¤¨
Ġà¤¸à¤®à¤Ŀ à¤ķà¤°
à¥ĭ à¤ĥ
à¥Ģà¤Ĥ !
Ġ5 1
indow s
Ġà¤¦ à¤¨
à¤¥ à¤¯
Ġà¤Ĩ à¤®à¤¨
194 7
4 7
à¤° à¤ķà¤°à¤£
à¤ķ à¤®à¤°
à¤® à¤µà¤°
Ġ( "
Ġà¤ĺ à¤Łà¤¤
à¤°à¤¦ à¤¨
à¥ĭ! "
of t
Ġà¤īà¤¤à¤° à¤¨
à¥Ī) à¥¤
her e
à¤ıà¤ļ à¤Ł
Ġ24 5
Ġà¤¬à¤°à¤¤ à¤¨
li b
à¤ľ à¤°à¤¨
âĢĻ ,
Ġà¤Ĳ à¤²
ou t
à¥Ī! "
à¤¸ à¤Ĺ
Ġà¤¹ à¤Łà¤¨
Ġà¤¯ à¤ķà¤¤
Ġà¤¬à¤¦ à¤¤à¤°
Ġ4 9
200 2
m at
à¥ĭ /
Ġà¤¸ à¤Ĺ
à¤¤à¤° à¤«
Ġà¤§ à¤®
à¤µà¤¤ à¤®
in t
Ġ4 6
à¤ĭ à¤°
it al
iss ions
8 859
T TP
à¤Ł à¤Ł
à¤¼à¤¾ .
Â¤Â ī
à¤¹à¤® à¤¦
Ġà¤²à¤¶ à¤ķà¤°
Ġà¤¬à¤°à¤ķ à¤¤à¤µ
à¤ķ à¤ªà¤Ł
Ġà¤ħ à¤Ľ
à¤§ à¤ªà¤¤
à¤ķà¤² à¤ķà¤¤
à¤ªà¤¶ à¤ª
Ġà¤ħ à¤ł
Ġà¤ī à¤¦à¤°
Ġà¤ĵ à¤®
Ġà¤Ĳ à¤ķ
EA D
à¤¸ à¤¨à¤ķ
Ġà¤® à¤¯
à¤ľ à¤ķà¤¤
à¤· à¤ĭ
à¤ĵ à¤²
Ġ" {
à¥Īà¤ĥ -
Ġà¥¨ à¥«
ist an
Ġà¤¶ à¤¯
Ġ5 6
la y
Ġà¤¨à¤« à¤°à¤¤
8 7
Ġ \
à¤° à¤Ł
à¤ı à¤Ĩà¤°
à¤¥ à¤Ĺà¤¨
Ġà¤ĸ à¤Ł
à¤Ľ à¤°
es crip
Ġ195 1
Ġ197 0
Ġ197 2
O L
à¥Ĥà¤Ĥ ?
Ġà¤Ĩà¤Ĺ à¤®
Ġà¥ ¯
à¥§à¥ §
à¤¿ à¤¼
à¥ĩà¤Ĥ /
à¤¥ à¤¸
à¤Ľ à¤¦
à¤ħ à¤¥à¤µ
à¤ł à¤®
à¤ķà¤² à¤ķà¤°
à¤®à¤ķ à¤¥
Ġ19 30
Ġà¤Ĳ à¤¬
à¤ĳ à¤ªà¤°
Ġà¤ªà¤² à¤Łà¤¨
9 5
D U
P RO
à¤ķ à¤¹à¤¨
Ġà¤ĺ à¤¨à¤¤
Ġà¤Ŀ à¤Łà¤ķ
Ġ0 4
le x
âĢĿ ,
ĠH EAD
r ou
à¤¤à¤¨ à¤¶
ĠChr ome
p s
Í ¾
Ġà¤ĸ à¤Ĺ
Ġà¤ħà¤¨ à¤§
à¤ī à¤¥
Ġà¤¸à¤° à¤Ĺ
à¤·à¤¯ à¤£
8 8
à¤¬ à¤²à¤¤
à¤¤à¤° à¤«à¤²à¤ķ
Ġà¤ľà¤¨ à¤Ĺà¤£à¤¨
Ġ4 00
195 6
U T
Ġà¤ªà¤¹ à¤°
à¤¯à¤® à¤¶
Ġà¤īà¤ł à¤ķà¤°
Ġà¤ĳ à¤¬
ic e
Ġ195 2
Ġ25 0
Ġ197 4
Ġe v
S hort
Ġà¤ķ à¤Ľ
à¤¦ à¤£
à¤¹à¤° à¤ħà¤²
à¤ªà¤ķ à¤¨
Ġà¤¨à¤µ à¤ľ
Ġ198 5
Ġà¤Ĺà¤ł à¤¬
escrip tion
u tion
à¤¤ à¤«
Ġà¤ª à¤Ľà¤¤
à¤· à¤¨
Ġà¤Ĩ à¤Ĭ
âĢ ¦
Ġà¤ªà¤¹ à¤¨à¤¨
à¤Ĳ à¤¬
à¤¯à¤¸ à¤Ń
Ġà¤ªà¤² à¤Łà¤ķà¤°
Ġ198 9
Ġe x
Ġà¤Ńà¤Ł à¤ķà¤¤
e p
i x
Ġà¤® à¤¥
à¤¼ à¤¼à¥ģ
Ġà¤¥ à¤°
à¤Ĩà¤Ī à¤ı
200 9
Ġ194 6
Ġ194 9
ul t
à¤° à¤ĺ
à¥į )
à¤¸ à¤¹à¤¨
Ġà¤ħ à¤ľà¤¨
Ġà¤ĳ à¤ª
Ġà¤²à¤¡ à¤ķ
à¤·à¤¤ à¤¯
à¥§à¥¯à¥ Ń
à¥Ģ %
à¥ģ )
à¤Ĩ à¤ªà¤¸
an t
al l
Ġ: -
Ġà¤¸à¤¡ à¤ķ
9 7
à¤² à¤®à¤¨
à¤ī à¤§
Ġà¤¤à¤° à¤ľ
Ġà¤ł à¤¨
ate g
S erv
à¤¨ à¤ľà¤°
à¤ľ à¤ķà¤°
à¤Ł à¤¤à¤®
Ġà¤° à¤£
à¤ĩ à¤Ĺ
Ġà¥§à¥ Ń
ener al
5 7
6 7
I n
S E
a ce
m b
à¤¨à¤¤ à¤¦
à¥Ĥà¤ģ )
Ġtranslat ed
I P
à¤¹ à¤«
à¤ķà¤° EMAIL
à¤¤à¤¨ à¤®
Ġà¤¬à¤¤ à¤²
à¤®à¤ľ à¤¦
à¤Ńà¤µà¤¤ à¤¯
à¤ħà¤Ĺ à¤¸
à¤¸ à¤¦à¤¨
Ġà¤Ķ à¤ªà¤¨
D E
Ġà¤¤ à¤¡
à¤§ à¤¨à¤¤
Ġà¤ıà¤ķ à¤°
à¤°à¤ķ à¤Łà¤¨
Ġà¤īà¤ª à¤®
Ġà¤ĺ à¤¸
Ġà¤ħà¤¸à¤¹ à¤®à¤¤
e ar
Ġà¤Ń à¤¦
à¤°à¤® à¤ķ
Ġà¥ ŀ
Ġ* .
L ex
à¤¾à¤Ĥ -
à¤°à¤µ à¤¤
Ġà¤Ĳ à¤¶
à¤ıà¤¨ à¤Ĩà¤°
8 9
à¤ļ à¤®à¤ķ
à¤ķà¤° à¤ĺ
à¤ĩà¤¨ à¤ª
200 5
c c
k t
r or
à¤¤ à¤Ł
Ġà¤² à¤Ł
à¤ĩ à¤ļ
Ġ0 5
Ġ12 0
à¤¥ à¤¡
Ġà¤« à¤²à¤¨
à¤Ķà¤° à¤¤
Â¤Â Ľ
Ġà¤Ĳ à¤¨
6 5
à¤¸ City
à¤¼ à¥°
à¤ģ à¤ĥ
à¤²à¤¤ à¤®
Ġ196 0
il l
Ġà¤Ĩà¤« à¤¤
ri b
N T
U ri
Ġ |
à¤ĸ à¤²à¤¨
Ġà¤ĩ à¤¬à¤²
à¤ĩ à¤¦
à¤ī à¤ł
à¤°à¤¸ à¤¤
à¤ķà¤Ł à¤¤à¤®
à¤Łà¤² à¤°
it h
af rica
DU CT
Lex Uri
LexUri Serv
C al
h a
à¥ĩ ...
Ġà¤ľ à¤®à¤¨
à¤ľ à¤Ł
Ġà¤¬ à¥ľ
à¤¶ à¤Ń
Ġà¤ªà¤° à¤ĸ
à¤Ī à¤ļ
à¤ħà¤²à¤¬ à¤¤
V D
à¤¿ '
Ġà¤ī à¤Ľ
à¤¬ à¤¹à¤¨
à¤Ł à¤¡
à¤ĩ à¤¡à¤°
à¤ĺ à¤®
à¤Ĩà¤Ī à¤¬
Ġà¤ĸà¤° à¤Ĺ
Ġ6 4
ĠÂ ·
u er
à¤Ĩ à¤°à¤ķ
iv er
t o
Ġà¤® à¤ķà¤¸
à¤Ĺ à¤«à¤²
à¤£ à¤ķà¤Ł
à¤ĵ à¤®
Ġà¤¤à¤¬ à¤ķ
à¤¯à¤µ à¤§
Ġà¤īà¤²à¤Ŀ à¤¨
à¤¨ City
Ġà¤¨ à¤ª
à¤ı à¤¨à¤ķ
à¤ĸ à¤Ĺ
à¤ķà¤° à¤®
âĢľ %
à¤°à¤£ à¤¤à¤¯
à¤Ŀ à¤¨
Ġ5 2
oo k
à¤ķ à¤°à¤¤
à¤® à¤ªà¤¤
à¤Ĺ à¤Ĺ
à¤Ĺ à¤ĩà¤¨
à¤°à¤¹ à¤¨
à¤¦à¤° à¤ĸ
à¤¬à¤¸ à¤µ
ĠGN U
s y
à¤¸ à¤¤à¤¨
à¥ĩà¤Ĥ !
à¤Ī à¤ıà¤¸
à¤ĩ à¤ªà¤°
à¤°à¤¦ à¤¯
à¤ĳ à¤«à¤²
Ġà¤ķà¤¸ à¤°à¤¤
Ġà¤ı à¤¡à¤µ
à¤ĩà¤¸ à¤ªà¤°
Ġà¤ĺ à¤£
à¤ľà¤° à¤²
à¤ıà¤® à¤Ł
ĠC on
200 6
Ġu se
ateg ory
I M
Ġà¤¹ à¤¸à¤¨
à¤ı à¤ķà¤¤
à¤¡ à¤¬à¤²
à¤¤à¤° à¤ľ
à¤ĵ à¤¨
à¤Ĺà¤¤ à¤¤
ur op
IN K
4 3
à¤° à¤ľà¤¨
à¤² à¤¹à¤°
Ġà¤ĩ à¤¦
à¤ĵ à¤¹
à¤¯à¤¤ à¤®
à¤ĩà¤Ł à¤®
201 0
Ġ8 5
.... ....
Ġ )
à¤µ à¤¸à¤®
Ġà¤Ĩ à¤²à¤®
à¤µà¤° à¤®
à¤µà¤² à¤ªà¤°
Ġ7 2
Ġg nome
t or
à¤¸ à¤ķà¤¤
à¥Īà¤Ĥ ...
à¤Ĩ à¤Ĺà¤°
Ġà¤Ī à¤ķ
Ġà¤Ĩà¤ķ à¤¡
me nu
200 8
à¥Ģ? "
rou p
m ail
s h
Ġ le
à¤¿ "
à¤® à¤Ń
st ar
Ġ197 3
iv e
Ġà¤¤à¤« à¤¸
erm issions
4 2
g han
à¤ģ à¥¤"
Ġà¤īà¤² à¤«
à¤¾! "
l ist
à¤¯ à¤ľà¤²
Ġà¤¨ à¤µà¤¯
Ġà¤ļ à¤¹à¤°
à¤Ĩ à¤¯à¤¤
ti l
Ġ4 1
4 9
c tion
e y
à¤ľ à¤¯à¤¨
à¤¤à¤° à¤µà¤°
à¤¢ à¤ķ
Ġà¤ĵ à¤Ł
à¤¨à¤µ à¤ľ
ke y
SI ON
à¤¤ à¤ķà¤²
à¤ª à¤ķà¤¤
à¤ļ à¤Ł
à¤Ŀ à¤®
à¤īà¤¸ à¤ªà¤°
Ġà¥§à¥ ª
à¤¹à¤Ł à¤ķà¤°
ghan istan
4 6
à¤¯ à¤°à¤µ
à¥Ī âĢĿ
à¤Ĺ à¤®à¤¤
à¥ĭà¤Ĥ ;
Ġà¤Ĺ à¤°à¤¦à¤¨
à¤ıà¤¸ à¤ª
at h
Ġà¥¨à¥¦à¥¦ à¥®
am p
ital y
5 8
A njuta
w are
à¤° à¤¡
Ġà¤Ľ à¤¨
à¤¸à¤¹ à¤¯
199 9
PRO DUCT
7 7
Ġ ra
Ġà¤ Ĥ
Ġà¤ī à¤¥à¤²
à¤ł à¤¶
oft ware
C ount
S t
z il
à¤¤ à¤ĺ
Ġà¤ħ à¤¥à¤ķ
à¤Ł à¤¯
Ġà¤ľà¤¨ à¤¶à¤ķ
à¤ıà¤¸ à¤ı
en ef
at us
à¤® à¤ķà¤°
Ġà¤® à¤ķà¤°
à¤ĸ à¤¬à¤°
Ġà¤¶ à¤µ
Ġà¤īà¤ª à¤®à¤¹
Ġà¤ħà¤µ à¤¤à¤°à¤£
à¤ķà¤² à¤ķ
Ġà¤ħà¤ķ à¤¸à¤°
A L
Ġ \\
Ġà¤¹ à¤¬
à¥ĩà¤Ĥ :
à¤ĵ à¤¬
à¤¤à¤¨ à¤ª
à¤µà¤² à¤ªà¤®
Ġà¤ħà¤ļ à¤²
Ġ7 4
à¤Ķ à¤¸à¤¤
Ġà¤Ĺà¤£ à¤®
Ġ199 4
ĠI I
Ġà¥© à¥¦
enef it
à¤ĵ à¤µà¤°
à¤¢ à¤¤
Ġà¤īà¤ļ à¤ķ
à¤ıà¤¸ à¤¬
st ate
af ghanistan
- %
6 8
à¤® à¤ı
à¤¹ à¤¥
à¤ĩ à¤®à¤°
à¤ħ à¤µà¤²
à¤¾à¤ģ à¥¤
à¤°à¤® à¤¬à¤¦
Ġà¤Ĩà¤µ à¤§
Ġ âĺ»âĺ»
à¤° à¤ªà¤°
à¤¿ âĢį
à¤¤ à¤¡
Ġà¤¥ à¤²
à¤Ĺà¤® à¤°à¤®à¤°
re d
" )
4 1
5 1
C C
H TML
or d
Ġà¤®à¤¸ à¤ĸ
Ġ196 3
ĠP ublic
Ġ198 4
Ġ13 9
à¤ıà¤ļ à¤ª
à¤¬à¤ľ à¤Ł
IS O
Ġme nu
l o
à¥ĩ "
à¤Ĺ à¤Ń
Ġà¤ħ à¤¹à¤¦
à¤¬ à¤Ĺà¤°
Ġà¤Ń à¤°à¤£
Ġà¤¸à¤® à¤ľ
à¤¦à¤¨ à¤ªà¤¤
à¤Łà¤ķ à¤ķ
à¤Ĩà¤° à¤ıà¤¸
à¥§à¥¯à¥ ®
à¤¬ à¤ķà¤°
Ġà¤Ń à¤Ĺà¤µà¤¤
Ġà¥§à¥ ©
ol der
- >
a ke
d r
t s
à¤¸ à¤¬à¤°
à¤§ à¤¶
Ġà¤¡ à¤Ł
âĢ ĭ
Ġm on
à¥Ī: -
p er
à¤¸ à¤«à¤°
à¤Ĺ à¤Ł
à¤¶ à¤Ńà¤°
à¤¸à¤¨ à¤²
le ct
200 4
ĠG eneral
u al
à¤ķ à¤Ĺà¤£
à¥ĩà¤Ĥ "
Ġà¤¶ à¤¹à¤¦
à¤¾à¥¤ -
an ce
Ġ6 6
Ġ0 7
ol l
5 2
T he
o st
Ġ la
à¤¦ à¤ķà¤°
à¤ģ )
Ġà¤ħà¤ª à¤µà¤°
à¤°à¤®à¤£ à¤ķ
Ġ196 2
Ġ197 5
Ġbut ton
Ġà¤ħà¤ľà¤¨ à¤¬
Ġà¤®à¤ķà¤¸ à¤¦
* .
7 8
à¤Ł à¤ªà¤Ł
à¤Ń à¤°à¤£
Ġà¤ľà¤¨ à¤¹
an a
Ġà¤ķà¤µ à¤ļ
à¤ħà¤ª à¤µ
Ġà¥§à¥¯à¥ Ń
à¤° à¤Ľ
à¤ļ à¤ª
à¤ħ à¤¨à¤¨
Ġ5 3
ra m
Ġ$ {
9 8
à¤¦ à¤¡
Ġà¤° à¤®à¤£
Ġà¤ıà¤ķ à¤¸
à¤°à¤£ à¤¤
à¤¯à¤² à¤Ł
Ġ198 1
Ġà¤¬à¤Ł à¤£
1 01
Ġà¤² à¤¨
à¤§ à¤¸
à¤¾à¤ģ .
Ġà¤Ł à¤Ł
Ġà¤¬à¤¢ à¤¨
Ġà¤Ŀ à¤°à¤¨
à¤¸à¤¬ à¤µà¤°
ĠS t
Ġ197 7
Re g
? ?
Ġà¤² à¤¸
à¤ı à¤¯à¤°
à¤ľà¤¨ à¤ľ
Ġà¤Ĩà¤Ĺ à¤µ
Ġà¥§à¥ §
à¤ĳ à¤°
à¤ĳ à¤Ł
Ġc ol
ĠI n
Ġ196 5
Ġf ile
a j
l ock
à¤¿ âĢĻ
à¥Ģ ...
Ġà¤ľà¤¨ à¤®à¤¤
Ġ195 5
5 6
u til
à¤µ à¤²à¤¨
Ġà¤ī à¤®à¤°
) ]
y ahoo
à¤µ à¤Ńà¤°
Ġà¤ĵ à¤¢
Ġà¤¬à¤¦ à¤ļà¤²à¤¨
à¥ĩà¤Ĥà¥¤ "
Ġà¤ĳ à¤¯à¤²
à¤¨à¤¦ à¤£
as s
, âĢĵ
. ,
9 2
i re
Ġà¤ķ à¤Łà¤ķ
à¤¸ à¤«à¤²
à¤² à¤¹à¤¨
à¤¼ à¥¤
Ġà¤ªà¤° à¤¶
Ġà¤¸à¤¬ à¤®
à¤µà¤² à¤°
Ġ19 08
Ġà¤¬à¤² à¤µ
ol s
à¥Īà¤Ĥà¤ĥ -
us a
à¤¬ à¤¦à¤°
à¤Ĩ à¤µà¤°
à¤¾, )
Ġà¥ Ľ
Ġà¤ªà¤¦ à¤ļ
Ġà¤Ĳ à¤ª
Ġin t
Ġà¤īà¤Ń à¤°à¤¨
hel p
6 00
u d
à¤Ń à¤Ł
à¤ī à¤·
à¤®à¤¨ à¤¸
à¥Ī) ,
à¤ıà¤¨ à¤ľ
Ġ194 5
Ġ197 8
Ġà¥¨à¥¦à¥¦ à¥Ń
" .
à¥ĩ à¤¼
à¤ı à¤Łà¤²
à¤¥ à¤²à¤Ĺ
Ġà¤ļ à¤ª
à¤ħ à¤°à¤µ
Ġà¤īà¤¦ à¤ĺ
à¥Ī- -
200 3
à¤¸à¤« à¤²à¤¤
à¤° à¤¹à¤°
à¤¯ à¤¸à¤°
à¤¯ à¤¬à¤²
Ġà¤Ĺ à¤ªà¤¶à¤ª
Ġà¤īà¤¨ à¤¹
à¤ħ à¤¹à¤²
à¤ī à¤¡à¤°
à¤¦à¤° à¤²
Ġà¤ļà¤² à¤ļ
ee ting
Ġà¤Ńà¤µ à¤Ń
AP I
Ġà¤ıà¤¯à¤° à¤²
C D
N ew
à¤ľ à¤¯à¤ª
à¤°à¤¬ à¤ĸ
Ġà¤Ĩà¤Ī à¤Ĩà¤Īà¤Ł
à¤ľà¤Ĺ à¤¹
Ġà¤ļà¤®à¤ķ à¤¦
à¤¤ à¤µà¤°
à¤¯ à¤£à¤¤
à¤ª à¤ļà¤¯
Ġà¤ľ à¤¸
Ġà¤Ĩ à¤ĵà¤Ĺ
à¤ĸ à¤ª
à¤Ń à¤Ĺà¤¤
à¤« à¤¸
Ġà¤ĸ à¤¯
à¤Ĩ à¤¦à¤°
Ġt ype
ĠS erv
. -
6 2
7 2
9 1
S SL
à¤¨ à¤ĸ
à¤ķ à¤ĸ
à¤ķ à¤«
à¤ķ City
Ġà¤ħ à¤ľà¤¬
à¤ģ ...
à¤ł à¤µ
Ġà¤ħà¤ª à¤¹à¤°à¤£
Ġ5 8
Ġà¤ķà¤ł à¤ª
Ġk o
ac k
c om
à¤® à¤¹à¤°
Ġà¤¬ à¤¸à¤¨
Ġà¤¬ à¤«à¤°
Ġà¤ªà¤° à¤ķ
Ġà¤ħà¤¨ à¤¸
Ġà¤ħà¤¨ à¤µà¤°à¤¤
Ġà¤¡ à¤¬à¤²
à¤Ĳ à¤¤
à¤Ĩà¤¯ à¤ķà¤°
à¤ħà¤« à¤¸
S C
Ġà¤¸ à¤°à¤¤
à¤² à¤ķà¤¤
Ġà¤ı à¤¨à¤¸
à¤ħ à¤Łà¤²
à¤¤à¤° à¤¨
à¤¤à¤° à¤ª
Ġs ec
Ġ19 20
à¥« à¥¦
E G
Ġà¤° à¤¶
à¤¾à¤Ĥ /
à¤ħ à¤¸à¤®à¤°
à¤ªà¤° à¤²
à¤°à¤® à¤¸
à¤¨à¤® à¤¯
à¤Ĩà¤Ī à¤ıà¤«
ĠP OP
Ġ194 2
Count ry
) )
à¤¤ à¤ľà¤¨
à¤ķ à¤ªà¤¡
Ġà¤¨ à¤®à¤¨
Ġà¤¯ à¤¶
Ġà¤¶ à¤®
Ġà¤¶ à¤«
à¤°à¤ķ à¤®
à¤µà¤° à¤¨
Ġà¤Ķ à¤¸à¤¤à¤¨
Ġ5 9
Ġ6 8
Ġ193 9
Ġcon t
L DAP
à¤¤ à¤Ĺà¤¤
à¤ķ à¤µà¤°
Ġà¤® à¤Ł
à¤¼ .
Ġà¤ķà¤° à¤¦
Ġà¤ħà¤¨ à¤Ĺ
Ġa re
Ġl i
ation al
O ME
à¥ĩ '
Ġà¤¸ à¤§
Ġà¤ĩ à¤®à¤°
à¤Łà¤¨ à¤°
à¤¾- -
à¤Ĩà¤Ī à¤Ĩà¤°
Ġà¤ªà¤¢ à¤¨
Ġ9 2
Ġà¥¨ à¥¨
à¥© à¥¦
à¤¸à¤ľ à¤¦
5 4
r o
à¤¦à¤° à¤ľ
Ġà¥ ¯à¥
ĠâĢĺ %
he ck
Ġ195 4
tr ing
à¤ıà¤®à¤ıà¤¸ à¤ıà¤®à¤Ī
à¤¬à¤¹à¤° à¤¹
f ic
Ġà¤ķ à¤Ĺ
à¤¨ à¤°à¤¸
à¥Ģ ''
Ġà¤ª à¤²à¤ķ
à¤ª à¤Ĺ
Ġà¤ľ à¤Ĺà¤®à¤Ĺ
à¤¼ à¥ĩà¤Ĥ.
Ġà¤² à¤ĸ
à¤ĩ à¤Łà¤°
à¤µà¤° à¤¯
Ġà¤ĭà¤£ à¤¦
Ġà¤ªà¤² à¤Łà¤¤
Ġ193 5
Ġmon th
% .
7 3
E T
p h
Ġà¤ ¿
à¤°à¤® à¤¨
à¤¨à¤¤ à¤µ
Ġ6 00
à¤ħà¤Ĺà¤° à¤ļ
Ġà¥« à¥¦
Ġà¤¬à¤°à¤¤ à¤°
Ġ185 7
7 6
S V
Ġ time
à¤® à¤«
à¤ª à¤ľ
à¤ĩ à¤ªà¤²
à¤µà¤° à¤µ
à¤ī à¤ľà¤°
Â¤Â ĥ
Ġà¤ĵ à¤¹
à¤¦à¤° à¤µ
Ġà¤®à¤¦ à¤¯à¤¨
ĠL INK
à¤¬ à¤°à¤®
à¤ı à¤Łà¤°
à¤Ī à¤ıà¤«
à¤Łà¤° à¤²
à¤°à¤µ à¤ķ
à¤Ĭ à¤¨
ent s
wor d
à¤µ à¤¶à¤ķ
Ġà¤¤ à¤°à¤¸
Ġà¤¤ à¤¹à¤¸
à¤µà¤° à¤ķà¤°
à¤ħà¤ª à¤®
Ġ0 6
à¤«à¤° à¤µà¤°
Ġà¥§à¥¯à¥ ª
gu i
c es
à¤° à¤ĸà¤°
à¥Ĥ à¥¤
à¤¬ à¤ª
Ġà¤° à¤ªà¤Ł
Ġà¤ĩ à¤¥
à¤Ľ à¤¹
à¤ħ à¤ł
Ġà¤¬à¤¨ à¤°
Ġ` %
5 3
` %
m age
Ġà¤ķ à¤¯
à¤Ĺ à¤®à¤°
à¤£ à¤¦
à¤ĸ à¤ľ
à¤°à¤® à¤¯
Ġà¤ħà¤¸ à¤«
Ġa s
Ġ: âĢĵ
à¤ıà¤« à¤ª
Ġ196 7
à¤®à¤¶ à¤°à¤£
ategory Name
M IME
i an
à¥Ģ ]
à¤µ à¤µà¤¤
Ġà¤Ĩ à¤ĩà¤Łà¤®
Ġà¤ļ à¤ĸà¤¨
à¤ĵ à¤µ
ti es
Ġà¤¬à¤° à¤Ĺ
à¥Ĭ à¤Ĥ
Ġà¤Ńà¤Ł à¤ķà¤¨
à¤ķ à¤¸à¤®
à¤Ĩ à¤«
à¤ĵ à¤Ł
es h
Ġd ist
Ġà¤®à¤¶ à¤¹
Ġin list
Ġà¥¨à¥¦à¥¦ à¥¬
Ġ193 1
ers ion
à¥Ģ à¥°
Ġà¤® à¤¦à¤¨
Ġà¤ħà¤² à¤µ
Ġà¤ħà¤² à¤®à¤¸
à¤µà¤¯ à¤¸
ee k
à¤ĳ à¤ª
Ġà¤ıà¤ļ à¤ª
ĠW indows
Ġit em
à¤ľà¤¯à¤¨ à¤Ĺà¤°
à¤¾ à¥ħ
Ġà¤¹ à¤°à¤®
à¤¦ à¤¯à¤¤
Ġà¤ı à¤¬
Ġà¤ļ à¤Łà¤°
à¤°à¤¤ à¤µà¤°
Ġà¤Ł à¤¹à¤¨
à¤ªà¤ķ à¤¡
Ġ12 5
à¤ħà¤µ à¤Ĺ
à¤ħà¤« à¤Ĺ
Ġinlist box
C H
C ategoryName
à¤² à¤¹à¤µ
à¤ļ à¤¹
Ġà¤Ī à¤§à¤¨
à¤¦à¤° à¤¬
ĠâĢ ĭ
ĠC D
Ġ26 9
ĠY ou
am a
ER SION
Ġst atus
D A
à¤® à¤²à¤¤
Ġà¤® à¤Ľ
Ġà¤°à¤ĸ à¤µ
on d
Ġà¤¹à¤² à¤ļà¤²
à¤īà¤ª à¤ļ
Ġ196 6
Ġ193 8
ow n
ĠâĢĭ âĢĭ
G E
c ut
r om
à¤¤ à¤ļà¤°
Ġà¤® à¤¶à¤ķ
à¤Ī à¤ı
à¤Ĺà¤° à¤ª
Ġà¤ĵ à¤ķ
pr ovin
Ġà¤Ĳ à¤µà¤ľ
à¤ĭ à¤¦
à¤ıà¤¨ à¤Ĩà¤Īà¤ĵà¤ıà¤¸
AR T
italy provin
italyprovin ce
" {
Ġ â
à¤Ĥ ;
Ġà¤ª à¤Ĺà¤¡
Ġà¤ħ à¤¦à¤®
Ġà¤¤ à¤¶
Ġà¤² à¤¬
à¤ĩ à¤¥
à¤ĵ à¤ķ
Ġà¤īà¤¦ à¤¯à¤ª
Ġà¤¸à¤®à¤¯ à¤¬à¤¦
Ġs a
Â¥Â ĥ
ti ve
à¤ıà¤¸ à¤ĵ
an ia
Ġà¤¤à¤Ł à¤¸
9 3
Ġà¤ħ à¤¸à¤¨
Ġà¤¨ à¤¸à¤°
à¤Ł à¤¦
à¤¡ à¤¶
Â¤Â ¢
Ġà¤ľà¤² à¤®
à¤Ĩà¤Ī à¤µ
ĠE N
Reg ion
Ġ q
à¤Ĺ à¤°à¤®
à¤ľ à¤ľ
Ġà¤¬ à¤Ļ
Ġà¤ī à¤Ĺà¤¤
Ġà¤° à¤ĺ
Ġà¤ħà¤¨ à¤Ń
à¥ĩà¥¤ -
à¤¸à¤° à¤¸
à¤¯à¤° à¤«
Ġn et
à¤ħà¤¸ à¤«à¤²
Ġ196 4
ĠT he
nic ode
Ġb y
# -#-#-#-#
D escription
G P
I mp
à¤° à¤²à¤¯
à¤² à¤ķà¤¡
Ġà¤² à¤µà¤£
à¤Ľ à¤ł
à¤Ĩ à¤ªà¤°
à¤ĵ à¤ªà¤¨
à¤ªà¤° à¤µà¤°
Ġà¤¤à¤ķ à¤¬
à¤§à¤¨ à¤°
Ġà¤Ŀ à¤¡
Ġ19 21
Ġ19 29
en s
Ġ196 9
Ġà¥§à¥¯à¥ ©
199 2
à¤§ à¤®à¤¨
Ġà¤ļ à¤ªà¤Ł
à¤¾à¥¤ ]
à¤ī à¤¬
à¤²à¤¬ à¤®
Ġà¤®à¤ľ à¤¹à¤¬
Ġà¥§ à¥¦à¥¦
ĠV ERSION
% %
7 4
9 4
M TP
Ġà¤ľ à¤¯à¤¦
à¤ľ à¤ĭ
ĠâĢ Ķ
à¤Ĺà¤² à¤ķ
Ġà¤Ńà¤° à¤ķà¤°
Ġ5 000
Ġ- -
Ġu n
) /
e g
s c
à¤ İ
à¥ĩ âĢĿ
à¤¿ ''
à¤® à¤ĺ
Ġà¤ª à¤Ļ
à¤ª à¤¸à¤®
à¤Ĺà¤² à¤ªà¤¨
Ġ6 3
Ġ18 60
Ġc heck
KC har
C MS
a I
c ent
à¤¨ à¤Ń
Ġà¤ª à¤®
à¤µ à¤ļà¤²
Ġà¤ħ à¤°à¤¸
Ġà¤ħ à¤¯à¤¸
Ġà¤² à¤ªà¤ķ
Ġà¤² à¤²à¤ķ
à¤ģ à¤¾
à¤ħ à¤®à¤²
à¤¯à¤¤ à¤ķà¤°
Ġà¤ł à¤ª
Ġà¤¢ à¤¹
Ġà¤¬à¤° à¤ª
à¤ıà¤¨ à¤¡
à¤ıà¤¨ à¤ıà¤²
Ġà¥¨ à¥¬
Ġneed s
C A
\ "
à¥Ģ âĢĿ
Ġà¤µ à¤¯
à¤¥ à¤ķà¤¤
Ġà¤Ĩ à¤ĩà¤¨
à¤ī à¤Ń
Ġà¤ĵ à¤ª
à¤Ĳ à¤ķ
à¤¬à¤² à¤°
Ġà¤®à¤¶ à¤µà¤°
Ġh ow
Ġà¤¹à¤¥ à¤ķà¤°à¤ĺ
Ġr are
I MAP
u p
à¤¨ à¤®à¤¨
à¤® à¤²à¤¯
à¥Ī %
Ġà¤® à¤ķà¤¡
à¤¶ à¤¶
à¤ı à¤£
Ġà¤° à¤ľà¤¤
à¤°à¤¹ à¤¸
à¤¤à¤¨ à¤Ĺà¤°
Ġà¤Ĩà¤¦ à¤°à¤£
à¤ıà¤¸ à¤Ĩà¤°
Ġà¤¬à¤° à¤«
es kt
Ġa pp
à¤ħà¤µ à¤¸à¤°
Ġ195 8
iz e
Ġà¤ļà¤¯ à¤¨à¤ķ
Ġrare ly
eskt op
à¤¯ à¤ľà¤¨
à¤¯ à¤ļà¤°
Ġà¤ª à¤Łà¤°
à¤Ī à¤¬
à¤Ĩ à¤ķà¤°
à¤ī à¤¤à¤°
Ġà¤®à¤¹ à¤®
ti p
Ġà¤ĳ à¤²
Ġ8 8
Ġ198 3
à¤¶à¤ĸ à¤¬à¤°
av a
ĠIS O
Ġ al
à¥ĩ âĢĻ
Ġà¤ķ à¤µà¤ķ
à¤¨ à¤¬à¤°
Ġà¤Ĩ à¤ĩà¤²
à¤ģ -
Ġà¤§ à¤¨à¤µ
Ġà¤Ľ à¤¤à¤°
à¤Łà¤° Name
er ror
Ġt his
ĠF ree
Ġ13 2
ĠL DAP
g ed
à¤¾ à¥ĭ
Ġà¤ľ à¤²à¤¤
à¤¼ à¥ĩà¤Ĥà¥¤
Ġà¤¤ à¤¬à¤²
Ġà¤Ń à¤ľà¤¨
à¤Ī à¤¹
à¤ī à¤¦à¤°
à¤ĩà¤¸ à¤µ
à¤¨à¤ķ à¤²
à¤¸à¤® à¤¤
Ġà¤ħà¤¸ à¤¬
Ġà¤ħà¤ľ à¤®
Ġà¤ħà¤¦ à¤²
Ġ8 00
ĠH TTP
6 9
A B
P ermissions
à¤ķ à¤Ŀ
à¤¬ à¤°à¤¸
à¤ĩ à¤®à¤¨
à¤ĩ à¤§à¤°
à¤ħ à¤µà¤¤
à¤ī à¤ªà¤ķ
à¤Ĩà¤Ī à¤ıà¤®
ob ject
Ġb lock
um ber
A d
à¤° à¤°à¤ķ
à¤¨ à¤¸à¤¨
Ġà¤ľà¤¬ à¤¡
Ġp h
à¤Ĩà¤Īà¤ıà¤¸ à¤ĵ
for mat
ĠServ er
Ġà¤ķ à¤ĭ
à¤ľ à¤µà¤²
à¤ĩ à¤Ĺà¤°
Ġà¤« à¤«
à¤¯à¤ķ à¤µ
à¤¸à¤® à¤ķ
à¤®à¤¤ à¤¦
Ġà¤ıà¤µ à¤®
Ġà¤ĳ à¤ĸ
à¤ıà¤¸ à¤ıà¤®
Ġ8 1
Ġ194 0
Ġà¥¨à¥¦à¥¦ à¥«
199 0
rib ut
O C
l l
à¤¤ à¤²à¤ķ
à¤ķ à¤ĺà¤°
à¤µ à¤¬
à¤¦ à¤ľ
à¤ª à¤ķà¤²
Ġà¤² à¤µ
à¤ħ à¤¨à¤ķ
ol ution
EN D
4 00
t e
Ġ ?
à¤¾ ]
à¤¸ à¤¯
à¤Ł à¤Ń
à¤· à¤¶
Ġà¤īà¤ª à¤¸à¤°
à¤¬à¤° à¤¨
Ġ19 19
Ġà¤ıà¤µ à¤ľ
Ġa t
à¤¶à¤° à¤¥
se lect
ĠU n
à¥ĩ! "
ad er
ap an
xx xx
7 9
p l
à¤¿ âĢĵ
à¤ķ à¤·
à¤ª à¤ª
à¤¤à¤° à¤¸
Ġ19 22
Ġà¤¸à¤®à¤Ŀ à¤µ
à¥Ī? -
à¥ħ à¤Ĥ
Ġh O
Ġà¤¨à¤« à¤¸
' à¥¤
8 6
g ov
i B
à¤Ĥ à¤ĥ
Ġà¤¸ à¤°à¤£
Ġà¤ª à¤Ĺ
à¤¥ à¤¦
Ġà¤ļ à¤ļ
Ġà¤°à¤¬ à¤¡
Ġà¤ļà¤° à¤ĸ
Ġ7 00
Ġà¤ĳà¤« à¤¸
Ġà¤Łà¤¨ à¤Ń
Ġu nicode
Short cut
Ġâĺ»âĺ» âĺ»âĺ»
KChar select
b r
p la
Ġ ~
à¤ª à¤¤à¤°
à¤· à¤§à¤°
à¤ī à¤Ľ
Ġs ub
Ġà¤¬à¤² à¤ª
Ġà¤Ĩà¤ľ à¤®
à¤Ĭ à¤¤à¤ķ
ĠI MAP
Ġw h
ound ation
O S
j esh
à¥Ī âĢĿà¥¤
Ġà¤Ĩ à¤¸à¤ķ
Ġà¤¨à¤¹ à¤²
Ġà¤ħà¤¨ à¤°
Ġà¤ľà¤² à¤ª
Ġà¤¬à¤° à¤ķà¤°
Ġt ar
Ġ6 7
en ce
Ġà¤ħà¤« à¤µ
og l
our ce
D VD
à¤ķ à¤ĭ
à¥ģ à¥į
à¤¬ à¤¦à¤¨
à¤ıà¤¨ à¤ıà¤¸
re at
à¥¨ à¥ª
Ġp l
Ġw ar
Ġà¤ıà¤« à¤¡
à¤ıà¤ļ à¤¡
à¤ľà¤Ń à¤µà¤¨
Ġà¤ħà¤¸à¤¹ à¤¯
194 8
6 1
u i
à¥į à¤¼
à¤® à¤¥
à¤® à¤ľà¤¬
Ġà¤Ĩ à¤ĩà¤¸
Ġà¤ĩ à¤Ł
à¤ķà¤¤ à¤µà¤°
à¤ªà¤° à¤ľ
à¤ĺ à¤¬à¤°
à¤¦à¤° à¤ħà¤¸à¤²
Ġà¤®à¤¨ à¤¸
Ġà¤ĳ à¥ŀ
à¤¸à¤¤ à¤¤
à¤ĳ à¤¨
Ġg roup
Ġà¤īà¤ľ à¤°à¤¤
ur ity
Ġ193 4
Ġy ou
ree n
y st
Ġà¤ħ à¤ĺ
à¤ĩ à¤ĳà¤ķ
Ġà¤Ľ à¤ķ
à¤Ĺà¤° à¤ľ
Ġà¤ľà¤¬ à¤°
à¤¸à¤ķ à¤¨
à¥ĩ) ,
Ġ19 28
à¤Ĳ à¤²
Ġ' {
à¤ĭ à¤ı
Ġ20 22
Ġ9 9
Ġ195 3
Ġ13 0
à¥Ĩ à¥¤
ged it
8 2
B M
P OP
n ame
à¤¿ ?
à¤¨ à¤ĭ
à¤ķ à¤®à¤²
Ġà¤ħ à¤¶à¤ķ
à¥ĭà¤Ĥ '
à¤Ł à¤°à¤¸
Ġà¤ı à¤¸à¤¸
à¤¤à¤¨ à¤§
Ġà¤Ĩà¤° à¤Ł
à¤ĩà¤Ł à¤²
à¤Ĩà¤Ī à¤ıà¤²
Ġ5 7
Ġà¤¸à¤ľ à¤Ĺ
ĠS oftware
à¤Łà¤¤ à¤¯
ĠZ à¤ķ
sy mb
a x
d ay
Ġ 00
à¤¾ ''
à¤¤ à¤ĭ
à¤ľ à¤®à¤°
Ġà¤¦ à¤ĸà¤²
Ġà¤Ĩ à¤¹à¤¤
Ġà¤ĸ à¤Łà¤ķ
à¤¾à¤ģ à¤ĥ
Ġà¤¸à¤¹ à¤®
Ġà¤¸à¤¹ à¤ľà¤¤
à¥Ģ. )
à¤¼à¥ĭà¤Ĥ )
op er
à¥§à¥ §à¥
om b
nt er
Ġg t
Ġà¥§à¥¯à¥ «
Ġv ersion
M B
l is
Ã Ĺ
Ġà¤ £
Ġà¤ķ à¤¦à¤°
à¤¯ à¤°à¤®
à¤Ń à¤¡
Ġà¤« à¤²à¤¤
à¤Ĩ à¤īà¤Łà¤²
à¤®à¤¤ à¤²à¤¬
Ġt ext
Ġ7 7
Ġà¤ıà¤¨ à¤Ĩà¤Īà¤ĵà¤ıà¤¸
ĠC O
Ġ9 5
ĠI nc
is c
Ġin menu
vi ew
symb ols
a ult
l and
à¤ª à¤łà¤¨
Ġà¤¨ à¤µà¤°
à¤· à¤°à¤£
Ġk ey
Ġà¤¦à¤² à¤¦à¤²
Ġ15 00
Ġ195 9
ĠF oundation
8 4
P A
a O
à¤° à¤ł
Ġà¤¸ à¤¨à¤¦
Ġà¤µ à¤ĭ
Ġà¤¨ à¤®à¤¸
Ġà¤¤ à¤ķà¤°
à¤¡ City
à¤£ à¤§à¤°
à¤ł à¤¯
Â¤ÂĤ .
Ġà¤īà¤ªà¤¨ à¤Ĺà¤°
à¤ªà¤² à¤Ł
Ġà¤¬à¤°à¤¸ à¤¤
ment s
Ġl ist
à¤¤ à¤¹à¤ķ
à¤ľ à¤Ĺà¤¤
Ġà¤ī à¤ĸà¤¡
à¤Ń à¤§
Ġà¤« à¤°à¤ľ
Ġà¤ħà¤¨ à¤²
Ġà¤Ł à¤ķ
Ġs et
à¤ıà¤® à¤¡
Ġà¤ĺà¤Ł à¤ķà¤°
Ġ196 8
Ġf ind
Ġ197 9
Ġh a
à¤¬à¤ļ à¤ªà¤¨
Ġ193 7
ig n
ĠĠ ĠĠ
" ;
t y
à¥į .
à¤ķ à¤¥à¤¨
à¤¯ à¤¸à¤¨
à¤Ĺ à¤²à¤¨
à¤Ĩ à¤Ł
Ġà¤ħà¤ª à¤ķ
Ġà¤ľà¤Ĺ à¤¦
Ġw indow
Ġ= %
ur r
ap p
MAP I
' >>
Â °
à¤¤ weather
Ġà¤® à¤¨à¤ķ
à¤Ĺ à¤°à¤ķ
à¤¼ à¥ĭà¤Ĥ,
à¤ķà¤² à¤®
i Cal
l u
à¤¤ à¤Ī
à¤¤ à¤¬à¤¦
à¥Ī Í¾
Ġà¤® à¤¢
à¥ĩà¤Ĥ '
à¤ı à¤¹à¤ķ
Ġà¤ĩ à¤µ
à¤Ī à¤ĵ
à¤°à¤¤ à¤²
à¤ĩ à¤¬à¤²
à¤Ĩ à¤²à¤®
Ġà¤īà¤ª à¤²à¤ķ
Ġà¤Ĩà¤ª à¤®
Ġà¤Ī à¤ľ
à¤°à¤µ à¤ª
à¤¤à¤® à¤ĩà¤¨
à¤ıà¤® à¤ĵ
Ġ6 9
Ġà¤īà¤® à¤¡
à¥Ģà¤ĥ %
à¥¨ à¥¬
Ġ11 7
Ġw ith
Ġà¤ķà¤¤ à¤Ī
à¥Ģà¤Ĥ? "
U N
f f
à¤¬ à¤¯
à¤Ł à¤ľ
Ġà¤Ĩ à¤īà¤Łà¤²
Ġ( *.
Ġà¤¸à¤® à¤·
Ġà¤īà¤ª à¤ķà¤°
à¤°à¤¸ à¤ķ
à¤ĺ à¤¤
à¤°à¤µ à¤¶
Ġà¤¹à¤° à¤ľ
à¤«à¤² à¤¸
Ġ7 8
ĠM API
Ġm in
Ġre p
ss age
3 60
H A
Y ou
à¤¿ à¥ĩ
Ġà¤¸ à¤¯
à¤µ à¤¤à¤°
Ġà¤¨ à¤°à¤ķ
à¤¶ à¤ĭ
Ġà¤¶ à¤°à¤¦
Ġà¤¸à¤® à¤µà¤°
à¤ħ à¤¹à¤®à¤¦
à¤°à¤® à¤µ
Ġà¤Ł à¤ªà¤ķ
à¤¸à¤ķ à¤²
à¤Łà¤° à¤µ
Ġà¤ł à¤£
Ġt hat
à¤¡à¤² à¤°
Ġa b
à¤ķà¤® à¤ľ
à¤ĳ à¤²
Ġà¥¨ à¥©
15 0
à¥§à¥¯à¥ ¬
KC S
iCal Imp
s a
à¥Ģ à¥ĩ
Ġà¤ª à¤§
Ġà¤° à¤Ĺ
à¤· à¤¯à¤°
à¤¡ à¤¯
Ġà¤Ĩ à¤ĩà¤ı
à¤ħ à¤ªà¤ķ
à¤ķà¤¤ à¤¨
à¤µà¤° à¤ļà¤¨
à¤·à¤£ à¤ķ
Ġà¤Ī à¤Ł
el l
e ur
à¤¿ >
à¤¹ à¤°à¤¤
à¤µ à¤¨à¤¤
à¤¯à¤¦ à¤²
à¤Ĩà¤° à¤ª
la ss
as ia
6 3
7 1
à¤¸ à¤ıà¤®à¤ıà¤²
à¤Ĺ City
Ġà¤ı à¤®à¤¸
Ġà¤ı à¤¡à¤®
à¤Ĩ à¤µà¤°à¤£
à¤ªà¤° à¤¦
à¤µà¤¨ à¤¦
Ġs p
Ġ19 27
à¤Ĳ à¤¨
Ġà¤ľà¤¨ à¤°
Ġà¤²à¤ķ à¥ľ
ic o
Ġà¥¨ à¥ª
Ġà¤ıà¤² à¤ª
11 5
Ġe d
Ġx A
Ġà¥ª à¥¦
ĠK B
H O
Q Shortcut
S p
k s
l ine
Ġ à¥ĩ
à¤° à¤Ļ
Ġà¤µ à¤²à¤¯
à¤¬ à¤°à¤¤
Ġà¤¥ à¤®
à¤ķà¤° à¤¶
à¤ıà¤ķ à¤®
à¤µà¤² à¤®
à¤ħà¤¨ à¤ľ
in a
à¤ıà¤¸ à¤µ
à¤Ĩà¤° à¤ľ
st r
ĠM ac
20 20
et s
Ġ16 0
Ġw ill
AN D
sp ain
P I
R A
i se
k aj
v iii
Ġ here
à¤¯ à¤¥à¤¨
à¤Ł à¤Ĺ
à¤· à¤µ
à¤ĩ à¤£
à¤ķà¤° à¤°
à¤¶à¤¨ à¤¶
Ġs qu
Ġà¤Ŀ à¤ªà¤Ł
Ġ3 000
à¥ĩà¤Ĥ) à¥¤
Ġà¤Ĩà¤¯à¤¤ à¤¨
à¤ıà¤² à¤¡
ot e
à¥¨ à¥«
Ġ11 0
Ġto ol
os s
jesh kaj
jeshkaj ha
M D
m s
m in
à¤® à¤¸à¤®à¤°
à¤ķà¤° à¤ķ
à¤Ĩ à¤°à¤®
Ġà¤īà¤ª à¤¤
ee n
à¥Ī) .
à¤ıà¤² à¤ª
à¤·à¤° à¤ķà¤°
à¤Ĺà¤¡ à¤®
Ġ15 3
Ġà¥¨à¥¦à¥¦ à¥¦
Ġà¤¨à¤°à¤® à¤ª
E D
L S
n et
u ra
à¤® à¤¬à¤°
Ġà¤® à¤°à¤£
à¤¦ à¤¹à¤µ
à¤Ĺ à¤ļ
Ġà¤¨ à¤Ł
Ġà¤¬ à¤°à¤¦
à¤§ à¤¦
Ġà¤Ĩ à¤¬à¤¦
à¤ħ à¤ĺ
à¤Ĩ à¤°à¤¬
à¤µà¤¨ à¤¶
à¥Ĥà¤ģ -
Ġt ake
Ġa d
la r
Ġ8 6
à¤¸à¤¹ à¤Ń
à¤īà¤ª à¤Ĺ
ĠN ew
Ġ en
à¤° à¤ĸà¤¨
Ġà¤ª à¥ľ
à¤¦ à¤ĸ
à¤ª à¤µà¤¨
Ġà¤¨ à¤Ĺà¤£
à¤ľ à¤Ĺà¤¦
Ġà¤Ń à¤¸
Ġà¤ı à¤²à¤°
Ġà¤¶ à¤²à¤Ń
à¤ī à¤ªà¤¦
Ġà¤ħà¤¬ à¤¤à¤ķ
à¤ľà¤Ĺ à¤£
à¥¨ à¥©
à¤²à¤Ń à¤Ń
Ġthe m
ĠE x
fic ial
M P
T K
à¤¨ à¤ªà¤¤
à¤¯ à¤¸à¤®
à¤¸ à¤¹à¤¸
à¥Ī âĢĵ
à¤Ĺ à¤¤à¤¨
à¤Ĺ à¤Ĩà¤īà¤Ł
à¥Ĥ !
à¤ĩ à¤ķà¤°
Ġà¤¸à¤® à¤®
Ġà¤¸à¤® à¤¯à¤ķ
Ġà¤« à¤¨
Ġà¤Ī à¤¦
ic al
Ġà¤ıà¤¸ à¤Ł
Ġ9 00
à¥¬ à¥¦
Ġe urop
Ġu ri
Ġ193 2
à¤® à¤°à¤®
à¤Ŀ à¤¡
à¤°à¤µ à¤ļà¤¨
à¥ĩ) à¥¤
à¤ıà¤¸ à¤Ī
ic k
Ġk de
Ġà¤ıà¤¨ à¤ľ
ĠI P
ĠU T
Ġà¤ıà¤ļ à¤Ł
Ġà¤Ĺà¤ł à¤¬à¤¨
Ġof ficial
oc ial
à¤Ĩà¤ł à¤µ
gt k
' {
g en
j an
à¤¾ âĢĶ
à¥ĩ à¥į
Ġà¤¸ à¤¨à¤ķ
à¤µ à¤«
à¤¦ à¤®à¤¤
Ġà¤¤ à¤Ĺ
à¤ı à¤ıà¤¨
à¤ĸ à¤¸
à¤ĸ à¤Łà¤ķ
Ġà¤īà¤¨ à¤µ
Ġà¤ľà¤¬ à¤°à¤¨
à¤īà¤¨ à¤ªà¤°
Ġà¤¬à¤ļ à¤ķà¤°
ĠA njuta
Ġ193 6
ct ory
yst em
O U
m m
v el
} ,
Ġà¤ķ à¤²à¤¨
à¤¨ à¤°à¤®
à¤¯ à¤°à¤ķ
Ġà¤® à¤®
à¤¼ à¤ĥ
à¥¤ à¥¤
Ġà¤¦ à¤¶à¤°à¤¥
Ġà¤² à¤ªà¤Ł
Ġà¤° à¤ļà¤¯
Ġà¤¶ à¤¶
Ġà¤īà¤ª à¤ª
Ġà¤¸à¤¹ à¤ķà¤°
à¤ķà¤² à¤µ
Ġs c
à¤ħà¤§ à¤°
et c
âĢĺ âĢĺ
Ġu ser
ĠâĢ¦ à¥¤
ev el
EL EX
8 1
K S
V S
i ew
Ġ option
à¥ĩ à¤¾
à¤¨ à¤®à¤ķ
à¤µ à¤ķà¤°
à¤¦ à¤¸à¤µ
à¤Ĺ à¤¹à¤¨
à¤ı à¤¤
Ġà¤¯ à¤ķà¤¸
Ġà¤ħà¤¨ à¤®
Ġà¤īà¤ª à¤¸à¤Ń
à¤¸à¤® à¤Ĺ
Ġà¤Ī à¤¸à¤°
00 59
Ġà¤¬à¤¢ à¤ķà¤°
Ġ3 2001
Ġà¤µà¤¸ à¤µà¤¸
Ġ18 00
ĠC ELEX
Ġtranslation s
Ġe u
ĠJ ob
Ġeurop a
E SS
Ġà¤¸ à¤Ĭà¤¦
à¤¶ à¤¬à¤¨
Ġà¤° à¤Ĺà¤¡
à¤§ à¤ļ
Ġà¤Ĩ à¤Ĺà¤¤
Ġà¤Ń à¤°à¤®
à¤Ń à¤ķà¤°
à¤ľà¤¨ à¤¶
à¤¤à¤ķ à¤ļ
Ġà¤¸à¤¦ à¤®
Ġà¤¬à¤¸ à¤¤
Ġà¤ľà¤² à¤¸
à¤¬à¤² à¤¡à¤¨
à¤ĭ à¤Ĺ
Ġ6 2
Ġ7 3
Ġc an
Ġ9 1
ĠM B
Ġi mp
S end
T Y
à¤¯ à¤«
Ġà¤ľ à¤²à¤¯
à¤ľ à¤ĸ
à¤¡ à¤¡
Ġ" -
Ġà¤ķà¤² à¤¶
à¤¨à¤® à¤¸
à¤µà¤¯ à¤µ
Ġà¤¤à¤¬ à¤¦
Ġ6 1
op y
ar i
di r
ra p
Ġm aoM
à¥§ à¥¦à¥¦
Ġà¤Ńà¤°à¤¤ à¤ª
198 9
ati ve
lib gnome
p uer
y a
à¤¸ à¤ł
Ġà¤® à¤¦à¤°
à¤¦ à¤«
à¤ª à¤¶à¤ķ
à¤Ĺ à¤Ľ
Ġà¤µ à¤¤à¤¨
à¤ļ à¤ĸ
Ġà¤Ĩ à¤ĩà¤¡
à¤ħ à¤·
Ġ1 01
à¤®à¤¨ à¤Ĺà¤°
à¤¡à¤° à¤²
Ġà¤ĳ à¤«à¤²
ar ed
Ġ198 2
ĠB enefit
Ġà¤ļà¤°à¤£ à¤¬à¤¦
à¤¾: -
à¤¸à¤®à¤Ŀ à¤¨
Ġà¤²à¤Ł à¤ķà¤¤
tor ico
puer torico
f ig
à¤ª à¤Ń
Ġà¤ĸ à¤ļ
Ġà¤« à¤¹à¤°
à¤Ĩ à¤ĩà¤¸à¤²
Ġ19 14
à¤Ĳ à¤°
tion s
à¤ħà¤ª à¤¡
à¤ıà¤« à¤Ĩà¤°à¤¡
à¥¨ à¥Ń
ĠI mage
à¥® à¥¦
à¤ıà¤ļ à¤¸
, -
I F
l ink
¯ à¥¦
à¤° à¤ħ
à¤ª à¤ĸ
à¤ª à¤ĭ
Ġà¤Ĩ à¤¹à¤°
Ġà¤« à¤Łà¤ķ
à¥Ī, âĢĵ
à¤¯à¤¨ à¤¶
à¤¯à¤² à¤µ
à¤ªà¤£ à¤¤
Ġ20 21
is p
ĠP r
ĠP lease
198 8
EG IN
omb ia
H TTP
M ac
o h
r ow
à¤¹ à¤²à¤ķ
Ġà¤¤ à¤¦à¤°
Ġà¤¦ à¤Ĺ
à¤ı à¤ıà¤¸
à¤§ à¤¯
Ġà¤¶ à¤¤à¤ķ
à¤Ĩ à¤¸à¤¨
à¥Ī, "
à¤°à¤£ à¤¯
Ġs tring
Ġ19 44
Ġà¤¸à¤¦ à¤Ń
à¤¨à¤µ à¤®
ar ch
Ġ194 1
Ġà¥§à¥¯à¥ ¬
194 6
wor k
Ġà¤ıà¤®à¤ıà¤¸ à¤ª
Ġ188 2
util us
C P
Y ahoo
b ra
w ard
à¤¼ !
à¤Ł à¤¹
à¤ħ à¤°à¤¸
à¤Ĩ à¤ķà¤¸
à¤ł à¤¤à¤®
à¤Ŀ à¤Ĺà¤¡
Ġ19 05
à¤¤à¤® à¤¸
à¤Ĭ à¤¸
à¤Ĩà¤Ī à¤ķ
Ġà¤®à¤¸ à¤ĸà¤°
Ġà¤ıà¤¨ à¤ıà¤²
he d
Ġà¥¨à¥¦à¥¦ à¥©
B N
B EGIN
L E
m ac
u se
Ġà¤ İ
à¤¨ à¤Ĺà¤¤
à¤¦ à¤®à¤¨
à¤¬ à¤ļà¤¤
Ġà¤Ń à¤°à¤¸à¤ķ
Ġà¤ı à¤Łà¤²
à¤ģ /
à¤¾, "
à¤ªà¤¤ à¤²
à¤µà¤² à¤ª
à¤ĩà¤² à¤°
Ġ19 24
Ġà¤ľà¤¨ à¤¸à¤®
Ġà¤Ĩà¤¸ à¤«
à¤Ĩà¤Ī à¤Ĩà¤Ī
Ġà¤Ĩà¤Ī à¤ıà¤¸à¤ĵ
re c
à¤°à¤ĸ à¤ª
ut h
Ġà¤ıà¤ļ à¤Ĩà¤Īà¤µ
à¥§à¥¯à¥ ©
Ġy our
Ġà¤ªà¤°à¤µ à¤²à¤¯
Ġà¤¦à¤« à¤¨
" -
M eeting
b ook
à¤ķ à¤Łà¤¨
Ġà¤¤ à¤¸à¤²
Ġà¤° à¤¬à¤°
à¤¡ à¤¯à¤¨
à¤¥ à¤¹
Ġà¤ĸ à¤®
à¤¾à¤ģ !
à¤¹à¤® à¤¸
Ġà¤ħà¤¸ à¤¦
Ġà¤ĭ à¤Ĺ
à¤Ĩà¤ª à¤¦
Ġ8 4
re f
à¤¸à¤¹ à¤ľ
Ġà¥¨à¥¦à¥¦ à¥ª
tr ol
EX T
bra zil
1 000
8 3
h ow
j apan
à ¦
à¤¨ à¤ļà¤°
à¤¯ à¤ļà¤ķ
à¤¹ à¤Ń
Ġà¤® à¤¤à¤µ
Ġà¤¬ à¤µ
à¤ı à¤¤à¤¨
à¤Ľ à¤ķ
à¤ħ à¤¸à¤¤
à¤Ĩ à¤¯à¤¨
à¤¢ à¤²
à¤µà¤¨ à¤µ
Ġà¤¸à¤° à¤ľ
Ġ19 17
ad or
tr l
col ombia
ear ch
Ġph p
o di
y le
Ġ he
Ġ help
à¤ķ à¤Łà¤°
Ġà¤¹ à¤°à¤ķ
à¤¼ à¤¾à¤Ĥ
à¤¬ à¤Ĺà¤²
à¤°à¤¤ à¤°
à¤ĵ à¤ľ
à¤Ŀ à¤°
Ġà¤Ľ à¤¦
Ġà¤Ľ à¤Ł
Ġà¤ĩà¤¨ à¤ľ
Ġà¤ľà¤¨ à¤®
à¤Ĩà¤Ī à¤ĵ
Ġà¤ıà¤¨ à¤¡
à¥¨ à¥¨
di o
Ġcom p
ug in
Ġsqu ared
C ogl
O T
P KCS
] ,
r l
t ransla
Ġà¤¸ à¤¹à¤°
à¤¶ à¤¨à¤ķ
à¤ĸ à¤¬à¤¦
Ġà¤ļ à¤µ
à¥Ģà¤Ĥ à¤ĥ
Ġà¤¡ à¤ļ
Ġ1 44
Ġs ome
Ġà¤¦à¤° à¤ħà¤¸à¤²
à¤Ĺà¤² à¤µ
à¤ķà¤Ł à¤¸
Ġà¤ħà¤¦ à¤Ń
ĠA aO
ch ina
IS T
Ġà¤²à¤¯ à¤¬à¤¦
ĠUT F
P lease
i me
à¤° Name
à¤¹ à¤ľà¤¨à¤ķ
à¤¼ à¥ĩà¤Ĥ,
à¥ĭà¤Ĥ âĢĻ
à¤ĸ à¤¯
Ġà¤ħà¤² à¤ķ
Ġà¤Ī à¤¨
Ġà¤ľà¤¨ à¤µ
à¤¼à¥ĭ )
à¤ĭ à¤Ī
à¤Ķ à¤ªà¤ļ
âĢĿ >
Ġ12 4
-- -
vi à¤ķ
oc ess
à¥Ĩ à¤Ĥ
um n
uer y
i k
t ed
Ġ !
à¥ĭ âĢĵ
à¤¸ à¤¤à¤°
à¤¸ à¤¶à¤¸
Ġà¤® à¤°à¤¦
Ġà¤ħ à¤Łà¤ķ
Ġà¤¬ à¤¸à¤°
à¤ļ à¤¶
Ġà¤Ĩ à¤¬à¤°
Ġà¤īà¤¨ à¤ĭ
à¤°à¤ķ à¤¨
à¥ĭ, "
à¥Ģ) à¥¤
op e
ot h
at or
à¤ıà¤« à¤Ł
à¤ıà¤« à¤ıà¤¸
ĠC OM
se arch
Ġ25 00
Ġg oogle
à¥Ĥà¤ģ? "
SC II
ĠAaO r
% %)
g ht
à¥Ģ à¤¾
à¤¤ à¤¨à¤ķ
à¤ķ à¤Łà¤ķ
à¤ª à¤¤à¤¨
à¤ļ à¤¸à¤ĸ
à¤ĩ à¤ĸ
à¤Ľ à¤Ĺà¤Ľ
à¤®à¤¸ à¤²à¤¨
an g
Ġà¤®à¤¦ à¤°à¤¸
Ġà¤ħà¤ľ à¤Ĺà¤°
ar n
at ed
Ġpr e
Ġpr ovin
ĠC A
Ġ9 3
ĠI II
Ġà¤ªà¤¨ à¤ª
Ġà¤®à¤¸à¤² à¤¹à¤¤
197 4
à¥¨à¥¦à¥¦ à¥®
ĠâĢĻ âĢĻ
à¤¾à¥° à¥¤
urop e
zil la
Ġprovin ces
7 00
8 00
C R
à¤¿ à¤¾
Ġà¤¸ à¤¦à¤°
à¤Ĺ à¤µà¤¶
Ġà¤ľ à¤ĸ
à¤§ à¤ľà¤¨
à¤¡ à¤ľ
à¤Ń à¤¸
à¤¼à¥ĩ .
à¤ĺ à¤¨à¤¤
à¤°à¤¨ à¤²
à¤¤à¤® à¤¯
Ġà¤ķà¤² à¤ķ
Ġà¤Ķ à¤§
à¤Ĩà¤Ī à¤ľ
Ġà¤®à¤ľ à¤²
Ġà¤ªà¤¨ à¤¡
Ġà¤Ńà¤Ĺà¤µ à¤¦
à¤¤à¤ª à¤Łà¤²
ĠR e
Ġx E
âĺ º
F or
U n
i b
s w
Ġà¤ļ à¤°à¤µ
à¤« à¤¹à¤®
à¤ĩ à¤°à¤¸
à¤ĩ à¤«à¤²
Ġà¤¸à¤® à¤µ
à¤Ľ à¤Ł
à¤Ĩ à¤ķà¤²à¤¨
à¤ł à¤ª
à¤¸à¤¨ à¤¦
Ġà¤ĵ à¤²à¤®
à¤¹à¤® à¤®
Ġ19 23
Ġà¤¬à¤² à¤¶
Ġà¤¤à¤¬ à¤¤à¤ķ
Ġà¤ĭ à¤¸
à¤ıà¤® à¤ľ
ee t
Ġ18 0
ĠC om
ĠI d
Ġ11 2
ĠU S
Ġi f
lic ation
Ġtool tip
D F
P O
g ree
à¥ ĺ
à¤¾ âĢĵ
à¤® à¤ł
à¤¦ à¤°à¤®
Ġà¤¨ à¤ĭ
à¤ļ à¤Ĺ
à¤¡ à¤ļ
à¤Ī à¤Ĩà¤°
à¥Ī. .
Ġà¤īà¤¤ à¤ĭ
Ġà¤Ĩà¤¨ à¤²
à¤ĭ à¤¯
à¤ıà¤² à¤ıà¤¸
à¤¸à¤¹ à¤®à¤¤
ol d
di an
ra ck
ac h
Ġà¥¬ à¥¦
ul es
UR I
Ġab out
F ile
G L
L ong
f ul
à¥į à¤Ĥ
Ġà¤Ĩ à¤ĩà¤¸à¤²
Ġà¤ªà¤° à¤ª
à¤ħ à¤Ľ
Ġà¤¹à¤® à¤°
à¤Ĩ à¤¯à¤°
à¤¤à¤° à¤µ
Ġà¤ħà¤² à¤®
Ġ19 25
on t
Ġ7 1
ĠA N
Â¤ÂĤ ...
Ġin c
Ġà¤īà¤ľ à¤¡
Ġà¥¨à¥¦à¥¦ à¥¯
199 6
Â¥ÂĪ .
ef ault
Ġme ssage
UR L
Ġha ve
( %
, "
à¤¸ à¤Łà¤¨
à¤² à¤ĸà¤°
à¤ı à¤¡à¤®
à¤§ à¤ľ
à¤ĸ à¤¬
à¤Ī à¤Ĺ
à¤ģ ;
à¤ħ à¤°à¤ķ
à¤ħ à¤ķà¤¡
à¤¼à¥Ģ .
à¤²à¤¨ à¤¶
âĢĻ à¥¤
Ġd ire
à¤Ķ à¤²
Ġ8 7
à¥Īà¤Ĥ) ,
is m
ĠM A
Ġ14 3
194 9
Ġà¤ĵà¤µà¤° à¤°
Ġ\\ \\
Q uery
T ype
U M
s v
s ing
à¤° à¤§à¤¨
à¤ķ à¤ıà¤£
à¤² à¤¸à¤°
Ġà¤ħ à¤°à¤ķ
Ġà¤ħ à¤ĳà¤«
à¤¡ à¤¹
à¤ħ à¤µà¤ľ
Ġà¤īà¤ª à¤²
à¥Ī. %
Ġà¤¸à¤¹ à¤¦
à¤Łà¤¨ à¤®
.. ...
Ġà¤ħà¤ķ à¤¸
er y
Ġà¤ħà¤® à¤°à¤¤
à¤¶à¤¤ à¤¤
Ġà¤Ĩà¤Ī à¤¬
Ġ8 2
Ġpr oper
à¥¨ à¥®
Ġb ug
199 3
AT A
AT E
Ġhttp s
ĠIS BN
Ġimp li
Ġ Å
Ġ ĉ
Ġà¤ª à¤¦à¤¨
à¤¦ à¤ĸà¤²
Ġà¤¨ à¤µà¤ª
Ġà¤¤ à¤µà¤ľ
à¤¶ à¤ļ
à¤¡ à¤«
à¤¡ à¤¹à¤°
Ġà¤Ĩ à¤²à¤¸
à¤ł à¤¸
al a
19 50
à¤Ĺà¤¦ à¤¸
Ġ9 8
à¥¨ à¥§
ĠM iB
à¤¸à¤ļ à¤®
Ġm an
Ġm box
ur n
ĠW eb
Ġà¤¦à¤¹ à¤¶à¤¤
ĠGN OME
Ġcol or
> %
U S
g et
t he
v en
à¤Ĥ ?
à¤² à¤ķà¤¨
à¤¬ à¤°à¤ķà¤¤
Ġà¤² à¤¹
Ġà¤ı à¤¨à¤µ
à¤°à¤® à¤µà¤°
Ġà¤ĵ à¤Ŀà¤²
Ġà¤Ŀ à¤²à¤ķà¤¤
à¤ħà¤¨ à¤®
Ġà¤Ĳ à¤ľ
Ġd ay
à¤Ĩà¤ª à¤®
ĠS p
ĠA ll
Ġb enefit
og ram
Ġre c
Ġre g
198 6
ath y
Ġĉ ĠĠ
U L
p ar
Ġ ic
à¤¯ à¤ªà¤°
à¤® à¤¦à¤¨
à¥Ī /
à¥Ī âĢĶ
Ġà¤® à¤²à¤ķ
Ġà¤ī à¤Ĺà¤¨
à¤£ à¤¯à¤¨
Ġà¤Ĺ à¤ĭ
Ġà¤ı à¤¤à¤°
Ġà¤« à¤Łà¤¨
à¤¯à¤¤ à¤ķ
Ġà¤²à¤Ĺ à¤µ
Ġà¤¸à¤¹ à¤²à¤Ĺ
Ġà¤Ł à¤ĸà¤¨
Ġà¤ħà¤µ à¤ļ
Ġà¤¸à¤¬ à¤²
Ġà¤¸à¤° à¤¸à¤°
Ġ19 26
à¤ĭ à¤·
Ġd x
or k
Ġà¤ĭà¤£ à¤ķà¤°
à¤ıà¤¨ à¤¬
ĠC SV
à¤īà¤ª à¤¹
à¤¦à¤¶ à¤®à¤²à¤µ
Ġ16 00
ĠR es
ĠU ID
ch an
Ġà¤ıà¤¯à¤° à¤ª
, .
C VS
E S
H S
d om
l in
o ol
p g
u ng
Ġ Ë
à¥ Ħ
à¤ķ à¤§
à¤® à¤¯à¤ķ
à¤² à¤Ī
à¤² à¤¸à¤¨
à¤² à¤ĭ
à¤² à¤ĸà¤¨à¤Ĭ
à¤ľ à¤«
à¥Ĥ /
à¤¶ à¤ķà¤°
à¤°à¤¤ à¤¤
à¤°à¤¤ à¤Ł
Ġà¤ħà¤¨ à¤ª
à¤¹à¤° à¤¨
à¤°à¤¸ à¤®
Ġà¤ħà¤µ à¤¯à¤¸
Ġà¤Ŀ à¤°
Ġà¤Ŀ à¤ªà¤ķà¤¨
à¤¯à¤° à¤¨à¤®
Ġà¤¬à¤¦à¤² à¤µ
an s
Ġà¤ľà¤® à¤ķà¤°
à¤¸à¤¤ à¤¹
Ġà¤Ĩà¤Ī à¤ıà¤«à¤¸
it hou
Ġà¤¹à¤¸ à¤°à¤¤
à¤¹à¤¸ à¤ª
à¤īà¤ª à¤ľ
of s
ĠF older
Ġà¥© à¥§
Ġ28 8
à¤ıà¤¸à¤ıà¤¸ à¤ıà¤²
à¥¯à¥ ®
Ġà¥§à¥¯ à¥¦
red hat
ithou t
S MTP
Ġ Î
à¤¾ âĢĿà¥¤
à¤° à¤¬à¤°
à¤ķ à¤ĺ
Ġà¤ª à¤Łà¤ķ
Ġà¤® à¤Łà¤°
Ġà¤® à¤¶à¤°
Ġà¤¬ à¤ľà¤¨
Ġà¤¦ à¤¹à¤¨
Ġà¤¥ à¤²à¤Ĺ
à¤Ĩ à¤¦à¤¤
Ġà¤¯à¤¹ à¤¯
Ġà¤īà¤ª à¤¶
à¤¬à¤° à¤«
à¤°à¤ªà¤¤ à¤µ
Ġà¤Ĩà¤µ à¤ķ
Ġ19 11
à¤Ĺà¤² à¤ª
à¤ĭ à¤Ĩ
à¤ıà¤« à¤¡
Ġc sv
Ġà¥¨ à¥§
:// ..
à¤ıà¤ļ à¤ı
Ġg ra
G N
\ .
t k
à¥ĭ ...
Ġà¤¹ à¤¸à¤¦
Ġà¤µ à¤¨à¤µ
à¤Ł à¤°à¤¤
à¤§ à¤¬
à¤ļ à¤¦
à¤ļ à¤¬
à¤£ à¤ľ
Ġà¤ı à¤²à¤¬à¤®
à¤ī à¤ĸ
à¤°à¤¹ à¤®à¤¤
Ġà¤Ł à¤®
Ġs ize
Ġà¤Ŀ à¤Łà¤ªà¤Ł
à¥ĩà¤Ĥ, -
à¥Ģ. ,
an gu
Ġt ab
it ed
Ġà¤®à¤¸ à¤²à¤¨
à¤ıà¤¨ à¤Ł
à¥Īà¤Ĥ) à¥¤
is ofs
20 22
ĠF or
Ġ14 0
à¥ĩà¤Ĥ? "
ĠX ML
197 2
196 3
A IM
M AND
f t
r g
Ġ Ã
à¤° à¤Ŀ
à¥Ģ à¥į
à¤® à¤¬à¤¤
à¤¹ à¤ļà¤°
à¤µ à¤®à¤¯
à¤¦ à¤°à¤¦
à¤ľ à¤Ĺà¤¨
à¤¬ à¤¸à¤°
à¤ı à¤¬à¤²
à¤£ à¤®à¤¯
à¤Ī à¤Ī
à¥ĥ -
à¥Ī, -
Ġà¤īà¤ª à¤¶à¤®à¤¨
Ġà¤¸à¤° à¤¨
à¤ĩà¤¨ à¤¬
Ġs h
Ġ19 13
Ġa v
Ġà¤¹à¤Ł à¤¤
Ġk I
ar b
à¤ªà¤¦ à¤£
Ġà¥¨ à¥Ń
199 5
197 0
ric k
MS N
sp ace
na utilus
Ġà¤İ à¤¸
) "
7 20
@ }
D O
K o
d l
m l
u la
w ay
ï Ĥ
Ġ 000
à¤Ĥ ...
à¥Ģ âĢĵ
à¥ĩà¤Ĥ âĢĿ
Ġà¤¤ à¤¹à¤°
à¤¶ à¤°à¤£
à¤ı à¤¨à¤¯
Ġà¤Ĺ à¤Ľ
Ġà¤¶ à¤°à¤¤
à¤Ľ à¤¬
à¤¤à¤° à¤®
à¤¤à¤° à¤²
Ġà¤¡ à¤Ĺà¤®à¤Ĺ
à¤Ŀ à¤Ł
à¤Ĺà¤° à¤¦
Ġ19 18
Ġà¤¬à¤¦ à¤Ĺ
Ġà¤¬à¤¦ à¤¬à¤ĸ
à¤¤à¤ķ à¤¥
à¤ķà¤Ł à¤Ĺ
à¤¯à¤ª à¤°à¤ķ
à¤Ĩà¤Ī à¤ıà¤«à¤¸
Ġà¤ªà¤ķ à¤µ
... )
ĠA pp
11 0
Ġ{ @}
à¤¿. ,
Ġà¤ªà¤¥ à¤ª
Ġw ithout
ac ter
Ġà¤¨à¤ľà¤° à¤ħ
199 8
II I
Ġà¤ıà¤° à¤¡
Ġcol umn
à¤ªà¤°à¤µà¤° à¤¦
ïĤ §
G iver
T LS
à¥Ģ à¤¼
à¤® à¤°à¤ķ
à¥ģ /
Ġà¤ª à¤ķà¤¨
Ġà¤¦ à¤¯à¤¨
à¤Ł City
à¤ļ à¤°à¤ķ
Ġà¤ªà¤° à¤Ńà¤ķ
Ġà¤ĩ à¤²à¤ķ
Ġà¤ı à¤¨à¤°
Ġà¤ı à¤¤à¤¬
à¤ĩ à¤«à¤°
à¤Ĩ à¤¯à¤°à¤²
à¤µà¤° à¤ª
à¤ªà¤° à¤°
Ġà¤Ł à¤¨à¤²
à¤¹à¤® à¤ĸ
Ġà¤Ŀ à¤ķà¤Ŀ
Ġ19 00
à¥ĭà¥¤ -
Ġà¤ħà¤ª à¤¸
Ġà¤Ĳ à¤ļ
ĠâĢĺ âĢĻ
à¤²à¤Ĺ à¤¨
Ġà¤¸à¤¨ à¤¸à¤¨
Ġ7 6
Ġà¥¨ à¥®
ra ine
à¥Ń à¥¦
à¥§à¥¯à¥ ¨
Ġ187 2
, ,
2 50
f ile
p en
à¤¯ à¤µà¤¤
à¤² Name
Ġà¤µ à¤°à¤£
Ġà¤² à¤°
à¤£ à¤¶
à¤ħ à¤ļà¤²
Ġà¤¹à¤® à¤¦à¤°
à¤Ĩ à¤¹à¤°à¤£
Ġà¤ķà¤°à¤¤ à¤¬
Ġà¤ĺ à¤°à¤¬
Ġà¤Ĩà¤¯ à¤°à¤¨
Ġs ee
Ġà¤¬à¤¦ à¤¬
à¤ħà¤¨ à¤Ń
à¤ıà¤¸ à¤ıà¤¨à¤ıà¤²
à¤¯à¤² à¤°
Ġa a
Ġà¤Ĩà¤® à¤¦
Ġà¤ķà¤Ł à¤µ
Ġ9 7
Ġ12 00
Ġf rom
Ġ194 3
ĠD VD
ĠN ational
Ġà¥§ à¥¦à¥¦à¥¦
ow ance
ig a
mp athy
yp es
Ãī Ã
OC KS
) '
/ .
C h
n s
s l
à¥į à¥¤
à¥ĭ "
Ġà¤¬ à¤ķà¤µ
Ġà¤¤ à¤¹à¤ķ
à¤Ł à¤°à¤ķ
à¤ı à¤¥
à¤Ī à¤Ĩà¤°à¤Ł
à¤ķà¤° à¤¦
Ġà¤īà¤ª à¤«
à¤Ĭ à¤·
à¤Ĩà¤° à¤Ĩà¤ĩ
Ġt h
à¤°à¤Ĺ à¤Ł
Ġ8 3
Ġ8 9
Ġà¤Ĺà¤£ à¤¤à¤¨
à¥¨ à¥¯
à¤īà¤ª à¤¶
à¤ħà¤µ à¤¦
ĠM IME
Ġp er
Ġm a
ĠR SA
ce iver
ec u
Ġ27 1
196 1
196 4
nd er
crip t
-------- --------
chan ge
- '
E M
I V
e le
g in
à¥į à¤ĥ
à¤² à¤¯à¤®
à¤µ à¤ªà¤°
à¤µ à¤Ĺà¤¤
Ġà¤® à¤®à¤¤
à¤ª à¤ł
à¤ı à¤ı
Ġà¤¯ à¤®à¤¨
à¤ĸ à¤®à¤°
Ġà¤ħà¤¨ à¤ªà¤¢
à¤Ĩ à¤«à¤¤
à¤°à¤¦ à¤ķ
à¤°à¤¦ à¤°à¤¹
à¤·à¤£ à¤¤
Ġà¤Ī à¤¡
Ġà¤Ĭ à¤¬
Ġà¤ħà¤¸ à¤¹à¤¨
à¤®à¤² à¤ķ
à¤ĭ à¤ķ
Ġ'' à¥¤
à¥¦à¥¦ à¥¦à¥¦
Ġ9 6
à¥« à¥¬
em ail
ag es
197 1
Re ceiver
Ġà¤Ĩà¤ĩ à¤ķà¤¨
ai lab
ĠCOM MAND
ĠAll owance
w h
Ġà¤ķ à¤¢
à¤¹ à¤ł
à¤² à¤ļà¤°
à¤ª à¤®à¤¤
Ġà¤¨ à¤µà¤²à¤°
Ġà¤¤ à¤Łà¤µà¤°
Ġà¤² à¤¹à¤ľ
Ġà¤Ĩ à¤£
Ġà¤¶ à¤¹à¤¤
à¤Ĩ à¤ĩà¤¨
à¤ī à¤«
à¤µà¤¨ à¤°
Ġà¤¬à¤¹ à¤²
à¤ĺ à¤¸
à¤ĩà¤² à¤¸
Ġ19 12
on s
ti n
Ġà¤¸à¤² à¤µ
ar k
âĢĿ .
Ġà¤ıà¤® à¤ª
Ġà¤Ĺà¤²à¤¤ à¤«à¤¹à¤®
à¤²à¤Ń à¤¤
Ġg ov
iv ed
Ġ193 3
sp an
har acter
ecu ador
ailab le
1 30
P L
x iii
à¥Ģ à¥ĩà¤Ĥ
à¤ª à¤¦à¤¨
à¤Ĺ à¤®à¤ķ
Ġà¤ħ à¤¶à¤°
Ġà¤ī à¤«
à¤ı à¤¨à¤¤
à¤ı à¤¸à¤ķ
à¤¡ à¤°à¤¸
Ġà¤Ĺ à¤®à¤¨
Ġà¤ªà¤° à¤Ľ
Ġà¤ªà¤° à¤ĸà¤¨
Ġà¤ļ à¤ķà¤¤
à¤ĩ à¤·
à¤ł à¤Ĺ
à¤°à¤® à¤ľ
Ġà¤Ī à¤ª
à¤Łà¤° à¤¶
Ġ19 06
or g
Ġ7 9
gm ail
à¤ĳ à¤¬
ĠS T
Ġà¤Ĺà¤£ à¤ķ
ĠA r
à¤°à¤ĸ à¤£
12 5
ĠT his
Ġb et
ra w
iv ers
ĠZ à¤¸
for m
IT Y
oll er
I R
k iga
} %
à¤¤ à¤¹à¤¤
à¤² à¤¬à¤°
Ġà¤ľ à¤ª
Ġà¤ī à¤ķà¤¤
à¤¬ à¤¶à¤°
à¤ı à¤ıà¤«
à¤ļ à¤®à¤¤
à¤ĸ à¤ªà¤¤
Ġà¤ı à¤¹à¤¤
Ġà¤ļ à¤Łà¤ķ
Ġà¤Ĩà¤¯ à¤¨
Ġà¤Ī à¤µ
Ġs y
Ġà¤ªà¤¡ à¤¨
à¤Ĩà¤Ī à¤Ĩà¤Īà¤Ł
Ġt w
19 08
à¤ıà¤² à¤¸
à¤°à¤ļ à¤£
ĠS ee
ĠS tr
Ġà¤ıà¤® à¤¬
ou n
ĠF OR
Ġ17 5
ac ity
ĠZ à¤¥
IN G
ust om
amp le
CH AN
pla in
Ġed u
; }
W eb
d s
e urope
s m
Ġ .
à¥ĩ ..
à¤¤ à¤²à¤µ
à¤¯ à¤µà¤ķ
à¤® à¤¯à¤¤
à¤¹ à¤µà¤°
à¤² à¤ĵ
Ġà¤ī à¤Ľà¤²
à¤¬ à¤°à¤ķ
Ġà¤ĩ à¤°à¤¶
Ġà¤ĩ à¤¤à¤®
à¤Ī à¤ıà¤®
à¤ī à¤Łà¤°
Ġà¤ĵ à¤·
Ġ19 10
Ġà¤¢ à¤ķà¤¨
in es
à¤ıà¤¸ à¤ľ
an k
Ġà¤¬à¤° à¤ĸ
Ġà¤Ĳ à¤°
al b
it or
à¤ħà¤ª à¤²
Ġà¤ıà¤¸ à¤ı
ar c
ĠI CA
Ġm ore
ĠD N
à¥ª à¥®
ĠE n
Ġà¤¦à¤® à¤¨à¤ķ
li m
os p
à¥¨à¥¦à¥¦ à¥§
ef ore
Ġst art
Ġà¤ıà¤Łà¤² à¤¸
t ext
Ġ etc
Ġà¤ķ à¤µà¤¯
à¤¨ à¤µà¤¸
à¤¸ Name
à¤® à¤ļà¤²
à¤² à¤¨à¤ķ
à¤Ĺ à¤ľà¤¨
Ġà¤¯ à¤°
à¤ħ à¤¦à¤¨
à¤ħ à¤¶à¤ķ
Ġà¤« à¤¡
à¥Ī. ...
à¤ħà¤¨ à¤°
Ġ9 4
Ġà¤ıà¤® à¤ĵ
ol og
ĠM ail
ĠM eeting
Ġp i
à¤īà¤ľ à¤¡
con f
angu age
- \\
i ran
p ut
w een
w rap
à¤¾ à¥Ī
à¤ķ à¤ªà¤¨
à¤® à¤ıà¤¸
Ġà¤¸ à¤°à¤¹
à¥Ī "
à¤Ĺ à¤§
Ġà¤ħ à¤¦à¤¨
à¤¼ à¥Ĥà¤Ĥ
Ġà¤ī à¤¬à¤²
Ġà¤ī à¤¬à¤°à¤¨
à¤¶ à¤§
à¤ĸ à¤ļ
Ġ( -
Ġà¤ı à¤¤
à¥Ģà¤Ĥ '
à¤ī à¤ļà¤°
Ġà¤īà¤ª à¤¬à¤¨
Ġà¤¸à¤¹ à¤²
à¤µà¤¨ à¤ļà¤°
à¥ĭ, âĢĵ
Ġ19 16
à¤¸à¤¦ à¤ķ
à¤ļà¤² à¤ļ
à¤ıà¤® à¤¯
à¥Ī) ?
à¤°à¤Ĺ à¤£
ran jan
Ġà¤¦à¤¶ à¤¹à¤°
ĠI ATA
Ġ14 5
ur tle
à¤¾âĢĻ ,
ĠÂ °
Ko lab
wh ite
D o
T AB
c y
y th
à¤ķ à¤ªà¤°
à¤¯ à¤²à¤¯
à¤² à¤ı
Ġà¤® à¤¸à¤¨à¤¦
à¤Ĺ à¤«
à¥ĩà¤Ĥ à¤ĥ%
Ġà¤¨ à¤Łà¤°
Ġà¤¤ à¤ľà¤µ
Ġà¤ķà¤° à¤µà¤Ł
Ġà¤ıà¤ķ à¤®à¤¤
à¤ħ à¤µà¤¨
à¤¯à¤® à¤²
Ġà¤Ĩà¤¯ à¤°à¤²
Ġs ocial
à¤°à¤¬ à¤¤
Ġ3 50
à¥ĩ- -
à¤µà¤ª à¤²
an y
à¤ħà¤² à¤®à¤¸
Ġt here
Ġ4 50
Ġà¤Ĩà¤Ī à¤ıà¤®à¤Ī
or ld
ic a
Ġ7 50
ĠA PI
Ġp ng
à¥« à¥Ń
à¥© à¥¨
18 0
à¥§à¥¯à¥ ª
196 2
vir on
Ġà¤·à¤¡ à¤¯
Ġj a
Ġà¤į à¤«
rib ution
red it
util s
lis h
gree ce
) ?
; .
D B
b ar
c ra
c ard
d b
Ġà¤ ŀ
à¤ķ à¤¸à¤¨
à¤ķ à¥ľ
à¥ĭ '
à¤² à¤ªà¤¨
à¤ľ à¤¤à¤¨
à¤¬ à¤ķà¤µ
à¤¯à¤ķ à¤ķ
à¤¬à¤° à¤¬
me d
Ġà¤¬à¤¤ à¤ĸ
es ult
à¤°à¤ª à¤¦
Ġà¤Ĺà¤£ à¤ªà¤¤
Ġà¤¤à¤² à¤Ľà¤Ł
Ġ11 00
à¤¸à¤°à¤ķ à¤¶
à¥ľ à¤¨
uk raine
Ġ28 0
Ġà¤Ńà¤Łà¤ķ à¤ķà¤°
Ġà¤®à¤Ĺ à¤§
ay a
Ġ189 0
Ġle arn
Ġset ting
viron ment
P lay
b u
p ort
à¤° à¤ľà¤¨à¤ķ
à¤¯ à¤ĸ
à¤¸ à¤Ļ
à¤® à¤®à¤¤
à¤¹ à¤¹
Ġà¤ª à¤ĸà¤µ
à¤µ à¤£à¤ķ
à¤Ĺ à¤ĺ
Ġà¤ľ à¤¶
Ġà¤ľ à¤ĺà¤¨
à¤¬ à¤¦à¤®
à¤Ł à¤°à¤®
Ġà¤¶ à¤¦
à¤ħ à¤ªà¤¸
à¤ħ à¤µà¤¯à¤µ
à¤µà¤¨ à¤¯
Ġ" ,
Ġà¤¹à¤° à¤¬
à¤®à¤Ĺ à¤¢
Ġc han
ĠC h
Ġb efore
Ġf il
Ġ14 2
ĠG TK
ut e
ag u
oc ation
197 6
à¥¨à¥¦à¥¦ à¥«
Ġà¤¹à¤ł à¤§à¤°
Ġgra di
D D
F C
S R
S ec
T R
T o
n ia
r al
à¥ĩ âĢĵ
à¤¯ à¤¸à¤²
à¤® à¤¸à¤²
Ġà¤ª à¤Ľ
à¥Ī ]
à¤µ à¤¶à¤¤
Ġà¤ħ à¤¤à¤°
Ġà¤µ à¤¡
à¤¶ à¤¤à¤°
à¤§ à¤°à¤¨
à¤ļ à¤®à¤¡
à¤¡ à¤¬à¤°
Ġà¤Ĺ à¤¹à¤¨à¤¤
Ġà¤ªà¤° à¤ļ
à¤Ī à¤¤
à¤Ī à¤ĺà¤°
à¤ģ !
à¤Ľ à¤ªà¤Łà¤²
à¤ī à¤ĺ
à¤¨à¤ķ à¤®
à¤²à¤¨ à¤¸
à¤¦à¤° à¤µà¤¨
à¤°à¤µ à¤²
Ġà¤Ŀ à¤Ł
Ġ' (
à¤²à¤¬ à¤²
à¤ħà¤¨ à¤²
Ġn umber
à¤¶à¤¤ à¤¯
Ġd esktop
Ġà¤ĩà¤² à¤ľ
Ġà¤¸à¤² à¤¤à¤¨à¤¤
ĠS SL
ĠI BM
Ġà¤Ĩà¤¹ à¤Ł
de f
à¥Ģ: -
Ġ36 8
kt urtle
Ġdist ribut
odi f
transla tor
Ġproper ly
Ġman ual
Ġreg ions
rick et
% ,
% ),
D ate
N TP
W Y
c o
c an
r os
Ġà¤ ¼
à¤° à¤³
à¥ĩ à¥ĩ
à¥ĩ à¤¿
à¥ĭ à¤ģ
à¤¸ à¤§
à¤¸ à¤Łà¤°
à¤® à¤¸à¤®
à¤² à¤ļà¤¨
Ġà¤® à¤Ŀ
Ġà¤® à¤²à¤¬
à¤Ĺ à¤ªà¤¶à¤ª
à¤ľ à¤®à¤¨
à¤¶ à¤µà¤¸
à¤¬ à¤°à¤®à¤¤
à¤ĸ à¤¤à¤°
à¥Īà¤Ĥ âĢĿà¥¤
Ġà¤ı à¤ħà¤°
Ġà¤¹à¤® à¤µ
à¤Ŀ à¤¬
à¤°à¤® à¤ª
à¤ĺ à¤Łà¤¤
Ġà¤¸à¤¬ à¤ªà¤°
Ġà¤ĵ à¤¹à¤¦
Ġ19 15
Ġà¤®à¤¨ à¤ĺà¤¡
à¤°à¤¬ à¤²à¤¤
Ġà¤¢ à¤²à¤µ
tion ary
Ġa c
Ġà¤¦à¤² à¤¹à¤¨
Ġ20 6
Ġ25 9
di st
à¤°à¤¥ à¤®à¤¤
à¥ª à¥¦
à¥Ń à¥®
à¥Ģ! "
etail s
Ġà¤ıà¤¡ à¤µà¤°
Ġ189 7
isp lay
Long Name
ĠICA O
C O
D N
P oss
V I
a ut
b el
o int
Ġ uk
à¥į à¤ĥ-
à¤¨ à¤°à¤ķ
à¤¨ à¤¸à¤°
à¤² à¤¤à¤°
à¤ª à¤µà¤°
à¥ĩà¤Ĥ ]
à¤ľ à¤¶à¤¬
à¤Ł Name
à¤ı à¤¹à¤¦
à¤ļ à¤ķà¤¤
Ġà¤ı à¤¥
Ġà¤ı à¤µà¤°
Ġà¤ı à¤¯à¤°à¤µ
Ġà¤ĸ à¤¤à¤®
Ġà¤ıà¤ķ à¤¬
Ġà¤¹à¤® à¤¸à¤°
à¤¼à¤¾ à¤ģ
à¤ī à¤ľà¤¬
à¥Ī, )
à¤°à¤® à¤ļ
Ġà¤Ľ à¤ľ
à¤µà¤¨ à¤Ĺà¤°
à¥Ģà¥¤ -
Ġà¤ĵ à¤ľà¤¸
à¤¾. )
à¤µà¤¸ à¤µà¤¸
à¤¹à¤® à¤²
à¤Ĺà¤² à¤®
ti v
Ġ3 60
à¤ķà¤¸ à¤°à¤¤
ic tionary
à¤ļà¤ķ à¤ª
at es
Ġ20 25
Ġ12 1
Ġw ord
Ġh as
Ġh ope
Ġà¤ħà¤ĸ à¤£
13 01
Ġ26 4
197 3
Ġà¤¶à¤¹ à¤µà¤¤
à¥¨à¥¦à¥¦ à¥Ń
ess ive
à¤ıà¤¸à¤ıà¤² à¤µ
Ġà¤°à¤£ à¤ľ
Ġsec urity
Ġà¤®à¤¦à¤¯à¤¨ à¤µ
DA V
PO SE
ung ary
Ġav ailable
Ġbet ween
A C
C trl
P GP
V iew
l m
n o
n or
} )
à¤¯ à¤§à¤°
Ġà¤® à¤Łà¤ķ
à¤ª à¤ŀ
Ġà¤² à¤Ļ
à¤· à¤Ń
à¤¡ à¤®à¤°
Ġà¤ļ à¤ķà¤°
à¤Ī à¤«
Ġà¤¶ à¤¯à¤¨
Ġà¤ĸ à¤°à¤ªà¤¤à¤µ
à¤ĩ à¤¥à¤¨
Ġà¤ıà¤ķ à¤¤à¤°à¤«
Ġà¤ħà¤¨ à¤ļ
Ġà¤µà¤¹ à¤®
Ġà¤¡ à¤®
à¤®à¤¨ à¤®
à¤¬à¤° à¤²
à¥Ĥà¤Ĥ -
Ġ19 09
à¤Ĳ à¤¶
à¥ĭ) ,
Ġd etails
Ġ# %
à¤¼à¥ĩà¤Ĥ à¤ĥ
ra jeshkajha
Ġu nder
ĠW AR
199 1
à¤į à¤«
à¤ıà¤¡ à¤µà¤°
195 7
à¥¨à¥¦à¥¦ à¥¬
MA IN
Ġà¥§à¥¯à¥¯à¥ ®
Ġà¤ĸà¤Ł à¤ĸà¤Ł
UT F
Ġra dio
Ġkey word
Poss essive
' .
G B
N ESS
l t
m and
p x
r ite
s eek
Ġ iv
à¥ĩ âĢĺ
à¥ĩ âĢĿà¥¤
à¤¤ à¤Ĩ
à¤Ĺ à¤Ī
à¤Ĺ à¤ľà¤¨à¤ķ
Ġà¤ľ à¤ĭ
Ġà¤¨ à¤¯à¤¨
Ġà¤¦ à¤ĸ
Ġà¤² à¤«
à¤¡ à¤°à¤¸à¤¨
Ġà¤ªà¤° à¤®à¤¹
à¤ħ à¤¸à¤¨
Ġà¤« à¤µ
Ġà¤« à¤¤à¤¹
à¤ªà¤° à¤¹
à¤°à¤£ à¤¨
âĢ İ
Ġà¤¸à¤¹ à¤ª
Ġs ao
Ġt ypes
ran ty
Ġà¥§à¥ §à¥
Ġ10 5
Ġc haracter
ĠA SCII
ĠP UR
ĠP ART
ĠM ER
ĠF IT
à¤°à¤« à¤¤
Ġ26 0
ĠW IT
ation s
Ġr ules
RAN TY
IL ITY
end ar
Ġà¥§à¥¯à¥¯à¥ ¬
IC UL
Ġev en
Ġuse ful
Ġle vel
ass word
Ad min
Ġwar ranty
HO UT
ĠAN Y
Ġimpli ed
ĠStr eet
CHAN TAB
alb ania
yth on
Ġdistribut ed
ĠWAR RANTY
ĠPUR POSE
ĠPART ICUL
ĠMER CHANTAB
ĠFIT NESS
ĠWIT HOUT
ĠPARTICUL AR
ĠMERCHANTAB ILITY
) %
. /
I ON
o om
r b
Ġ error
à¤¨ à¤¹à¤¸
à¤² à¤¥
à¤² City
à¤Ĺ à¥Ľ
Ġà¤ħ à¤µà¤¨
Ġà¤¬ à¤Ĺà¤¦
à¤¬ à¤¹à¤ķ
à¤§ à¤®à¤ķ
à¤§ à¤Ĺà¤®
à¤· à¤ļ
à¤¡ Name
à¥Īà¤Ĥ âĢĿ
Ġà¤ĩ à¤¦à¤°
Ġà¤¶ à¤¤à¤°
à¤« à¤¬
à¤¾à¤Ĥ )
à¤Ĩ à¤ĩà¤¸
à¤ļà¤¨ à¤ľ
Ġs oftware
Ġà¤¬à¤¦ à¤®
à¥ĩà¤Ĥ, âĢĵ
Ġà¤Ĩà¤° à¤ª
Ġà¤ľà¤¨ à¤ªà¤¦
Ġà¤ªà¤¦ à¤µ
à¤ħà¤² à¤®
Ġà¤¨à¤µ à¤¦
19 22
Ġà¤¸à¤² à¤®
ii à¤ķ
Ġc d
Ġpr ocess
Ġà¤¨à¤ľ à¤°à¤¬
Ġà¤¤à¤² à¤¹à¤Ł
ĠT O
ĠE OL
Ġà¥§à¥¯à¥ ¯à¥¦
Ġà¥© à¥«
Ġre ce
um b
ric ts
ĠName Meeting
ide o
lo ad
Ġdist ricts
libgnome ui
G tk
S cript
h ungary
i es
y y
Ļ ª
à¤° à¤ªà¤¨
à¤° weather
à¤¤ à¤ĵ
à¤¯ à¤°à¤¹
à¤¯ à¤£à¤¨
à¤¸ à¤²à¤¨
à¤® à¤°à¤¤
à¤¹ à¤¬à¤¦
Ġà¤ª à¤¸à¤²
à¤Ĺ à¤¨à¤²
Ġà¤ľ à¤³
Ġà¤¬ à¤Ľ
à¤¬ à¤°à¤¹
à¤ı à¤Ĩà¤Ī
à¤§ à¤µà¤¨
Ġà¤Ĩ à¤ĸà¤°
à¤ħ à¤ķà¤°
à¤ħ à¤ľà¤¨
à¤Ĩ à¤ªà¤¤
Ġà¤¡ à¤²à¤¹
à¤ĺ à¤¨à¤ķ
à¤¾. -
Ġà¤ł à¤¹à¤°à¤¤
à¤°à¤¬ à¤¦à¤²
in ic
Ġà¤ĩà¤¨à¤ķ à¤®
à¤Ĩà¤° à¤ıà¤«à¤ª
al sa
à¤ħà¤ª à¤¹
Ġc oun
Ġà¤ħà¤°à¤¬ à¤µ
ĠU SA
à¥¬ à¥«
à¥Ń à¥«
à¥¯ à¥¦
IN T
ain s
Short Name
str ong
ura tion
ĠRe ce
Ġcoun ties
: :
d f
v is
à¤° à¤Ĺà¤²
à¤° à¤Ĺà¤®
à¤¿ ...
à¤¨ Name
à¤¤ à¤²à¤¨
à¤ķ à¤µà¤ķ
à¤ķ Name
à¤¯ à¤¨à¤ķ
à¤µ à¤¯à¤ķ
Ġà¤ľ à¤łà¤°
Ġà¤µ à¤¸à¤²
Ġà¤ĩ à¤ĭà¤°
à¥Į ,
à¤Ĩ à¤µà¤ķ
Ġà¤¸à¤¹ à¤¬à¤¦
Ġà¤ĩà¤¨ à¤¬
à¤°à¤Ń à¤¦
à¤ıà¤ķ à¤¸
Ġà¤Ĩà¤° à¤ıà¤¸à¤ıà¤¸
Ġà¤ħà¤ª à¤¦à¤¸
à¤ľà¤¬ à¤¤à¤ķ
in di
Ġn l
Ġà¤ľà¤² à¤¸à¤¨
er b
Ġa m
à¤ıà¤® à¤Ĩà¤°
à¤ħà¤ª à¤µà¤°
Ġk a
Ġà¤ıà¤¨ à¤¬
Ġpr ogram
Ġ15 4
ĠI s
ĠI t
à¥© à¥§
el d
à¥® à¥«
Ġh ai
ĠO S
Ġu rl
198 1
Ġà¤ªà¤£ à¤§
Ġrep ublic
Ġtw o
seek er
inic an
A M
T his
X X
g i
n own
t hi
à¤µ à¤ľà¤¹
à¤¬ à¤«à¤°
Ġà¤Ĩ à¤£à¤µ
Ġà¤ı à¤²à¤¨
à¤°à¤¤ à¤ķ
à¤ħ à¤®à¤¨
à¤ĵ à¤Ĩà¤Ī
à¥Ī. -
à¤¸à¤¨ à¤µ
Ġ" (
Ġà¤ĵ à¤¤
Ġs ource
Ġ19 07
à¤¿, âĢĵ
Ġn ew
Ġ4 000
à¤ĸà¤° à¤Ĺ
Ġà¤ıà¤¸ à¤ıà¤®à¤Ī
à¤°à¤Ĺ à¤®à¤¨
Ġ18 50
à¤ıà¤¨ à¤ıà¤ļ
ĠS MTP
Ġ15 5
à¤ħà¤ľ à¤®
Ġ14 7
ĠR ep
à¥§à¥¯à¥ «
199 4
oc al
Ġà¤īà¤Ńà¤° à¤ķà¤°
ĠJ SA
à¥¯à¥ ¯
ep art
In dian
dom inican
E mpathy
I G
L evel
M Y
a ust
p age
Ġ ^
à¤¯ à¤µà¤¨
Ġà¤¬ à¤«
Ġà¤¦ à¤°à¤¯
à¤ı à¤¨à¤µ
Ġà¤° à¤¤à¤¨
à¤· à¤µà¤°
Ġà¤Ĺ à¤¹
Ġà¤ĸ à¤ª
à¤¾à¤Ĥ .
à¤°à¤£ à¤µ
Ġà¤Ľ à¤®
Ġà¤īà¤¦ à¤Ĺ
à¤Ĳ à¤Ĺ
Ġà¤Ĩà¤° à¤¬
Ġà¤ħà¤ª à¤ł
er ing
Ġà¤ħà¤Ĺ à¤µ
Ġ10 8
Ġc opy
se t
Ġb rack
Ġ{ }
ĠF ran
Ġh yp
Ġl z
ect or
Ġ02 110
Ġ185 4
Ġ188 3
ial og
ir st
tic al
ma ke
à¥§à¥¯à¥¯à¥ ¯
to ol
Ġuse d
ĠServer Name
ĠServer Admin
ribut e
xxxx xxxx
ĠEx change
arb on
DO MAIN
ns dl
Ġbrack ets
B O
L O
P S
S tring
e z
n am
n umber
à¤¸ à¤ļà¤°
Ġà¤ª à¤ª
Ġà¤² à¤¹à¤¸
à¤§ à¤Ń
à¤£ à¤ķà¤°
Ġà¤¶ à¤®à¤¨
à¤ħ à¤¸à¤°
à¤ħ à¤ªà¤¤
Ġà¤¹à¤® à¤¬
Ġà¤ħà¤¨ à¤ĭ
à¤Ĩ à¤Ĺà¤®
à¤ĵ à¤Ĩà¤°
à¤ľà¤¨ à¤°
à¥Ī. )
à¥Ī. ?
à¥ĩ, -
Ġ19 01
à¤ħà¤¨ à¤ª
à¤ħà¤¨ à¤Ĺ
Ġà¤¢ à¤²à¤¨
à¤¯à¤ª à¤¦
à¤ļà¤° à¤²
à¤ħà¤ª à¤ļ
Ġ18 85
le t
Ġà¤ķà¤Ł à¤ķà¤°
à¤ħà¤¸ à¤¹
Ġ12 3
à¤īà¤ª à¤§
Ġf ree
Ġ17 00
Ġl t
ĠZ à¤¹
Ġà¤ĸà¤¨ à¤ĸà¤¨
Ġ35 6
Ġcon fig
195 2
195 8
ric h
96 60
ĠJob seeker
Ġdire ctory
! !
' :%
1 44
A ss
M o
g r
à¤² à¤§à¤¨
Ġà¤ħ à¤°à¤£
Ġà¤ħ à¤¤à¤°à¤«à¤²à¤ķ
à¤¼ à¤¼
à¤ı à¤²à¤¬à¤®
Ġà¤Ĩ à¤¥
Ġà¤ĩ à¤¯
Ġà¤ĩ à¤ķà¤²
à¤Ī à¤ķà¤²
à¤ĩ à¤¯à¤¤
à¤Ĩ à¤µà¤§
à¤Ĩ à¤¯à¤¤à¤¨
à¤¾à¤ģ ?
Ġà¤ħà¤² à¤µà¤°
à¤¾- "
à¤¨à¤µ à¤¶
Ġt erm
Ġà¤ĭ à¤¸à¤ķ
Ġd ate
Ġa r
19 60
à¤¹à¤² à¤¹
à¤¿) à¥¤
ĠS ec
ĠB ains
Ġm m
à¥© à¥«
à¥ª à¥«
ri ght
Ġà¤Ĩà¤īà¤Ł à¤¸
25 6
à¤ĳà¤« à¤¸
195 5
198 0
196 5
Ġà¥¨à¥¦ à¥§à¥¦
Ġà¤į à¤¨
Ġal ong
oh n
rec ord
arc us
ĠRece ive
D ev
P r
T T
f s
j ama
p m
Ġà¤ ¾
à¤¾ à¥ģ
à¤¤ à¤¦à¤°
à¥ĭ :
à¤¯ à¤Ĺà¤¤
Ġà¤¹ à¤¶
à¤® à¤¶à¤ķ
à¤² à¤µà¤°
Ġà¤ľ à¤ķ
à¤¼ /
à¤¡ à¤ªà¤®
Ġà¤¯ à¤¶à¤¸
à¤« à¤ľ
à¤ħ à¤°à¤®
à¤ħ à¤µà¤¹
à¤°à¤¹ à¤ķà¤°
Ġà¤Ł à¤²à¤¤
à¤¾. .
Ġà¤°à¤¸ à¤¦
à¤¸à¤² à¤°
à¤Ĺà¤² à¤¸
ti na
à¤Ĩà¤° à¤ĵ
Ġà¤Ĳ à¤¡
à¤®à¤¹ à¤ľ
la t
à¤ıà¤® à¤ı
Ġ< %
ou th
Ġp age
à¤ķà¤ķ à¤¥
vi et
195 1
Ġà¥¦ à¥¦
hel l
Ġcd record
jama ica
B us
C E
M e
S HA
b o
d o
f er
i à¤ķ
o ice
Å Ī
Ġà¤ Ļ
à¥ĩ ]
à¤¤ à¤ªà¤¸
à¤¸ à¤ªà¤¨
à¤® à¤¢
Ġà¤¸ à¤¶
Ġà¤¸ à¤Ĺà¤°
à¥ģ :
Ġà¤ħ à¤¥à¤°
à¤¶ à¤ªà¤¥
à¤¬ à¤Ľà¤¡
à¤Ł à¤¸à¤¨
Ġà¤Ĩ à¤¶à¤¨
à¤£ à¤¶à¤ķ
Ġà¤Ĺ à¤«
Ġà¤ĩ à¤Ĺ
à¤¾à¤Ĥ ;
à¤ł à¤¯à¤ķ
à¤°à¤£ à¤µà¤¶
à¤°à¤¹ à¤¸à¤¨
à¤°à¤µ à¤§
à¤¨à¤µ à¤µ
in ter
Ġà¤ĭ à¤¸à¤®
op tic
à¤ıà¤¨ à¤Īà¤ľ
à¤ĩà¤¡ à¤¬
à¤īà¤ª à¤ĸ
Ġ11 6
Ġà¤ªà¤¨ à¤¬
ec h
as k
Ġà¥¬ à¥¬
de v
196 8
Ġ189 1
Ġbe gin
Ġà¥® à¥¦
Ġan y
uth or
à¥įà¤ĥ âĢĵ
Ġrece ived
A r
K ey
e ad
l es
n e
u x
Ġ label
Ġà¤¹ à¤¨à¤¨
à¤¹ à¤²à¤¨
Ġà¤® à¤¯à¤¸
Ġà¤ľ à¤¸à¤µ
à¤ľ à¤¯à¤¦
Ġà¤¤ à¤¸à¤µ
à¤Ń à¤£
à¥Īà¥¤ --
Ġà¤ıà¤ķ à¤¨
à¤¬à¤° à¤ĸ
à¤°à¤Ń à¤ķ
Ġà¤®à¤¨ à¤ļ
Ġà¥ Ļ
Â¥Â Į
à¤ıà¤¸ à¤¯
à¥ĭ) à¥¤
à¤¬à¤¦ à¤²à¤¨
it ain
Ġk ao
Ġ10 3
12 00
Ġà¤ıà¤² à¤Īà¤¡
ĠB ost
Ġ13 6
Ġw rite
ed en
à¤¸à¤®à¤Ŀ à¤¦
24 3
ad a
Ġre m
197 7
195 9
196 9
à¥¯à¥ Ń
Ġà¥§à¥¯à¥¯à¥ ¯
Ġà¥§à¥¯à¥® à¥¦
OL D
Ġev ent
Ġex ample
ĠCon trol
PRODUCT NAME
dr ess
eek day
Ġpl ugin
gen tina
thi op
ĠBost on
" --
2 20
C optic
g reat
r es
Ð ¸
à¥į :-
à¤Ĥ :
à¤ķ à¤¨à¤ķ
Ġà¤¨ à¤ĸ
Ġà¤¨ à¤µà¤¨
Ġà¤¤ à¤µà¤ķ
Ġà¤ĩ à¤¹à¤°
à¤ĩ à¤²à¤¤
à¤ĩ à¤¡à¤²
à¤µà¤° à¤¸
à¤ī à¤¤à¤¨
à¤ªà¤° à¤ĸ
Ġà¤¡ à¤²à¤µ
à¤¸à¤° à¤ľ
Ġà¤Ľ à¤Ĭ
à¤°à¤¹ à¤ª
à¤ĺ à¤¦
Ġà¤ħà¤µ à¤Ĺ
Ġà¤Ī à¤Ĩà¤Īà¤ı
à¤¾. %
à¥Ĥà¤Ĥ ;
à¤Łà¤¨ City
Ġs u
Ġà¤ľà¤² à¤Ĺ
Ġà¤Ĺà¤° à¤ľ
à¤¹à¤¨ à¤¦
à¤¬à¤¦ à¤¬
à¤Ńà¤Ĺ à¤µà¤¦
it s
it her
Ġà¤ħà¤¦ à¤°à¤ķ
Ġà¤ıà¤¸ à¤¬
ar gentina
Ġà¤ĩà¤ķ à¤¬
à¤ĳ à¤¯à¤²
ĠS MS
ĠS HA
à¤¸à¤¹ à¤¦
ĠP ermissions
Ġp ar
à¤¦à¤¶ à¤¹à¤°
Ġe ither
ut ton
à¤ıà¤ļ à¤ľ
à¤ıà¤ļ à¤ıà¤¸
à¤ĩà¤¨à¤ķ à¤®
Ġà¥© à¥©
Ġ22 6
à¤¯à¤Ń à¤Ł
Ġà¤¬à¤¹à¤° à¤¹
198 4
Ġ189 3
Ġst ate
Ġ` .
Ġ186 1
im med
able d
ock et
ue la
Ġà¤īà¤Ľ à¤²à¤¤
ĠCon n
br itain
sw eden
ven ez
GN OME
venez uela
- _
D isc
S H
c m
c r
f lic
p ol
s end
Ġ all
à¤¨ à¤µà¤²à¤°
à¥Ģ âĢĶ
à¤¯ à¤¦à¤°
à¤¹ à¤®à¤ķ
Ġà¤® à¤¨à¤¨
Ġà¤¤ à¤¸à¤ķ
Ġà¤ī à¤®à¤¦
Ġà¤Ń à¤Ī
à¤Ń à¤°à¤ķà¤®
à¤Ī à¤Ĩà¤ķ
à¥Īà¥¤ .
à¤« à¤²à¤¨
Ġà¤ĸ à¤°à¤¨
Ġà¤¥ à¤ķà¤¤
à¤Ĩ à¤²à¤¸
à¤ĵ à¤·
à¤¯à¤® à¤ķ
Â¤Â ĺ
Ġà¤Ł à¤ķà¤¸
Ġà¤ħà¤µ à¤¨à¤¤
Ġà¤Ĩà¤¯ à¤²
Ġ" .
à¥Ĥà¤ģ !
Ġs hort
Ġ' ,
à¤ıà¤¸ à¤Ĩà¤Īà¤¸
Ġà¤ľà¤Ĺ à¤ľ
à¤ħà¤ª à¤¶
Ġk r
Ġà¤ıà¤¸ à¤ª
Ġà¤ıà¤¸ à¤ıà¤®à¤ıà¤¸
Ġ10 4
Â¥Âĩ -
ĠC omment
Ġà¤ıà¤® à¤¡
Ġ12 2
Ġ12 9
di re
ĠB OLD
Ġm odif
18 60
à¥¬ à¥¨
à¤¸à¤®à¤Ŀ à¤¤
à¤į à¤¨
ig ht
Ġà¥Ń à¥«
ĠÂ £
Ġev ery
ĠÃ Ĥ
form ation
thiop ian
C L
J ava
R OR
S OCKS
` .
c hi
l ut
s u
s hould
Å £
Ġ âĺº
Ġà¤¹ à¤µà¤¸
à¥ģ à¤¾
à¥Ī '
à¤ª à¤ªà¤¨
à¥ĩà¤Ĥ !"
Ġà¤¨ à¤ĸà¤²
à¤ľ à¤¦à¤°à¤¬
Ġà¤¬ à¤¶
à¤¬ à¤¬
à¤ı à¤¡à¤µ
Ġà¤° à¤¦à¤Ĺ
à¤ļ à¤°à¤®
à¤ĸ à¤¤à¤°à¤¨
Ġà¤ı à¤¤à¤ķ
Ġà¤ı à¤¤à¤¦
Ġà¤ĸ à¤¸à¤°
à¤ĩ à¤ķà¤¤
à¤ĩ à¤Łà¤¨
Ġà¤ıà¤ķ à¤¸à¤®
Ġà¤« à¤£
à¤ªà¤° à¤ª
à¥ĩ, "
à¤®à¤¨ à¤¨
Ġà¤ĵ à¤ıà¤¸
Ġà¤ĩà¤¨ à¤«
à¤ıà¤ķ à¤¡
à¤¾) .
Ġà¤ķà¤² à¤°
Ġ3 23
Ġn o
Ġà¤ľà¤² à¤ķà¤°
Ġà¤¸à¤ļ à¤²
Ġt r
Ġà¤Ĳ à¤¤à¤¬
à¤ľà¤² à¤¸
à¤ıà¤® à¤Ĩà¤Ī
à¤ħà¤ª à¤ł
op en
à¤¹à¤¤à¤° à¤®
ĠâĢĿ .
at a
à¤²à¤ķà¤° à¤¨
Ġc h
Ġc l
à¤ħà¤µ à¤®
12 0
Ġ14 00
ĠR em
Ġ17 0
à¥ª à¥Ń
à¥ľ à¤ķ
ĠL ink
Ġh int
à¥īà¤ģ ,
Ġg as
Ġu p
ri end
Ġà¥© à¥¯
Ġ27 6
Ġà¤īà¤ªà¤ĸ à¤£
Ġà¤ķà¤£ à¤Ńà¤°
hou se
Ġ185 8
Ġ01 14
ser t
à¤ıà¤¸à¤Ĩà¤Ī à¤Ĩà¤°
à¤¹à¤¥ à¤ķà¤°à¤ĺ
ance d
- (
c ub
c lass
e al
t ur
} .
à¤¨ à¤¹à¤²
à¤¤ à¤®à¤¨
à¤® à¤¸à¤¨
Ġà¤¸ à¤¥
à¤ª à¤¹à¤¨
Ġà¤ľ à¤Ĺà¤®
Ġà¤ħ à¤ªà¤¤
Ġà¤ħ à¤ķà¤²
Ġà¤µ à¤¤
Ġà¤µ à¤¦
à¤ľ à¤¯à¤µ
à¤ľ à¤łà¤°
Ġà¤ªà¤° à¤«
à¥Īà¤Ĥ --
à¥ĥ à¥į
à¤Ĩ à¤Ľ
à¤¾, ?
à¤¶à¤¨ à¤Ń
à¥Ģ, âĢĵ
Ġà¤Ĩà¤¯ à¤°
Ġà¤ĵ à¤¨
à¤°à¤µ à¤£à¤¤
Ġà¤ĩà¤¨ à¤²
à¤ıà¤ķ à¤ķ
Ġ19 2
Ġ19 03
à¤ħà¤¨ à¤¸
à¤ħà¤¨ à¤§
Ġà¤ĳ à¤µ
à¤Ńà¤µ à¤Ń
Ġ18 80
at ure
Ġà¤¹à¤ľ à¤°à¤¤
Ġà¤ıà¤® à¤ıà¤®à¤ª
he ader
à¤īà¤ª à¤µ
Ġ11 1
Ġp ub
à¤ķà¤²à¤¨ à¤ķà¤°
à¥« à¥«
Ġà¤ªà¤¨ à¤ªà¤¨
Ġh OM
à¤²à¤ļ à¤Ł
Ġà¥¨à¥¦à¥¦ à¥¨
à¤Ĩà¤® à¤¦à¤¨
à¤į à¤¸
à¥Ľ à¤°
197 5
ap e
à¥¨à¥¦à¥¦ à¥¦
Ġ189 8
Ġ189 9
Ġà¤¬à¤°à¤« à¤¬
lis hed
ĠEn vironment
Ġmodif y
lut ter
) (
. âĢĶ
D M
N a
U E
a ar
i mi
m y
v er
w at
à¤Ĥ à¥ĩ
à¤¨ à¤µà¤¨
à¤® à¤Ľ
Ġà¤® à¤°à¤ľ
à¤Ĺ Name
à¤ľ à¤¯à¤ķ
à¤¼ à¥Ģà¤Ĥ
à¤¬ à¤ļà¤¨
Ġà¤² à¤Ľ
à¤ı à¤Ĩà¤Īà¤Ĩà¤°
Ġà¤Ń à¤°à¤ķà¤®
Ġà¤Ĺ à¤§à¤°
Ġ( \\
à¤ħ à¤¹à¤®
à¤Ĩ à¤ĺ
à¤Ĩ à¤ĩà¤¯
à¤Ĩ à¤ļà¤°à¤£
Ġà¤¸à¤¹ à¤ļà¤°
Â¤Â Ķ
Ġà¤ķà¤® à¤¸
Ġà¤®à¤¹ à¤ķ
à¥Ģ) -
Ġs e
Ġ19 04
an e
à¤Ĩà¤Ī à¤ıà¤¨
al se
op h
ab ase
at abase
à¤²à¤µ à¤Ł
Ġ10 2
ĠS O
Ġc o
Ġ15 8
Ġà¥¨ à¥¯
:// ...
Ġ11 4
à¤ªà¤² à¤Łà¤¨
ĠB CC
Ġà¤ªà¤¨ à¤ªà¤¤
ĠD is
à¥¬ à¥©
Ġà¥§à¥¯à¥ ¨
Ġ23 9
Ġy ear
tr es
Ġà¤· à¤·
im al
if f
Ġà¤¸à¤°à¤¹ à¤¦
Ġterm s
Ġpub lished
2 30
E C
E x
N ext
U ser
o e
Ļ «
à¥į à¥Ģ
à¤¿ à¥į
à¤¸ à¤īà¤¦
à¤® à¤°à¤¸
Ġà¤¸ à¤ĺà¤¨à¤¤
à¤¦ à¤®à¤ķ
Ġà¤µ à¤®à¤¨
Ġà¤¨ à¤Ń
à¤¬ à¤¶
Ġà¤° à¤ľà¤µ
à¤· à¤®à¤²
à¥Īà¤Ĥ âĢĶ
à¥Īà¥¤ )
à¤ħ à¤µà¤ļ
à¤Ĩ à¤¯à¤¶
à¤ªà¤° à¤¶
Ġà¤īà¤ª à¤¸à¤®
Ġà¤ªà¤¹ à¤¨à¤ķà¤°
Ġà¤Ľ à¤ªà¤¨
Ġà¤¸à¤¹ à¤µ
à¤ĺ à¤²à¤¨
à¤¯à¤¨ à¤°
à¤¾. ...
Ġà¤ħà¤ļ à¤°à¤ľ
Ġà¤ħà¤ª à¤¹
Ġà¤ł à¤Ĺ
à¤¤à¤µ à¤ķ
Ġà¤Ķ à¤¶
Ġt rans
Ġd escription
19 34
le d
Ġ8 000
at al
Ġà¤¹à¤² à¤«à¤¨
à¤²à¤µ à¤£
Ġc ount
Ġc ricket
ĠC ou
à¤ħà¤¸ à¤Ļ
Ġm ail
Ġà¤ķà¤¸ à¤ķà¤°
Ġà¤Ĩà¤īà¤Ł à¤¬
Ġà¤®à¤Ĺ à¤°à¤®à¤ļ
Ġv al
am Ass
ng lish
Ġre dist
ov e
à¥¨à¥¦à¥¦ à¥ª
Ġ189 4
à¥¯à¥ «
Ġ187 1
Ġan ti
à¥§à¥¯ à¥¦
lay er
Ġla ter
à¤µà¤²à¤¨ à¤¶
ass in
OU NT
lim ate
Ġgradi ents
amAss assin
Ġredist ribute
0 50
E thiopian
c u
d ao
r ranjan
s outh
u c
Ġà¤ķ à¤¸à¤¨
à¤¤ à¤¹à¤¸
à¤ķ à¤Ľ
à¤¸ à¤Ĺà¤°
Ġà¤¸ à¤¶à¤°
à¤Ĺ à¤ªà¤Ł
Ġà¤¨ à¤¥
à¤ľ à¤¹à¤°
à¤¼ '
à¤¼ à¥ĥ
Ġà¤¦ à¤ĭà¤°
à¤¶ à¤¯à¤¤
à¤Ł à¤ļ
Ġà¤° à¤®à¤ľ
à¤§ à¤¨à¤ķ
à¤¡ à¤Ł
Ġà¤Ĺ à¤¡à¤ķà¤°
Ġà¤ĩ à¤¡
Ġà¤ļ à¤¹à¤¤
Ġà¤ļ à¤°à¤¨
à¤Ī à¤Ĩà¤Īà¤ı
à¤« à¤°à¤ª
Ġ1 19
Ġà¤Ĩà¤ª à¤Ł
à¤¯à¤® à¤¸
Ġ2 20
Ġà¤Ī à¤²
Ġà¤ķà¤® à¤¬à¤ĸ
à¤¦à¤¨ à¤Ĺà¤°
à¥Ĥà¤ģ ;
à¤Ĳ à¤®
Ġà¤Ĭ à¤ļ
an ag
Ġ5 50
à¤¸à¤¤ à¤²
Ġd efault
à¤¹à¤ķ à¤®
Ġ10 9
Ġà¤®à¤¶ à¤µ
ĠT ax
ĠM y
Ġp assword
ĠF if
ĠF lo
ĠU N
à¥© à¥ª
à¥® à¥Ń
Ġin tres
ĠE d
ĠO pen
199 7
ov er
198 7
Ġà¤¤à¤¹ à¤ĸ
à¤Ĩà¤ĩ à¤ķà¤¨
"" "
IC Q
DE V
flic t
ĠFif th
Ġintres ting
S P
S ocket
m box
n er
v anced
Ã ©
Ġ out
à¤° à¤Ī
à¤Ĥ à¤Ĥ
à¥Ģ à¤¿
Ġà¤¸ à¤µà¤°
à¤µ à¤¦à¤¤
à¤¦ à¤¶à¤ķ
à¤Ĺ à¤£à¤¤
Ġà¤ľ à¤¯à¤¸
Ġà¤ī à¤¹
à¤¶ à¤£
à¤· à¤²
à¤ļ à¤°à¤¨
à¤¡ à¤¸à¤¨
à¤£ à¤²
Ġà¤ļ à¤£
Ġà¤¸à¤® à¤²
Ġà¤¹à¤® à¤ľ
à¤ł à¤£
à¤ī à¤®à¤°
à¤²à¤¨ à¤ªà¤¤
Ġ2 10
à¤¼à¥ĩ ?
à¤¯à¤¨ à¤®
à¥Ģ) :
Ġ19 02
Ġà¤ł à¤Ł
Ġà¤¸à¤¤ à¤²
à¤¤à¤µ à¤ª
à¥Ģ- -
in ce
à¤ħà¤² à¤¸
à¤Ĩà¤° à¤Ī
Ġà¤ĭ à¤®
19 38
ĠS c
à¤ĩà¤¡ à¤¶
Ġà¤ıà¤® à¤Ł
à¥ĭ- -
à¤¿. )
à¥¬ à¥¬
à¥ª à¥¨
Ġin ter
à¤ªà¤¥ à¤ª
Ġà¥¨à¥¦à¥¦ à¥§
Ġv a
Ġà¤¬à¤® à¤¬
Ġà¥ª à¥«
Ġà¤Ĺà¤¡ à¤¬à¤¡
197 8
ox ide
Ġ188 1
Ġ188 6
Ġ187 6
Ãī Å
nc il
vii à¤ķ
Ġà¥¯ à¥¦
In sert
ace book
........ ........
dr dao
urr ent
: "
C ol
F ont
I A
I B
i eld
k lin
v a
à¤¾ (
à¥į :
à¤¤ à¤ªà¤¨
à¤¯ à¤¯à¤ķ
à¤¯ à¤¬à¤°
à¤¸ à¤ªà¤¦
à¥ģ ;
Ġà¤ª à¤²à¤¸
à¥ĩà¤Ĥ âĢĵ
Ġà¤¦ à¤°à¤ķ
à¤¶ à¤°à¤¦
à¤¬ à¤ĭ
Ġà¤² à¤Ń
Ġà¤Ń à¤¨à¤ķ
à¤ĩ à¤®à¤¸
Ġà¤¸à¤® à¤°à¤¸à¤¤
à¤ħ à¤¶à¤°
Ġà¤ħà¤¨ à¤¶à¤¨
à¤Ĩ à¤¨à¤²
à¤Ĩ à¤¸à¤ª
à¤ł à¤¦
à¤ī à¤¸à¤°
à¥ī à¥¤
à¤®à¤¤ à¤µ
Ġà¤ĵ à¤¤à¤ª
Ġà¤¬à¤¢ à¤ĭ
Ġs earch
Ġà¤ħà¤ļ à¤¯à¤¨
Ġà¤¦à¤° à¤ª
Ġà¥ ĺ
Ġà¤ľà¤¨ à¤¶
à¤Ĭ à¤ľ
à¤ħà¤² à¤µ
à¤Ĩà¤° à¤ıà¤®
ame rica
à¤¬à¤¦ à¤ķ
Ġà¤Ĳ à¤¹
Ġa cc
Ġà¤®à¤ľ à¤®
à¤ľà¤² à¤ª
ee p
Ġà¤ĩà¤ķ à¤¹à¤°
ĠS how
Ġc ategory
Ġpr ef
Ġ20 30
ĠA ct
Ġà¤ªà¤² à¤¡
il es
10 9
Ġ[ \\
ĠN o
24 5
oo d
198 3
ĠÂ ©
à¤ħà¤ĸ à¤¬
ore a
âĢ¦ âĢ¦
Ġra jeshkajha
Ġâĺ»âĺ» âĺ»
cent re
reen house
ĠFran klin
viet nam
imi an
ĠCou ncil
ĠFlo or
O b
O f
T O
b b
d esktop
i e
m it
n ational
à¥ĩ âĢĶ
à¥į '
à¥į à¤¾à¥Ģ
à¤ķ à¤ı
Ġà¤ª à¤ĸ
à¥Ī à¥į
Ġà¤® à¤°à¤µ
à¤¦ à¤¯à¤¸
à¥ĭà¤Ĥ à¤ĥ
à¤ı à¤Ī
Ġà¤° à¤®à¤¨
Ġà¤° à¤ļà¤¤
à¤§ à¤¹
Ġà¤Ń à¤¡à¤ķ
Ġà¤Ĺ à¤Ĺà¤¨
Ġ( ),
Ġà¤ĩ à¤ķà¤¤
Ġà¤¶ à¤°à¤®
à¤ĩ à¤ķà¤Ł
à¥Į )
à¥Į .
Ġà¤¹à¤® à¤¦
à¤¸à¤® à¤¤à¤²
Ġà¤ľà¤¬ à¤²à¤ª
à¤µà¤¨ à¤ªà¤°
à¤ŀ à¤£
Ġà¤ĵ à¤µ
à¤ķà¤² à¤°
Ġà¤ħà¤ª à¤ļ
Ġà¤®à¤¨ à¤µ
me s
me nia
à¤¬à¤² à¤µ
Ġà¤¬à¤° à¤Ĺà¤¦
al i
Ġà¤Ĩà¤Ī à¤¨
ic ros
à¤ħà¤ª à¤ĺ
à¤ıà¤² à¤Ł
ar menia
Ġà¤¦à¤² à¤ªà¤¤à¤°
re ad
ĠA d
ĠA ss
Â¤ÂĤ :
11 1
il ity
à¤ĩà¤® à¤Ĩà¤īà¤Ł
Ġà¤¤à¤¨ à¤ĸ
à¥® à¥§
à¥Ń à¥¨
à¥Ń à¥Ń
Ġà¤ıà¤« à¤ª
Ġà¤īà¤¤à¤° à¤ķà¤°
ac c
iv ative
Ġl anguage
us er
198 2
ess ion
Ġà¥Ń à¥¦
Ġ188 7
EN T
ix bu
per u
Ġad dress
Ġday s
Ġbenefit s
tool bar
' )
. :
E v
I BM
T ime
] )?
c ustom
m t
r ame
r ror
Ã º
Ġ id
à¤¾ âĢį
à¥į à¤¾
à¤¿ !
Ġà¤ķ à¤¸à¤°
à¤¨ à¤Ĺà¤¢
à¤¸ france
Ġà¤¸ à¤Īà¤¦
Ġà¤µ à¤¨à¤®
Ġà¤¬ à¤¬
Ġà¤¦ à¤®à¤ķà¤¤
à¤¶ à¤°à¤®
à¤¬ à¤¹à¤¤
Ġà¤° à¤Ł
à¤· à¤°à¤¶
Ġà¤ĩ à¤ķà¤°
Ġà¤ı à¤¸à¤µ
Ġà¤ļ à¤ķà¤¨
à¤Ī Name
Ġà¤ĸ à¤²à¤¨
à¤ħ à¤°à¤£
Ġà¤ħà¤¨ à¤Ĺà¤¢
à¤°à¤£ à¤ķ
à¤¤à¤¨ à¤Ń
à¤ĺ à¤ĺ
à¤¦à¤¨ à¤ķà¤°
à¤µà¤¤ à¤¤
Ġà¤ľà¤¨ à¤ª
Ġà¤ªà¤¦ à¤Ń
à¤ĭ à¤®
Ġà¤®à¤° à¤ķà¤°
ic h
Ġ0 20
Ġà¤ıà¤¨ à¤Ĩà¤Īà¤¸
à¥Ģà¤ĥ -
à¤īà¤¦ à¤¯à¤ª
Ġà¤ªà¤Ł à¤¸à¤¨
à¤ħà¤ľ à¤ľ
Ġà¤®à¤¶ à¤Ĺ
is h
ĠN NTP
Ġe le
Ġà¤Ĺà¤ł à¤ľ
Ġ26 3
ĠZ à¤«
Ġà¤ķà¤ļ à¤¹à¤°
us s
26 9
ind er
ers on
Ġ189 2
Ġ189 6
à¤³ à¤µ
Ġà¤Ĺà¤ľ à¤Ł
Ġ188 9
Ãī Ä
ject s
mb ol
Ġ\\ ])?
Ġà¥§à¥¯à¥ª à¥Ń
dire ctory
Ġ\\])? :
3 50
A pp
C N
P G
Q à¤·
Z à¤¤
\ -
f riend
i o
i pp
à¥ĭ à¤¼
à¤® à¤«à¤²
à¤® à¤¶à¤¤
Ġà¤¸ à¤¹à¤¤
à¤¦ à¤ļ
à¥ĭà¤Ĥ à¤¾
Ġà¤¬ à¤°à¤¸à¤¨
à¤¶ à¤°à¤ķ
à¤ļ à¤Ń
Ġà¤ĩ à¤®à¤²
Ġà¤ļ à¤Łà¤¨
à¤Ľ à¤ķà¤°
Ġà¤¡ à¤²
Ġà¤īà¤ª à¤ķà¤²
à¤¯à¤® à¤µà¤°
à¤°à¤¸ à¤¦
à¤µà¤¨ à¤®
Â¤Â ĵ
Ġà¤īà¤¦ à¤Ńà¤µ
à¤¹à¤® à¤£
Ġs erv
à¤²à¤¬ à¤¨
à¤°à¤¨ à¤Ĺà¤°
ti t
à¤¨à¤° à¤²
à¤Ĭ à¤²
à¤ķà¤Ł à¤ª
à¤¹à¤¨ à¤ľ
Ġà¤ħà¤ľ à¤¯
à¥ĩà¤Ĥ) .
à¤ĭ à¤ľ
à¤°à¤ľ à¤®
à¤Łà¤² à¤®
it er
à¤ħà¤¬ à¤ķ
ot her
à¥Īà¤Ĥ? "
ĠS IP
à¤īà¤¦ à¤¯
Ġ9 000
Ġ11 8
Ġà¤ķà¤¥ à¤ķà¤²
Ġ25 6
Ġ13 4
Ġà¤¤à¤Ł à¤°à¤ķ
à¥© à¥©
ĠN HS
Ġh ref
Ġg conf
à¤¬à¤ķ à¤¬à¤ķ
as h
Ġv c
Ġfor mat
Ġà¤Ńà¤°à¤¤ à¤¨
à¤ªà¤°à¤µ à¤²à¤¯
Ġ187 3
der ivative
Ġà¥§à¥¯à¥« à¥¦
Ġlist box
ĠJob centre
ĠUS B
icros oft
/ '
D atabase
a u
b urn
à¤¿ :-
à¤Ĥ à¤¾
à¤¤ à¤ªà¤°
à¤¤ à¤¹à¤°
à¤¤ à¤µà¤¨
à¤¤ à¤¤à¤®
à¥ĭ âĢĻ
à¤¸ à¤¤à¤ķ
à¤¹ à¤ķà¤¤
à¤ª à¤²à¤°
Ġà¤¨ à¤ļ
à¥Ĥ à¥į
Ġà¤¤ à¤Ĺà¤¡
à¤¬ à¤ķà¤®
à¤ļ à¤£
Ġà¤Ĩ à¤ĩà¤ª
à¤£ à¤Ń
Ġà¤ĩ à¤®à¤¦
Ġà¤ļ à¤°à¤¬
à¤Ī à¤¸à¤µ
à¤« à¤£
à¤ĩ à¤ıà¤®
à¤°à¤ķ à¤¥à¤¨
Ġà¤ħà¤¨ à¤µà¤°
à¤ī à¤ķà¤¤
à¤ľà¤¨ à¤ķà¤°
à¤¸à¤° à¤¨
à¤¸à¤® à¤¬à¤°
Ġà¤¸à¤¹ à¤Ĺà¤²
00 00
à¤¾) ?
à¥Ģ) )
Ġà¤®à¤¨ à¤¹
Ġn a
Ġà¤®à¤¦ à¤¹
à¤¡à¤² à¤®
Ġa I
Ġà¤®à¤° à¤Ĺ
19 85
à¤ħà¤ª à¤¹à¤°à¤£
Ġ6 50
ab ber
at ch
à¤ıà¤¨ à¤Īà¤ª
et work
ĠF ile
Ġ16 4
Ġ13 1
ĠN I
à¥ª à¥¬
Ġw eekday
el and
Ġà¤īà¤¤à¤° à¤µ
à¥Ī... ...
Ġà¤ªà¤ļ à¤¹à¤¤
à¤¾' ,
à¤¾âĢĻ âĢĻ
un ch
à¥¯à¥ ©
à¤¾... ...
Ġ186 7
Ġrem inder
ĠConn ector
ĠRem ote
F mt
U C
W indows
l er
l ob
x t
z one
Ġà¤ ³
à¤¯ à¤ħ
à¤¯ à¤Ļ
à¤¸ à¤¦à¤°
à¤® à¤¤à¤°
à¤² à¤¹à¤¸
à¤² à¤«à¤¤
à¥ģ à¥ħà¤Ĥ
à¥ĩà¤Ĥ âĢĺ
Ġà¤ľ à¤¯à¤¶
Ġà¤ħ à¤ķà¤°
Ġà¤¨ à¤¤à¤®à¤¸
à¥ĭà¤Ĥ à¥į
Ġà¤¬ à¤ķà¤¤
à¥Ĥ '
Ġà¤¤ à¤°à¤µ
à¤¬ à¤ķà¤¤
à¤¬ à¤ĺ
Ġà¤² à¤¹à¤²à¤¹
à¤Ł à¤£
à¤Ł Comment
à¤ı à¤¯
à¤· à¤ªà¤¦
Ġà¤ķà¤° à¤ĺ
Ġà¤ªà¤° à¤Ĺà¤¨
Ġà¤ĸ à¤²à¤¬à¤²
à¤ĩ à¤Ĩà¤ķ
Ġà¤¸à¤® à¤ª
à¥Į -
à¤ķà¤° à¤µ
à¤ī à¤łà¤¨
Ġà¤§ à¤°à¤¨
Ġà¤Ľ à¤²à¤ķ
Ġà¤īà¤¦ à¤Ń
Ġà¤ªà¤¤ à¤Ŀà¤¡
à¤īà¤¨ à¤¹
à¤ĩà¤² à¤¶
Ġà¤ħà¤ª à¤¶à¤ķ
à¤¤à¤ķ à¤µ
à¤ľà¤¬ à¤°à¤¦à¤¸
à¤°à¤¨ à¤¹
Ġà¤ķà¤² à¤¹
Ġà¤¢ à¤°
Ġ3 30
à¥ĩà¤Ĥ) ,
à¤¬à¤¦ à¤²à¤¤
Ġd is
Ġa Date
Ġà¤¸à¤ľ à¤Ĺà¤¤
à¤²à¤® à¤ĸ
à¤¨à¤¯ à¤¶
à¤¤à¤² à¤¡
Ġ12 8
se con
ou se
ĠM C
ĠM D
Ġp ython
à¤ķà¤¤à¤° à¤«
ra y
Ġ[ %
Ġà¤®à¤² à¤ľà¤²
Ġà¤ıà¤« à¤¸
ĠE nter
ec tion
qu es
à¤¡à¤ª à¤Łà¤¨
Ġà¤ıà¤¡ à¤ľà¤¸
Ġre f
ap ps
Ġ187 0
Ġà¤ļà¤® à¥ľ
Ġ-- &
Permissions Level
urr page
Ġà¤ıà¤®à¤ĵ à¤Īà¤ıà¤«
Ġcl ust
ĠaDate Fmt
A GE
S ystem
i od
k nown
x i
Ġà¤ķ à¤Łà¤¨
à¤¸ à¤¥
Ġà¤¸ à¤ªà¤°
Ġà¤ª à¤ªà¤¡
à¤µ à¤ªà¤¨
à¤¦ à¤ı
à¤ª à¤§
à¤ľ à¤¯à¤¶
à¥ĭà¤Ĥ ''
à¤¶ à¤Ļ
à¤· à¤Ł
à¤¥ à¤°à¤¨
à¤ĸ à¤®à¤¯
Ġà¤Ĺ à¤ĩ
Ġà¤Ĺ à¤ľà¤ªà¤¤
à¤Ń à¤¯à¤¤
Ġà¤ı à¤Ĩà¤Ī
à¤« à¤Łà¤ķ
à¤ĩ à¤¤à¤°
Ġà¤¨à¤¹ à¤¸
Ġà¤« à¤¬à¤¤
à¤Ĩ à¤ĩà¤Łà¤®
à¤¤à¤° à¤¬
à¤²à¤¤ à¤®à¤¨
Ġ2 15
à¤¯à¤¨ à¤µ
à¤°à¤µ à¤¸
Ġs ak
Ġà¤Ŀ à¤£
à¤Ĳ à¤ļ
Ġà¤Ĩà¤° à¤ıà¤«à¤ª
Ġà¤ªà¤¦ à¤®
Ġà¤ªà¤¦ à¤§
Ġà¤ĳ à¤¨à¤°
à¤ļà¤¯ à¤¨à¤ķ
à¤¯à¤ª à¤Ĺà¤¤
Ġ6 000
à¤®à¤¦ à¤¦à¤Ĺ
à¤¼à¥ĩà¤Ĥ ?
Ġà¤ıà¤¨ à¤Īà¤ľ
à¤ħà¤µ à¤¤à¤°à¤£
Ġà¤«à¤² à¤¦
ou s
Ġp art
à¥ĭ? -
ĠB ook
Ġm d
Ġ14 8
ĠR SV
Ġe k
Ġin EMAIL
ce p
à¤¸à¤®à¤Ŀ à¤ķà¤°
23 3
à¤²à¤Ĺà¤ĩà¤¨ Name
à¤¯à¤¬ à¤ľ
à¤¨à¤Ĺà¤° à¤ª
Ġ187 8
Ġà¥§à¥¯à¥¯à¥ §
Ġ186 6
à¤¡à¤ĭ à¤ı
est art
mail dir
Ġat t
send mail
Ġval ue
lob al
ĠRSV P
$ {
) ''
. "
B S
C OM
H P
Q Font
S y
T W
X MP
g erm
i mp
m an
n ing
p ad
w e
à¤° à¤°à¤¹
Ġà¤ķ à¤ķà¤¡
à¤¤ à¤¬à¤°
Ġà¤¹ à¤°à¤¦
à¤® à¤Ŀ
Ġà¤¸ à¤°à¤®
à¤¹ à¤§
à¤² à¤µà¤¨
à¥ģ âĢĻ
à¥Ī âĢ¦
à¤µ à¤®à¤¨
à¤ª à¤Ĺà¤¢
à¤Ĺ à¤¨à¤µ
à¤¼ à¥Īà¤Ĥ
à¤¶ à¤¹à¤¦
à¤Ł à¤¶
Ġà¤ķà¤° à¤Ĺ
à¤Ń à¤®
Ġà¤ı à¤¹à¤°
Ġà¤ı à¤²à¤¸
Ġà¤¸à¤® à¤¦
à¤¾à¤Ĥ ?
à¤¾à¤Ĥ âĢĵ
à¤ħ à¤²à¤ķ
à¤µà¤° à¤¦
à¤ľà¤¨ à¤²
à¤°à¤® à¤²
à¤¨à¤ķ à¤ķ
à¤¼à¥Ģ à¤ĥ
à¤¹à¤¤ à¤ķ
à¤®à¤ķ à¤¡
Ġ' -
Ġ' <
Ġà¤ľà¤² à¤§
à¤¬à¤² à¤ª
à¤Ĩà¤° à¤ıà¤«
à¤°à¤ľ à¤Ń
al k
19 32
à¤µà¤§ à¤°
à¤ıà¤® à¤¬
Ġà¤ıà¤¸ à¤¡
Ġà¤®à¤¸ à¤ľ
à¤ıà¤¨ à¤ıà¤¸à¤¡
Ġà¤ıà¤¨ à¤Ĩà¤Īà¤Ł
à¥Ī- (
Ġà¤ĩà¤ķ à¤ł
à¤ıà¤« à¤ĵ
Ġc redit
ĠC ity
à¤ħà¤¸ à¤«à¤²à¤¤
ĠA p
ĠA ir
à¥Ĥà¤ģà¥¤ -
12 15
ĠT r
Ġ100 00
Ġof f
iii à¤ķ
vi a
ur al
Ġv ari
à¥Ĩ à¤Ĥà¥¤
à¤¦à¤¹ à¤¶à¤¤
ER ROR
à¥¯à¥ §
à¥¯à¥ ¨
à¥¯à¥ ¬
à¤¤à¤°à¤¤ à¤®
Ġà¥§à¥¯à¥¯à¥ Ń
EN SION
à¥§à¥¯à¥® à¥¦
com mand
Ġâ Ĥ
Ġgt k
Ġsy mbol
ribution s
ral ia
nor way
lat via
bo ard
QFont Database
9 00
D IST
D ialog
G TK
P re
R C
W OS
Y P
d ate
k ar
n ot
n ao
p ath
à¤° City
à¤¨ à¤ķà¤¤
à¤¨ à¤ĵà¤µà¤°
à¤¤ à¤²à¤¤
à¤¤ à¤¸à¤¬
à¤ķ à¤µà¤ļ
à¤¸ Comment
Ġà¤¹ à¤°à¤£
à¤® à¤ľà¤¨
Ġà¤® à¤ľà¤¨
à¤¦ à¤¯à¤°
à¤¦ à¤ľà¤¨à¤ķ
à¤ľ à¤ĺà¤¨
Ġà¤ī à¤Ĺà¤²
à¤¶ à¤«
à¤¬ à¤«
à¤Ł à¤ķà¤²
à¤§ à¤ķà¤¤
Ġà¤ķà¤° à¤ķà¤°
Ġà¤Ń à¤Ĺà¤¦
Ġà¤Ĺ à¤ª
à¥Īà¤Ĥ '
Ġà¤ĩ à¤²à¤¯
Ġà¤ļ à¤¸
Ġà¤¶ à¤¹à¤¨
à¤ªà¤¨ à¤¨
Ġà¤ĸ à¥ľ
à¤ĩ à¤®à¤²
à¤¾à¤Ĥ à¤ĥ
Ġà¤ħà¤¨ à¤µ
Ġà¤¤à¤ķ à¤¦
à¤¤à¤¨ à¤µ
à¥Ī. ....
à¥ĩ, âĢĵ
à¤Ĺà¤¤ à¤®
à¤¬à¤° à¤ª
Ġà¤ĵ à¤Ŀ
Ġà¤īà¤¦ à¤Ĺà¤®
Ġà¤¸à¤®à¤¯ à¤¸
à¥Ĥà¤Ĥ !
à¤Łà¤¨ à¤°à¤¶
à¥Ģ) .
Ġà¤Ĩà¤§ à¤°
Ġà¤ħà¤ª à¤¶à¤¬
à¥Ģ. /
à¤®à¤° à¤¯à¤®
on ia
Ġà¤Ĩà¤µà¤¶ à¤ĭ
à¤µà¤°à¤£ à¤¶
à¤ıà¤¸ à¤ıà¤«
à¤¯à¤² à¤²
Ġà¤¨à¤µ à¤µà¤°
Ġd e
Ġd iv
Ġa ction
à¤ļà¤² à¤®
la ce
or ity
ic t
Ġà¤ıà¤¸ à¤Ĩà¤°à¤Ĩà¤Ī
Ġ18 24
à¤°à¤ª à¤µ
à¤ħà¤® à¤°à¤ķ
Ġ12 6
à¥ħ à¥Ĥ
ĠT o
Ġ13 00
à¥® à¥®
ut es
Ġ24 0
hi p
Ġr es
Ġà¤Ľà¤ª à¤µ
194 2
à¤§à¤ª à¤°à¤ķ
Ġst yle
à¥¯à¥ ª
Ġà¤¸à¤°à¤²à¤¤ à¤®
ev olution
Ġcont ributions
Ġpl an
sl ot
aut om
Mo zilla
ĠMC X
Ġclust ering
0 30
; ...)
E P
E mail
J ohn
L ocation
M arcus
N A
O DE
c al
i ed
l og
r oll
s i
t ype
w indows
Ġ à¥į
Ġ âĺ»
à¤° à¤¶à¤¨
à¥į âĢĻ
à¤¿ âĢĿ
à¤¨ à¤Ŀ
à¤¤ à¤ı
à¤¤ à¤µà¤²
à¤¯ à¤ı
à¤¯ à¤ªà¤°à¤²
à¤¸ à¤¶à¤°
à¤² à¤®à¤ķ
Ġà¤¬ à¤Īà¤¦
à¤Ł à¤ľà¤°à¤²
à¤¡ à¤°à¤¨
Ġà¤¯ à¤¯
Ġà¤Ĺ à¤Ń
Ġà¤Ĺ à¤ľà¤¨
Ġà¤ı à¤¹à¤²
à¥Ģà¤Ĥ !"
Ġà¤¥ à¤ªà¤¥à¤ª
à¤ģ :
à¤ħ à¤ķà¤²
à¤ħ à¤¹à¤¸
Ġà¤ħà¤¨ à¤¶
Ġà¤ħà¤¨ à¤ķà¤°
à¤Ĩ à¤Ĺà¤¤
Ġà¤ķà¤¹ à¤«
Ġà¤Ľ à¤Łà¤ªà¤Ł
Ġà¤Ĩà¤ª à¤ªà¤°
à¤¹à¤° à¤¦
à¤¹à¤° à¤ľ
à¤°à¤¹ à¤¤
à¥Ģà¥¤ --
à¤Łà¤° à¤Ĺ
Ġà¤ĵ à¤¦
à¤¹à¤® à¤ªà¤°
Ġà¤ħà¤ª à¤Ĺ
Ġà¤¸à¤¤ à¤¤à¤¤
à¥¦ à¥Ń
an c
à¤Ĭ à¤ªà¤¨
Ġà¤°à¤ķ à¤ħà¤¤
à¤°à¤§ à¤°
à¤ļà¤° à¤ĸ
Ġà¤īà¤² à¤«à¤¤
Ġà¤ªà¤ķ à¥ľ
Ġà¤Ĩà¤Ī à¤Ĩà¤Īà¤ıà¤®
Ġà¤¬à¤ľ à¤¤
à¤ªà¤Ł à¤¤
à¥Ī) ;
en ti
à¤ıà¤¨ à¤Ĩà¤Ī
Ġà¤¤à¤² à¤ªà¤Ł
à¤¨à¤¹ à¤Ĺ
ĠP M
ĠT ext
ĠM P
à¤¦à¤¶ à¤®
18 57
à¥¬ à¥ª
ĠL F
ĠG roup
à¤ĩà¤¬ à¤°à¤¤
Ġà¥© à¥¦à¥¦
Ġl d
à¤²à¤Ĺà¤ĩà¤¨ Comment
as a
Ġy a
Ġi k
ĠV iew
Ġà¥¬ à¥¦à¥¦
Ġà¥¬ à¥«
os is
196 7
à¥ĭà¤Ĥ? "
RO M
Ġà¥§à¥¯à¥® à¥ª
Ġsa M
error ism
Dev help
Ġà¤ħà¤ªà¤¤ à¤Ł
Ġanti derivative
friend ly
ĠâĤ ¹
* *
? -
E Y
L M
M F
O I
P N
g pg
t her
x iv
§ à¥¦
Ġ ...
à¤¿ à¤¿
à¤¨ à¤ĺ
à¥Ģ à¥Ģ
à¤¸ à¤¡à¤ķ
Ġà¤ª à¤¯
Ġà¤® à¤°à¤¹à¤®
à¤¦ à¤°à¤ķ
à¤ª à¤µà¤¤
à¤ľ à¤Ĺà¤®à¤Ĺ
Ġà¤¬ à¤ľà¤°
à¤¬ à¤¸à¤¨
à¤¬ à¤ķà¤¨
à¤§ weather
à¤· à¤¡
à¤ļ à¤¯à¤ķ
à¤¥ à¤ľ
Ġà¤Ń à¤Łà¤¨
à¤Ń à¤ļ
à¤Ń à¤Ń
Ġà¤ı à¤®à¤°
Ġà¤ļ à¤°à¤ķ
à¥Īà¥¤ âĢĻ
à¤°à¤¤ à¤¨
Ġà¤ıà¤ķ à¤ªà¤ķ
Ġà¤¥ à¤ª
Ġà¤« à¤ľà¤²
à¤ľà¤¨ à¤ªà¤¦
Ġà¤ħà¤² à¤°
à¤¹à¤° à¤¸
Â¤Â ĳ
Ġà¤īà¤¦ à¤¹
à¤īà¤¨ à¤¶
Ġà¤ħà¤ª à¤Ń
à¤¾- (
à¤°à¤¬ à¤¦
à¤¤à¤µ à¤ľ
Ġà¤¢ à¤²à¤¤
er ed
à¤²à¤Ĺ à¤¢
19 20
19 07
à¤Ĺà¤łà¤¨ à¤ķà¤°
le an
re w
ĠI T
à¤īà¤ª à¤®
11 12
11 14
à¤Ļ à¤¨
Ġ13 3
à¥© à¥Ń
ĠG iB
à¥® à¥©
Ġh ao
Ġg ram
Ġ24 3
ac es
ac he
.... ...
à¤Ĩà¤¸ à¤«
Ġà¥© à¥¨
Ġà¥© à¥ª
17 5
Ġ23 3
ub ject
à¤Ńà¤°à¤¤ à¤¨
à¤Ĩà¤°à¤ı à¤ĵ
IL E
à¤ķà¤ł à¤ª
od el
Ġz oom
Ġà¤²à¤Ł à¤ķà¤¨
St yle
ud acity
à¤Ĩà¤Īà¤ıà¤« à¤Ĩà¤°
DA Y
ĠâĢĶ %
à¤ıà¤®à¤ĵ à¤Īà¤ıà¤«
Sp amAssassin
ĠÅ ĳ
ĠRes olution
ivers ity
olog ical
can ada
2 60
; %
> .
D ay
L IN
L ess
T H
T EXT
X a
Z à¤ķ
b ack
h o
m ar
t ra
u ps
à¥ Ķ
à¤° à¤ĵ
à¤¯ à¤¯à¤¤
à¤® à¤¨à¤ķ
à¤² à¤¯à¤ķ
Ġà¤ª à¥Ŀ
à¤µ à¤¯à¤®
à¤µ à¤²à¤¯
Ġà¤® à¤Łà¤®
à¤ª à¤²à¤ķ
à¤Ĺ à¤Ĺà¤¨
Ġà¤µ à¤Ł
à¤ľ City
à¥ĭà¤Ĥ à¤Ĥ
à¤¶ à¤¬à¤²
à¤ı à¤µà¤°
à¤· à¤°à¤¹
Ġà¤ķà¤° à¤²
à¤¡ à¤§
Ġà¤Ĩ à¤°à¤¸
à¤£ à¤§
Ġ( *
à¥Ģà¤Ĥ ...
Ġà¤ĸ à¤¸
Ġà¤ĩà¤¸ à¤ĭ
à¤ħ à¤Ĺà¤¤
à¤ħ à¤«à¤°
à¤Ĩ à¤£à¤µ
à¤ł à¤¹
Ġà¤¡ à¤¸
à¤ªà¤¤ à¤µ
Ġà¤¬à¤¡ à¤ĭà¤ı
à¤ıà¤ķ à¤¦
Ġs ound
Ġà¤¬à¤¦ à¤¹
à¥Ģ. -
Ġà¤ªà¤¦ à¤¸
an iz
es ton
es tiv
à¤¨à¤¦ à¤¯
Ġd i
Ġd r
Ġd ictionary
19 28
19 36
la m
à¤ıà¤« à¤ı
Ġc urrent
Ġà¤Ĺà¤£ à¤ª
Ġb a
et ting
Ġ25 4
ĠN P
Ġw id
Ġà¤ħà¤®à¤° à¤¨
à¥® à¥¯
ĠE nglish
Ġl og
ĠâĢİ âĢİ
as px
Ġà¤ķà¤¤à¤° à¤¨
ess ment
Ġst d
Ġà¥§à¥¯ à¥¦à¥¦
int ui
ura s
à¤ıà¤ıà¤¨ à¤ıà¤«
ator s
CR L
Ġsh ader
ÃīÃ ¤
oint ment
Me dia
Of The
eston ia
estiv al
C lutter
D I
G oogle
L ist
M H
M ail
O W
P age
Q L
Q N
R EA
S how
T S
] ]
a ir
g er
m al
s o
Â ³
Ġà¤ķ à¤¨à¤ķ
à¥Ģ à¤ģ
à¥ĭ âĢĿ
à¤¸ à¤¡à¤°
à¤® à¤¶à¤µ
Ġà¤ª à¤²à¤¨
Ġà¤ª à¤²à¤¤
à¤ª à¤Łà¤°
à¤Ĺ à¤ĸ
à¤ľ à¤ĺ
Ġà¤¬ à¤ĺ
Ġà¤¤ à¤®à¤¸
à¤¶ à¤ļà¤¨
à¤ļ à¤ļ
à¤¥ à¤¬
Ġà¤¯ à¤¶à¤µ
à¤Ń à¤µà¤¹
à¥Īà¤Ĥ Í¾
Ġà¤ĩ à¤°à¤µ
Ġà¤¸à¤® à¤Ń
à¤ħ à¤¹à¤°
à¤Ĩ à¤¢
à¤°à¤£ à¤ķà¤°
à¤¯à¤ķ à¤®
Ġà¤¡ à¤Łà¤ķà¤°
à¤ľà¤¨ à¤®
Ġà¤īà¤ª à¤µà¤°
Ġà¤¬à¤¹ à¤®à¤¨
à¤¶à¤¨ à¤¦
Ġà¤ĵ à¤£à¤®
Ġà¤¤à¤°à¤¹ à¤ķ
à¤®à¤ķ à¤¦
Ġà¤¬à¤¦ à¤¹à¤µ
Ġà¤¸à¤¤ à¤ª
à¤ħà¤¨ à¤¬
Ġà¤ľà¤² à¤¡à¤®à¤°
à¤¯à¤² à¤ª
Ġà¤²à¤ķ à¤ª
Ġà¤ħà¤¦ à¤¬
en ame
le y
à¤Ķ à¤ªà¤¨
à¤ıà¤¨ à¤ıà¤¨
à¤ıà¤¨ à¤ıà¤¸à¤ıà¤¸
Ġà¤ıà¤¨ à¤Ł
re am
ĠI V
Ġà¤ħà¤¸à¤® à¤¯
11 00
et r
Ġ16 7
Ġ[ -
Ġ13 5
Ġ+ )
Ġà¤ıà¤ļ à¤¸
hi ft
Ġ27 3
AT H
Ġà¥« à¥©
OR T
Ġ35 2
Ġà¥ª à¥¦à¥¦
ard s
Ġà¥§à¥¯à¥¯à¥ «
Ġev ents
ph il
Ġapp ointment
ff ice
gen cy
Un ited
agu ay
germ any
5 16
? )
F F
L INK
N G
P U
W ise
b y
h ond
i ti
t es
t em
u gu
y ana
½ Ãº
à¤° à¤ļà¤¯
Ġà¤ķ à¤Łà¤°
à¤¯ à¤ĵ
à¤¯ à¤ªà¤ķ
Ġà¤¹ à¤Ī
à¤® à¤¹à¤®
à¤² à¤ªà¤°
Ġà¤¬ à¤ķà¤¨
Ġà¤¤ à¤¹à¤ľ
Ġà¤ī à¥ľ
Ġà¤° à¤Īà¤¸
à¤§ à¤Ĺ
Ġà¤Ĩ à¤®à¤²
à¤ĸ à¤°à¤£
Ġ( '
Ġ( "%
à¥Īà¥¤ âĢĻâĢĻ
à¤¾à¤Ĥ :
à¤Ľ à¤®
à¤°à¤ķ à¤¬
à¤¾à¥¤ --
à¤ĵ à¤ıà¤®
à¤°à¤¸ à¤ĭ
Ġà¤¸à¤¹ à¤ħà¤¸
Ġà¤¸à¤¬ à¤µà¤°
à¤®à¤ķ à¤¨
à¤¹à¤® à¤¯
à¤Ĳ à¤ª
Ġà¤ħà¤¸ à¤Ń
Ġà¤ľà¤¨ à¤¸à¤Ń
Ġà¤Ķ à¤¨
Ġt xt
Ġà¤ªà¤¢ à¤¤
Ġa uthor
à¤ªà¤£ à¤¸
ĠâĢĿ à¥¤
Ġ18 75
à¤ıà¤¨ à¤Ĩà¤Īà¤¸
Ġc hr
ĠC H
Ġà¤ıà¤® à¤ıà¤®à¤Ł
à¤ħà¤µ à¤¸à¤¨
ĠB cc
ĠR estart
à¥ª à¥©
ĠG u
ĠG ame
Ġ24 9
Ġ26 6
Ġà¥« à¥¦à¥¦
Ġà¥« à¥¦à¥¦à¥¦
Ġà¤¸à¤¹à¤¨ à¤¶à¤ķ
195 4
Ġ189 5
Ġà¤ĵà¤µà¤° à¤¡
Ġ188 4
gu yana
nc america
Ġ08 70
Ġ186 2
Ġà¤ļà¤¹ à¤ļà¤¹
Ġà¤¬à¤¦à¤¨ à¤¸
Cal endar
Ġà¤Ĥ à¤Ĥ.
101 6
Ġli ke
Ġà¥¯à¥ ¯
Ġâ Ļª
Ġoption s
row ser
EXT ENSION
ĠÎ ¼
Sec urity
à¤ħà¤ľà¤¨ à¤¬
ĠRep ort
chi le
Ġà¤Ńà¤Ĺà¤¦ à¤¡
hond uras
A Q
A n
N on
S U
X ML
Y Y
b utton
c ame
j a
k orea
r uss
t ac
u el
à §
Ġ html
à¤¾ à¥Ĥ
à¤¤ à¤ĸà¤¤
à¤¯ à¤Ķ
à¤® à¤µà¤¤
à¤² à¤Łà¤¨
à¥Ī \"
à¤µ à¤®à¤¤
à¤Ĺ à¤ĭ
Ġà¤ľ à¤«à¤°
Ġà¤µ à¤£
à¤ľ à¤ªà¤°
à¤ľ à¤²à¤¨
Ġà¤¬ à¤°à¤¹
à¤¶ à¤µà¤°
à¤¶ à¤²à¤®
à¤ı à¤ıà¤®
Ġà¤° à¤¡
Ġà¤° à¤«à¤¤
à¤§ à¤¤à¤°
Ġà¤ı à¤¸à¤ķ
à¤« à¤°à¤ľ
à¤« à¤Łà¤µ
Ġà¤¥ à¤¨
à¤Ľ à¤¤à¤°
à¤ħ à¤¥
à¤ķà¤° à¤ķà¤Ł
à¤ī à¤¨à¤¤
à¤ī à¤®à¤¡
à¤ĵ à¤£à¤®
à¤¾, ??
à¤¯à¤ķ à¤ĭ
à¤ľà¤¨ à¤Ĺà¤£à¤¨
à¤°à¤® à¤¹
à¤¸à¤® à¤µ
à¤¸à¤® à¤¯à¤ķ
à¤µà¤¨ à¤²
à¥Ģà¥¤ ]
à¤·à¤£ à¤®
Ġà¤ĵ à¤°à¤¸
à¤°à¤µ à¤¹à¤¨
00 1
à¤®à¤ķ à¤¬à¤°
Ġà¤Ĩà¤µ à¤Ńà¤Ĺà¤¤
Ġs ystem
Ġà¤ħà¤ª à¤ĺà¤Łà¤¨
Ġ' .
Ġà¤®à¤¨ à¤Ń
à¤ħà¤¨ à¤ĸ
à¤°à¤¬ à¤¡
à¤ķà¤Ł à¤°à¤®à¤£
à¥Ī? à¥¤
à¤ĩà¤Ł à¤¹
Ġt ra
à¤ĭ à¤¸
Ġà¤²à¤ķ à¤µ
Ġa mp
en g
à¤²à¤® à¤ª
à¤²à¤® à¤Ł
ot o
à¤°à¤Ĺ à¤¢
le ts
à¤Ķ à¤ªà¤¬
at em
à¤ıà¤¨ à¤ıà¤®
à¤ıà¤« à¤ıà¤®
à¤ıà¤« à¤ıà¤²
Ġà¤¦à¤¶ à¤®
Ġ15 6
Ġà¤ļà¤¯à¤¨ à¤ķà¤°
à¤°à¤¹à¤£ à¤¶
ĠI M
12 14
ou sing
ĠP DF
Ġp friendly
ra ph
18 82
Ġ17 6
Ġw eb
Ġà¤ıà¤« à¤µ
ĠE lm
16 0
Ġ26 2
à¥§à¥¯à¥ ¯à¥¦
Ġ27 0
Ġ22 7
à¤Ńà¤°à¤¤ à¤ª
um p
ER T
196 6
gu atem
ĠURL s
Ġà¥§à¥¯à¥¯à¥ ¨
IC ODE
per iod
Ġà¥§à¥¯à¥Ń à¥«
Ġcont ext
ro on
à¤ıà¤¨à¤ıà¤¸ à¤Ĩà¤Īà¤¸
MB ER
app lication
For ward
ĠCom p
par aguay
Ġsetting s
south korea
Day Name
came roon
russ ia
guatem ala
B IN
N U
N one
P R
a z
e h
g reenhouse
m on
p an
s um
u nt
u ct
y aa
z ip
à¤ ½
à¥ Ļ
à¤¨ à¤ĸà¤°
à¥Ģ âĢĺ
à¥Ģ ",
à¤ķ à¤¢
à¤¯ à¤¸à¤ķ
à¤¯ à¤«à¤²
à¤¸ à¤Ĺà¤¤
à¤¸ à¤¶à¤ķ
à¤¹ à¤°à¤®
à¤² à¤¹à¤Ł
Ġà¤ª à¤ľ
à¥Ī âĢĻ
à¤µ à¤Ī
à¥ĩà¤Ĥ âĢ¦
Ġà¤ľ à¤¦
à¤ľ à¤Ī
Ġà¤¤ à¤Łà¤°
Ġà¤¦ à¤¬à¤¦à¤¬
à¤¶ à¤ªà¤¤
à¤¶ à¤®à¤ķ
Ġà¤² à¥ľ
à¤§ à¤Ĺà¤¯
Ġà¤Ĩ à¤ķà¤²
Ġà¤Ĺ à¤ľà¤²
à¥Īà¤Ĥ âĢĵ
Ġà¤ļ à¤°à¤¤
Ġà¤¥ à¤ķà¤¨
à¤ħ à¤¥à¤°
à¤Ĩ à¤¬à¤¦
à¤Ĩ à¤¡à¤®
à¤¸à¤° à¤Ĺ
à¤²à¤¤ à¤¯
Ġà¤¸à¤¹ à¤§à¤°
à¤¼à¤¿ .)
à¤ŀ à¤ľ
Ġà¤Ł à¤ª
à¤ĺ à¤ľ
à¤¸à¤¨ à¤¹
Ġà¤Ĩà¤° à¤¡
Ġà¤Ĭ à¤¬à¤¡
à¤¨à¤µ à¤Ĺ
à¤¡à¤° à¤Ĺ
in ux
à¤·à¤¯ à¤Ĺà¤¤
Ġà¤ľà¤® à¤¶
er e
er t
à¤Ĩà¤Ī à¤¯
Ġà¤Ĳ à¤®
à¤ĭ à¤¨
à¤°à¤ľ à¤µ
Ġà¤ĭ à¤¨à¤ķ
Ġd isplay
Ġd epart
19 37
à¤¾à¤ĥ -
Ġà¤ıà¤¨ à¤ıà¤¸à¤Ĩà¤Īà¤¸
Ġà¤ªà¤ķà¤¡ à¤¨
om an
à¤īà¤ª à¤«
à¤ħà¤µ à¤·
ĠP RO
11 4
11 16
à¥§ à¥¦à¥¦à¥¦
Ġin d
à¤Ĩà¤Ĺ à¤®à¤¨
Ġ23 4
ng ine
194 5
th ane
um ar
Ġ36 5
Ġà¤ķà¤ªà¤Ł à¤ª
âĢĻâĢĻ à¥¤
for ce
od ec
à¥§à¥¯à¥¯à¥ Ń
Ġà¤¥à¤° à¤¥à¤°
101 4
app lets
Ġrep ort
Ġ900 1
gtk html
old ers
Ġth umb
ixbu f
Ġvc f
ict ure
, ?
2 16
C II
E ngine
K R
P h
S WY
V oice
n ps
r il
r un
â Ļ«
Ġ ent
à¤° à¤ļà¤°
à¤¤ à¤²à¤®
à¤¸ à¤ľà¤¨
à¤¹ à¤°à¤ķ
à¥ģ '
à¥ģ à¥ĩ
à¥ģ à¤¼
Ġà¤® à¤¡
Ġà¤ľ à¤¯à¤¤
Ġà¤ľ à¤¯à¤°
Ġà¤µ à¤¯à¤ķ
Ġà¤¨ à¤µà¤¸
à¥ĭà¤Ĥ "
à¤¬ à¤°à¤¸à¤¨
Ġà¤² à¤ķà¤¸à¤Ń
à¤Ł à¤®à¤°
à¤ı à¤¹
à¤ı à¤ĸ
à¤§ à¤¹à¤¸
Ġà¤ķà¤° à¤®à¤ļ
Ġà¤Ĩ à¤ĩà¤ľ
Ġà¤Ĩ à¤ĩà¤µà¤°
Ġà¤Ń à¤¨
Ġà¤Ĺ à¤¦à¤°
Ġ( âĢľ
à¤Ī à¤ĸ
à¤« à¤¦
Ġà¤ĸ à¤°à¤¬
à¥ĥ à¤¾
à¤ł à¤¤à¤°
à¤ľà¤¨ à¤¹
à¤ľà¤¨ à¤¶à¤ķ
à¤¾à¤ģ /
Ġà¤Ľ à¤ªà¤¤
à¤Ĺà¤° à¤¹
Â¤Â Ĭ
à¤ŀ à¤ķ
à¤®à¤¤ à¤Ń
Ġà¤ħà¤µ à¤Ł
à¤Łà¤° à¤¬
à¤Łà¤° à¤Ł
à¤¯à¤¨ à¤ĳà¤¯à¤²
à¤ķà¤² à¤¶
ĠâĢ ¢
on es
Ġà¤¬à¤² à¤¦
à¤ķà¤¨ à¤ķà¤°
à¤Łà¤ķ à¤Łà¤ķ
à¥¦ à¥«
Ġà¤ªà¤¦ à¤¦à¤²
à¤Ĭ à¤Ł
à¤Ĩà¤Ī à¤Ī
Ġà¤ħà¤® à¤°à¤ķ
Ġà¤īà¤² à¤Łà¤¨
Ġ4 80
Ġà¤¡à¤° à¤ķà¤°
à¤ĭ à¤²
19 30
19 35
Ġà¤ĩà¤² à¤¹
ab ility
Ġà¤¹à¤² à¤µ
Ġc lass
ĠC r
ĠA R
ĠI N
Ġà¤ıà¤² à¤¡
ĠT ED
à¥« à¥®
ĠD o
Ġ14 1
à¥¬ à¥Ń
Ġh ost
à¥Ń à¥§
Ġà¤ıà¤« à¤ıà¤ĵ
Ġx ml
Ġ+ .
Ġà¤ıà¤ļ à¤¡
Ġà¤ķà¤ª à¥ľ
ing s
ow er
oc i
mp t
ef in
Ġ185 5
Ġ37 0
Ġà¤¤à¤¦ à¤§
Ġ186 9
im b
à¤łà¤¹à¤° à¤¨
iss ion
Ġà¤¹à¤ł à¤¯
ĠCon flict
Ġà¤Ĥ à¤Ĥ
ĠSt ates
own load
Ġwh en
ell ing
Ġsc roll
Ġrec ur
ĠST ART
osp here
WY SWY
LongName Possessive
vis it
tur key
ĠUN ICODE
Ob ject
WYSWY G
! )
! -
D L
F estival
G it
I mage
J P
M R
R esult
T G
a w
b sp
c ap
m ol
p ly
u nic
x vii
Ġà¤ Į
à¥ĩ à¤ģ
à¥ĩ à¥°
à¤¨ à¤¥
à¥ĭ >
Ġà¤¹ à¤¸à¤®
à¤® à¤ļà¤ķ
à¤¹ à¤ķà¤°
à¤¹ à¤¬à¤¤
à¤ª à¤Ľ
à¤ª à¤¥à¤°
Ġà¤¨ à¤¡
à¤ľ à¤²à¤¤
à¤ľ à¤²à¤ķ
à¥Ĥ à¤ĥ
Ġà¤ī à¤¬à¤°
à¤¶ à¤¬à¤°
à¤¶ à¤¯à¤¶
Ġà¤² à¤¬à¤°
à¤ı à¤ķà¤°
Ġà¤° à¤²
Ġà¤Ĩ à¤¬à¤¨
Ġà¤¶ à¤Łà¤²
à¤« à¤«
à¤¾à¤Ĥ '
à¤ħ à¤Ĺà¤£
Ġà¤« à¤¹à¤®
à¤Ĩ à¤°à¤µ
à¤Ĩ à¤ĩà¤¡
à¤ī à¤ķà¤¸
à¤ī à¤Ńà¤°à¤¤
à¤ĵ à¤²à¤®
à¤¾, -
à¤¼à¥Ģ /
à¤ŀ à¤Ĺ
à¤ŀ à¤ĸ
Ġ2 25
à¤®à¤¨ à¤µ
à¤Ĺà¤¤ à¤ķà¤°
à¤°à¤µ à¤¦
à¥Ģ) ;
Ġà¤Ŀ à¤¨
à¤¤à¤ķ à¤®
à¤¤à¤ķ à¤¬
à¤¸à¤² à¤µ
à¥¦ à¥§
Ġà¤ľà¤² à¤°
an ch
à¥ĩà¤Ĥ) :
Ġà¤²à¤¡ à¤¨
à¤°à¤ľ à¤¤
à¤°à¤ľ à¤ķ
Ġà¤ĭ à¤¨
Ġa f
Ġa p
Ġa sy
19 19
à¤¬à¤¹ à¤¸
à¤ıà¤® à¤ıà¤«
à¥Ī) -
âĢĿ )
Ġ10 6
ĠI nter
12 12
ĠP R
il d
à¥¬ à¥¯
à¥® à¥¦à¥¦
à¥Ń à¥ª
à¤¾! -
à¤ıà¤ļ à¤ĵ
à¤¶à¤® à¤¶
à¤īà¤² à¤Ŀ
og en
Ġà¥¬ à¥ª
ub e
Ġà¤· à¤Ł
un ction
Ġà¤¤à¤¹ à¤²à¤ķ
ev en
eb rew
ser o
Ġà¤ĥ à¥¤
if ic
à¤¡à¤ĭ à¤Ī
...... ...
à¤ĸà¤ĸ à¤ĸ
NT LM
Ġcont ain
Ġapp lication
Ġsub jects
ĠĠĠĠ ĠĠ
HTTP S
Ġic s
Ð¸ Ð¸
Ġele ment
ipp ines
Sy nc
Ġdiv is
Ġstd out
phil ippines
Ġdepart ments
Voice Name
Festival VoiceName
" ).
B alsa
C ON
C ID
P M
S c
U P
b i
b in
g a
i er
m o
Â º
Ġ end
Ġ open
à¤¾ âĢĺ
à¤¤ à¤£
à¤¤ à¤¶à¤¤
à¤ķ à¤Ļ
Ġà¤¸ à¤ł
Ġà¤¸ à¤Ĩà¤¦à¤¤
à¤¹ à¤¨à¤¨
à¤² à¤µà¤¤
à¤² à¤µà¤ķ
à¤² à¤ªà¤Ł
à¥ģ >
à¤µ à¤¦à¤¨
à¤¦ à¤¨à¤ķ
à¤¦ à¤ªà¤¤
à¤Ĺ à¤¬à¤¹
à¥Ĥ à¤¾
à¥¤ '
à¤¶ à¤¯à¤¨
à¤¬ à¤¬à¤¤
Ġà¤² à¤ı
Ġà¤² à¤ķà¤¤
Ġà¤² à¤ĸà¤¨
Ġà¤Ĩ à¤·
Ġà¤Ĩ à¤°à¤¤
Ġà¤Ĩ à¤ĩà¤¸à¤ķ
à¤£ à¤¹
à¤ĸ à¤ĭ
à¤Ń à¤Ī
à¥Īà¤Ĥ ..
Ġ( (
Ġà¤ı à¤¥à¤²
Ġà¤ĩà¤¸ à¤ª
à¤ħ à¤°à¤¨
à¤¼à¤¾ ?
Ġà¤ħà¤¨ à¤«
à¤Ĩ à¤®à¤¦
à¤Ĩ à¤ĩà¤ª
à¤µà¤° à¤¹
à¤¤à¤° à¤¶
à¤ĵ à¤«
à¤¯à¤ķ à¤¶
Ġà¤ħà¤² à¤¸
Ġà¤ħà¤² à¤«
Ġà¤ħà¤² à¤¹à¤¦
à¤¸à¤° à¤¬
à¤¯à¤¤ à¤¤
à¤°à¤¸ à¤°à¤ķ
Ġà¤¸à¤¹ à¤ļ
Ġà¤¬à¤¹ à¤ķà¤°
Ġ2 30
Ġà¤Ł à¤ªà¤ķà¤¤
à¤ĺ à¤ª
à¤®à¤¤ à¤®
Ġà¤ħà¤µ à¤¦
Ġà¤ªà¤¹à¤² à¤µ
Ġà¤¬à¤¡ à¤ĭà¤Ī
Ġà¤īà¤¦ à¤¦
à¤ķà¤² à¤¹
à¤¾. ?
à¤ıà¤ķ à¤¨
Ġà¤Ĩà¤° à¤ı
Ġà¤ł à¤ł
Ġ' /'
Ġà¥ ł
Ġà¤®à¤¹à¤¤ à¤ĭ
Ġ3 20
er n
à¤¦à¤® à¤¬
es ter
Ġà¤Ĩà¤Ī à¤ı
Ġà¤Ĩà¤Ī à¤Ĩà¤Īà¤ıà¤¸
Ġà¤¨à¤µ à¤°à¤¤
à¤¬à¤¤ à¤ĸ
Ġ6 17
ar agu
à¤Ķ à¤¸à¤¤à¤¨
Ġà¤ķà¤¨ à¤µà¤°
Ġà¤ķà¤¨ à¤ªà¤Ł
ĠS h
ĠS ound
à¤ħà¤¸ à¤¹à¤®à¤¤
à¤ħà¤µ à¤Ł
à¤Ĺà¤£ à¤ªà¤¤
se c
ĠP GP
ĠT V
): -
nic aragu
ra sero
Ġm ust
Â¥ÂĢ -
Ġw orld
ĠL e
ĠE X
ĠE UC
.... à¥¤
ur ugu
Ġv ol
ter s
197 9
os i
à¥ĢâĢĻ âĢĻ
nu PG
Ġ188 8
Ġ187 7
IT LE
Ġà¤¬à¥Ŀ à¤¤
ST ART
ST UN
Ġà¥§à¥¯à¥® à¥¯
cc ess
Ġà¥§à¥¯à¥Ń à¥¦
à¤Īà¤ıà¤« à¤ı
ĠUn ix
Ġmin utes
Ġinc re
Ġchan ge
def ault
Gtk HTML
à¤®à¤°à¤¤ à¤¬
ShortName Possessive
pol and
Socket Engine
nicaragu a
urugu ay
, --
1 12
; -
E rror
F older
T ext
U ID
Y a
b alsa
c a
p on
r d
u ri
Ġ ii
Ġ ÃĹ
à¥ĩ ......
à¤¤ à¤Ĺà¤°
à¤¤ à¤Łà¤¸
à¤® à¤ķà¤²
à¤® à¤ĭ
à¤² à¤ľà¤¯
à¤² à¤ªà¤®
Ġà¤ª à¤ªà¤°
à¤¦ à¤°à¤¹
à¤ª à¤®à¤¨
à¥ĩà¤Ĥ --
Ġà¤ħ à¤ĸà¤°
Ġà¤¨ à¤Ĺà¤¦
à¤¼ à¥Ĥà¤ģ
à¤¼ à¥Ģà¤Ĥà¥¤
à¥¤ )
à¤¶ à¤¹à¤¤
à¤¶ à¤®à¤¯
Ġà¤Ĩ à¤ĩà¤Ł
Ġà¤Ĩ à¤ĩà¤¯
à¤£ à¤µà¤°
à¤£ à¤ªà¤Ł
Ġà¤Ĺ à¤Ł
à¤Ī à¤ľà¤°
Ġà¤¶ à¤ķà¤°
à¤¾à¥¤ .
Ġà¤µà¤¹ à¤¶
à¤ī à¤¢
à¤¢ à¤¸
à¤¨à¤ķ à¤¨
à¤¤à¤¨ à¤ĸ
à¤¸à¤® à¤²
à¤®à¤¤ à¤¤
Ġ" ),
Ġà¤ķà¤® à¤¤à¤°
à¤¯à¤¨ à¤ľ
Ġà¤ĩà¤¨ à¤¹
Ġs tr
à¤¯à¤° à¤ļà¤¨
01 16
Ġà¤¬à¤² à¤µà¤¤
à¤¤à¤® à¤ľ
Ġ3 12
Ġ3 24
Ġn ick
à¤®à¤¸ à¤¤
à¤®à¤¸ à¤ĸ
à¥ĩ. -
à¥ĩ. ?
à¤Ĺà¤® à¤¯
à¤Ĺà¤® à¤ķà¤°
es c
à¤®à¤¹ à¤«
Ġà¤ĭ à¤¸à¤¸
Ġà¤®à¤¤ à¤²
Ġd u
Ġd ec
la sh
à¤¹à¤² à¤µ
ic eland
à¤ħà¤ª à¤¦
à¤§à¤ķ Name
le ar
ar m
à¤ıà¤¨ à¤ıà¤«
à¤¶à¤² à¤Ń
ĠS u
ĠA L
Ġ12 7
à¤ħà¤µ à¤¨à¤¤
à¤ĩà¤ķ à¤¬
12 16
ĠT YP
11 6
Ġ25 3
ĠF acebook
à¤°à¤« à¤²à¤ķ
à¤¾à¤Ĥ, âĢĵ
Ġin formation
à¥Ń à¥¬
à¥Ń à¥¯
Ġg a
Ġg eneric
ĠE v
ĠO n
à¤Ĩà¤¸ à¤ªà¤¡
ĠZ Z
ĠZ à¤ħà¤§
ĠZ à¤ĩà¤«à¤°
Ġà¥« à¥¬
à¥Ĩ à¤Ĥ,
195 3
à¥¨à¥¦à¥¦ à¥©
Ġà¥§à¥« à¥¦à¥¦
IC E
Ġ08 00
EN ET
UT C
Cal DAV
Ġwh ite
ick et
ative SocketEngine
ĠPr ot
Ġà¤ħà¤¶à¤° à¤«
bel gi
Ġcharacter s
Ġlevel ing
ĠIs lam
aust ralia
ĠSec ond
ali ties
autom ake
LIN E
Less on
belgi um
B a
B ox
B ig
D efault
D ATE
E E
E F
E kiga
G IN
N o
a as
b it
h ai
k o
l ow
n um
s ession
Â ¨
Ġ title
à¤Ĥ à¥į
à¤¨ à¤ĺà¤°
à¤¤ à¤¸à¤²
à¤¤ à¤Łà¤µà¤°
à¤¤ à¤«à¤°
à¤¯ à¤²à¤¨
à¤¯ à¤²à¤ķ
à¤¸ à¤¨à¤¤
à¤® à¤®à¤¯
à¤® à¤ªà¤¦
à¤® City
Ġà¤¸ à¤ķà¤°
à¤¹ à¤ķà¤²
à¤² à¤·
à¤² à¤®à¤°
à¤¦ à¤µà¤°
à¤ª à¤¦à¤ķ
Ġà¤ľ à¤Ī
Ġà¤ħ à¤µà¤¨à¤¦
Ġà¤¨ à¤¸à¤²
Ġà¤¤ à¤ĭà¤°
à¤¬ à¤Ľ
à¤Ł à¤Ī
à¤ı à¤ªà¤°
à¤§ à¤µà¤°
à¤· à¤ļà¤¨
à¤· à¤Ńà¤°
Ġà¤Ĺ à¤ļà¤ķ
Ġà¤ı à¤«à¤°
Ġà¤ı à¤¯à¤°à¤ķ
à¥Īà¥¤ '
à¤« à¤Ĺ
à¤ģ %
Ġà¤ĩà¤¸ à¤µ
Ġà¤« à¤¬
à¤¼à¤¾ à¤ĥ
à¤¾à¥¤ '
à¤Ĩ à¤®à¤¨
Ġà¤¯à¤¹ à¤¦
à¤ĵ à¤¶
à¤ªà¤° à¤«
Ġà¤¡ à¤Ĺ
à¤¸à¤° à¤¶
à¤¯à¤® à¤¤
à¤¤à¤¨ à¤¤à¤®
à¤ªà¤¤ à¤®
Ġ2 22
à¤°à¤¯ à¤¨
à¤µà¤¸ à¤¤
Ġà¤¹à¤° à¤ıà¤ķ
Ġà¤Ŀ à¤ķ
Ġ19 0
à¤¯à¤° à¤¬
à¤Ĳ à¤¡
à¤ħà¤¨ à¤¦
me r
me dia
me thane
Ġà¤ľà¤² à¤®à¤Ĺ
à¤µà¤°à¤£ à¤µ
an ao
à¤ļà¤¯ à¤ª
à¤ĩà¤Ł à¤¸
à¤·à¤® Q
pr intui
Ġà¤¸à¤®à¤¸ à¤ĭ
Ġa ss
19 39
Ġà¤ħà¤Ĺ à¤°à¤¤à¤²
à¤ħà¤¬ à¤¤à¤ķ
ic s
ee l
à¤ħà¤ª à¤¶à¤ķ
à¤®à¤Ĺ à¤£
à¤¹à¤°à¤£ à¤¸
ab we
Ġà¤§à¤¨ à¤¶
Ġ18 30
à¤Ķ à¤ļ
à¤ıà¤« à¤Ĩà¤Ī
à¤ħà¤ľ à¤°à¤¬
ĠC trl
Ġ20 3
Ġ20 9
re g
ĠI nd
ĠI RC
à¤ľà¤® à¤¶
ĠM ess
Ġ25 5
à¥« à¥¨
à¥« à¥ª
ĠF r
'' (
Ġf irst
à¥¬ à¥®
Ġw ork
ĠL a
ĠL IST
ĠG TG
Ġin put
à¥° )
ail and
Ġu s
ing ton
Ġà¥© à¥¬
qu est
à¥Ī... à¥¤
Ġà¤ħà¤¹à¤® à¤¦à¤¨à¤Ĺà¤°
Ġà¥ª à¥®
à¤¹à¤ľ à¤°à¤¤
Ġà¤«à¤Ł à¤ķà¤¨
th s
th ailand
à¤Ĩà¤°à¤ı à¤ıà¤¸
ul l
à¤ĺà¤Ł à¤¨à¤ķ
Con f
ĠJ ava
end er
Ġà¤ļà¤°à¤® à¤°
Ġà¤ĸà¤Ł à¤®à¤²
à¥§à¥¯à¥Ń à¥Ń
ĠSt and
Ġsec ure
Ġsec ond
à¤°à¤ĸà¤° à¤ĸ
à¤®à¤¶à¤°à¤£ à¤ľ
Ġà¥§à¥¯à¥© à¥¬
pl it
Ġ~ /.
Ġwh ich
Ġmin ute
RA M
mm c
opy right
libgnome printui
Ġhe ader
oth es
ool ant
ĠDN S
Ġja ao
imb abwe
" :
) !
> ]
A SE
A SCII
D G
D VI
E lm
F i
I nter
O pen
P E
T w
k en
l ot
m issions
p tions
s ub
t a
u le
x ii
z imbabwe
Â §
Ġ à¥ģ
à¤¨ à¤ĵ
à¤¤ à¤®à¤°
à¤ķ à¤ĵ
à¤¯ à¤¤à¤°
Ġà¤¹ à¤¯
à¤® à¤ľà¤¸
Ġà¤¸ à¤¬à¤°
à¤² à¤Łà¤°
à¤¦ à¤¹à¤ķ
à¤Ĺ à¤Ńà¤¦
à¥ĩà¤Ĥ ....
Ġà¤ľ à¤¯à¤¨
Ġà¤ħ à¤¹à¤°
à¤¼ à¥ĩà¤Ĥ)
à¤¼ ),
à¤¼ à¥ħ
à¥ĭà¤Ĥ âĢĶ
Ġà¤¤ à¤¨à¤¹
Ġà¤¦ à¤®à¤£
à¤Ł à¤¬à¤¦
à¤ļ à¤°à¤¤
Ġà¤Ĩ à¤¡à¤®
Ġà¤¯ à¤Ĺ
à¤Ń à¤Łà¤ķ
à¤« à¤°à¤ķ
Ġà¤°à¤¹ à¤µ
à¤ķà¤° à¤²
à¤°à¤ķ à¤¸
à¤ĵ à¤ıà¤¸à¤ıà¤¸
à¤°à¤£ à¤²
à¤ĥ à¥¤
à¥Īà¤Ĥà¥¤ -
à¤Ŀ à¤ĸ
à¤Ŀ à¤Łà¤ķ
à¤Ŀ à¤Łà¤ªà¤Ł
à¤¤à¤¨ à¤°
à¤²à¤¤ à¤¤
à¤®à¤¨ à¤ľ
Ġà¤Ł à¤²à¤¨
Ġà¤Ł à¤°à¤¬
à¤°à¤¯ à¤¦
à¤¸à¤¨ à¤¸à¤¨
à¤Łà¤¨ à¤¸
Ġà¤ħà¤° à¤¹à¤°
à¤ıà¤ķ à¤¦à¤®
Ġà¤ħà¤ļ à¤°
Ġà¤Ŀ à¤ªà¤ķ
Ġà¤Ĩà¤° à¤¡à¤¬à¤²
à¤²à¤¬ à¤¦
Ġà¤¸à¤¦ à¤¯à¤¤
à¤ħà¤¨ à¤ļ
à¤°à¤¬ à¤²à¤¨
Ġà¤ħà¤¬ à¤²
me ssage
Ġà¤¢ à¤¬
Ġà¤¢ à¤ķà¤¤
Ġà¤¤à¤°à¤« à¤¦
an i
à¤Ĭ à¤ķ
Ġà¤īà¤ªà¤²à¤¬ à¤§
à¤Ĩà¤Ī à¤Īà¤Ł
à¥Ģà¤Ĥà¥¤ -
Ġà¤Ĩà¤Ī à¤ľ
Ġà¤¨à¤µ à¤Ĺ
la st
la ted
à¤ªà¤Ł à¤ķà¤°
à¤ķà¤¹ à¤ķà¤°
Ġ7 20
à¤¾; ]
Ġ10 7
Ġc drdao
à¤ħà¤¸ à¤¹à¤¨
ĠA udacity
à¥Īà¤Ĥ) .
ĠP ar
her land
20 21
11 13
Ġp op
Ġ16 8
Ġf r
Ġf older
Ġm at
Ġm ul
ĠD ATE
à¥ª à¥¦à¥¦
à¤ħà¤« à¤µ
Ġà¤ĺà¤¨ à¤¶
Ġ+ /
ac t
ri ority
ur es
02 14
IN D
27 0
th od
à¥Ģà¤Ĥ? -
à¥¨à¥¦à¥¦ à¥¨
à¤Ĩà¤Īà¤ıà¤¸ à¤¡
Ġ185 6
Ġ187 4
37 1
Ġj aa
av ing
ati n
ĠQ String
à¥§à¥¯à¥Ń à¥ª
à¤ĩà¤ªà¤° à¤Ł
Ġà¥¨à¥¨ à¥¬
rom ania
Ġsa ve
Ġà¤¬à¤°à¤« weather
Ad vanced
lu or
à¥§à¥¯à¥¬ à¥¦
row isofs
ĠË ĩ
cub a
Ev ince
unch pad
Ġref ers
QN ativeSocketEngine
nps cra
A A
D P
G ame
L C
P riority
b oth
c ing
c arbon
d oc
h y
m ark
u ania
Å Ł
à¤° à¤ªà¤ķ
à¥į à¥į
à¥į âĢĵ
à¤¨ à¤§
à¤¨ à¤¸à¤²
à¤¨ à¤§à¤°
à¤¤ à¤¸à¤¦
à¤¤ à¤¸à¤µ
à¤¯ à¤¨à¤¤
à¤¯ à¤Łà¤°
à¤¯ à¤¬à¤¦
à¤¸ à¤¬à¤¤
Ġà¤¹ à¤°à¤¸
à¤² à¤°à¤ķ
à¥ģ à¤¿
à¤µ à¤ķà¤¤
à¤µ à¤¸à¤°
à¤¦ à¤¶à¤¨
à¤ª à¤¸à¤°
Ġà¤ħ à¤¯à¤¥
Ġà¤µ à¤¨à¤°
à¤ľ à¤¸à¤Ń
Ġà¤¦ à¤°à¤Ń
Ġà¤¦ à¤ķà¤¨
à¤¶ à¤¤à¤ķ
à¤¶ à¤®à¤¸
à¤¬ à¤¨à¤¨
Ġà¤² à¤²à¤ļ
à¤Ł à¤Ĩà¤īà¤Ł
Ġà¤° à¤ľà¤¨
Ġà¤° à¤ķà¤¸
à¤· à¤ķà¤¤
à¤ļ à¤Łà¤ķ
à¤ļ à¤µà¤Ł
Ġà¤¯ à¤§à¤ª
Ġà¤Ĺ à¤¶
Ġà¤ªà¤° à¤¬
Ġà¤ı à¤ıà¤¸
Ġà¤¶ à¤Ĺ
à¥Ģà¤Ĥ :
à¤ªà¤¨ à¤¡
à¤ĩ à¤ķà¤¸
Ġà¤ıà¤ķ à¤Łà¤ķ
Ġà¤¸à¤® à¤ªà¤°
à¤ħ à¤Ī
à¤ħ à¤¸à¤ķ
à¤ħ à¤µà¤¯à¤¸
Ġà¤ħà¤¨ à¤¹
à¤Ĩ à¤¬à¤°
à¤Ĩ à¤ķà¤²
à¤Ĩ à¤Ĺà¤µ
à¤ĵ à¤ĵ
Ġà¤ķà¤¹ à¤°
à¥Ī, ?
à¤¯à¤ķ à¤µà¤¸
Ġà¤¡ à¤Ĺà¤²à¤¸
Ġà¤īà¤ª à¤ľà¤¤
à¤Ŀ à¤µ
à¤Ŀ à¤Ĺ
Ġà¤ħà¤² à¤¬
à¤Ĺà¤° à¤²
à¤²à¤¨ à¤ķà¤°
à¥Ģà¥¤ ,
Ġ2 23
Ġà¤Ł à¤¯
à¤ĺ à¤Ĺ
à¤ĺ à¤¨à¤¨
Ġà¤Ī à¤Ī
Ġà¤Ī à¤¥à¤°à¤¨
Ġà¤®à¤¹ à¤¬
Ġà¤ªà¤¤ à¤µ
à¤µà¤¤ à¤¶
à¤§à¤¨ à¤µ
à¤§à¤¨ à¤¶
Ġà¤ħà¤° à¤ľ
à¤¾) ;
à¥Ģ) /
à¤¯à¤° à¤¡
à¤¸à¤² à¤¸
Ġà¤Ĩà¤Ĺ à¤ľà¤¨
à¤°à¤¨ à¤ª
me rica
Ġ3 44
Ġ3 40
à¤¨à¤µ à¤¯
à¤¡à¤° à¤°
Ġà¤ľà¤® à¤ĺà¤Ł
ame r
à¤ªà¤· à¤ĭ
à¤ļà¤° à¤°
à¤£à¤¨ à¤«à¤²
Ġà¤Ĩà¤Ī à¤ķ
Ġd ir
19 31
la g
à¤ħà¤§ à¤¸
ic es
à¤ħà¤ª à¤Ń
à¤¿) ,
à¤ħà¤° à¤«
à¤ıà¤² à¤ıà¤¸à¤Ĩà¤Ī
à¤ªà¤£ à¤ĸ
à¤¾? -
Ġà¤ıà¤¸ à¤ıà¤ļà¤ľ
ot es
à¤Ĩà¤ľ à¤®
à¤ıà¤¨ à¤ıà¤«à¤¸
Ġà¤ıà¤¨ à¤ıà¤µ
à¤ħà¤® à¤¦à¤¨
Ġc ub
Ġpr o
ĠC redit
re v
ĠA gency
Ġdo cu
tp ut
Â¤ÂĤ ?
Ġ@ %
à¤®à¤£ à¤µ
à¤ħà¤ķ à¤¥
ĠT ITLE
à¥« à¥©
Ġ16 9
'' à¥¤
ĠD e
ĠU k
ĠN a
Ġx B
à¥ģ. )
à¥° à¥¤
à¤¨à¤ª à¤¢
ri a
Ġ23 8
Ġ27 2
og g
Ġà¥« à¥ª
ĠV I
ĠX lib
tr oller
Ġcon troller
Ġà¥¦ à¥¯
ul ink
à¤¾" "
af e
ĠÂ ¨
ĠÂ ½
Ġà¤ĵà¤µà¤° à¤¸
Ġ185 3
Ġ01 1
à¥Ĥà¤ģ? à¥¤
Ġ37 7
à¤ħà¤Ł à¤ķà¤²
Ġà¤īà¤¬ à¤²à¤¤
od y
Ġon ly
Ġà¥¨à¥« à¥¦
ep ar
à¥§à¥¯à¥Ń à¥¯
ith uania
ond on
ik i
ĠË Ŀ
osp her
ĠTO OL
Ġlz o
anag er
Ġdr iver
REA K
hai ti
, âĢĶ
. (
0 20
3 10
B cc
I X
L A
M y
O FF
Q U
S ON
c am
f are
l ook
m ing
s tit
t op
z er
Ġ vi
à¤° à¤Ĩ
à¥ĩ à¥ĭ
à¤Ĥ '
à¤¨ à¤¨à¤ķ
à¤¨ Comment
à¤¤ à¤ķà¤°à¤£
à¤¸ à¤ħà¤¤
à¤¸ à¤Ĭà¤¦
à¤® Name
à¤¹ à¤ļ
à¤¹ à¤¤à¤¨
à¤² à¤¦à¤¸
à¤¦ à¤¹à¤¨
à¥ĩà¤Ĥ âĢĻ
Ġà¤ľ à¤¯à¤²à¤²
Ġà¤ħ à¤¦à¤°
Ġà¤¨ à¤µà¤²
Ġà¤¨ à¤¤à¤®
à¤ľ à¤ļ
à¤ľ à¤ªà¤ķ
à¤¼ à¤¼à¤¾
Ġà¤¤ à¤«à¤°
Ġà¤¦ à¤¹à¤ķ
à¤¬ à¤¨à¤µ
à¤¬ à¤Ĺà¤¦
à¤§ à¤¶à¤¤
à¤¡ à¤°à¤µ
à¤¡ Comment
à¤£ à¤ļ
à¤£ à¤¤à¤°
à¤£ à¤ĺ
à¥Īà¤Ĥ ",
Ġà¤ı à¤Łà¤®
Ġà¤ļ à¤ĸà¤¤
à¥Īà¥¤ à¥¤
Ġà¤ĸ à¤°à¤¹
Ġà¤¸à¤® à¤¬à¤¨
à¤ħ à¤µà¤ª
à¤ħ à¤°à¤ľ
Ġà¤ħà¤¨ à¤ĩ
à¤Ĩ à¤ĸà¤°
à¤ī à¤ľà¤²
Ġà¤¡ à¤®à¤°
Ġà¤¡ à¤°à¤¬à¤¨
à¥ĩà¥¤ ,
Ġà¤Ľ à¤¬
Ġà¤ľà¤¬ à¤¸
à¤¨à¤¤ à¤ľ
Ġà¤¬à¤¹ à¤ķà¤¤
Ġà¤Ł à¤¬
à¤ĺ à¤²à¤¤
à¤·à¤£ à¤µ
à¤·à¤£ à¤ķà¤°
à¤°à¤µ à¤®à¤¯
à¤¾. /
à¤µà¤¤ à¤¯
à¤§à¤¨ à¤¹
Ġà¤°à¤¸ à¤¤
Ġà¤°à¤¸ à¤Ĺ
Ġs hell
Ġà¤¬à¤¦ à¤¦
à¤¯à¤¦ à¤ķ
à¤°à¤¶ à¤°
Ġà¤Ĩà¤Ĺ à¤¨
Ġà¤¸à¤¦ à¤Ĺ
Ġà¤¸à¤¤ à¤¯
Ġà¤¬à¤² à¤Ĺà¤®
à¤ħà¤¨ à¤®à¤¨
Ġà¤īà¤ł à¤µ
in s
à¤·à¤ķ à¤µ
Ġà¤¶à¤° à¤²
à¤Ĺà¤® à¤Ńà¤¨
à¥ĭ) -
Ġà¤īà¤² à¤®
Ġ5 55
Ġà¤ĭ à¤ķ
Ġà¤ħà¤Ĺ à¤£
à¤¬à¤¹ à¤²
ic y
Ġ6 500
Ġ: âĢĶ
Ġ18 38
à¤¸à¤¬ à¤¬
ĠS A
ĠS m
à¤ıà¤« à¤ıà¤®à¤ıà¤¸
Ġc y
Ġc ode
ĠC ogl
re amer
ĠA ust
Ġ11 3
12 3
ĠP NG
11 3
Ġb el
à¥ĭà¤Ĥà¥¤ "
à¥« à¥§
à¤Ļ à¤ķ
ĠB E
ĠB ASE
ra s
ĠR oller
à¥© à¥¯
Ġe mp
Ġh u
Ġà¤īà¤¤à¤° à¤¦
Ġà¤Ĩà¤« à¤ķ
Ġà¥© à¥®
Ġl ocal
em p
à¥Ģ! )
Ġi Calendar
OR IG
Ġà¤ļà¤®à¤ķ à¤¨
06 16
Ġà¤¬à¤°à¤¤ à¤¤
Ġà¤¥à¤ķ à¤ķà¤°
Ġà¤ķà¤¤à¤° à¤µ
ig h
Ġme thod
ect ures
à¤¾... à¥¤
Ġj ava
Ġà¥§à¥¯à¥® à¥Ń
Ġà¤¶à¤¯ à¤¨à¤ķà¤ķ
à¥§à¥§ à¥¦
à¥§à¥¯à¥® à¥¯
à¤ıà¤Łà¤² à¤¸
GE ST
ĠEN D
Ġun it
Ġà¤ªà¤Ļ à¤¤
Ġtext box
net herland
Ġà¥§à¥¯à¥¬ à¥¦
Ġà¤īà¤ªà¤² à¤§
ĠÎ ĺ
à¤¹à¤ł à¤§à¤°
Ġstart ups
BO X
Ġtrans fer
Ġpref ectures
Ġplan ar
OW A
unic ip
ospher ic
netherland s
( .
0 60
7 50
> :
C S
C c
F S
G roup
H à¤¶
I MS
O ptions
Q à¤¤
R ESS
R oman
S e
S ource
S ubject
T A
T r
T IME
T ION
b e
c tr
f iles
i ber
l ithuania
o IP
r on
v id
v ideo
â Ļª
à¥ ļ
à¤° à¤µà¤¨
à¤° à¤²à¤ķ
à¤° à¤ħà¤ľ
Ġà¤ķ à¤¶à¤¤
Ġà¤ķ à¥ľ
à¤¨ à¤Łà¤°
à¥Ģ ..
à¤¯ à¤ŀ
à¤¯ à¤Ĺà¤¢
à¤¸ à¤ĺà¤¨
à¤¸ à¤łà¤µ
à¤® à¤¸à¤ķ
à¤¹ à¤¶à¤¤
à¤¹ à¤¸à¤¦
à¤² à¤§
à¤² à¤ħà¤²
Ġà¤ª à¤ŀ
à¥Ī 'à¥¤
à¤¦ à¤Ĩà¤²
à¤¦ à¤¶à¤°à¤¥
à¤ª à¤²à¤¨
à¤Ĺ à¤¥
à¥ĩà¤Ĥ âĢĶ
Ġà¤ľ à¤²à¤ķ
Ġà¤ħ à¤Ĺà¤®
Ġà¤ħ à¤¹à¤ķ
à¤ľ à¤²à¤¯
à¤¼ à¤¼à¤¿
à¤¼ à¤¼à¥Ĥ
Ġà¤¤ à¤ľà¤²
à¥¤ .
à¤¶ à¤Ĺà¤¤
à¤¶ à¤¯à¤¸
Ġà¤² à¤°à¤ľ
Ġà¤² à¤¹à¤¬
à¤Ł à¤ı
à¤Ł à¤°à¤¸à¤¨
à¤ı à¤¹à¤°
à¤ı à¤¤à¤ķ
à¤· à¤¦à¤°
Ġà¤Ĩ à¤ĩà¤ķ
Ġà¤¯ à¤«
Ġà¤¯ à¤¶à¤°
Ġà¤¯ à¤Ĭà¤ķ
Ġà¤Ĺ à¤²à¤¨
Ġà¤Ĺ à¤¹à¤²
à¤Ń à¤¶
à¥Īà¤Ĥ %
Ġà¤ĩ à¤®à¤¤
Ġà¤ı à¤²à¤¯
Ġà¤ļ à¤¶à¤®
à¤Ī à¤ıà¤ķ
à¤Ī à¤Ĩà¤Ĺ
Ġà¤īà¤¨ à¤ľ
Ġà¤¶ à¤Ĭà¤°
Ġà¤ıà¤ķ à¤¤à¤²
à¤ħ à¤¸à¤¦
à¤ħ à¤Ļ
Ġà¤« à¤°à¤ķ
Ġà¤« à¤¬à¤ķ
à¤°à¤ķ à¤µ
à¤¼à¤¾ à¥¤"
Ġà¤ħà¤¨ à¤¸à¤°
Ġà¤ħà¤¨ à¤ªà¤°à¤¸
à¤¾à¥¤ ,
à¤µà¤° à¤²
à¤µà¤° City
Ġà¤ħà¤§ à¤¡
Ġà¤ķà¤¹ à¤²à¤µ
à¤Ŀ à¤Ńà¤°
à¤°à¤® à¤¦
Ġà¤ħà¤² à¤ķà¤¸
Ġà¤ħà¤² à¤¯à¤¸
à¤¼à¥ģ à¥į
à¤¸à¤° à¤¹à¤¦
Ġà¤Ľ à¤ªà¤°
à¤²à¤¨ à¤°à¤¤
à¤¨à¤¤ à¤²
Ġà¤¸à¤¹ à¤ľà¤µ
Â¤Â ŀ
Ġ2 12
à¤¶à¤¨ à¤¸
Ġà¤Ł à¤¸
à¤·à¤£ à¤Ń
Ġà¤Ĩà¤¯ à¤¨à¤¨
à¤Łà¤° à¤ļ
Ġà¤ĵ à¤Ĺ
Ġà¤ħà¤¤ à¤²à¤¸
Ġà¤ĩà¤¨ à¤ªà¤°
Ġà¤¸à¤° à¤«
Ġà¤¸à¤° à¤Ĺà¤°à¤¦
Ġà¤ħà¤° à¤«
Ġà¤¤à¤° à¤Ĺ
à¥Ĥà¤ģ !"
à¤īà¤¨ à¤ľ
à¤µà¤² à¤¦
Ġà¤¬à¤¦ à¤¶
à¤®à¤² à¤ı
01 1
01 14
on ly
à¤ħà¤¨ à¤¹
à¤¤à¤® à¤ķà¤°
à¤¤à¤® à¤Īà¤¨
Ġà¤ħà¤¬ à¤ķ
à¤ĸà¤¨ à¤¯
ti mac
Ġà¤¬à¤¸ à¤ľ
in c
Ġn on
à¤ıà¤¸ à¤ıà¤ļà¤¸
Ġà¤µà¤¸ à¤ħà¤¤
à¤Ńà¤µ à¤®
Ġà¤ħà¤ľ à¤¦à¤¹
Ġà¤Ķ à¤¹à¤¦
Ġà¤Ĩà¤¸ à¤µà¤¨
à¥ĭ) ;
Ġt errorism
Ġà¤Ĳ à¤¬à¤¦
à¤ĭ à¤ļ
à¤°à¤ľ à¤¹
à¤Ńà¤Ĺ à¤µà¤¤
19 44
19 12
la e
Ġà¤¦à¤¸ à¤¤à¤°à¤¸
à¤ħà¤ª à¤ķà¤°
à¤Ńà¤° à¤ª
en ces
Ġà¥¤ à¥¤
ot al
st ra
Ġc ent
à¤ħà¤ľ à¤¯
ĠA a
à¤°à¤¹à¤£ à¤ķà¤°
à¤ľà¤¤ à¤®à¤¨
Ġà¤¤à¤² à¤«
Ġà¤ıà¤² à¤ļ
is ual
ĠT ab
20 6
à¥ĩà¥¤" -
Ġb z
à¥ĭ. -
'' ,
ĠB aI
ĠB REAK
Ġm unicip
Ġ13 8
Ġ14 9
à¥ª à¥¯
Ġà¤®à¤² à¤®à¤²
à¤¯à¤£ à¤ª
ĠL AN
Ġe ach
à¤¾! )
Ġà¤ıà¤« à¤Ł
Ġà¤ħà¤¹ à¤®à¤ķ
ĠE Send
Ġà¤¹à¤¡ à¤¡
13 9
ĠW i
Ġ22 8
à¥Ī?" -
Ġà¤Ńà¤¡ à¤ķà¤¤
press ion
à¤į à¤ª
Ġà¤ħà¤Ł à¤ªà¤Ł
Ġ29 0
à¤īà¤¡ à¤¸
à¤¶à¤¹ à¤µà¤¤
Ġà¤· à¤£
Ġà¥¦ à¥¨
Ġà¥¦ à¥«
à¤ħà¤®à¤° à¤ª
ve y
Ġà¤¤à¤« à¤°à¤ķ
pp ort
han ge
Ġ34 3
Re ply
à¤łà¤¹à¤° à¤ķà¤°
Ġà¤į à¤²
Ġà¤į à¤§
ak ar
Ġà¤¤à¤²à¤¬ à¤Ĺ
Ġà¥§à¥¯à¥® à¥®
Ġ09 30
à¥§à¥¯à¥¯à¥ ®
In timac
SE T
sy s
à¤°à¤ľà¤¨ à¤¨à¤ķ
Ġà¤¹à¤¬ à¤¶
101 2
Ġli b
Ġà¤®à¤¦à¤¨ à¤²
Ġwar fare
net work
Ġen c
Ġic ons
à¤®à¤¸à¤² à¤¹à¤¤
secon d
ril lic
Ġà¤Į à¤¨
Ġasy mpt
ĠTYP ING
Ġdocu ment
ĠBASE D
Ġmunicip alities
ĠESend Options
Intimac y
, ...)
C OUNT
F ILE
L à¤¤
M M
O x
R es
S QL
b ug
d k
g h
l or
n al
t ain
Ì Ī
à¤¾ }
à¤¾ :%
à¤¾ ",
à¥ĩ à¥Ģ
Ġà¤ķ à¤ĩà¤¯
à¤¤ à¤ªà¤¤
à¤¤ à¤ľà¤²
à¤¸ à¤¬à¤¨
Ġà¤¹ à¤¥à¤ķ
à¤® à¤²à¤¨
à¤² à¤°à¤µ
Ġà¤® à¤²à¤¨
Ġà¤® à¤ĺ
à¤¦ à¤Ī
à¤ª à¤«
à¤ª à¤¥à¤¨
Ġà¤ľ à¤¯à¤ķ
à¤ľ à¤¸à¤µ
Ġà¤¬ à¤ª
Ġà¤¬ à¤Łà¤²à¤°
à¥Ĥ âĢĻ
Ġà¤¦ à¤¦
Ġà¤¦ à¤¡
Ġà¤ī à¤ĺ
à¤Ł à¤§
à¤Ł à¤ĩ
à¤Ł à¤²à¤¨
à¤Ł à¤ķà¤¨
à¤ı à¤²à¤¬
à¤ı à¤¤à¤¬
à¤§ à¤§
à¤§ à¤¨à¤¤à¤®
à¤· à¤¹
à¤ļ à¤ķà¤®
à¤ļ à¤®à¤ķà¤¤
Ġà¤Ĩ à¤°à¤£
Ġà¤¯ à¤¶à¤ª
à¤ĸ à¤¶
à¤Ń à¤ľ
à¤Ń à¤°à¤¨
Ġà¤ı à¤¹
Ġà¤ı à¤Ĩà¤Īà¤¸
Ġà¤ı à¤ıà¤®à¤¯
Ġà¤ļ à¥Ŀ
à¤Ī à¤ľà¤¹
Ġà¤¶ à¤¹à¤ľ
à¥Ģà¤Ĥ âĢĿ
à¤ĩ à¤Ļ
Ġà¤¥ à¤²à¤¸
à¤Ľ à¤Ľ
à¤ħ à¤°à¤¤
à¤ħ à¤ĸà¤£
à¤Ĩ à¤ĩà¤²
Ġà¤ħà¤§ à¤®
à¤ĵ à¤¤
à¤ĵ à¤ı
Ġà¤¡ à¤¯
à¥ī -
à¤Ŀ à¤ªà¤¨
à¤¼à¥Ģ ;
Ġà¤ĺ à¤®à¤£
à¤µà¤¨ à¤Ńà¤°
à¤¶à¤¨ à¤®
Ġà¤ħà¤µ à¤°à¤ķ
Ġ" #
Ġ" --
Ġà¤¸à¤®à¤¯ à¤ª
à¤ĩà¤¨ à¤«
Ġà¤¤à¤° à¤²à¤¤
à¥Ģ) :-
Ġs al
Ġs epar
à¤Ĳ à¤ľ
Ġà¤Ĩà¤° à¤Ĩà¤Īà¤¡
Ġà¤ħà¤ª à¤ĺ
Ġà¤ħà¤¬ à¤¦
à¤Łà¤ķ à¤®
à¥¦ à¥©
à¤Ĭ à¤Ĺ
à¤Ńà¤µ à¤¶
à¤·à¤® à¤¯
Ġt rack
pr ocess
Ġà¤īà¤² à¤ľ
Ġà¤ĭ à¤ļ
à¤ħà¤¤ à¤¤
à¤¬à¤¸ à¤µà¤¨
la ck
Ġà¤¸à¤² à¤¹
à¤²à¤® à¤£
Ġà¤ħà¤ªà¤° à¤¦à¤¨
Ġà¤ķà¤Ł à¤ĺà¤°
Ġà¤¦à¤² à¤Ĺà¤¤
ĠS ocial
ĠS OCKS
Ġ15 1
ĠA t
Ġb ack
Ġb een
Ġ25 000
ĠF TP
à¤¦à¤°à¤¤ à¤®
Ġ16 6
ra el
ĠD iff
ĠR FC
ĠN one
Ġw eather
à¤¶à¤¯ à¤Ĺ
Ġe kiga
à¥® à¥¬
à¤¨à¤Ł à¤ĸà¤Ł
ut look
à¤ıà¤ļ à¤ıà¤¸à¤Ł
Ġ= %.
à¤īà¤² à¤Ŀà¤¨
à¤®à¤°à¤£ à¤¶à¤ķ
og raph
Ġi lae
27 1
ter ror
li ght
à¥¨à¥¦à¥¦ à¥¯
à¥ĢâĢĻ ,
à¤³ à¤®
ĠK DE
IS DN
dition al
Ġà¤ħà¤«à¤¸à¤° à¤¶
SI P
à¤Ĩà¤°à¤¡ à¤¬à¤²
if y
à¤¡à¤ĭ à¤Ĩ
à¥§à¥¯à¥¯à¥ ¨
key cap
à¤§à¤¶ à¤¤à¤ķ
Ġà¥Ľ à¤®
Ġà¥§à¥¯à¥ª à¥®
Ġà¤Ŀà¤ªà¤Ł à¤¤
Ġà¤ªà¥ľ à¤¤
ĠIP v
transla tion
ĠSp elling
ĠË ļ
Ġà¤ªà¤Łà¤ķ à¤¥
rb visit
epart ment
144 0
Ġse lect
imp le
mar ks
NU MBER
ĠJava Script
" (
1 19
5 12
8 16
8 50
B B
L à¤ķ
L AN
M icrosoft
O ST
P D
P a
R EL
S M
T ON
T ube
b ol
c x
c atal
d L
d m
d en
d is
e or
f r
g ra
g bb
n y
o ad
r rg
v al
Ø §
à¤° Comment
à¥ĩ :-
à¤¿ âĢĺ
Ġà¤ķ à¤¥à¤ķ
à¤¨ à¤ªà¤¨
à¤¨ à¤¦à¤¨
à¤¨ afghanistan
à¥Ģ ""
à¤¤ à¤®à¤¤
à¤¤ à¤¬à¤¨
à¤® à¤¯à¤¦
à¤® à¤¶à¤°
à¤² à¤Ľ
à¤² à¤°à¤¸
à¤² à¤ķà¤²
à¤² à¤µà¤¸
à¤² à¤ļà¤ķ
à¤² Comment
Ġà¤ª à¤Ĺà¤²
à¤µ à¤·
Ġà¤® à¥Ľ
à¤¦ à¤¯à¤µ
à¤ª à¤¦à¤®
Ġà¤ħ à¤°à¤®
Ġà¤µ à¤°à¤®
Ġà¤¨ à¥Ľà¤°
à¥ĭà¤Ĥ à¥ĩ
à¥ĭà¤Ĥ à¤¿
Ġà¤¬ à¤°à¤¨
Ġà¤ī à¤ľà¤¬
à¤¡ à¤ªà¤Ł
à¤¡ à¤°à¤¤à¤²
à¤¥ à¤ķà¤¨
Ġà¤Ĩ à¤¸à¤°
Ġà¤¯ à¤µà¤¨
Ġà¤ĩ à¤ĭà¤¯
à¤« à¤°à¤¸à¤¨
Ġà¤ĸ à¤ªà¤°
à¤ĩ à¤³
à¤Ľ à¤°à¤¦
à¤ħ à¤Łà¤®
à¤ħ à¤¦à¤¬
à¤ķà¤° à¤ª
à¤Ĩ à¤¹à¤¤
à¤Ĩ à¤®à¤µ
à¤µà¤° à¤Ĺ
à¤µà¤° à¤ļ
Ġà¤ħà¤§ à¤ĭ
à¤ī à¤ķà¤²
à¤ī à¤¤à¤°à¤¨
à¤ĵ à¤¹à¤¦
à¤°à¤£ à¤¸
à¤ĩà¤¸ à¤Ĺà¤¢
à¤Ŀ à¤ķà¤¨
Ġà¤§ à¤ľ
à¤¸à¤° à¤ª
à¤¯à¤¤ à¤¦
à¤¤à¤¨ à¤¯
Ġ2 13
à¤¶à¤¨ à¤ħà¤ª
Ġà¤Ł à¤¹à¤²à¤¨
à¤¬à¤° à¤Ĺ
Ġà¤ħà¤µ à¤²à¤®
à¤¦à¤° à¤ª
à¤¦à¤° à¤«
Ġà¤ħà¤Ń à¤¦
à¤§à¤¨ à¤®
à¤°à¤Ń à¤µ
à¤ıà¤ķ à¤¬
Ġs o
Ġà¤ħà¤ļ à¤®
Ġà¤ħà¤ª à¤¯à¤¶
Ġà¤¬à¤ļ à¤ķ
Ġ' à¥¤
à¤¾- âĢľ
à¤Ĺà¤² à¤°
Ġà¤ķà¤² à¤Ĺ
Ġà¤īà¤ļ à¤ĭ
à¤¬à¤² à¤®
Ġà¤Ĺà¤° à¤ľà¤¤
à¤ķà¤Ł à¤®à¤¯
à¤ķà¤Ł à¤°à¤®à¤¨
à¤¹à¤¨ à¤¸
Ġà¤Ķ à¤ķ
Ġà¤Ķ à¤ª
Ġà¤¤à¤¬ à¤¸
à¤Ĩà¤° à¤Ĩà¤°
à¤¯à¤ª à¤Ł
al endar
Ġd es
Ġd uration
19 25
19 21
it es
à¤¹à¤°à¤£ à¤¤à¤¯
à¤ıà¤² à¤Ĩà¤°
à¤ıà¤² à¤ıà¤«
Ġà¤ıà¤¸ à¤Ĩà¤°à¤Ĩà¤ĩ
à¤ħà¤Ń à¤¯
Ġ18 35
ar ques
âĢĿ -
à¤°à¤ª à¤Łà¤²
Â¥Âĩ .
Ġà¤®à¤ķ à¤Ī
Ġpr ot
à¤ħà¤ľ à¤Ĺà¤°
ĠC lass
Ġ20 24
ĠA c
he me
à¤īà¤ª à¤ª
12 8
à¤ħà¤ķ à¤¸à¤°
à¤ľà¤® à¤¬à¤°
of f
10 3
ĠB lu
Ġf olders
ĠR GB
ĠN et
à¥® à¥¨
ĠH ousing
à¥Ń à¥©
ent ly
iv ia
à¤¦à¤µ à¤Ī
Ġl ink
ur in
ĠZ à¤ľ
à¤®à¤¶ à¤¹
Ġ23 6
ĠW ar
as on
Ġà¥ª à¥¨
Ġcom arques
ĠX X
ay aa
tr op
à¤ıà¤®à¤Ī à¤ľ
un d
à¥§à¥® à¥¦
Ġà¤ĵà¤µà¤° à¤²
Ãī Ãī
Ġà¤ľà¤¨à¤ķ à¤ª
Ġà¤Ĩà¤Ĺà¤° à¤ķà¤°
ev er
Ġj apan
Ġ186 5
Ġ186 8
ug zilla
à¤īà¤ķ à¤¸à¤¨
Ġz ip
à¥§à¥¯à¥¯à¥ §
ĠQ ual
lib isofs
Ġà¤ĸà¤Ł à¤ķà¤¤
St art
Ġla tin
à¤Ńà¤Ł à¤ķà¤¨
sc reen
pla ce
lu de
à¤Īà¤ĵ à¤Ĩà¤Ī
Ġsp aces
Sp ot
rec urrpage
Ġà¤īà¤« à¤¨à¤¤
sm all
Ġà¤ıà¤¸à¤ı à¤¡à¤¬
db us
DD RESS
MY K
aust ria
Ġhyp er
Ġhyp othes
DEV ICE
Ġgconf d
Ġchr om
bol ivia
catal onia
rrg gbb
% à¥¤
, )
- ${
2 12
2 14
8 14
D T
G AL
J IS
N HS
O n
P C
R W
S etting
S imple
V AR
W S
b or
b us
c d
c l
c z
h en
n ow
r ome
s en
s hell
s afe
t ask
w ith
x viii
Ë Ŀ
â Ĥ
Ġ view
à¥į à¤¿
Ġà¤ķ à¤¸à¤¤
à¤¨ à¤¦à¤°
à¤¨ à¤®à¤²
à¤¨ world
à¤¤ à¤¤à¤°
à¤ķ à¤¬à¤°
à¤ķ à¤¦à¤¨
à¤ķ à¤¶à¤ķ
à¤¯ à¤ªà¤¨
à¤¯ à¤Ĺà¤£
à¤¸ à¤ŀ
à¤® à¤¸à¤°
à¤® à¤µà¤²
à¤® à¤ªà¤Ł
Ġà¤¸ à¥ľà¤ķ
à¤² à¤¢
à¤² à¤ĺà¤°
à¤² à¤¡à¤ķ
à¤² à¤ĸà¤£
à¤µ à¤¹à¤¤
à¤µ à¤²à¤¤
à¤¦ à¤°à¤£
à¤¦ à¤²à¤¨
à¤ª à¤¶à¤¨
à¤ª à¤Łà¤ķ
Ġà¤ľ à¤ļ
Ġà¤ħ à¤¯à¤¨
à¤ľ à¤ĺà¤°
à¤ľ à¤ªà¤¥
à¥ĭà¤Ĥ âĢĿ
à¤¶ à¤ķà¤²
à¤¬ à¤Ļ
à¤Ł à¤ľà¤¨
à¤Ł à¤¸à¤°
Ġà¤° à¤ľà¤¸
à¤§ à¤ļà¤¨
à¤ļ City
à¤¡ à¤¨à¤°
à¤¥ à¤ķà¤°
Ġà¤Ĩ à¤¡à¤µ
Ġà¤Ĩ à¤īà¤Łà¤°
à¤£ à¤¬
Ġà¤¯ à¤¡
Ġà¤Ĺ à¤Ĳ
à¥Īà¤Ĥ à¤ĥ%
Ġà¤ı à¤¯
Ġà¤ı à¤°à¤°
à¤Ī à¤µà¤°
à¤°à¤¤ à¤ĭ
à¤« à¤°à¤¨
à¤ĩ à¤°à¤ķ
à¥Į à¥¤
à¤ħ à¤Łà¤ķ
à¤ħ à¤¦à¤®
à¤°à¤ķ à¤ª
à¤ķà¤¤ à¤°à¤¨
à¤µà¤° à¤µà¤°
à¤ĵ à¤ıà¤²
Ġà¤īà¤ª à¤µà¤¨
Ġà¤īà¤ª à¤¦à¤°
à¤¢ à¤ĭ
à¤¸à¤° à¤µ
Ġà¤Ľ à¤²à¤¨
à¤°à¤¸ à¤ĸ
Ġà¤²à¤Ĺ à¤¯
à¤µà¤¨ à¤ª
à¤¶à¤¨ à¤Ĺ
à¤°à¤¯ à¤£
à¤ķà¤°à¤£ à¤ķà¤°
Ġà¤¸à¤° à¤ª
Ġà¤¸à¤° à¤ªà¤Ł
à¥Īà¤Ĥ, -
à¥Ĥà¤ģ âĢĿ
à¤ĩà¤² à¤®
à¤®à¤° à¤ķà¤°
ti s
à¤²à¤ķ à¤®
in ian
à¤®à¤¸ à¤Ń
Ġà¤ªà¤¦ à¤¯
à¤ıà¤¸ à¤ıà¤®à¤Ī
à¤Ńà¤µ à¤ľà¤¨
Ġà¤Ķ à¤·
à¤Ĩà¤° à¤Ĩà¤°à¤¬
Ġt han
Ġ5 45
à¤®à¤¹ à¤ķ
à¤®à¤¹ à¤¸
Ġà¤ĭ à¤Ĩ
Ġà¤®à¤¤ à¤ªà¤¤
Ġà¤Ĩà¤Ī à¤ıà¤«
Ġd ise
Ġd raw
Ġa sp
19 14
19 02
19 05
19 27
à¤ıà¤® à¤ıà¤®à¤ª
Ġà¤ķà¤ł à¤ĺà¤°
à¤ıà¤² à¤ıà¤®
ab a
Ġà¤ıà¤¸ à¤Īà¤ľ
Ġ18 43
Â¤Â° )
at o
Ġà¤ıà¤¨ à¤Ĩà¤°à¤Ĩà¤Ī
à¤°à¤®à¤£ à¤¶
à¤īà¤¦ à¤¹
Ġc a
ĠA l
Ġà¤ıà¤® à¤ľ
http s
12 13
ou tput
Ġà¤ıà¤² à¤Ĩà¤Īà¤¸
à¤¦à¤² à¤¦à¤²
ĠP C
ĠM MR
11 7
à¥« à¥¦à¥¦
Ġ16 2
Ġ16 3
ra c
Ġf ull
Ġm odel
ĠU I
18 89
Ġ17 2
el p
ĠL E
à¥® à¥ª
à¤ıà¤ļ à¤ıà¤®
id get
13 2
ri g
Ġà¥© à¥Ń
Ġ26 5
08 16
ĠZ à¤¨
à¤®à¤¶ à¤Ĺ
Ġ27 5
à¤²à¤¦ à¤¹
as ks
Ġy aa
Ġà¥« à¥¨
Ġi T
à¤ĭà¤£ à¤¦
à¤ĭà¤£ à¤ķà¤°
Ġr esult
à¤¬à¤¢ à¤¤
ĠX imian
th r
li ke
à¥ĩà¤ĥ -
lic k
Ġ185 1
Ġà¤Ńà¤Ĺ à¤µà¤¨
for ge
for ward
our s
Ġà¤ĵà¤² à¤®à¤°
har ed
ip e
à¥§à¥¯à¥¯à¥ ¬
à¤ıà¤¨à¤Ĩà¤° à¤Ī
à¤ıà¤¨à¤Ĩà¤° à¤ıà¤®
à¤ĩà¤ªà¤° à¤²
101 3
ĠServ ice
à¤Łà¤¦ à¤ķà¤²
sc ape
pl ugin
Ġper cent
Ġà¤īà¤Ľà¤² à¤ķà¤°
Ġac tive
Ġsource forge
xxxxxxxx xxxxxxxx
Ġplugin s
Ġ', '
ĠEd itor
Pre view
ĠLF SR
ĠGroup Wise
Ġind ex
stit ute
cx india
/ >
4 80
C om
L ib
P ER
X lib
c dr
k i
l ocal
n ote
o k
q a
w a
w n
Â ©
à¤¾ Í¾
à¥ĩ à¥Ī
à¤Ĥ à¥ĭ
à¤¨ à¤²à¤ķ
à¤¤ à¤ħ
à¤¤ à¤Ĺà¤¡
à¤ķ à¤¶à¤¤
à¤ķ à¤®à¤¹
à¤¸ à¤¹à¤°
à¤¹ à¤ĵ
à¥ģ âĢĿ
à¤Ĺ à¤ı
à¤Ĺ à¤ķà¤£
Ġà¤¨ à¤²à¤ķ
à¤ľ à¤Ńà¤ķ
à¥ĭà¤Ĥ :
à¥Ĥ ?
Ġà¤¤ à¤°à¤¤
à¤¶ à¤°à¤¤
à¤¶ à¤Ĺà¤µ
à¤¶ à¤°à¤¬à¤¤
Ġà¤² à¤ļà¤ķ
à¤Ł ukraine
à¤ı à¤¹à¤¸
à¤¡ à¤²à¤ķ
à¤¥ à¤ªà¤°à¤ķ
à¤ĸ à¤°à¤¤
Ġà¤ļ à¤®à¤ļ
à¥Īà¥¤ ]
à¤°à¤¤ à¤²à¤¬
à¤« à¤µ
à¤ĩ à¤¹
à¤ħ à¤¯à¤¸
à¤¼à¤¾ %
Ġà¤ħà¤¨ à¤¥à¤ķ
à¤Ĩ à¤°à¤¤
à¤Ĩ à¤¬à¤¨
à¤µà¤° à¤°
à¤¤à¤° à¤ªà¤¶
à¤ĵ à¤Ī
à¤¾, âĢĵ
à¤°à¤£ à¤°
âĢ ²
à¤ľà¤¨ à¤µ
à¤ľà¤¨ à¤®à¤¤
à¥ī ,
à¤Ŀ à¤ªà¤ķ
Ġà¤§ à¤¸
Ġà¤§ à¤µà¤¨
Ġà¤ħà¤² à¤¬à¤°
à¥ĩà¥¤ âĢĻâĢĻ
Ġà¤Ľ à¤¦à¤®
à¤Ĺà¤° à¤¸
à¤°à¤¸ à¤²
à¤¸à¤® à¤®
à¤¸à¤® à¤ľ
à¤¸à¤® à¤·
à¤²à¤¤ à¤µ
à¤¨à¤¤ à¤ķ
à¤ŀ à¤¨
Ġ2 17
Ġà¤īà¤¤ à¤ķ
Ġà¤Ĩà¤¯ à¤¶
Ġà¤ķà¤® à¤°à¤¬
à¤Łà¤° à¤ıà¤ķ
Ġà¤ĵ à¤ł
à¤¦à¤¨ à¤µ
à¤®à¤ķ à¤¶
à¥Ĥà¤Ĥ à¤ĥ
Ġà¤ĵà¤° à¤²
à¤¶à¤ķ à¤ľ
à¤¶à¤ķ Name
à¤īà¤¨ à¤ĭ
à¤īà¤¨ City
Ġà¤¬à¤¦ à¤¸
à¤¯à¤° à¤¨
Ġà¤®à¤¨ à¤Ĺà¤¢
à¤ħà¤¨ à¤µà¤°
Ġ3 29
à¤¨à¤µ à¤ª
in put
à¤ıà¤¸ à¤ıà¤®à¤ıà¤¸
à¤ıà¤¸ à¤Īà¤ľ
Ġà¤ĺà¤° à¤ĺà¤°
à¤ķà¤Ł à¤¦
à¤Ĩà¤Ī à¤«
à¤¬à¤¦ à¤¸
Ġà¤¡à¤° à¤ª
Ġà¤¨à¤µ à¤ªà¤°
19 23
19 09
19 04
la c
or s
à¤¤à¤°à¤£ à¤ķà¤°
Ġ18 33
Ġ18 46
ar ently
à¤¿- \\
Ġ10 24
Ġà¤ıà¤¨ à¤ıà¤¸à¤¡
à¥ĭà¤Ĥ) ,
ĠS ystem
Ġà¤ĳà¤« à¤°
Ġc ri
Ġc ustom
Ġc odec
Ġà¤ªà¤Ł à¤µà¤°
Ġ15 000
ĠC c
re me
ĠA n
à¤¯à¤¶ à¤µ
ĠI mp
à¤īà¤ª à¤¬
Ġdo wn
à¤¦à¤² à¤ª
Ġp lease
Ġp oll
à¥« à¥¯
ĠB r
ra tion
ra inian
ĠD r
ĠD epartment
18 00
Ġ17 4
ĠL evel
Ġà¤ıà¤« à¤ıà¤®
ĠO P
Ġ+ )'
14 0
Ġ24 6
à¤ķà¤ķ à¤ķ
Ġà¤µà¤ļà¤¨ à¤ªà¤¤
à¤ķà¤¥ à¤ķà¤²
Ġl ine
à¤¾: \"
ĠZ à¤ªà¤°
ĠW ay
AT CA
ĠV oIP
Ġv ideo
Ġfor m
Ġr un
Ġà¥ª à¥¦à¥¦à¥¦
am il
à¤ªà¤Łà¤¨ à¤®
Ġà¥¬ à¥¨
Ġre ad
à¤¹à¤¨à¤¤ à¤ķà¤¶
ox y
Ġà¥§à¥« à¥¦
Ġà¤Ľà¤ł à¤µ
à¤Ĩà¤Īà¤ıà¤¸ à¤ª
Ġà¤¶à¤ªà¤¥ à¤ªà¤¤
Ġà¥Ń à¥¬
Ġ` (.
Ġà¥® à¥¦à¥¦
Ġà¤Ńà¤Ĺ à¤¤à¤°
RO UN
à¤¤à¤ĸ à¤ªà¤°
ï¿½ ï¿½
Ġà¤į à¤°
Ġà¥§à¥¯ à¥§à¥¯
ue Type
à¥§à¥¯à¥¯à¥ «
à¤ķà¤ªà¤Ł à¤ª
à¥§à¥¯à¥Ń à¥©
à¤ļà¤®à¤ķ à¤¦
à¤Ĺà¤Ĺ à¤ĺ
à¥§à¥¯à¥® à¥§
Ġà¥¨à¥¨ à¥ª
gui menu
Ġà¤²à¤µ à¤£à¤¤
ign ature
HO ST
Sp ec
evel op
rap ati
à¥§à¥¯à¥© à¥¬
Ġ! !
For mat
Ġbug zilla
Ġimpli es
US ER
ĠFor um
ĠApp arently
ĠAr ch
olog y
Ġ'( .
Ġà¤ıà¤ħà¤° à¤²
Gtk Source
Java Script
Ġch oo
wat ers
ĠAss essment
ĠEnter ing
Ġvari ant
ĠIT EM
pan ama
ĠLe aving
pon ents
ĠQual ity
cz ech
2 10
4 16
7 14
; "
A lt
C opyright
E CT
F TP
M anager
N ot
R FC
X ml
X imian
a ting
b le
k y
n el
o ot
p erm
s ol
u es
v à¤ķ
y s
Ġ à¦
à¥ĩ ....
à¥į /
à¤¿ âĢĶ
Ġà¤ķ à¤¸à¤ķ
Ġà¤ķ à¤«à¤¨
à¤¨ à¤Ĺà¤£
à¥Ģ ....
à¥Ģ âĢĿà¥¤
à¤¤ à¤«à¤²
à¤ķ à¤¦à¤°
à¤ķ à¤Ĩà¤īà¤Ł
à¥ĭ ..
à¤¯ à¤ªà¤¤
à¤¯ CategoryName
à¤® à¤Ĺà¤¤
à¤µ à¤§à¤¨
Ġà¤® à¤°à¤¯
à¤¦ à¤¸à¤°
à¤¦ City
à¤ª à¤ĺ
à¤Ĺ à¤Ŀ
à¥ĩà¤Ĥ à¤¾
Ġà¤ľ à¤¤à¤¨
à¤ľ à¤µà¤°
à¤¶ à¤µà¤¨
à¤¶ à¤¹à¤¨
à¤¬ à¤ľà¤°
Ġà¤² à¤®à¤¹
à¤Ł à¤Ľ
Ġà¤° à¤¯
à¤§ à¤Ł
à¤· à¤¯à¤®
à¤ļ à¤°à¤µ
à¤ļ à¤ķà¤¨
à¤¡ à¤¦
à¤¡ à¤°à¤¤
à¤¡ à¤¨à¤ķ
Ġà¤Ĩ à¤ŀ
à¤£ à¤¤à¤®
Ġà¤Ń à¤°à¤µ
à¤ĸ à¤¸à¤°
à¤ĸ à¤°à¤¨
Ġà¤Ĺ à¤²à¤Ĺ
à¤Ń à¤ľà¤¨
à¥Īà¤Ĥ /
Ġà¤ļ à¤ķà¤®
à¤°à¤¤ à¤¯
à¤ĩ à¤Ń
à¤ĩ à¤ŀ
à¤ĩ à¤°à¤µ
Ġà¤ıà¤ķ à¤¦
Ġà¤¸à¤® à¤¶
à¤¾à¤Ĥ !
à¤¾à¤Ĥ âĢĶ
à¤Ľ à¤²à¤¨
Ġà¤ħà¤¨ à¤¯
à¤ł à¤Ĺà¤¨
à¤¤à¤° à¤Ĺ
à¤¤à¤° à¤§
à¤ī à¤µ
à¤ī à¤²à¤°
à¤ī à¤Ńà¤¯
à¤ĵ à¤īà¤¸
Ġà¤¡ à¤¨
à¤ĩà¤¸ à¤ª
à¤Ŀ à¤ªà¤Ł
à¤¾à¤ģ :
à¤¸à¤° à¤¸à¤°
à¤¯à¤® à¤ª
à¤¹à¤¤ à¤®
Ġ2 24
à¤®à¤¨ à¤°
à¤ĺ à¤µà¤¨
Ġà¤Ī à¤¯
à¤Łà¤° à¤¡
à¤Łà¤° Comment
à¤Łà¤° unit
Ġà¤ĩà¤¨ à¤¡
à¤ķà¤°à¤£ à¤®
à¤ĩà¤¨ à¤¬à¤°
Ġs end
à¤¤à¤ķ à¤ķ
Ġà¤¶à¤ķ à¤ĭ
à¥¦ à¥¬
à¤¡à¤° à¤¬à¤°
à¤²à¤ķ à¤£
in al
à¤Ĭ à¤¨à¤²
à¤Ĩà¤° à¤ıà¤¸à¤ıà¤¸
à¤Ĩà¤Ī à¤Īà¤¸
à¤Ĩà¤Ī à¤ıà¤ļà¤¸
pr ead
Ġà¤¶à¤¬ à¤ĭ
à¥ĩà¤Ĥ. %
Ġà¤Ĩà¤Ī à¤®
Ġà¤Ĩà¤Ī à¤µ
Ġd ao
Ġa u
19 06
la s
or b
à¤¼à¥Ī -
à¤ıà¤² à¤Ĩà¤Ī
Ġà¤¹à¤¸ à¤¬
Ġà¤ıà¤¸ à¤ıà¤¸à¤ıà¤²
à¤µà¤¶ à¤°
Ġ7 000
Ġ18 1
Ġ18 2
Ġ18 48
Ġ_ %
Ġname d
Ġc ar
ĠC ON
Ġ20 47
re p
à¤ħà¤ļ à¤®
à¤ħà¤µ à¤¡
à¤°à¤ĸ à¤°à¤¤
ĠP ine
ĠP KCS
ĠT ime
): %
Ġb ar
10 2
ĠB rowser
Ġà¤ļà¤ķ à¤¬à¤¸
Ġf alse
ĠD isc
Ġ[ (
Ġ17 1
Ġ17 9
à¥¬ à¥§
à¥ľ à¤ķà¤°
ĠL ondon
Ġe ar
ĠG PS
Ġin st
à¤ıà¤ļ à¤Ĩà¤Īà¤µ
Ġg u
Ġg iv
13 4
Ġà¤ľà¤¯ à¤ļ
Ġ(% .
iii à¤ĸ
ur ge
ur vey
Ġ28 5
23 9
ĠZ à¤µ
ĠZ à¤¦
ĠW ork
09 16
07 16
Ġà¥« à¥§
ist er
ad e
ch ler
28 0
Ġr ranjan
03 16
85 7
à¤Ĩà¤°à¤ı à¤ıà¤¨
mp eg
IS CII
à¤ħà¤¸à¤® à¤®
Ġà¤ıà¤®à¤ıà¤¸ à¤Ī
ile d
our ces
Re ad
tic le
Ġon e
Ġ08 45
à¥§à¥¯à¥Ń à¥«
IP CC
DE C
ill s
à¤¯à¤°à¤µ à¤¸
à¥§à¥¯à¥® à¥ª
Ġà¥¯à¥ Ń
Ġà¥¨à¥¬ à¥ª
à¥§à¥§à¥ ®
ĠInc ap
Ġed itor
str ing
Ġà¤ķà¤²à¤¨ à¤µ
ib le
Ġdire ction
xiii à¤ĸ
so lar
SU B
ific ation
START TLS
Ġdise ase
- .
- à¥¤
- ://..
3 23
5 000
6 16
: ,
? .
A V
A ction
B D
H EL
N UM
P DF
Q Xml
R T
S tr
T ree
V AL
Y E
Z Z
] .
b ps
d ictionary
e ve
g ets
k de
n ew
o M
o zone
p df
s urin
w eb
Ä ĺ
Å ¯
Ð §
Ġ iii
à¤° à¤ĸà¤¤
à¤° à¤ĺà¤°
à¤Ĥ !
à¤¨ à¤°à¤¦
à¤¤ City
à¤ķ Comment
à¥ĭ à¥ĩ
à¥ĭ à¥ĩà¤Ĥ
à¥ĭ âĢĺ
à¥ĭ âĢĶ
à¤¯ à¤ĭà¤®
à¤¸ à¤²à¤¤
à¤¸ Constellation
Ġà¤¹ à¤¦à¤¯
à¤® à¤°à¤¦
à¤¹ à¤¸à¤¨
à¤² à¤¸à¤²à¤¸
à¥ģ à¥ģ
Ġà¤ª à¤¨à¤¦
à¥Ī à¤ģ
à¥Ī ",
à¤µ à¤ı
à¤Ĺ à¤¹à¤®
à¥ĩà¤Ĥ à¥ĩ
à¥ĩà¤Ĥ à¥į
Ġà¤ľ à¤®à¤¤
Ġà¤ħ à¤¶à¤¨
à¤ľ à¤Ĺà¤®
à¤¼ ...
à¥ĭà¤Ĥ ]
à¤¶ à¤¯à¤ª
à¤¶ à¤¯à¤µ
à¤¬ à¤¤à¤°
à¤Ł à¤ªà¤¨
à¤Ł à¤ħ
à¤Ł à¤ł
à¤Ł à¤ĸà¤¨
à¤ı à¤®à¤°
à¤ı à¤¨à¤°
à¤ı à¤ļà¤ķ
Ġà¤° à¤£à¤ķ
à¤§ à¤Ĺà¤¡
Ġà¤Ķà¤° à¤¸
à¤· à¤®à¤°
à¤ļ à¤ªà¤Ł
à¤ļ à¤®à¤ļ
à¤¡ à¤ĸ
à¤¡ à¤µà¤°
à¤¡ à¤°à¤¶
à¤¥ à¤°à¤¸
Ġà¤Ń à¤®
Ġà¤Ń à¤°à¤¹
Ġà¤Ĺ à¤ľà¤¬
Ġà¤Ĺ à¤¬à¤¨
à¤Ń à¤²à¤¨
Ġà¤ĩ à¤¬à¤¨
Ġà¤ļ à¤¹à¤²
à¤°à¤¤ à¤ª
à¥Ģà¤Ĥ ),
Ġà¤ĸ à¤«
Ġà¤ĸ à¤Ļ
Ġà¤ıà¤ķ à¤®à¤¯
Ġà¤ıà¤ķ à¤°à¤¸à¤¤
Ġà¤ĩà¤¸ à¤¤
à¥ĥ ,
à¤ħ à¤¬à¤°
à¤ħ à¤ķà¤¸
à¤ħ à¤¦à¤²
à¤ķà¤° à¤¹
à¤¼à¤¾ /
Ġà¤ħà¤¨ à¤®à¤¨
à¤¾à¥¤ âĢĻâĢĻ
à¤Ĩ à¤ĩà¤ľ
à¤¤à¤° à¤ĸ
à¤¤à¤° à¤ķà¤°
à¤ªà¤° à¤¸à¤¨
Ġà¤§ à¤¤
à¤¸à¤° à¤«
à¤¸à¤° à¤ªà¤°à¤¸
à¤¯à¤® à¤°
à¤¯à¤® à¤£
Ġ2 44
Ġ2 200
Ġ2 16
à¤¶à¤¨ à¤Ĺà¤¢
à¤®à¤¨ à¤®à¤°
à¤¯à¤¹ à¤ķ
à¤¬à¤° à¤Ĺà¤¦
Ġ" ;"
Ġà¤®à¤¹ à¤¦
Ġà¤ĵ à¤µà¤²
Ġà¤ĵ à¤¬à¤²
Ġà¤ĵ à¤Ļ
Ġà¤īà¤¦ à¤§
à¥ĩ) -
Ġà¤ħà¤¤ à¤ĭ
à¥Ĥà¤Ĥ ...
Ġs ame
Ġà¤ħà¤ļ à¤ĭ
Ġà¤Ŀ à¤²
Ġà¤ªà¤¡ à¤ĭà¤¤
Ġà¤Ĩà¤° à¤ıà¤«
Ġà¤Ĭ à¤¤
Ġà¤Ĩà¤¤ à¤ĭ
à¤Ĺà¤² à¤ĸ
à¤ħà¤¨ à¤µ
à¤ķà¤¨ à¤°
Ġà¤ķà¤² à¤Ī
à¥¦ à¥®
à¤ħà¤² à¤µà¤°
Ġà¤¸à¤ļ à¤¦
Ġà¤Ķ à¤¸
Ġà¤Ķ à¤¤à¤°
à¥Ī? )
pr is
al let
Ġà¤Ĩà¤Ī à¤ıà¤¸à¤¡
Ġd B
Ġd en
Ġa ut
19 01
19 33
à¤ľà¤² à¤®
à¤¹à¤² à¤ª
ee ch
à¤¼à¥ĩà¤Ĥ /
op s
à¤ıà¤² à¤ľ
ĠâĢĿ ,
en tic
Ġ18 42
Ġ0 60
Ġ< <
le vel
à¤²à¤° Name
à¤ıà¤¨ à¤Ĩà¤°à¤¸
à¤°à¤ª à¤¥
à¤¶à¤² à¤ª
à¥Ī- âĢľ
Ġà¤ķà¤¨ à¤ĸ
ĠS hift
Ġc ap
Ġà¤ªà¤Ł à¤Ł
ĠC alendar
ĠA B
à¤¤à¤¬ à¤ķ
Ġà¤ķà¤¬ à¤¡
ĠI nt
Ġ12 50
Ġà¤¤à¤² à¤¶
à¤ħà¤ļ à¤¯à¤¨
à¤īà¤ª à¤ķà¤²
à¤¤à¤ľ à¤µ
12 1
Ġà¤Ĩà¤¦à¤° à¤ª
-- >
ol ia
Ġà¤ıà¤² à¤Ł
ĠM in
Ġp ath
à¤¿à¤ĥ -
Ġà¤ķà¤¡ à¤µ
à¤Ļ à¤ķà¤°
Ġm g
Ġ13 7
ĠR EM
ĠN OT
15 8
ĠE PA
ĠE Tree
uk e
13 5
25 2
à¤¸à¤« à¤¦à¤°à¤ľ
Ġl ong
Ġl inux
Ġ28 1
ĠZ à¤²
ĠZ à¤¬
em ph
ĠW orld
Ġ22 9
Ġà¤ħà¤¸à¤° à¤¦
Ġto ols
à¤Ĩà¤īà¤Ł à¤¬
Ġà¥ª à¥©
à¥Ģ' ,
Ġà¥¬ à¥§à¥¦
04 16
ay s
ov id
Ġcon n
li ent
ul f
ĠK OI
ĠJ abber
sp am
Ġ187 9
38 4
Ġj pg
Ġ186 3
Ġà¤ªà¤£ à¤ľ
Ġà¤Ńà¤Ĺà¤¤ à¤¸
à¥§à¥¯à¥¯à¥ ©
87 4
Ġex t
Ġex ponents
ult ure
Ġà¥¯à¥ «
Ġà¥§à¥¯à¥ª à¥¨
à¤ħà¤ł à¤ĸ
Ġun known
eg r
à¤İ à¤¸
Ġcheck sum
Ġâĺ»âĺ»âĺ»âĺ» âĺº
PA GE
ĠMac G
ms g
OU D
book marks
ĠUS ENET
à¤Ĩà¤¯à¤° à¤¨
---------------- ----------------
ĠAr my
à¤ķà¤¸à¤¨ à¤¶
à¥§à¥¯à¥« à¥¬
Ġlz ma
Ġconfig uration
ĠSec urity
CL OUD
oph ase
etwork Manager
cep ted
TW ES
CRL F
Ġent ry
ĠPR INT
Ġdivis ions
à¤ħà¤¸à¤¹à¤¨ à¤¶
ĠSA SL
Ġgiv en
ĠIncap acity
surin ame
- à¥¤à¥¤
2 13
3 16
4 13
7 16
9 16
> ,
D IR
D ownload
E d
E nc
E nter
N ational
N NTP
O utlook
P P
P ref
X DG
b at
b ig
b ir
d B
d x
h ost
m h
m ong
n on
p i
p and
r c
s ud
s anch
t en
u j
v ers
v ador
Ġ ob
Ġ layer
Ġ over
à¥ĩ à¤ĥ%
à¤¨ à¤ªà¤¦
à¤¨ france
à¤¨ iran
à¤¤ à¤ķà¤¤
à¤¤ à¤²à¤¬
à¤ķ à¤ķà¤²
à¥ĭ à¥ĭ
à¤¯ à¤¯à¤µà¤¸
à¤¸ à¤Ī
à¤¸ à¤°à¤®
à¤¸ puertorico
à¤® à¤Łà¤°
à¤® à¤¬à¤²
à¤² à¤¸à¤®
à¤² à¤«à¤²
à¥Ī |
Ġà¤® à¤«
Ġà¤® à¤ĭ
à¤¦ à¤®à¤¸
à¤ª à¤ªà¤°
à¤Ĺ à¤łà¤ķ
à¥ĩà¤Ĥ à¤Ĥ
Ġà¤ħ à¤Īà¤¯
Ġà¤µ à¤¸à¤¨
à¤ľ à¤ł
à¤¼ à¥Ī.
à¥ĭà¤Ĥ à¥Ģ
à¥Ĥ ;
à¥¤ -
Ġà¤¦ à¤²à¤¬
à¤¬ à¤ķà¤Ł
à¤Ł à¤ªà¤°
à¤ı à¤¤à¤°
à¤ı à¤ħà¤°
à¤ı à¤Łà¤®
Ġà¤ķà¤° à¤¯
à¤ļ à¤ķà¤²
à¤ļ à¤ĭ
à¤¡ à¤ıà¤¸à¤Ĩà¤Ī
à¤¥ à¤ĵ
Ġà¤Ĩ à¤īà¤¨
Ġà¤Ĩ à¤ĭ
Ġà¤Ĩ à¤ĩà¤°
Ġ( <
Ġà¤ļ à¤ªà¤°
Ġà¤ļ à¤ĭ
à¤Ī à¤ıà¤¸à¤¸
Ġà¤¶ à¤®à¤¶
à¤°à¤¤ à¤®à¤¨
à¤ªà¤¨ à¤ĭ
à¤ħ à¤Ĺà¤µ
à¤ħ à¤¯à¤¶
à¤¼à¤¾ !
à¤Ĩ à¤£
à¤Ĩ à¤°à¤£
à¤ī à¤Ľà¤²
à¤ªà¤° à¤¬
à¤ľà¤¨ à¤ª
à¤ľà¤¨ à¤¸à¤®
à¤Ŀ à¤²à¤ķ
Ġà¤§ à¤°à¤£
Ġà¤ħà¤² à¤ĸ
à¤²à¤¨ à¤¬
à¤¸à¤® à¤°à¤ķ
à¤ŀ à¤²à¤¯
Ġà¤Ł à¤¹à¤²
à¥Ģ, -
à¤®à¤¤ à¤ķ
à¤¬à¤° à¤¯
Ġà¤ħà¤µ à¤ª
à¤¸à¤¨ City
Ġ" =
à¤Łà¤° à¤°
Ġà¤ĵ à¤«
à¤¦à¤° à¤¬à¤¨
à¤°à¤µ à¤Ĺ
à¤µà¤¤ à¤ª
à¥Ĥà¤Ĥ )
à¥Ĥà¤ģ ...
à¤ĩà¤² à¤ľ
à¤ĩà¤² à¤Ł
Ġà¤¬à¤¦ à¤ĸ
à¤¤à¤ķ à¤Ĺ
à¤¾- ?
à¤Ĺà¤² à¤Ĺ
Ġà¤¬à¤² à¤ĭ
Ġà¤ľà¤¨ à¤Ń
me ric
à¥Īà¤Ĥ. -
ti nu
Ġ3 80
à¤¨à¤µ à¤Ń
à¤¡à¤° à¤Ł
à¤²à¤ķ à¤¦à¤®
in et
Ġn bsp
à¤Ĭ à¤¤
er se
er ences
à¤¯à¤ª à¤µà¤¸
à¤Ĩà¤Ī à¤Ĩà¤Īà¤ıà¤¸
à¤Ĩà¤Ī à¤ĵà¤¸
à¤Ĩà¤Ī à¤ıà¤¨à¤¡
Ġà¤ĭ à¤ª
Ġà¤ĭ à¤¨à¤®
Ġd at
Ġd eb
Ġa g
19 26
à¤ľà¤² à¤ľ
or p
ic ons
à¤ıà¤® à¤µ
Ġk i
Ġ6 20
en time
à¤°à¤Ĺ à¤°à¤¤
Ġ18 17
Â¤Âķ :
à¥ĩ? -
ar I
Ġà¤ķà¤Ł à¤¹à¤²
à¤¸à¤¬ à¤®
à¤¸à¤¬ à¤Ł
Ġà¤łà¤¹à¤° à¤ķà¤°
à¥Įà¤Ĥ .
Ġà¤ıà¤¨ à¤ıà¤®à¤¸
Ġc ue
Ġpr es
ĠC PU
Ġà¤Ĺà¤£ à¤ªà¤¤à¤°
Ġ20 8
ĠA lt
Ġà¤ıà¤® à¤ıà¤²à¤¡
à¤ħà¤µ à¤°à¤ķ
Ġà¤«à¤² à¤ª
12 50
ĠP IN
ĠT alk
ĠM em
ĠM SL
Ġp lay
Ġb ow
10 5
âĢĺ âĢĻ
di um
Ġm ode
à¥ª à¥ª
à¤¯à¤£ à¤®
ĠG dk
Ġh ours
ut t
Ġg l
ĠO rg
à¤¨à¤Ī à¤ĭ
Ġ24 7
13 3
Ġl icense
Ġ28 6
23 8
23 12
à¤®à¤¶ à¤µà¤°
fo x
em on
Ġ27 8
us h
AT ION
Ġi mage
Ġà¥ª à¥¬
Ġà¥ª à¥Ń
03 13
194 0
um an
Ġà¥§à¥® à¥«à¥Ń
MA X
Ġà¤®à¤ĸ à¤®à¤²
Ġme as
à¤ķà¤ł à¤«
Ġ185 9
à¤Ĩà¤ĩ à¤ıà¤¸
for d
ID E
Ġà¤®à¤ł à¤µ
à¥¨à¥¦ à¥§à¥§
à¤ıà¤¸à¤Ĩà¤Ī à¤¬
con s
Ġà¥§à¥¯à¥® à¥«
ma tical
à¤¸à¤¹à¤¨ à¤¶
à¥§à¥¯à¥Ń à¥¨
à¥§à¥¯à¥Ń à¥§
67 2
à¤ĩà¤ªà¤° à¤¬
key board
Ġla unchpad
Ġà¥§à¥¯à¥Ń à¥¯
ĠIn stitute
ire fox
Ġà¤®à¤¦à¤¨ à¤®
Ġby tes
uth entic
odi m
à¤ĭà¤Ĩ à¤ĭ
ele ction
Web DAV
Pr int
ĠDis abled
anag ari
Ġoff ice
anc el
Ġgram matical
Ġwid gets
Ġrecur s
Ġincre ment
ĠMess ages
ogg le
Ġsal vador
eor ge
Ġhyper cub
Ġdown load
GtkSource View
Ġsend ing
mong olia
' :
, ...
, `.
/ _
8 62
9 14
: /
A nd
B ack
C y
C UR
E W
G nuPG
H ebrew
L atin
M IN
N OR
P AN
P ine
Q a
R E
R DF
S O
S earch
T TY
Z à¤¹
Z ip
] "
] à¥¤
a e
d ec
d raw
i ent
i ence
k r
l uke
m k
m ic
o y
q aa
r oller
t ar
v o
Ë Ļ
â Ī
Ġ object
à¤° à¤Ĺà¤¨
à¤° à¤²à¤®
à¥į à¥ĩ
à¤¿ à¥Ģ
à¤¨ à¤¬à¤¦
à¤¨ à¤ľà¤¦
à¤¤ à¤Ńà¤°
à¤¤ email
à¤ķ à¤¥à¤ķ
à¤¯ à¤¦à¤¨
à¤¸ à¤¹à¤®
à¤¸ à¤ļà¤²
Ġà¤¹ à¤ľà¤°
à¤® à¤ªà¤¨
à¤® à¤ľà¤²
à¤® à¤Łà¤ķà¤°
à¤² à¤¦à¤°
à¤² à¤Ńà¤°
à¤² à¤Ļ
Ġà¤ª à¤ķà¤¤
à¥Ī âĢĻà¥¤
à¤µ à¤ĺà¤°
à¤µ à¤Ńà¤ķ
à¤µ à¤¦à¤²
à¤¦ à¤·
à¤¦ à¤°à¤¸
à¤ª à¤¯à¤¨
à¤ª à¤¦à¤¤
à¤ª à¤ªà¤¡
à¤Ĺ à¤¤à¤°
à¤Ĺ à¤¬à¤¨
à¤Ĺ à¤§à¤°
à¥ĩà¤Ĥ :-
Ġà¤ħ à¤¸à¤ķ
à¥ĭà¤Ĥ ...
Ġà¤¬ à¤°à¤®
Ġà¤¤ à¤ķà¤¤
Ġà¤¤ à¤Īà¤ª
à¤¬ à¤µà¤°
à¤¬ à¥ľ
à¤Ł à¤ªà¤¤
à¤ı à¤¤à¤¦
à¤ı à¤Ĩà¤°à¤¸
à¤ı à¤ıà¤¸à¤ª
à¤§ à¤°à¤®
à¤§ à¤²à¤ķ
à¤· à¤·
à¤¡ à¤£
à¤£ à¤ªà¤°
à¤£ à¤¦à¤¯
Ġà¤Ń à¤ľ
à¤ĸ à¤°à¤¹
Ġà¤Ĺ à¤Ĭ
Ġà¤Ĺ à¤ľà¤ª
à¤Ń à¤°à¤®
Ġà¤ĩ à¤ª
Ġà¤ļ à¤ªà¤²
à¥Ģà¤Ĥ à¤ĥ%
à¤ªà¤¨ à¤¹
à¤ħ à¤¯à¤¤
à¤ħ à¤ľà¤¬
à¤ħ à¤ªà¤¯
à¤ħ à¤¦à¤¤
à¤ħ à¤¯à¤¥
Ġà¤« à¤¤à¤µ
Ġà¤ħà¤ªà¤¨ à¤¤
à¤°à¤ķ à¤Łà¤¤
Ġà¤ħà¤¨ à¤¤
à¤¾à¥¤ âĢĻ
à¤Ĩ à¤·
à¤Ĩ à¤¥
à¤Ĩ à¤¹à¤°
à¤Ĩ à¤®à¤²
à¤Ĩ à¤¶à¤¯
à¤ī à¤¥à¤Ĺ
à¤¾, '
à¤ªà¤° à¤ļ
à¤¯à¤ķ à¤ħà¤²
Ġà¤¡ à¤«
à¤Ŀ à¤°à¤¨
à¤¢ à¤ķà¤°
à¤Ĺà¤° à¤¨
à¤°à¤¹ à¤°à¤£
Ġà¤¤à¤ķ à¤ķ
à¤¤à¤¨ à¤²
à¤ªà¤¤ à¤¤
à¤¼à¤¿ âĢį
à¤¶à¤¨ Name
à¤®à¤¨ à¤µà¤®
Ġà¤Ł à¤ļ
à¤ĺ à¤ķà¤°
Ġ" [
Ġà¤ĵ à¤¶
à¤¦à¤¨ à¤¯
à¤®à¤ķ à¤£
à¤µà¤¤ à¤ķ
à¤ĩà¤¨ à¤¹
à¤ĩà¤¨ à¤µ
Ġà¤¹à¤° à¤ª
Ġs am
Ġà¤Ŀ à¤®
Ġà¤¸à¤®à¤Ŀ à¤ĭà¤¤
à¤Ĳ à¤¹
à¥Ģ. ),
à¤Ĺà¤² à¤®à¤¯
Ġà¤ķà¤² à¤¸
à¤¨à¤µ à¤¶à¤ķ
Ġn e
Ġà¤ľà¤² à¤Ń
à¤ıà¤¸ à¤ıà¤ļà¤ľ
Ġà¤µà¤¸ à¤ĭ
à¤ħà¤² à¤°
à¤ħà¤² à¤¬à¤°
er ial
à¤ķà¤¸ à¤¬
à¤Ĩà¤° à¤Ĩà¤Īà¤¡
ame s
pr e
Ġà¤ħà¤® à¤°à¤¸
à¤¬à¤¦ à¤¦
à¤ĭ à¤ĭ
à¤Ľà¤² à¤Ĺ
al es
19 10
or iz
à¤¯à¤¸ à¤µà¤¸
à¤ħà¤ª à¤ĺà¤Łà¤¨
à¤ħà¤° à¤Ĺ
à¤ķà¤® à¤ª
à¤ıà¤² à¤ĵ
à¤Ĺà¤¨ à¤¯à¤¨
ab s
en ch
Ġ18 4
Ġ18 06
Ġ18 40
Ġ18 45
Â¤Â° :
at ural
à¤īà¤¤ à¤°à¤¤
à¤ªà¤¦ à¤¸
Ġc entime
à¤Ĩà¤¤ à¤ª
Ġà¤¨à¤ľ à¤®
re cent
ĠA ccess
à¤¸à¤¹ à¤ķà¤°
ĠI C
ĠI f
Ġà¤µà¤ľà¤¹ à¤¸
Ġà¤Ĩà¤² à¤ļà¤¨
à¤ħà¤µ à¤Ĺà¤¤
ol icy
à¤¦à¤² à¤ľ
ĠP ay
ĠT ype
ĠT error
ĠT LS
ĠM icrosoft
her n
Ġp H
Ġ16 1
Ġ16 30
ĠB a
Ġà¤Ĩà¤¹ à¤µ
ĠD ev
Â¤Â® :
ĠR A
ĠR C
ĠR ec
18 85
Ġ17 8
Ġw ant
Ġw odim
Ġe mail
à¤¾à¤Ĥ, âĢĶ
à¤ħà¤« à¤¸à¤°
Ġh indi
Ġx z
Ġg rowisofs
ent y
ĠO ffice
Ġ24 1
Ġà¥§à¥¯à¥ §à¥¦
Ġà¤īà¤Ń à¤¯à¤ļà¤°
ri es
Ġ26 7
23 7
ĠZ à¤ª
17 2
à¤£à¤ķ à¤£
Ġà¤¬à¤ķ à¤¬à¤ķ
24 0
Ġ22 1
ome s
Ġto ken
and ank
ĠY ork
ĠV isual
Ġv ap
à¤į à¤¡
ch andank
Ġre t
th ing
Ġà¥¦ à¥§
ig r
Con trol
Ġà¥Ń à¥¨
Ġà¥Ń à¥®
ast er
à¥Ĥà¤ģ? .
à¤Ńà¤¯ à¤Ļ
Ġ34 8
Ġà¤īà¤¬ à¤²à¤¨
Ġà¤į à¤®
ai jan
à¤¸à¤ĭ à¤¦
à¤Ĺà¤¹ à¤¬à¤°
est ore
ĠChr om
Ġex e
à¥§à¥¯à¥Ń à¥¬
cc ount
........ ....
à¤ľà¤¯à¤¨ à¤Ĺà¤°à¤®
à¥ĪâĢĿ .
à¤ĵà¤µà¤° à¤µ
à¤ĵà¤µà¤° à¤¡
âĢĭ âĢĭ
ĠSt art
Ġà¤ħà¤ªà¤¹à¤°à¤£ à¤ķà¤°
Ġà¥¯à¥ ©
MIME Enc
ĠYou Tube
ens ity
Ġà¥§à¥¯à¥© à¥¨
Ġal ert
ĠUn iversity
lu ng
Ġsp ace
Ġà¤Ŀà¤ªà¤Ł à¤ķà¤°
à¥§à¥¯à¥© à¥§
Ġcomp le
ĠCom ic
à¥§à¥¯à¥¨ à¥ª
Web cam
Ġà¤ħà¤µà¤¨ à¤®à¤¨
erb aijan
ĠIs rael
Key Pref
à¥į: âĢĵ
Ġacc ount
Ġzoom ing
tra ct
OfThe Meeting
tac ts
az erbaijan
ĠĠĠĠĠĠ Ġ
Ġà¥ł à¤£
Ġmul tip
Tr ueType
vid ual
Ġ0930 47
Ġsepar ator
ĠImp ort
ROUN D
ĠArch ived
YE AR
IDE O
uthentic ation
Cy rillic
chandank umar
MIMEEnc KeyPref
MIMEEncKeyPref s
' (
- âĢľ
. ?
2 18
3 000
3 20
5 50
8 75
8 64
A D
A ut
A DDRESS
F irst
G U
G eneral
G Object
H C
H E
H EX
I t
K it
K DE
K EY
O CT
P F
R SET
W OR
W idget
[ (
c os
d isc
e me
h ma
n m
n ess
o on
o is
y z
Â ´
Â ¸
Ù Ħ
Ġ oxide
Ġà¤ Ĵ
à¥į !
à¤¨ à¤Ľ
à¤¨ à¤ļà¤¨
à¥Ģ :%
à¥Ģ ......
à¤ķ à¤«à¤°
à¥ĭ ......
à¤¯ à¤¶à¤ķ
à¤¯ à¤ĭ
à¤¯ à¤°à¤ķà¤¤
à¤¯ à¤ľà¤¨à¤¸
à¤¸ à¤ĩà¤«
à¤® à¤Łà¤®
Ġà¤¸ à¤¤à¤¨
à¤¹ à¤¬à¤²
à¥ģ à¥Ī
Ġà¤ª à¤ĭ
à¤µ à¤ªà¤¤
Ġà¤® à¤ĩ
à¤¦ à¤§
à¤¦ à¤ªà¤°
à¤¦ à¤¹à¤°
à¤¦ à¤Ĺà¤°
à¤¦ à¤¤à¤¨
Ġà¤ħ Z
à¤ľ à¤®à¤¹
Ġà¤¬ à¤Łà¤µ
Ġà¤¦ à¤°à¤¦
à¤¶ à¤°à¤¨
à¤¶ Name
à¤¬ à¤¤à¤¨
Ġà¤² à¤ĭ
à¤Ł à¤¤à¤°
à¤ı à¤ªà¤¨
à¤ı à¤¹à¤¤
à¤ı à¤¯à¤°à¤²
à¤ı à¤ķà¤¤à¤°à¤«
à¤§ à¤®à¤¤
à¤¡ à¤ªà¤°
à¤¡ à¤°à¤®
à¤¡ à¤Ĩà¤°
à¤¡ à¤Ĺà¤¨
à¤¥ à¤Ī
à¤£ à¤Ńà¤ķ
Ġà¤¯ à¤ª
Ġà¤¯ à¤®à¤°
Ġà¤Ĺ à¤¹à¤®
à¥Īà¥¤ ,
à¥Īà¥¤ 'à¥¤
à¤« à¤Łà¤¨
à¤« City
à¤« à¤°à¤¨à¤Ĺà¤°
à¥Ģà¤Ĥ ]
à¤¾à¤Ĥ "
à¤Ľ à¤¯
à¤ħ à¤¤à¤¨
à¤ħ à¤ĸà¤°
à¤°à¤ķ à¤£
à¤Ĩ à¤µà¤²
à¤Ĩ Name
à¤Ĩ à¤ĩà¤°
à¤ĵ à¤¯
à¤ĵ à¤ķà¤¨
à¤ĵ à¤°à¤²
Ġà¤¬à¤¨ à¤ķ
à¤ľà¤¨ à¤ķà¤ª
à¥Īà¤Ĥà¥¤ '
à¤°à¤® à¤®
à¤°à¤® à¤Ĺ
à¥ĩà¥¤ --
Ġà¤Ľ à¥ľ
Ġà¤Ĩà¤ª à¤¤à¤ķ
à¤°à¤¹ à¤Ł
à¤¤à¤¨ à¤ķà¤°
à¥Ī. "
à¤°à¤¸ à¤¹
à¤¸à¤® à¤²à¤µ
à¤¨à¤¤ à¤¯
à¤ŀ à¤¦
à¤ŀ à¤µà¤²
à¤¶à¤¨ à¤ľà¤¬à¤¤à¤ķ
Ġà¤Ł à¤¹à¤²à¤¤
Ġà¤Ī à¤¯à¤°
à¤Łà¤° à¤ªà¤¨
Ġà¤®à¤¹ à¤¨
Ġà¤ĵ à¤ı
Ġà¤ĵ à¤µà¤°à¤ķ
00 5
à¥ĩ) .
Ġà¤ĩà¤¨ à¤µ
à¥Ĥà¤Ĥ :
à¤¾) :
Ġà¤Ĩà¤¦ à¤¤à¤¨
à¥Ĥà¤ģ à¤ĥ
Ġs v
à¤¤à¤ķ à¤£
à¤¤à¤ķ à¤¬à¤°
à¤®à¤² à¤¦
à¤®à¤° à¤ľ
à¤ħà¤¨ à¤µà¤°à¤¤
Ġà¤ķà¤² à¤ª
Ġ3 10
Ġ3 45
à¥¦ à¥¨
à¤¡à¤° à¤ª
à¥ĩà¤Ĥà¥¤ âĢĻ
à¤¬à¤¨ à¤°
à¤ıà¤¸ à¤ıà¤®à¤Ł
an j
an is
Ġà¤Ķ à¤Ł
à¤Ĩà¤° à¤¡à¤¬
à¤Ĩà¤Ī à¤Ĩà¤Īà¤ª
à¤Ĩà¤Ī à¤Ĩà¤°à¤¸
à¤Ĩà¤Ī à¤Ĩà¤Īà¤ıà¤®
à¤µà¤ķ à¤ķ
à¤µà¤ķ à¤¯à¤¨
à¤¦à¤® à¤ķà¤¤
Ġt em
à¤¬à¤¦ à¤¤à¤®
à¤¯à¤µ à¤µà¤¸
à¤¶à¤¤ à¤ªà¤¤
Ġ5 30
al aya
Ġà¤¤à¤¤ à¤ĭ
Ġà¤Ĩà¤Ī à¤Ĩà¤°à¤¸
à¤ļà¤² à¤ª
la thr
... ]
Ġà¤Ĩà¤® à¤°à¤£
à¤ľà¤¹ à¤¦
Ġ6 05
ht rapati
à¤¹à¤°à¤£ à¤¤
à¤ķà¤® à¤¯
à¤ıà¤² à¤µ
Ġà¤ıà¤¸ à¤ıà¤¸à¤¬
Ġ18 15
ar net
à¤°à¤¥à¤® à¤¦
at m
à¤Łà¤® à¤®
à¤ıà¤¨ à¤ıà¤®à¤¸
Ġà¤ıà¤¨ à¤ı
Ġà¤ıà¤¨ à¤ıà¤¸à¤ıà¤¸
option s
st art
rans port
Ġc al
à¤ľà¤Ĺ à¤ľ
re ak
om a
Ġ12 30
Ġdo c
à¤ħà¤µ à¤¬
à¤¨à¤¹ à¤Ł
12 7
12 57
à¤¶à¤¬ à¤²à¤ķ
of ile
of user
ĠP HP
ĠT h
ĠT ra
ĠT CP
ĠM arcus
Ġp ack
10 4
10 7
ĠF our
ĠF AQ
Ġ16 45
Ġf ield
ĠD evelop
ĠN ot
18 50
Ġ17 30
15 3
Ġg et
Ġg si
ĠE mpathy
:% .
Ġà¤ıà¤ļ à¤ıà¤«à¤¸
à¤ľà¤ª à¤¤à¤°
Ġà¤īà¤§ à¤®
à¤¸à¤« à¤²à¤ķ
ur b
23 5
23 01
à¥Ī: \"
Ġ23 2
Ġ23 7
ĠâĢ¦ !
Ġ21 00
à¤²à¤¹ à¤ľ
à¤Ĩà¤īà¤Ł à¤Ĺ
ad d
02 16
ĠV PN
Ġà¤ħà¤Ł à¤ķà¤¨
Ġà¥ª à¥ª
Ġcom mand
ĠX XX
Ġre quest
ov ers
Ġcon f
ap h
os mol
hat s
Ġà¤ıà¤¯à¤° à¤Ł
à¤ıà¤®à¤ıà¤¸ à¤Ī
Ġà¤µà¤² à¤¯à¤¨
Ġà¥Ń à¥ª
Ġà¤²à¤ª à¤ķà¤¤
Ġme ans
Ġà¥® à¥§
ON E
à¤Ĩà¤ĩ à¤ıà¤¸à¤ĵ
36 4
36 8
ĠName OfThe
Ġ186 4
Ġan n
Ġà¥§à¥¬ à¥¦à¥¦
à¤īà¤Ĺ à¤²à¤¨
à¥§à¥¯ à¥¦à¥¦
lib burn
Ġà¥¨à¥« à¥¦à¥¦
à¥§à¥¯à¥Ń à¥¦
Ġà¤°à¤£ à¤Ń
à¤¤à¤Ł à¤°à¤ķ
Ġle ft
St ate
Ġà¤ľà¤¸ à¤µà¤¨
à¤Ĩà¤Īà¤Ĩà¤° à¤ıà¤®
Ġitem s
Ġà¥§à¥¯à¥© à¥¦
à¥ĩâĢĿ ?
à¤¨à¤Ń à¤¶
Ġà¤²à¤ªà¤ķ à¤ķà¤°
ĠUn ited
pl os
à¤¬à¤¦à¤¨ à¤¸
à¥§à¥¯à¥¬ à¥®
Ġsp ec
ĠMac h
Ġen g
Long DayName
ven tion
ĠSp eech
Ġrec urrpage
à¤¯à¤ªà¤° à¤Ł
ark ar
ĠST UN
ĠDN A
à¥Ī.... à¥¤
Ġfil ter
Ġgradi ent
def in
bel ize
Ġà¤²à¤Ļ à¤ķ
Ġiv a
Ġyear s
Ġserv er
** *
aniz er
ĠInter national
osi tion
Ġwork perm
ĠStand ards
luor oc
ĠUk rainian
Ġbel ow
Res p
ĠWay land
pre view
lathr ate
osmol ine
ĠNameOfThe User
Ġworkperm its
' ;
) %.
4 50
6 14
8 000
> '
? ,
B l
B utton
B rasero
C lean
E n
E nt
F eb
M C
O ffice
P l
Q u
S h
S MS
S plit
S urvey
T C
T e
W orld
\ ï¿½
a aoM
b all
c limate
g es
g lac
i um
k it
l ub
l zip
o le
p icture
r s
r is
r ess
s k
s erv
u ction
w ind
Â ½
Ä ¹
Ġ el
Ġ older
ŀ Ãī
à¤¾ >
à¤° à¤ľà¤°
à¤¨ à¤°à¤¹
à¤¨ à¤®à¤¤
à¤¨ star
à¥Ģ à¥ĭ
à¤¤ à¤¸à¤¨
à¤¤ à¤¤à¤ķ
à¤ķ à¤ľà¤¨
à¤ķ à¤²à¤¯
à¤ķ à¤¬à¤¨
à¥ĭ ",
à¤¯ à¤Ĩ
à¤¯ à¤ł
à¤¯ à¤¯à¤®
à¤¸ à¤Ĩà¤¦
à¤® à¤ľà¤¹
Ġà¤¸ à¤¯à¤¤
à¤¹ à¤Łà¤¨
à¤² à¤ĸà¤¨
à¤² à¤ªà¤¥
à¥ģ !
à¥ģ à¥Ģ
à¤µ à¤ĺ
à¤µ à¤Ľà¤¨
Ġà¤® à¤¸à¤µ
à¤ª à¤Ĺà¤¡
Ġà¤µ à¤·
Ġà¤µ à¤²à¤¨
Ġà¤µ à¤¯à¤¨
Ġà¤µ à¤¡à¤²
à¤ľ à¤°à¤¸
à¤ľ à¤¯à¤¸
à¤¼ âĢĻ
Ġà¤¬ à¤²à¤¬
à¥Ĥ ),
à¥Ĥ à¥°
Ġà¤¤ à¤Ī
Ġà¤¤ à¤ªà¤¨
Ġà¤¤ à¤ªà¤¤
à¥¤ ,
Ġà¤¦ à¤¤à¤°
à¤¶ à¤·
à¤¶ à¤Łà¤°
à¤¬ à¤ľà¤¨
à¤Ł à¤ıà¤Ĺ
à¤ı à¤ĭ
Ġà¤° à¤Łà¤¨
à¤§ à¤¤à¤®
à¤§ à¤«à¤²à¤ķ
à¤¡ à¤²à¤¨
à¤¥ à¤ļ
Ġà¤Ĩ à¤ľà¤¨
à¤ĸ à¤¹
à¤ĸ à¤°à¤ªà¤¤à¤µ
Ġà¤Ĺ à¤®à¤²
à¤Ń à¤¬
Ġ( >
Ġ( {
à¤Ī à¤¢
Ġà¤īà¤¨ à¤¤
à¤ĩ à¤µà¤²
Ġà¤ıà¤ķ à¤¹
Ġà¤ıà¤ķ à¤²à¤µ
Ġà¤¸à¤® à¤°à¤¸
Ġà¤¸à¤® à¤³
à¤ħ à¤Łà¤°
à¤ħ à¤°à¤¸à¤¨
à¤ħ à¤Łà¤µ
Ġà¤« à¤¯
Ġà¤« à¤Łà¤¤
à¤ł à¤ł
à¤ī à¤°à¤ķ
à¤ī à¤ĸà¤¡
à¤ĵ à¤ªà¤°
à¤ĵ à¤Ŀ
à¤°à¤£ à¤¶
à¤°à¤£ à¤ļ
à¤¯à¤ķ à¤ķà¤¤
à¤¿à¤Ĥ à¤Ĥ
à¤ĥ "
à¥Īà¤Ĥà¥¤ .
à¤Ŀ à¤ķà¤¤
à¤¾à¤ģ ...
Ġà¤§ à¤µà¤²
à¤¢ à¤¬
à¥ĩà¥¤ âĢĻ
Ġà¤Ľ à¤²à¤ª
Ġà¤Ľ à¤°à¤¹à¤°
à¤¹à¤° à¤µ
Ġà¤ĺ à¤Ĺ
à¤¯à¤® à¤¬à¤¦
à¤¸à¤® à¤¯à¤ª
à¤®à¤¨ à¤¦à¤¨
Ġà¤ħà¤µ à¤¬
à¤°à¤¯ à¤¸
Ġà¤ĵ à¤ıà¤¨à¤ľ
à¤¦à¤° à¤¨
à¤µà¤¸ à¤ĭ
Ġà¤¸à¤° à¤µà¤°
Ġà¤¸à¤°à¤ķ à¤¤
à¤Łà¤¨ à¤¯
à¤Łà¤¨ à¤Ń
Ġà¤¹à¤° à¤ļ
.. )
à¤°à¤¶ à¤®à¤¨
Ġà¤ħà¤ª à¤°à¤ķ
Ġà¤ł à¤¦
Ġà¥ ļ
à¤ħà¤¨ à¤ªà¤¢
à¤ľà¤¬ à¤¡
à¤°à¤¨ à¤°
Ġà¤ħà¤¬ à¤¸
à¤ķà¤¨ à¤«
Ġà¤ħà¤Ĺà¤° à¤¬à¤¤
à¥Īà¤Ĥ. %
à¥Īà¤Ĥ. ?
ti fic
à¤¨à¤µ à¤¦
à¤ıà¤¸ à¤ıà¤ª
an ic
à¤Ĭ à¤¥
à¤ħà¤² à¤Ļ
à¤ħà¤² à¤Ĺà¤°à¤ľ
Ġà¤¬à¤° à¤ľ
Ġà¤ħà¤ľ à¤¸
ame ter
à¤Ĩà¤Ī à¤¨
à¤¼à¥Į à¤Ĥ
Ġà¤īà¤² à¤ĭ
Ġà¤īà¤² à¤Łà¤¤
âĢĻ -
Ġà¤Ĳ à¤²à¤¨
Ġà¤ĭ à¤ªà¤¯
Ġà¤Ĩà¤Ī à¤°
Ġd ialog
Ġd ensity
19 16
19 13
it r
or er
Ġk e
Ġ6 40
Ġà¤¸à¤² à¤¹à¤ķ
en u
à¤°à¤² à¤µ
à¤Ķ à¤ķ
à¥Ĥà¤Ĥà¥¤ âĢĻ
à¤īà¤¤ à¤ª
Ġà¤ıà¤¨ à¤¹
Ġà¤ķà¤¨ à¤«
à¤ªà¤¦ à¤ļ
Ġ15 9
Ġ15 65
ĠC C
ĠC reat
ĠC MYK
Ġ9 50
Ġà¥¨ à¥¨à¥¦
ĠA M
ĠA i
ob e
ob er
Ġ12 26
// .
à¤īà¤ª à¤¸à¤°
ĠP art
ĠP erson
ĠP lace
ĠT R
her s
11 01
Ġb ind
Ġb ox
et er
et ect
Ġ16 50
di al
'' ;
ĠB ugzilla
ra dia
Ġm s
Ġm igr
ĠD ate
Ġà¤Ńà¤Ĺà¤µ à¤¦à¤Ĺ
Ġ13 30
ĠR SS
Â¥ÂĢ .
à¥ľ à¤ļ
Ġe missions
ĠG SM
à¤ıà¤ļ à¤¬
à¥Ī! -
ĠO R
ed efin
iv à¤ķ
Ġu sing
ri st
Ġà¥© à¥§à¥¦à¥¦
ME NT
ĠZ à¤¤à¤¥
à¥Ī: à¥¤
22 2
ĠW P
us es
Ġà¤ħà¤ķà¤¬à¤° à¤¨
07 14
oc ol
Ġà¥« à¥¯
05 16
Ġi e
Ġi m
Ġ35 1
Ġ35 00
à¤į à¤°
Ġà¥¬ à¥©
27 8
04 13
ov a
ind ex
th day
85 5
de vel
ap er
ap ify
ct ober
Ġst ates
ast hma
à¥ŀ à¤°
à¤ħà¤¹ à¤®à¤ķ
ext reme
han y
Ġà¤ľà¤¨à¤ķ à¤²
Ġ(& )
à¤¤à¤¦à¤¨ à¤¨
Ġà¤Ĩà¤ĩ à¤ıà¤¸
Ġà¤į à¤¡
con text
hel f
ip hany
Ġà¥§à¥¯à¥® à¥¬
Ġ39 4
Ġ09 00
ĠQ Shortcut
istan ce
à¤ıà¤¨à¤Ĩà¤° à¤ĵ
St ream
Ġà¥©à¥¦ à¥¨
à¥§à¥¯à¥® à¥¨
per ature
Ġà¥§à¥¯à¥Ń à¥§
ĠSt atus
)] ,
Ġà¥Ľ à¤°
com p
Ġsec ant
ro ad
Ġtime Feb
gui label
Ġq aa
Ġnet work
Ġà¥§à¥¯à¥© à¥§
Ġâĺ»âĺ»âĺ»âĺ» âĺ»
TY PE
mac s
Ġhe apify
Ġsome thing
Un iversity
ĠWeb Kit
Ġrec urr
Ġà¥§à¥¯à¥¦ à¥Ń
ĠApp lication
Ġma M
Ġà¤ħà¤¸à¤¹à¤¨ à¤¶
ivers ary
ING TON
Ġac id
à¤¶à¤ªà¤¥ à¤ªà¤¤
SH ORT
à¤įà¤¸ à¤Ĩà¤°
ÃīÅ ĩ
Insert Insert
App ly
COM P
Ġgram m
Ġdi oxide
à§ į
unt ary
ĠPRO DUCT
Ġà¤Ŀà¤¨ à¤Ŀà¤¨
Tw enty
Ġcub ic
ĠREM INGTON
bir thday
Ġcentime ter
ĠFour th
Ġann iversary
ĠMach ine
Ent ry
\ï¿½ \
à¤®à¤ľà¤¹ à¤¬
à¤Łà¤ıà¤Ĺ à¤¸
radia tive
Ġmigr ator
" /
7 13
8 66
: --
A l
A ir
A UT
A ll
B R
C an
C OP
C har
C hange
D ele
G eorge
H T
I tem
K y
L à¤¶
L anguage
N M
N etworkManager
O ther
P op
P ST
S IN
U GIN
W E
Z à¤«
a ign
d el
g b
j k
k cm
k ish
o se
p se
s q
t l
t able
u a
u ment
v ar
x v
â ģ
ĸ ł
à¤° à¤¨à¤ķ
à¤° à¤¶à¤ķ
Ġà¤ķ à¤ı
à¤Ĥ %
à¤¨ à¤£
à¤¨ africa
à¥Ģ (
à¤ķ à¤¹à¤²
à¤¯ à¤ĩ
Ġà¤¹ à¤µà¤²à¤¦
Ġà¤¸ à¤ħà¤°
à¤¹ à¤¬à¤°
à¤¹ à¤łà¤¯
à¤² à¤°à¤¶
à¥ģ ),
à¥Ī ''
à¤µ à¤ķà¤²
à¤µ à¤Ĺà¤¨
à¤¦ à¤¥
à¤¦ à¤¯à¤¨
à¤¦ à¤¹à¤²
à¤ª à¤¸à¤²
à¤ª à¤²à¤¸
à¤Ĺ à¤«à¤¨
Ġà¤ľ à¥ľ
Ġà¤ħ à¤°à¤¦
Ġà¤µ à¤ĸ
à¤ľ à¤¹à¤²
à¤¼ à¥Ĭ
Ġà¤¬ à¤¬à¤²
Ġà¤ī à¤®à¤¸
à¤¶ à¤ªà¤°à¤¸
à¤¬ à¤²à¤ķ
Ġà¤² à¤¥
à¤Ł GenericName
à¤ı à¤²à¤¨
à¤ı à¤Ĩà¤Īà¤¸
à¤§ à¤ķà¤²
à¤§ à¤ĭ
à¤· à¤ĵ
à¤· à¤¯à¤¤
à¤· à¤ľà¤Ĺ
Ġà¤ķà¤° à¤ķà¤Ł
à¤£ à¤µà¤µ
à¤£ à¤Ńà¤Ł
à¤ĸ à¤ĸà¤ķ
Ġà¤Ĺ à¤°à¤¬
Ġà¤Ĺ à¤ľà¤°
à¤Ń à¤µà¤¸
à¤Ń à¤¯à¤Ń
Ġ( #
Ġ( âĢľ%
Ġà¤ĩ à¤®à¤¸
Ġà¤ı à¤²à¤®
Ġà¤ļ à¤®à¤¨
Ġà¤ļ à¤®à¤Ĺ
à¤Ī à¤ł
à¤« à¤¨à¤®
à¤ªà¤¨ à¤ķ
à¤ĩ à¤°à¤®
à¤ĩ à¤¬à¤¨
à¤ĩ à¤°à¤«
à¤Ľ à¤²à¤ķ
à¤Ľ à¤Ĭ
à¤ķà¤° à¤¬
à¤ķà¤° à¤¬à¤°
à¤ķà¤° à¤¬à¤²
à¤°à¤ķ à¤¯
à¤Ĩ à¤¸à¤ķ
à¤Ĩ à¤°à¤¯
Ġà¤ħà¤§ à¤¸
à¤ī à¥ľ
à¤¯à¤ķ à¤¨
à¤¯à¤ķ à¤¸
Ġà¤īà¤ª à¤ļà¤¯
Ġà¤§ à¤ĭ
Ġà¤ħà¤² à¤ķà¤¨
à¤¸à¤° à¤²à¤¤
à¤¯à¤¤ à¤µà¤¸
à¤¯à¤® à¤¨à¤¸
à¥Ī. ,
à¤¨à¤¤ à¤¹
à¤µà¤¨ à¤ļà¤ķ
Ġ2 19
Ġà¤Ł à¤ªà¤ķà¤¨
à¤®à¤¤ à¤¯
Ġà¤¸à¤¬ à¤®à¤°
à¤¸à¤¨ à¤°
Ġà¤Ī à¤ĸ
à¤¯à¤¨ à¤¸
Ġà¤ĵ à¤²à¤¤
à¥ĭ, ?
à¥Ģ) '
Ġà¤¹à¤° à¤¨
Ġà¤ªà¤¡ à¤ĭ
à¤¯à¤° à¤°
à¤¯à¤° Name
Ġà¤ħà¤¸ à¤¤à¤¤
01 2
Ġ' "
Ġà¤¸à¤¦ à¤µ
on on
à¤¾- --
Ġà¤ħà¤ķ à¤¥à¤¨
Ġà¤¬à¤¸ à¤µà¤¨
à¤Łà¤ķ à¤¶
Ġ3 01
Ġ3 35
Ġn ao
Ġn ah
Ġà¤ªà¤¦ à¤¤
Ġà¤ĳ à¤®
à¤·à¤¯ à¤µ
à¤¬à¤² à¤Ńà¤¦
à¤ħà¤² à¤¹
er ber
à¤µà¤ķ à¤ª
Ġt her
Ġt qaa
pr edefin
Ġà¤ªà¤¢ à¤ķà¤°
Ġà¤Ĳ à¤¬à¤ķ
à¤ĭ à¤°à¤¤
al s
Ġà¤ĭ à¤¤à¤¨
Ġà¤ĭ à¤¨à¤ĭ
Ġd ig
Ġd ef
Ġa ir
19 0
19 00
19 24
19 29
... à¥¤
it o
Ġà¤¬à¤ľ à¤ķà¤°
à¤ıà¤® Comment
à¤ħà¤ª à¤łà¤¨
à¤łà¤² à¤Ń
à¤ıà¤² à¤°
à¤ıà¤² à¤ıà¤²
en n
à¤¸à¤Ń à¤ķ
Ġà¤¶à¤¤ à¤ª
à¤°à¤Ĺ à¤¡
Ġ18 18
Ġ18 29
Ġ18 37
à¥ĩ? )
à¤§à¤ķ Comment
à¤¿- -
à¤ıà¤¨ à¤¹
à¤ıà¤« à¤Ĩà¤°
Ġà¤¹à¤ľ à¤®
Ġ15 7
ĠC ode
ĠC lub
Ġ20 5
om in
Ġà¤ıà¤® à¤µ
Ġà¤ıà¤® à¤Ĩà¤Ī
Ġ11 30
Â¤Â¨ :
12 4
12 54
12 53
ol ence
Ġà¤ıà¤² à¤ıà¤²à¤ª
is ion
ĠP ro
ĠP BS
et ter
Ġà¤ļà¤¢ à¤¨
Ġf uel
Ġf unction
Ġ14 6
à¤ªà¤ļ à¤¹à¤¤
Ġà¤¤à¤Ł à¤¬
ĠN ONE
Ġ17 7
Ġw icket
Ġà¤®à¤² à¤¦
Ġà¤®à¤² à¤¹à¤®
ĠL ine
ĠL ime
ĠG L
ĠG Conf
Ġh I
ĠH ouse
15 9
15 00
à¤īà¤ľ à¤°à¤¤
Ġg z
id d
id es
à¤°à¤ķà¤° à¤¨
25 4
hi rd
Ġ28 2
ĠZ à¤®
Ġ23 5
ĠâĢ¦ ?
22 8
24 6
Ġà¤ļà¤Ł à¤ªà¤Ł
\\ \\
ag s
Ġà¥« à¥«
ist ory
05 13
Ġà¤¬à¤® à¤µà¤°
à¥Ĥ. )
Ġfor cing
Ġr ow
am b
Ġ29 2
Ġ29 3
27 3
85 2
à¤Ĺà¤ª à¤Łà¤²
Ġà¤ĩà¤ĸ à¤µ
Ġà¥¦ à¥Ń
à¤ªà¤¢ à¤¨
un akar
Ġà¥§à¥« à¥¬à¥¨
Ġà¥§à¥« à¥Ńà¥¨
yp t
Ġà¥§à¥® à¥¦
à¥§à¥® à¥§à¥Ń
ree k
Â¤Âģ :
Ġà¥¨à¥¦ à¥§à¥§
Ġ500 00
sp in
RO OT
âĢĻâĢĻ ,
Ġ34 2
Ġà¤Ľà¤² à¤ķà¤¨
à¥§à¥« à¥¦à¥¦
Ġà¤Ĩà¤¹à¤°à¤£ à¤ķ
Ġà¥§à¥¨ à¥«
IC S
à¥¨à¥¦ à¥§à¥¦
SA SL
à¤¡à¤ĭ à¤¨
Short DayName
amp aign
Ġra jesh
Ġà¥§à¥¯à¥Ń à¥©
à¤ıà¤¯à¤° à¤ª
ĠIn formation
à¥Ģ... à¥¤
com pris
Ġà¥¯à¥ ¨
word s
Ġdist ribution
à¤Īà¤ı à¤ļà¤¯
Ġâ Ļ«
Imp ort
à¤īà¤¬ à¤ķà¤¨
à¤ıà¤¸à¤Ĩà¤° à¤ıà¤«
oper ties
KS pread
ĠPr ogram
Ġhe ad
Ġ144 0
ĠCom m
ĠAN D
Ġà¤īà¤ªà¤² à¤ĩ
à¤Ŀà¤Ł à¤ķà¤¨
Ġ(- )
ĠCh ild
Ġà¤Ĺà¤¹ à¤¨à¤¤à¤®
Ar ticle
ĠEnvironment al
wat er
oph y
acc ount
secon ds
Ġatt ach
Dialog Button
kar unakar
ĠÅĳ Ä¹
Mail dir
EXTENSION NAME
Ġaf ter
Ġà¤²à¤ĸà¤¨ à¤µ
à¤£à¤ªà¤Ł à¤¹
Ġnick name
ĠProt ection
ctr on
Ġhypothes es
DT MF
Preview Dialog
Ġà¤ļà¤®à¤ļ à¤®
Ġchoo se
SUB ST
Print PreviewDialog
mk isofs
ĠDevelop ment
Ġà¤įà¤¡ à¤ĳà¤¨
Ky oto
Ġà¤²à¤¥ à¤ªà¤¥
erber os
predefin ito
ĠLime Survey
DialogButton Box
- âĢĺ
/ )
3 01
8 22
B A
C ERT
F O
F r
F rance
G o
G SR
G lobal
H K
M in
P ar
S hift
T V
T IS
T CP
U p
U se
X Y
] :
b a
c er
c ost
d isplay
f l
f p
f il
h al
h am
i S
i tical
l ing
p ack
s qu
t end
u ce
u de
u lation
Å ĩ
Ì ģ
Ġ ran
à¥ Ĵ
à¤° à¤ŀ
à¤° à¤ĭà¤¤
Ġà¤ķ à¤²à¤¬
à¤Ĥ âĢĻ
à¤¨ à¤µà¤²
à¤¨ à¤Ńà¤°
à¤¨ à¤ľà¤¤
à¤¨ à¤Ńà¤¦
à¤¤ à¤·
à¤¤ à¤¯à¤°
à¤¤ à¤®à¤²
à¤¤ à¤¬à¤¤
à¤¤ Name
à¤¤ à¤Ĺà¤£
à¤ķ à¤·à¤£
à¤ķ à¤µà¤²
à¤ķ à¤ľà¤¨à¤¨
à¥ĭ à¤¾
à¥ĭ à¥Ģ
à¥ĭ âĢį
à¤¸ à¤¹à¤¤
à¤¸ GenericName
à¤¸ Region
Ġà¤¹ à¥Ľ
à¤® à¤°à¤¹
à¤® à¤¡à¤¨
à¤® à¤°à¤¹à¤®
Ġà¤¸ à¤¯à¤®
Ġà¤¸ à¤§à¤¨
Ġà¤¸ à¤¶à¤¤
à¤² à¤ĩ
à¤² à¤¹à¤®
à¤² à¤ªà¤ķ
à¥ģ %
à¥ģ ?
à¥ģ )à¥¤
Ġà¤ª à¤ļà¤¤
à¤µ Name
à¤µ à¥ľ
Ġà¤® à¤Łà¤¨
à¤¦ à¤²à¤®
à¤Ĺ à¤Ĺà¤®
à¤Ĺ à¤³
à¤Ĺ china
Ġà¤µ à¤ª
Ġà¤¨ à¤¸à¤¬
Ġà¤¨ à¤Łà¤µà¤°
à¤ľ à¤ķà¤µ
à¤¼ à¥ħà¤¾
Ġà¤¦ à¤¸à¤¤
Ġà¤ī à¤Ł
Ġà¤² à¤µà¤ķ
à¤Ł à¤ļà¤ª
Ġà¤° à¤ľà¤¬
Ġà¤° à¤¶à¤¦
à¤§ à¤ªà¤°
à¤§ à¤µà¤¦
Ġà¤ķà¤° à¤ľ
à¤ļ à¤¹à¤²
à¤¡ à¤¥
à¤¡ à¤°à¤¬
Ġà¤Ĩ à¤¢
Ġà¤Ĩ à¤®à¤²à¤ķ
à¤£ à¤¹à¤°
Ġà¤¯ à¤¬
à¤Ń à¤²à¤Ĺà¤¢
Ġà¤ĩ à¤¨à¤¤
Ġà¤ı à¤ı
Ġà¤ı à¤ıà¤¸à¤ª
à¤Ī à¤ļà¤¨
à¤Ī à¤§à¤¨
à¤Ī à¤ıà¤²
à¤Ī City
Ġà¤īà¤¨ à¤¨
à¤« weather
Ġà¤īà¤¸ à¤¤à¤ķ
à¤ĩ à¤°à¤²
à¤ĩ à¤«à¤°à¤®
à¤ĩ à¤ķà¤¤à¤°à¤«
Ġà¤ıà¤ķ à¤°à¤¸
Ġà¤ıà¤ķ à¤µà¤ļà¤¨
à¤¾à¤Ĥ âĢĻ
à¤ģ ),
à¤Ľ à¤®à¤£
à¥Į à¤¼
à¤ħ à¤¤à¤°
à¤ħ à¤¯à¤¨
à¤ħ à¤¸à¤µ
à¤ħ à¤µà¤¨à¤¦
Ġà¤°à¤¹ à¤®à¤¦
à¤Ĩ à¤ķà¤¡
à¤Ĩ à¤«à¤²
à¤Ĩ à¤ĩà¤Ł
à¤Ĩ à¤¬à¤ķ
à¤ķà¤¤ à¤²
Ġà¤ħà¤§ à¤ĸ
à¤ī à¤¶
à¤ĵ à¤¬à¤°
à¤ªà¤° à¤®à¤ª
à¥Īà¤Ĥà¥¤ )
à¥Īà¤Ĥà¥¤ --
Ġà¤§ à¤°à¤®
à¤¼à¥ģ à¤Ĥ
à¤¹à¤° à¤Ĺà¤¢
à¤Ĺà¤° à¤ĸ
Ġà¤ĺ à¤°à¤¤
à¤²à¤¨ à¤Ĺà¤¤
à¤°à¤¸ à¤µà¤ķ
à¤¸à¤® à¤¯à¤¸
à¤µà¤¨ à¤¨
Â¤Â Ĳ
Ġ2 11
Ġ2 18
Ġà¤īà¤¤ à¤ª
à¤ĺ à¤¶
à¤ĺ à¤¬à¤¡
Ġà¤¸à¤¬ à¤ľ
Ġà¤¸à¤¬ à¤Ł
à¤·à¤£ à¤¸
à¤·à¤£ à¤¶
Ġà¤ĵ à¤¶à¤¨
à¤¦à¤° à¤Ń
00 2
à¤ķà¤² à¤¸
Ġà¤ĩà¤¨ à¤°
à¤¾. :
à¤¾. ....
à¤ķà¤°à¤£ à¤¶
à¤¹à¤® à¤¦à¤°
Ġà¤¸à¤° à¤ĸ
Ġà¤¸à¤° à¤Ĺà¤®
à¤ıà¤ķ à¤ª
Ġà¤¤à¤° à¤¬
Ġs sh
Ġs ama
Ġs election
Ġà¤ħà¤¸ à¤¹à¤ľ
Ġà¤Ĩà¤¤ à¤®
Ġà¤ł à¤¹
à¤¾- '
à¤°à¤¨ à¤ļà¤¨
à¤¤à¤® à¤¦
à¤¼à¥ĭ .
ti nc
Ġ3 25
Ġ3 26
Ġ3 31
à¤¨à¤® à¤Ĺ
à¤¨à¤µ à¤ķ
à¤²à¤ķ à¤Ł
Ġn m
Ġn ab
Ġn ak
à¤¯à¤µà¤¸ à¤¥
Ġà¤ľà¤² à¤¶
Ġà¤Ĩà¤¨ à¤°
Ġà¤ĳ à¤²à¤¸
à¤ıà¤¸ à¤Ĩà¤°à¤Ĩà¤Ī
Ġà¤µà¤¸ à¤¤
Ġà¤ħà¤ľ à¤¹à¤°
à¤ķà¤¸ à¤¤
Ġà¤°à¤ķ à¤ĭ
Ġà¤ħà¤µà¤¸à¤° à¤µ
Ġà¤Ĳ à¤¨à¤ķ
à¤ĭ à¤µ
à¤¸à¤¤ à¤ª
Ġà¤ĭ à¤²
Ġà¤ĭ à¤ľ
Ġà¤®à¤¤ à¤Ĺà¤£à¤¨
Ġà¤Ĩà¤Ī à¤ıà¤«à¤ıà¤¸
Ġd isp
Ġd efin
19 18
la v
à¤¬à¤¤ à¤²
à¤¬à¤¹ à¤®à¤¨
à¤ªà¤Ł à¤µ
Ġk bit
Ġ6 30
Ġà¤ĭà¤£ à¤Ĺ
à¤£à¤¯ à¤ķà¤°
à¤ħà¤° à¤¹à¤°
à¤ıà¤² à¤Ĩà¤Īà¤¸
en e
Ġà¤ıà¤¸ à¤ıà¤®à¤Ł
ot a
Ġà¤§à¤¨ à¤¬
Ġ18 3
Ġ18 10
Ġ18 34
Ġ8 50
Ġ8 859
Ġà¤ķà¤Ł à¤¤
à¤¸à¤¬ à¤«
Ġà¤¹à¤² à¤«
à¤ıà¤¨ à¤Ī
à¤¯à¤¯à¤¨ à¤°à¤¤
à¤Ĺà¤¡ à¤¨
ĠS S
ĠS o
Ġà¤ħà¤« à¤ľà¤²
à¤ıà¤« à¤ıà¤«
Ġc dr
ĠC an
ĠC ricket
à¤ħà¤¸ à¤¹à¤¯
om ic
ĠA merica
Ġà¤ıà¤® à¤ı
Ġà¤ıà¤® à¤Ĩà¤Īà¤ıà¤¸
à¤īà¤ª à¤ķà¤°
à¤ħà¤µ à¤ļà¤¨
à¤Ĺà¤£ à¤°
à¤Ĺà¤£ à¤ªà¤¤à¤°
Ġà¤īà¤ªà¤¨ à¤¯à¤¨
12 55
12 58
12 51
12 52
12 56
à¤ªà¤² à¤Łà¤¤
à¤¦à¤² weather
ĠT X
ĠT EXT
à¤¸à¤®à¤¯ à¤¬à¤¦
Ġp ort
Ġb ad
Ġb urn
Ġ25 7
10 6
Ġ16 5
Ġf oc
Ġf ont
Ġm ouse
Ġm cxindia
ĠD B
ĠD ist
ĠD UE
ĠR T
ĠN ations
18 90
Ġ17 3
Ġ17 50
à¤¯à¤£ à¤°
ĠG PL
Ġà¤īà¤Ĺ à¤²à¤¤
à¤¬à¤ļ à¤ķà¤°
ĠE kiga
à¤ªà¤¥ à¤Ń
Ġà¤¹à¤¡ à¤ª
14 5
à¤ħà¤Ĺ à¤°à¤¤à¤²
à¤®à¤ª à¤°à¤ķ
25 7
Ġ(% ):
ur muk
à¤ħà¤¦ à¤°à¤ķ
23 4
Ġ27 7
à¤Ĺà¤ł à¤¬
ĠW est
09 13
as y
AP P
ĠY ahoo
05 14
IN V
AR CH
28 80
Ġà¤«à¤Ł à¤ķà¤¤
26 4
27 6
03 14
Ġre cent
à¥Ľ à¤¨
Ġcon flict
ter n
li g
Ġà¤¨à¤°à¤® à¤¦
Ġà¥¦ à¥¬
Ġ75 00
ER N
à¥§à¥® à¥¯à¥®
à¥§à¥® à¥«à¥Ń
Ġ185 2
ir es
à¤ĸà¤Ł à¤®à¤²
Ġà¤¸à¤ĭ à¤¦
tic ula
Ġà¤¬à¥Ŀ à¤¨
64 6
av er
Ġï¿½ >
iz ard
Ġà¥§à¥¯à¥® à¥¨
à¥§à¥¯à¥¯à¥ ª
à¤ıà¤¨à¤ı à¤¯
87 7
SE ARCH
tor s
ana I
Ġà¥§à¥¯à¥Ń à¥ª
à¤¥à¤²à¤Ĺ à¤ªà¤¨
Ġà¤ļà¤ª à¤²à¤¤
Ġsec tion
Ġà¥¯à¥ ¬
Ġà¤²à¤ĸ à¤ªà¤¤
Ġâ Ī
GP L
ens ion
Ġà¥§à¥¯à¥© à¥Ń
à¤ħà¤µà¤¸à¤° à¤µ
Ġà¥§à¥¯à¥« à¥¨
à¤ıà¤®à¤ĵ à¤¯
Ġmin imal
ang o
urope an
GL SL
à¤ıà¤ļà¤ı à¤ıà¤²
Ch ines
à¤łà¤Ĺ à¤ªà¤¨
à¥Ī" à¥¤
IG HT
ech n
Key words
à¤ħà¤¹à¤® à¤¦à¤¨à¤Ĺà¤°
IB ase
Ġà¤Ĺà¤Ĺà¤¨ à¤ļ
ĠMP EG
ĠLF TR
Ġ(* )
à¤ıà¤¨à¤ıà¤® à¤ıà¤¨à¤ıà¤ļ
Ph onon
ĠIN BOX
Sc reen
ĠInd ex
ĠNa utilus
ĠSm ith
Ġasympt otes
terror ist
Ġselect ed
fr eed
tinu ation
WOR K
Ġtem perature
hats This
devel op
Ġnah IM
Chines e
- )
C ancel
E SC
E uropean
G ir
G reat
H z
N I
N O
N OT
P HP
P ATH
Q PrintPreviewDialog
R ed
S o
U V
U s
] )
d own
e ting
f ect
f alse
i ra
i enti
j or
m ad
n l
o ting
r ing
t oc
u dio
v as
x vi
} :
Ã ²
Å ½Ãº
à¤ ±
à¤° à¤²à¤¤
à¤° à¤ĭ
à¤¿ à¥¥
Ġà¤ķ à¤ķà¤°
Ġà¤ķ à¤Ļ
Ġà¤ķ à¤¸à¤®à¤¸
à¤Ĥ à¥Ī
à¤¨ à¤¯à¤ª
à¤¨ à¤Ĺà¤¨
à¤¨ à¤«à¤°
à¤¨ Country
à¤¤ à¤Ľ
à¤¤ à¤ħà¤¨
à¤¤ à¤Ĩà¤¤
à¤ķ à¤ļà¤¨
à¤ķ à¤ĳà¤«
à¤ķ à¤«à¤¨
à¤¯ à¤ī
à¤¯ à¤¬à¤¹
à¤¯ à¤«à¤°
à¤¸ à¤ĵ
à¤¸ à¤Łà¤¤
Ġà¤¹ à¤ı
Ġà¤¹ à¤¤à¤ª
à¤® à¤·
à¤® à¤¨à¤¤
à¤® à¤®à¤¨
à¤® à¤łà¤¤
à¤® à¤Ńà¤¦
Ġà¤¸ à¤°à¤µ
Ġà¤¸ à¤Łà¤ķà¤°
Ġà¤¸ à¤Ļà¤ķ
à¤¹ à¥ľ
à¤¹ à¤«à¤Ł
à¤² à¤¯à¤¤
à¤² à¤Ĩà¤īà¤Ł
à¤µ à¤Ĺà¤£
à¤µ à¤Ĺà¤¢
Ġà¤® à¤¨à¤¤
à¤¦ à¤¬à¤°
à¤ª à¤ĵ
à¤ª à¤ļà¤¨
à¤ª à¤ķà¤°à¤£
à¤ª à¤®à¤¯
à¤ª City
à¤ª à¤ķà¤¤à¤°
à¤Ĺ à¤ĩ
à¤Ĺ à¤µà¤²
à¤Ĺ Comment
Ġà¤µ à¤ļ
Ġà¤¨ à¤¨à¤ķ
à¤ľ à¤¯à¤°
à¤ľ à¤²à¤Ĺ
à¤ľ à¤ľà¤ķ
à¤¼ à¤ģ
à¥ĭà¤Ĥ à¥ĭ
à¥Ĥ à¥ĩ
à¥Ĥ à¥Ģ
Ġà¤¤ à¤¸à¤°
Ġà¤¦ à¤¸à¤®à¤²à¤µ
Ġà¤ī à¤ľà¤²
à¤¬ à¤¬à¤²
à¤¬ à¤°à¤¸à¤¤
à¤Ł à¤ıà¤£
à¤ı à¤®à¤ķ
à¤ı à¤°à¤¨
à¤ı à¤ıà¤²
à¤· à¤¨à¤°
Ġà¤ķà¤° à¤ĸ
à¤ļ à¤Ī
à¤¡ à¤Ī
à¤¡ Country
à¤¥ à¤ªà¤¨
à¤¥ à¤Ĺà¤¤
Ġà¤Ĩ à¤²à¤µ
à¤ĸ à¤ªà¤¨
à¤ĸ à¤²à¤¤
à¤ĸ à¤¤à¤®
à¤Ń à¤°à¤¹
Ġà¤ªà¤° Play
Ġà¤ĩ à¤¯à¤°
à¤Ī à¤Ĺà¤°
à¤« à¤¯
à¤« à¤ª
à¤ĩ à¤ĩ
à¤ĩ à¤ķà¤¨
à¤ģ à¥ģ
à¤ħ à¤¶à¤¨
à¤ħ à¤¦à¤°
à¤ħ à¤¬à¤²
à¤ħ à¤¸à¤Ń
à¤ħ à¤ļà¤ķ
Ġà¤« à¤ĸà¤°
à¤ķà¤° à¤Ĺ
Ġà¤¹à¤® à¤¤
à¤Ĩ à¤ıà¤Ĺ
à¤Ĩ à¤Ĺà¤²
Ġà¤ħà¤§ à¤ķà¤ļà¤°
à¤ī à¤¬à¤¨
à¤ĵ à¤¥
à¤ªà¤° à¤Ľ
à¤ªà¤° à¤ĸà¤¨
à¤ªà¤° à¤®à¤¹
à¤°à¤£ à¤µà¤¨
à¥Īà¤Ĥà¥¤ âĢĻ
Ġà¤ħà¤² à¤¹
Ġà¤ħà¤² à¤¬à¤®
Ġà¤Ľ à¤Ľ
à¤¼à¥Ģ '
à¤¯à¤® à¤µ
à¤¸à¤® à¤µà¤°
Ġà¤°à¤ĸ à¤ķ
à¤¨à¤¤ à¤ĸ
Ġà¤¸à¤¹ à¤ľà¤¬
à¤¶à¤¨ Comment
à¤Ĺà¤¤ à¤¯
Ġà¤Ĩà¤¯ à¤¦
Ġà¤Ī à¤¡à¤¨
Ġà¤Ī à¤ıà¤®à¤Ĩà¤Ī
à¤Łà¤° City
à¤Łà¤° à¤¡à¤®
à¤°à¤µ à¤ħà¤²
à¤ķà¤°à¤£ Name
à¤®à¤ķ à¤ķà¤°
à¤µà¤¹ à¤¦
à¤ıà¤ķ à¤ľ
à¤¾) )
Ġà¤Ĩà¤¦ à¤®à¤ķà¤¦
Ġà¤¤à¤° à¥ŀ
Ġà¤¹à¤° à¤«à¤¨à¤®
Ġs q
Ġs aa
Ġs hared
à¤¯à¤° à¤¸à¤°
Ġà¤Ĭ à¤Ĺ
Ġà¤ħà¤ª à¤¸à¤°à¤£
à¤ªà¤ķ à¤ķà¤°
à¤¸à¤² à¤Ł
à¤®à¤² à¤Ĭà¤¨
Ġ' ...
à¤®à¤° à¤²
à¤ľà¤¬ à¤²à¤ª
à¤¤à¤µ à¤¯
à¤°à¤¨ à¤¯à¤¨
Ġà¤ľà¤¨ à¤ªà¤¥
à¤ķà¤¨ à¤¸
Ġà¤ħà¤ķ à¤¶
ti m
à¤¿, -
Ġ3 15
Ġ3 28
à¤¡à¤° à¤ķà¤°
à¤¡à¤° à¤µà¤°
à¤²à¤ķ à¤µ
Ġà¤ªà¤¶ à¤ĭ
à¤µà¤°à¤£ à¤ķà¤°
Ġà¤¬à¤° à¤²
Ġà¤®à¤¦ à¤®
er ke
à¤Ĩà¤° à¤Ĩà¤Īà¤ıà¤¸
à¤ĸà¤¤ à¤¯
à¤·à¤® à¤ľ
à¤µà¤ķ à¤¥
à¤¦à¤® à¤ķà¤²
Ġt otal
pr o
à¤¬à¤¦ à¤¹à¤µ
à¤¬à¤¦ à¤ļà¤²à¤¨
à¤¶à¤¤ à¤ª
à¤¶à¤¤ à¤¬
Ġ4 20
Ġ4 60
à¤µà¤µ à¤¶
Ġà¤§à¤° à¤ªà¤ķà¤¡
à¤Łà¤² à¤¸
al e
Ġà¤Ĩà¤Ī à¤¯
Ġà¤Ĩà¤Ī à¤ıà¤¸
Ġà¤Ĩà¤Ī à¤Īà¤¸
Ġà¤Ĩà¤Ī à¤ıà¤¨à¤ıà¤¸
Ġd iff
19 2
19 15
la w
it ter
Ġ# #
à¤ľà¤² à¤°
or re
à¤¯à¤¸ à¤µ
à¤ıà¤® à¤ĵà¤ıà¤¸
Ġk nown
Ġ6 45
à¤¦à¤¤ à¤Ĺ
à¤¦à¤¤ à¤ĸ
à¤ħà¤° à¤¥
ab el
ab ula
Ġ18 13
Ġ18 23
Ġ18 31
Ġ18 32
Ġ18 49
ar ati
ar si
à¤Łà¤® à¤£
à¤ıà¤¨ à¤ıà¤¸à¤¸
à¤ıà¤¨ à¤Ĩà¤°à¤Ĩà¤Ī
Ġà¤ıà¤¨ à¤ıà¤¸à¤¸
à¥Ī- "
à¥Ī- --
ĠS ing
ĠS ort
à¤ıà¤« à¤Ĩà¤Īà¤Ł
à¤ıà¤« à¤Ĩà¤Īà¤ª
Ġc re
Ġc limate
Ġc lathrate
Ġpr i
Ġpr ov
Ġpr ess
Ġ15 2
ĠC ent
Ġ9 99
re m
à¤ĩà¤¡ à¤¸
Ġà¤ħà¤¸à¤® à¤®
à¤īà¤ª à¤¶à¤®à¤¨
eed back
à¤Ĺà¤£ à¤¤à¤¨
se a
Ġà¤ıà¤² à¤ıà¤¨à¤ľ
à¤ªà¤² à¤Łà¤ķà¤°
Ġà¤µà¤¨ à¤Ń
ĠP urge
ĠM O
Ġp la
Ġp ix
Ġp oss
à¤¶à¤µ à¤ªà¤°
et y
à¥Ģà¤Ĥ) .
Ġ25 2
Ġ25 8
10 8
ĠF rame
ĠF ATCA
Ġ16 58
Ġm ake
Ġm ark
à¤ĺà¤¨ à¤¶
ĠD i
Ġ[ ;
Ġ[ <
Â¤Â® -
ĠU IN
ĠN T
ĠN etwork
18 9
18 33
ĠL TR
Ġe g
ĠG r
ĠG DM
Ġà¤ıà¤« à¤ĵà¤¬
15 4
Ġg if
ĠE rror
ent ation
ĠO I
14 6
16 4
16 8
Ġà¤¹à¤¥ à¤ķà¤¡
ri k
ri al
Ġà¤ľà¤¯ à¤ķà¤°
Ġ26 1
à¤®à¤°à¤£ à¤®
iii à¤Ĺ
ur ing
hi re
ĠZ od
fo o
\\ %
09 6
us ic
à¤¾' à¥¤
oc abula
à¥ĩà¤Ĥ- "
Ġv is
Ġv ide
Ġv erb
Ġv ocabula
Ġà¤Ĺà¤¹à¤¨ à¤¤à¤°
ch oice
à¥Ĩ )
Ġà¤ıà¤¡ à¤ľ
Ġà¥¬ à¥®
27 5
Â¥ÂĪ ,
ind ust
um ps
à¤Ĩà¤°à¤ı à¤Ĩà¤°
Ġà¤²à¤¹à¤° à¤¦
Ġà¥¦ à¥®à¥¦à¥¦
os h
à¤²à¤Ŀ à¤¨
à¤¨à¤ľ à¤Ł
ig ram
à¤ıà¤¸à¤ıà¤¸ à¤Ĩà¤Ī
à¤ıà¤®à¤ıà¤¸ à¤ª
ĠK o
IS H
à¤ĩà¤« à¤¨
Ġà¤¬à¤°à¤¬ à¤¸
Ġà¥§à¥® à¥¦à¥¦
à¤Ĩà¤Īà¤ıà¤¸ à¤Ł
ĠJ IS
ĠJ erse
à¥§à¥® à¥®à¥«
à¤īà¤ªà¤¨ à¤Ĺà¤°
45 67
Ġme t
Ġà¤Ĺà¤ľ à¤²à¤ķ
ON TH
for nia
à¤ħà¤Ł à¤ªà¤Ł
à¤¤à¤ĸ à¤®
EA SE
ore ign
Ġà¤Ĩà¤¸à¤¨ à¤¸
im age
im ited
Ġà¤¬à¥Ŀ à¤ķà¤°
Ġà¤į à¤ķ
con trol
à¤¡à¤ĭ à¤ĵ
Ġà¥§à¥¯à¥® à¥§
Ġà¥§à¥¯à¥® à¥©
ati an
Ġà¤¦à¤¨ à¤¦à¤¨
à¤¨à¤ľà¤° à¤ħ
Ġà¥§à¥Ń à¥«
ear s
menu choice
amp ions
St ore
lo y
à¥§à¥¯à¥® à¥©
SSL S
Ġcont ent
ro atian
ET A
à¤Īà¤ıà¤« à¤Ł
Ġà¥§à¥¯à¥ª à¥«
à¤ĩà¤¥ à¤°à¤¨
Ġà¥§à¥¯à¥© à¥®
Ġsub ques
ign er
à¤¬à¤°à¤¤ à¤¨
ya aoM
IF IC
ĠPr operties
sw it
Ġà¤¨à¤ĭ à¤ķà¤°
Ġcolor ability
Ġà¤¶à¤°à¤¤ à¤ļ
Ġà¤¶à¤°à¤¤ à¤ļà¤¨
sm og
180 30
à¥§à¥¯à¥ª à¥Ń
Ġchan nel
Ġfil es
Sec ure
ral ian
nor th
Ġà¤ľà¤ĭ à¤ĭà¤°à¤¤
yy yy
pm india
Ġà¤¹à¤¶ à¤®à¤¤
IA S
ĠAp nao
Ġtra sh
Ġvol untary
ĠAL IAS
EE K
Ġmat ter
Ġà¤Īà¤Ī à¤ıà¤¸à¤ıà¤²
ĠAust ralian
Ġemp ty
Se lect
REL EASE
ĠOP TION
Ġà¤Ĺà¤²à¤Ĺ à¤£
Ġconn ection
sanch arnet
Ġhypercub e
Te X
ĠTR UE
Ġnab ard
Ġdisp ersion
urmuk hi
Ġvocabula ry
ĠJerse y
" à¥¤
) ).
6 500
9 13
; ,
A CT
A aoM
A uth
A udio
B ar
C B
C I
C V
C SV
D S
D ec
F P
G db
H aas
K a
K h
K UP
L EG
O G
P ad
P ID
R CP
T ransla
T OT
W ER
Z à¤¥
a er
d a
d escription
d ata
f in
h ome
h as
i ly
l ocation
m d
m ary
m oh
n aa
p e
p art
p erson
r r
r t
r ol
s hort
u di
w ar
w ap
w ood
x f
x em
} >%
Ġ à¥Ģ
Ġ à¥ĥ
Ġ right
à¤ Į
à¥ ĳ
à¤° à¤°à¤ľ
à¤° à¤ļà¤ķ
à¤° à¤Ľà¤¨
à¤° à¤°à¤¹à¤®
à¤° CategoryName
à¤° File
à¤Ĥ à¤ĥ%
à¤¨ à¤ľà¤¨
à¥Ģ à¥¥
à¥Ģ âĢĿ,
à¤¤ à¤¶à¤°
à¤ķ à¤ªà¤¤
à¤ķ à¤ķà¤°à¤£
à¤ķ à¤«à¤²
à¥ĭ à¥į
à¥ĭ âĢĿà¥¤
à¤¯ à¤Ī
à¤¸ à¤§à¤¨
à¤¸ à¤¤à¤µ
à¤¸ à¤¶à¤¤
à¤¸ world
à¤¸ à¤ıà¤®à¤ª
à¤¸ usa
à¤¸ KCharselect
à¤® à¤Ńà¤°
à¤® à¤£à¤¤
à¤® à¥ľ
à¤¹ à¤ĭ
à¤¹ à¤Ĺà¤¢
à¤² GenericName
à¥ģ à¥ĭ
à¥ģ ..)
à¥Ī ',
à¥Ī "-
à¤µ à¤¯à¤¤
à¤µ à¤¹à¤°
à¤µ à¤¯à¤°
à¤µ à¤¡à¤°
à¤µ City
Ġà¤® à¤·
Ġà¤® à¤²à¤µ
Ġà¤® à¤ĭà¤ľ
à¤¦ à¤ĵ
à¤¦ à¤¯à¤®
à¤¦ à¤ĺ
à¤¦ à¤µà¤ª
à¤ª à¤ĺà¤Łà¤¨
à¤Ĺ à¤ªà¤°
Ġà¤ħ à¤Łà¤°
Ġà¤ħ à¤¦à¤ķ
Ġà¤µ à¤¸à¤®
Ġà¤¨ à¤¥à¤¨
à¤ľ à¤¤à¤°
à¤ľ à¤°à¤Ń
à¤ľ à¤ľà¤Ĺ
à¥ĭà¤Ĥ %
Ġà¤¬ à¤Łà¤®
à¥Ĥ %
à¥Ĥ à¤¿
Ġà¤¤ à¤¸à¤¨
Ġà¤¤ à¤ªà¤¶
Ġà¤¦ à¤®à¤¦
Ġà¤ī à¤īà¤¸
Ġà¤² à¤§
Ġà¤² à¤¸à¤¦
Ġà¤² à¤¹à¤°à¤¤
à¤Ł à¤®à¤¸
à¤Ł à¤¹à¤²
à¤ı à¤¸à¤²
à¤ı à¤¥à¤²
à¤ı à¤ıà¤®à¤ıà¤²
à¤§ à¤Ńà¤ķ
à¤ļ à¤¯à¤®
à¤ļ à¤®à¤¹
à¤ļ à¤¤à¤¤
à¤¡ à¤µà¤¤
à¤¡ à¤¨à¤²
à¤¡ à¤Ĺà¤®à¤Ĺ
à¤¥ à¤¨à¤®
à¤¥ City
Ġà¤Ĩ à¤Ĳà¤Ĺ
Ġà¤¯ à¤¸
Ġà¤¯ à¤¸à¤°
Ġà¤¯ à¤°à¤µà¤¦
à¤ĸ à¤Ńà¤°
Ġà¤Ĺ à¤¬
Ġà¤Ĺ à¥Ŀ
à¤Ń à¤¹
Ġà¤ªà¤° à¤¯
à¥Īà¤Ĥ ....
à¥Īà¤Ĥ !"
à¥Īà¤Ĥ ......
Ġà¤ĩ à¤¬à¤¤
Ġà¤ı à¤¡à¤²
Ġà¤ı à¤¥à¤¨
Ġà¤ļ à¤¦
Ġà¤ļ à¤¡
à¤Ī à¤¶à¤¤
à¤Ī à¤ħà¤¡
à¤« à¤®
à¤« à¤Łà¤¤
à¤ªà¤¨ à¤¦
à¤ĩ à¤¯à¤°
à¤ĩ à¤ķà¤¹
Ġà¤¸à¤® à¤ĭ
à¤Ľ à¤ľ
à¤ħ à¤ŀ
à¤ħ à¤¬à¤¨
à¤ħ à¤Ĺà¤®
à¤ħ à¤ªà¤Ł
Ġà¤« à¤¡à¤ķ
Ġà¤« à¤°à¤¸à¤ĸ
Ġà¤°à¤¹ à¤¬
Ġà¤°à¤¹ à¤ľà¤¨
à¤°à¤ķ à¤¶
à¤°à¤ķ à¤²à¤¨
à¤¼à¤¾ ;
Ġà¤ħà¤¨ à¤ķà¤¹
à¤Ĩ à¤¶à¤¨
à¤Ĩ à¤Ĭà¤Ł
Ġà¤µà¤¹ à¤¦
à¤ł à¤¬
à¤ł à¤¨à¤¨
à¤¤à¤° à¤ªà¤£à¤¨
à¤ī à¤ªà¤¤
à¤ĵ à¤¨à¤²
à¤°à¤£ à¤®
Ġà¤¡ à¤µ
Ġà¤īà¤ª à¤°à¤¤
à¥ī à¥°
à¤ĩà¤¸ à¤¤
à¤¾à¤ģ ;
à¤°à¤® à¤ļà¤¯
à¤¢ à¤²à¤µ
à¤¹à¤° à¤ļà¤¨
à¤°à¤¹ à¤®à¤¨
Ġà¤ĺ à¤®à¤¨
à¤¯à¤® à¤ķà¤°
à¤¤à¤¨ à¤¹
à¤¤à¤¨ à¤Ĺ
à¥Ī. ??
à¤ªà¤¤ à¤Ŀà¤¡
à¤²à¤¨ à¤µ
à¤°à¤¦ à¤¶
à¤°à¤¸ à¤°à¤¤
à¤¸à¤® à¤ª
à¤¸à¤® à¤¯à¤°
Ġà¤¸à¤¹ à¤µà¤°
Â¤Â Ŀ
Ġà¤¬à¤¹ à¤®
Ġ2 14
à¤ĺ à¤£
à¤ĺ à¤ĺà¤ķ
à¤®à¤¤ à¤²
Ġà¤Ī à¤·
Ġ" /
Ġà¤®à¤¹ à¤²à¤ķ
Ġà¤ĵ à¤°à¤ķ
à¤°à¤µ à¤¯
à¥ĩ) à¥¤"
à¤ķà¤² à¤ª
à¤ķà¤² à¤°à¤¸
à¤®à¤ķ à¤ķ
à¤§à¤¨ à¤¬
Ġà¤¬à¤¢ à¤µ
à¥Īà¤Ĥ, "
à¤ıà¤ķ à¤ªà¤ķ
à¤ĩà¤¨ à¤µà¤°
à¤¾) !
à¥Ĥà¤ģ --
à¤īà¤¨ à¤īà¤¨
Ġs ignature
Ġ19 1
à¤Ĳ à¤µà¤ľ
Ġà¤Ĩà¤° à¤Ī
Ġà¤Ĩà¤° à¤ıà¤¨à¤ı
Ġà¤Ĭ à¤ªà¤ľ
Ġà¤ħà¤¸ à¤¤à¤°
Ġà¤ħà¤¸ à¤ĭ
Ġà¤ħà¤ª à¤ķà¤°
Ġà¤ħà¤ª à¤¸à¤°
Ġà¤¬à¤ļ à¤ļ
à¤¸à¤² à¤¬
Ġà¤ł à¤ķ
Ġ' *
à¥Ģ. ?
Ġà¤®à¤¨ à¤ľ
Ġà¥ Ĳ
Ġà¤¸à¤¤ à¤²à¤ľ
Ġà¤¬à¤² à¤Ńà¤¦
à¤ħà¤¨ à¤°à¤¸
Ġà¤ľà¤¨ à¤¨à¤ķ
à¤¼à¥ĭ !
à¤¨à¤® à¤£
à¥ĩà¤Ĥà¥¤ -
à¥ĩ- "
à¥ĩ. %
à¥ĩ. )
à¥ĩ. ,
Ġà¤ľà¤² à¤¦
à¤¬à¤¨ à¤¡
à¤¬à¤¨ à¤ķà¤°
Ġà¤ĳ à¤¥à¤°
à¤·à¤ķ à¤ķ
à¤·à¤ķ à¤¹
à¤«à¤² à¤¦
à¥Ī? .
er ence
à¤Ĺà¤® à¤ļ
à¤Ĩà¤Ī à¤ıà¤®à¤ıà¤¸
à¥ĭ) ?
à¥ĩà¤Ĥ) ?
à¤¦à¤® à¤¯à¤¨
Ġà¤¸à¤¦à¤¸ à¤ĭ
Ġt hou
pr of
à¤¶à¤¤ à¤ªà¤¦
Ġà¤Ĳ à¤Ĺ
à¤¼à¥ĭà¤Ĥ -
Ġ4 40
Ġà¤§à¤° à¤ķà¤°
Ġà¤ªà¤ķ à¤Ļ
al le
à¥ĩà¤Ĥ. -
Ġà¤Ĩà¤Ī à¤Ĩà¤°
19 11
à¥Ī; ]
à¤ħà¤¬ à¤¤à¤°
à¤ħà¤ª à¤§
à¤ħà¤ª à¤¹à¤°à¤¨
à¥Ī) ...
op le
ab ha
en ari
à¤ļà¤ķ à¤µ
Ġ7 12
Ġ18 16
Ġ18 39
à¤¹à¤¸ à¤¬
à¤§à¤ķ à¤§à¤ķ
à¤Ķ à¤¸
Ġà¤ķà¤Ł à¤Ł
at er
à¤°à¤ļ à¤¯à¤¨
à¤°à¤ª à¤°à¤ķ
Ġà¤¦à¤² à¤²
Ġà¤¦à¤² à¤ªà¤¤
Ġà¤ıà¤¨ à¤ıà¤ļ
à¤ĳ à¤ĸ
à¤ªà¤¦ à¤µ
ĠS hi
ĠS ch
st reamer
à¤ıà¤« à¤Ī
Ġà¤ªà¤Ł à¤µ
Ġà¤ªà¤ķà¤¡ à¤ķà¤°
Ġà¤ªà¤°à¤® à¤ª
Ġpr ofile
Ġ15 30
Ġ15 26
ĠC lutter
ĠC osmoline
Ġ20 2
Ġ20 4
re lated
à¤¸à¤¹ à¤ļà¤°
à¥Īà¤Ĥ) -
ĠI ce
à¤°à¤ĸ à¤µ
ol ve
of luoroc
ĠP O
ĠP e
ĠP layer
ĠM b
ĠM et
20 3
20 4
11 8
Ġp st
à¥Ģà¤Ĥ) à¥¤
10 24
Ġ16 61
à¤¯à¤§ à¤ª
Ġm i
Ġm ach
ĠD OC
ĠD oe
à¤¹à¤¬ à¤ľ
Ġ14 50
à¤ªà¤ļ à¤®à¤¢
Ġà¤ħà¤¶ à¤Ĺ
ĠU p
18 7
18 98
Ġ17 99
Ġ17 57
à¥ª à¥§
Ġw as
Ġw iki
Ġw izard
Ġ30 3
Ġ30 6
ĠL D
ĠG B
ĠG tk
à¥® à¥®à¥«
Ġà¤¬à¤Ĺ à¤Ł
ut s
Ġg cr
Ġg streamer
id ge
Ġ50 9
ĠE le
Ġà¤¹à¤¡ à¤¤
à¤Ĩà¤¸ à¤ŀ
à¤Ĩà¤¸ à¤Ļ
Ġu id
ri p
Ġà¥© à¥¬à¥¦
Ġà¥© à¥¦à¥¦à¥¦à¥¦
25 3
à¥Ī... %
08 12
ĠW M
ĠW e
ag a
ag ue
as is
ĠY acc
07 1
à¥ĩà¤Ĥ- >
ĠV er
ĠV LC
ch ing
Ġà¤®à¤¸à¤² à¤¹
Ġr ate
Ġr oom
Ġà¥ª à¥¯
Ġà¥¬ à¥§
Ġà¥¬ à¥Ń
194 3
à¥Ģà¤Ĥ? '
Ġà¥¦ à¥©
Ġà¥¦ à¥Ńà¥§
Ġ36 7
Ġ36 00
Con fig
à¤¬à¤Ł à¤£
Ġà¥Ń à¥§
Ġme eting
vir t
Ġ` {
100 00
Ġà¤ļà¤°à¤® à¤ª
Ġ33 4
Ġ37 1
Ġ34 7
our nal
hr on
Ġà¥§à¥¨ à¥¦à¥¦
à¥§à¥¨ à¥¦
Ġj ob
à¥Ĥà¤Ĥ. ?
Ġà¤ļà¤¹ à¤ķà¤¤
ST DEV
av id
ma jor
à¤ķà¤ªà¤Ł à¤¤
à¤ıà¤Ĩà¤° à¤ª
Ġex plos
ant e
In s
à¤ıà¤¨à¤Ĩà¤° à¤ıà¤«
89 1
à¤ļà¤®à¤ķ à¤¨
à¥ĩ... à¥¤
à¤ķà¤°à¤¤ à¤°
à¤ķà¤°à¤¤ à¤²
Count y
St atus
à¤ıà¤¸à¤ı à¤ıà¤¸
à¤ĵà¤µà¤° à¤²
CC C
ord s
lo se
Ġà¥§à¥© à¥®
ĠIn dia
)] .
Ġà¤ĩà¤®à¤° à¤ľ
Ġà¥¯à¥ ®
à¥§à¥§à¥ Ń
PA C
Ġad d
IF F
Ġà¥§à¥¯à¥¬ à¥¯
CP U
Ġà¤ħà¤²à¤ķ à¤¨à¤¨
gree ment
Ġinc lude
ĠRes et
CVS ROOT
ĠFor mat
à¤®à¤°à¤ķ à¤ľ
sl ov
ĠCh ampions
Ġfil m
LO G
gr ound
Ġplugin view
Ġsu per
Ġ1400 1
eal th
à¥§à¥¯à¥¦ à¥¬
Col or
ÃīÄ º
BS D
Ġà¤¹à¤°à¤¦ à¤®
ĠComp le
ĠAR G
Ġap t
ĠEv ince
Reply Forward
Ġà¤®à¥Ľ à¤¬
On line
Ġinst ead
meric an
ËĻ ËĻ
Ġvap or
Ġrecurr ing
ĠÅĳÄ¹ ÅŁ
4567 89
TOT AL
rol ename
Ġgcr d
ĠChampions hip
! !"
) ?"
* %
/ ~
2 11
2 15
3 14
3 80
5 60
9 000
9 50
9 85
> )
A f
A CC
B I
B lack
D esktop
E PA
E ÅĪ
F ree
H op
H OME
I nc
K erberos
L ine
L OC
L imited
M enu
N ov
O H
P ay
P ast
Q DialogButtonBox
R I
R P
R ef
S am
S arkar
T ri
T ur
V EY
V ERT
W ork
Z à¤ª
b s
b ers
c le
c lear
f c
f ied
g n
g conf
i à¤ĸ
k g
l ank
o in
p H
p end
p etr
p iphany
r ot
s and
s ao
s ang
t w
t ypes
w icket
Ġ Ï
Ġ ti
Ġ ri
Ġ os
Ġ overs
à¤ Ĵ
à¥ £
à¤¾ |
à¤° à¤Łà¤°
à¤° à¤ªà¤¸
à¤° à¤¥à¤²
à¥ĩ >
à¥ĩ Í¾
à¤¿ \
à¤¿ ]
Ġà¤ķ à¤ļà¤²
à¤Ĥ âĢį
à¤¨ à¤°à¤¤
à¤¨ à¤ľà¤®
à¥Ģ >
à¤¤ à¤µà¤¤
à¤¤ à¤ĺà¤¡
à¤¤ à¤Īà¤¦
à¤ķ à¤®à¤¨
à¥ĭ ]
à¤¯ à¤Ŀ
à¤¸ à¤¹à¤²
à¤¸ à¤Łà¤®
à¤¸ star
à¤¸ greece
Ġà¤¹ à¤ĸ
Ġà¤¹ à¤ķà¤²
Ġà¤¹ à¤¤à¤®
Ġà¤¹ à¤ķà¤¡
Ġà¤¹ à¤¶à¤°
à¤® à¤ªà¤ķ
à¤® à¤Ĭ
à¤® à¤ħà¤¤
à¤® à¤Ĩà¤¶
à¤® à¤°à¤®à¤°
Ġà¤¸ à¤¨à¤¤
Ġà¤¸ à¤¨à¤®
Ġà¤¸ à¤¡à¤¨
à¤¹ à¤ªà¤¤
à¤¹ à¤°à¤®à¤ľ
à¤² à¤£
à¤² à¤Ĺà¤°
à¤² à¤²à¤¨
à¤² à¤°à¤¦
à¤² à¤¶à¤¨
à¤² à¤µà¤²
à¤² à¤®à¤¨à¤¦
à¤² à¤¹à¤²à¤¹
Ġà¤ª à¤µà¤°à¤¦
à¥Ī âĢĿ,
à¥Ī à¥°)
à¤µ à¤¬à¤¨
à¤µ à¤ĭ
Ġà¤® à¤ª
Ġà¤® à¤°à¤ķ
Ġà¤® à¤¯à¤ķ
Ġà¤® à¤Ĩà¤°
Ġà¤® à¤µà¤µ
Ġà¤® à¤ħà¤®
Ġà¤® à¤Ĩà¤®
Ġà¤® à¤Ĩà¤¶
à¤ª à¤Ŀ
à¤ª à¤¦à¤°
à¤Ĺ à¤¦à¤¨
à¤Ĺ à¤ıà¤ķ
à¤Ĺ à¤ľà¤°
à¤Ĺ à¤¨à¤°
Ġà¤µ à¤¤à¤µ
Ġà¤µ à¤ªà¤²
Ġà¤¨ à¤µà¤¤
à¤¼ à¤¼à¥Į
à¤¼ à¤¼à¥ĭà¤Ĥ
à¤¼ à¥ĭà¥¤"
à¤¼ à¥¤"
à¤¼ à¥Ĥà¤ģ)
Ġà¤¬ à¤ªà¤¤
Ġà¤¬ à¤ķà¤²
Ġà¤¬ à¤¶à¤¬
Ġà¤¬ à¤ĭà¤¦
Ġà¤¬ à¤ķà¤¸à¤°à¤¤
à¥Ĥ à¤¼
Ġà¤¤ à¤°à¤£
Ġà¤¤ à¤®à¤¤
Ġà¤¤ à¤ħà¤²
Ġà¤¤ à¤ħà¤°
Ġà¤¤ à¤ħà¤®
à¥¤ âĢĻ
à¥¤ --
à¥¤ ?"
Ġà¤¦ à¤·
Ġà¤¦ à¤°à¤¹à¤®
à¤¶ à¤Ł
à¤¶ à¤µà¤ļ
à¤¬ à¤ħà¤¤
à¤¬ à¤ĸà¤°
à¤¬ à¤ķà¤¤à¤°
Ġà¤² à¤¦à¤µ
à¤ı à¤¬à¤°
à¤ı à¤ļà¤¯
à¤ı à¤µà¤ľ
Ġà¤° à¤Ĩà¤¨
à¤§ à¤§à¤°
Ġà¤Ķà¤° à¤¯à¤¦
à¤· à¤°à¤¸
Ġà¤ķà¤° à¤ª
à¤ļ à¤ĺà¤°
à¤¡ à¤Ĩà¤īà¤Ł
à¤¥ à¤ªà¤¤
à¤¥ à¤²à¤®
à¤¥ à¤ªà¤°à¤¤
Ġà¤Ĩ à¤ĩà¤®
Ġà¤Ĩ à¤İ
à¤£ à¤ķà¤¤
Ġà¤¯ à¤¤à¤°
Ġà¤¯ à¤¦à¤¨
Ġà¤¯ à¤ľà¤®
à¤ĸ à¤ªà¤°
Ġà¤Ĺ à¤¹à¤µ
à¤Ń à¤°à¤ķ
Ġà¤ªà¤° à¤ĸà¤¤
Ġà¤ªà¤° à¤µà¤¦
Ġà¤ªà¤° à¤°à¤µà¤¦
Ġà¤ĩ à¤°à¤®
Ġà¤ĩ à¤®à¤ķ
Ġà¤ĩ à¤¹à¤²
Ġà¤ĩ à¤«à¤¤
Ġà¤ı à¤·
Ġà¤ı à¤®à¤ķ
Ġà¤ı à¤²à¤¬
Ġà¤ı à¤¹à¤¤à¤°
Ġà¤ı à¤Ĩà¤°à¤Ł
Ġà¤ı à¤¹à¤®à¤ķ
à¤Ī à¤īà¤¸
à¤Ī à¤¹à¤¦
à¤Ī à¤ıà¤«à¤¸
Ġà¤¶ à¤¬à¤°
Ġà¤¶ à¤¬à¤¦
à¤« à¤°à¤²
à¤« à¤¹à¤¶
Ġà¤ĸ à¤¤à¤¨
Ġà¤¸à¤® à¤¹
Ġà¤¸à¤® à¤¤à¤®
à¤¾à¤Ĥ ''
à¤ħ à¤¬à¤¦
à¤ħ à¤¶à¤¬
Ġà¤°à¤¹ à¤®à¤µ
Ġà¤¹à¤® à¤¹
à¤¼à¤¾ !"
Ġà¤ħà¤¨ à¤¬
Ġà¤ħà¤¨ à¤¤à¤¤
à¤¾à¥¤ à¥¤
à¤Ĩ à¤¨à¤¤
à¤Ĩ à¤Ĳ
à¤Ĩ à¤ĸà¤¨
à¤Ĩ à¤¤à¤¤
à¤Ĩ à¤Ĺà¤¨
à¤Ĩ à¤ĩà¤µ
Ġà¤µà¤¹ à¤¶à¤¤
à¤ł à¤ľ
à¤ł à¤Ł
à¤ł à¤ļ
à¤ī à¤¹
à¤ī à¤Ńà¤°
à¤ī à¤²à¤®
à¤ī à¤ļà¤ķ
à¤ī à¤Ĺà¤¸
à¤ªà¤° à¤°à¤µ
à¤ªà¤° à¤¸à¤¤
à¥Ī, à¥¤
à¤°à¤£ à¤ľ
à¤¯à¤ķ à¤¦
à¤ĥ '
à¤ĥ :
Ġà¤¸à¤ķà¤¤ à¤¦
à¤¾à¤ģ à¥¤"
à¤°à¤® à¤°à¤Ĺ
à¤¢ à¤®
Ġà¤ħà¤² à¤Ĺà¤°à¤ľ
à¤¼à¥ģ à¤¼
à¥ĩà¥¤ .
à¤¸à¤° à¤¹
Ġà¤Ľ à¤¤à¤µ
à¤°à¤¹ à¤®à¤ª
Ġà¤ĺ à¤¢
à¤¯à¤® à¤¯à¤¤
à¤¤à¤¨ à¤«
à¤°à¤¸ à¤Ĺ
à¤¸à¤® à¤ĩà¤¨
à¤¹à¤¤ à¤¸
Ġà¤ľà¤¬ à¤¬à¤ķ
à¤¼à¤¿ à¤¾
à¤¼à¤¿ à¥į
à¥ĩ, )
à¤ŀ à¤ķà¤ķ
à¤®à¤¨ Name
à¤¼à¥ĩ /
à¤®à¤¤ à¤Ĩ
à¤¬à¤° à¤ķà¤°
à¤¬à¤° à¤Īà¤²
Ġà¤ħà¤µ à¤¶à¤ķ
Ġà¤¸à¤¬ à¤¤
Ġà¤¸à¤¬ à¤ı
Ġà¤¸à¤¬ à¤¡
Ġà¤¸à¤¬ à¤ķà¤¤
à¤·à¤£ à¤ľ
à¤¸à¤¨ à¤Ĺà¤°
Ġà¤Ī à¤¬à¤°
Ġà¤ªà¤¹à¤² à¤ķà¤¦à¤®
Ġà¤ĵ à¤¥
à¤°à¤µ à¤µ
à¥ĩ) "
à¥ĩ) )
à¥ĩ) ?
à¥ĩ) ?"
Ġà¤¸à¤®à¤¯ à¤°
à¤ķà¤² à¤®à¤ı
Ġà¤ĩà¤¨ à¤µà¤°
Ġà¤ĩà¤¨ à¤¹à¤°
à¥ĭ, )
à¤¾. ??
Ġà¤¸à¤° à¤Ĺà¤°
Ġà¤¸à¤° à¤¬à¤°
à¤Łà¤¨ à¤²
à¤ıà¤ķ à¤µà¤°
à¤¾) à¥¤"
à¤¾) !"
à¥Ĥà¤ģ /
Ġà¤¹à¤®à¤¨ à¤¶
à¤īà¤¨ à¤µ
Ġs Enter
Ġà¤¬à¤¦ à¤ľ
Ġà¤¬à¤¦ à¤«
Ġà¤¬à¤¦ à¤¦à¤¯
Ġà¤¬à¤¦ à¤®à¤ľ
Ġà¤¬à¤¦ à¤Ĩà¤®
Ġà¤¬à¤¦ à¤ıà¤¹à¤¦
Ġà¤¦à¤° à¤¨
à¤°à¤¶ à¤ĭ
Ġà¤¸à¤®à¤Ŀ à¤ĵ
à¤Ĳ à¤¡à¤¸
Ġà¤Ĩà¤° à¤ĩà¤¶
Ġà¤Ĭ à¤¹
Ġà¤ļà¤² à¤«
Ġà¤ħà¤ª à¤¹à¤°
à¤¨à¤¨ à¤²
à¤¸à¤² à¤ķà¤°
Ġà¤ł à¤¹à¤Ĺ
à¤®à¤² à¤°
à¥Ģ. à¥¤
Ġà¤¸à¤¦ à¤ľ
on ent
Ġà¥ ħ
Â¥Â ¨
à¤¾- <
à¤ħà¤¨ à¤¶
à¤ħà¤¨ à¤¡
à¤ħà¤¨ à¤ĺ
à¤ħà¤¨ à¤µà¤Ĺ
à¤°à¤¬ à¤ķ
à¤°à¤¬ à¤°à¤ķà¤¤
à¥ģà¤ģ )
à¤¤à¤® à¤¸à¤ĸ
Ġà¤ħà¤¬ à¤¦à¤²
Ġà¤ľà¤¨ à¤ľà¤¬
Ġà¤Ĩà¤ľ à¤ľ
à¤¼à¥ĭ ?"
ti tion
ti red
Ġ3 16
Ġ3 27
Ġ3 75
à¤¨à¤® à¤µ
Ġà¤°à¤¬ à¤µ
à¤²à¤ķ à¤®à¤²
in box
Ġà¤ľà¤² à¤ľ
Ġà¤ľà¤² à¤ļà¤°
Ġà¤ĳ à¤Ĺà¤¸
à¤ıà¤¸ à¤Ĩà¤Īà¤Ł
an ti
à¤Ĭ à¤¬
Ġà¤ªà¤°à¤µà¤° à¤Ĺ
à¤ħà¤² à¤¹à¤®à¤¦
Ġà¤¬à¤° à¤Ł
à¤ķà¤Ł à¤¹à¤²
Ġà¤®à¤¦ à¤Ĩ
Ġà¤ħà¤ľ à¤°à¤¬
Ġà¤ħà¤ľ à¤¸à¤°à¤¤
Ġà¤¤à¤¬ à¤¦à¤¦
à¤Ĩà¤° à¤ıà¤¨
à¤Ĩà¤Ī à¤Ĩà¤Īà¤¡
à¤Ĩà¤Ī à¤Ĩà¤°à¤¡
à¤ļà¤° à¤ľ
Ġt ub
Ġt ask
Ġà¤ħà¤® à¤¦à¤¨
Ġà¤ħà¤® à¤ľà¤¦
à¤¬à¤¦ à¤¬à¤ĸ
à¤¶à¤¤ à¤ªà¤°
à¤¨à¤¸ à¤¤
Ġ5 12
Ġ5 60
Ġà¤Ĳ à¤ĸ
Ġà¤Ĳ à¤¬à¤ľ
à¤¸à¤¤ à¤¹à¤ķà¤®
Ġà¤ĸà¤° à¤¹à¤°
Ġà¤ĭ à¤ĭ
Ġà¤®à¤§ à¤ĭ
Ġà¤Ĩà¤Ī à¤²
Ġà¤Ĩà¤Ī à¤ıà¤¸à¤¬
Ġà¤Ĩà¤Ī à¤ıà¤¨à¤¡
Ġà¤Ĩà¤Ī à¤Ĩà¤Īà¤Ī
à¤ħà¤¤ à¤¬à¤°
à¤¬à¤¸ à¤¹
à¤Ńà¤Ĺ à¤¨
Ġd ev
Ġd ep
Ġd isc
Ġà¤®à¤ľ à¤¬à¤°
à¤¹à¤ķ à¤¦
19 17
it rou
it osis
à¤ľà¤² à¤¶
or mal
à¤¤à¤¤ à¤ĩà¤¦
Ġà¤Ĩà¤® à¤¦à¤°à¤«
Ġà¤¯à¤ķ à¤¬
Ġà¤¸à¤ľ à¤ķ
à¤¯à¤¸ à¤ħ
Ġà¤¹à¤Ł à¤Ł
à¤ħà¤ª à¤¹à¤°
à¤®à¤Ĺ à¤§
à¤®à¤¦ à¤°à¤¸
à¤®à¤¦ à¤¯à¤¨
Ġà¤¸à¤² à¤¸à¤¬
Ġà¤¶à¤¹à¤° à¤Ĺ
Ġà¤īà¤® à¤ª
Ġà¤īà¤® à¤®à¤¤
Ġà¤ļà¤° à¤ª
à¤ıà¤² à¤ļ
à¤ıà¤² à¤Ī
à¤ıà¤² à¤ıà¤ļà¤ı
ab inet
à¤²à¤® à¤¬à¤¨
Ġà¤ıà¤¸ à¤ľ
ot s
Ġà¤§à¤¨ à¤¹
Ġ18 36
Ġà¤®à¤¸ à¤¹à¤°
à¤Ķ à¤¨
à¥Īà¥¤" -
Ġ_ /
at ory
à¤ıà¤¨ à¤ĵ
à¤°à¤ª à¤ŀ
Ġà¤¦à¤² à¤¦
Ġà¤ıà¤¨ à¤Īà¤ª
à¥Ī- '
Ġà¤ķà¤¨ à¤Ĩà¤¨
à¤ĳ à¤ı
ĠS I
ĠS DL
Ġà¤ªà¤¸ à¤ª
Ġà¤ħà¤« à¤Ĩà¤²
à¤ıà¤« à¤Ĩà¤Īà¤Ĩà¤Ī
à¤ıà¤« à¤Ĩà¤°à¤Ī
Ġc b
Ġc ra
Ġc oolant
Ġpr od
ĠC ri
Ġà¤¨à¤ľ à¤«
Ġ20 48
re tired
ĠA P
ĠA na
Ġà¤ıà¤® à¤ĵà¤ª
à¤¤à¤¬ à¤°à¤¦
ob ile
à¥ĭ! )
Ġà¤ķà¤¬ à¤ķ
ĠI X
Ġ12 15
à¤ĸà¤ķ PermissionsLevel
Ġà¤¤à¤² à¤ĸ
Ġà¤®à¤¶ à¤°à¤¬
Ġà¤®à¤¶ à¤ħà¤°
Â¤ÂĤ )
à¥ĭ- "
Â¤Â¨ .
à¤ħà¤µ à¤Ń
12 9
à¤ħà¤ķ à¤ķ
Ġà¤ĩà¤¬ à¤°à¤¹
ĠP H
ĠP S
ĠP ATH
ĠP PD
ĠP olicy
Ġà¤Īà¤¶ à¤ªà¤°
Ġà¤Īà¤¶ à¤Ńà¤ķ
il lation
Ġp m
Ġp ixbuf
à¤°à¤Ķ à¤¨à¤®
à¤°à¤Ķ à¤¨à¤°
à¤ķà¤²à¤¨ à¤µ
10 500
Ġà¤ļà¤¢ à¤¤
Ġ16 38
Ġ16 48
Ġm ic
Ġm ag
Ġm itosis
ĠD I
ĠD escription
ĠD ire
ĠR even
ĠU se
à¥© à¥¬
ĠN TT
18 1
18 99
18 72
18 93
Ġ17 80
Ġ17 84
Ġw e
Ġw ik
Ġ30 2
Ġ30 5
Ġà¤¹à¤¤ à¤Ń
à¤īà¤ļ à¤Łà¤¨
el s
ĠL o
ĠL im
ĠL iber
Ġà¤°à¤ľ à¤ħà¤Ī
Ġà¤īà¤Ĺ à¤µà¤²
30 9
Ġin fo
Ġin to
ĠH en
ĠH ebrew
Ġà¤ıà¤« à¤ıà¤¸
Ġà¤ıà¤« à¤Ĩà¤Īà¤Ł
Ġà¤ıà¤« à¤ıà¤²à¤ª
Ġx mi
Ġx ref
à¤ıà¤ļ à¤Ĩà¤°
ĠE SL
ĠE ast
Ġà¤ĺà¤¨ à¤ĺ
Ġà¤īà¤ªà¤ķ à¤¥
ĠO sc
14 2
14 7
16 00
ec al
à¤¨à¤Ī à¤®
Ġ24 8
ac s
ac y
Ġà¤ķà¤¸ à¤¦à¤¨
13 8
à¥¤" -
à¤Ĩà¤Ĺ à¤¸
Ġà¤īà¤Ń à¤¯à¤¨
Ġà¥© à¥¨à¥¦
Ġà¤Ĩà¤°à¤® à¤Ĺ
Ġà¤Ĩà¤īà¤Ł à¤Ĺ
à¤Īà¤¸ à¤¡
Ġ26 8
Ġ(% )
ME M
ME DI
à¥Ī... )
Ġl ook
ur l
17 6
à¤¤à¤ķà¤° à¤¨
à¤®à¤¶ à¤ħà¤°
à¤ķà¤®à¤¤ à¤µ
à¥§à¥¯à¥ §à¥¦
Ġà¤¸à¤¹à¤ľ à¤ľ
Ġ27 4
22 4
og a
Ġà¤¬à¤ķ à¤¬
dia tion
ĠW AV
Ġà¤ķà¤ļ à¤µ
Â¤ÂĹ :
24 8
Ġà¤Ĺà¤¦ à¤¬à¤¦
and w
à¤¾âĢĻ à¥¤
ion set
à¥Ĭ ,
à¥Ĭ à¤Ĥ,
02 13
Ġà¤®à¤Ĺ à¤¹à¤°
Ġà¤¦à¤« à¤ħà¤¤à¤¨
Ġ35 9
Ġv ao
à¤į à¤²
ex tinc
28 7
am ily
Ġà¥¬ à¥®à¥¦
26 1
Ġà¤¨à¤¤ à¤«
04 8
ĠX a
Ġre fer
Ġre ason
29 4
li p
ap t
à¤¦à¤¹ à¤ķà¤¤
Ġà¥¦ à¥®
à¥ĩà¤ĥ ,
Ġà¤®à¤°à¤® à¤¯
Ġ36 6
à¤¤à¤¹ à¤ĸ
Ġà¥§à¥« à¥«à¥¬
ĠK umar
Ġà¤ļà¤¶ à¤®à¤ķ
à¤ªà¤Łà¤² à¤¦à¤°
à¥§à¥® à¥¬à¥¨
à¤Ŀà¤ķ à¤ĸ
lic able
Ġà¥Ń à¥©
Ġà¥Ń à¥Ń
à¤¾" -
Ġme ss
à¤Ĺà¤Łà¤¨ City
à¥Ģà¤Ĥ- (
Ġà¥® à¥«
Ġà¥® à¥©
à¤ħà¤µà¤¸ à¤¥
Ġà¤²à¤¦ à¤§à¤¡
à¥Ģà¥¤" -
à¥§à¥« à¥¬à¥©
Ġorg anic
37 0
erm ission
eb in
ID S
UR VEY
à¤®à¤¬ à¤Ĭà¤¸
ug s
à¤ģ? "
à¤Ĥ) ?"
ĠURI s
con fig
à¤¾âĢĿ ,
à¤¾âĢĿ .
à¤Ĺà¤¬ à¤¶
Ġà¤ķà¤ľ à¤°à¤µ
if e
if ace
à¤¡à¤ĭ à¤¯
ip hers
-------- ----
à¤¼à¥ĭà¥¤ -
à¤®à¤µà¤° à¤®
à¥ĭ!" -
Ġex tract
57 6
à¤¼à¥° ;
Ġ| |
à¤ĸà¤²à¤¨ à¤¶
Cal Item
ĠCon tacts
sh are
Ġle t
à¤ģà¥¤" -
St reamer
à¤¹à¤¥ à¤ķà¤¡
Ġà¤Ńà¤°à¤£ à¤ª
oll ow
Ġà¤°à¤®à¤£ à¤Ń
ĠIn land
à¥ĩà¤Ĥà¥¤" -
Ġ58 4
Ġà¤¡à¤¬à¤² à¤°
à¤Ĩà¤Īà¤ıà¤« à¤Ł
Ġà¤¶à¤® à¤Ĭà¤¨
ET S
ph one
Ġà¤ĩà¤¥ à¤°à¤¨
Ġà¤¤à¤¶ à¤¤à¤°
Ġun safe
Ġcheck box
up gra
à¤īà¤Ľ à¤²à¤¤
à¤¤à¤¹à¤ķ à¤®
à¥§à¥¯à¥¬ à¥¨
à¤¬à¤°à¤¤ à¤ķà¤¨
min al
Ġà¤¨à¤Ł à¤ĸà¤Ł
Ġad vanced
Ġsc reen
ative ly
à¥§à¥¯à¥© à¥¦
à¦ ¨
à¦ °
à¦ ¾
Ġcomp onent
rl ington
ful l
Ġinc l
Ġbug s
Ġà¤¤à¤µà¤ľ à¤ľ
ĠApp licable
à¥§à¥¯à¥¨ à¥¦
ele te
PL A
Ġà¤ıà¤¹à¤¤ à¤®
ING S
à¤¬à¤°à¤ķ à¤¤à¤µ
Ġà¤ıà¤®à¤ĵ à¤¯
à¤®à¤¸à¤² à¤¹
à¤Ľà¤ªà¤Łà¤² à¤¶
à¤īà¤ĺ à¤°à¤¨
tical ly
CE PI
Ġtr op
Ġà¤²à¤Ľ à¤®à¤£
atal og
Ġcount ry
ĠEd it
ĠOpen GL
Ġâĺ»âĺ»âĺ» âĺº
à¥įà¤¾ à¤¿à¤Ĥ
Ġserv ice
ĠTr ophy
Ġà¤Ĺà¤ľà¤¨ à¤µ
à¤Ĺà¤Ĺà¤¨ à¤ļ
Ġwid get
ĠGu ar
à§ ģ
bi ological
Ġà¤¸à¤Ĩà¤¦à¤¤ à¤®à¤¨
à¥¤' -
esc ape
ĠEv olution
ĠProt ocol
à¤¾à¥¤' "
Ġass essment
Ġà¥©à¥¬ à¥¦à¥¦
ender er
>] :
Ġpro ject
à¤¬à¤¨à¤µ à¤Ł
Ġà¤ħà¤²à¤¯à¤¸ à¤ħ
Ġà¤ħà¤ªà¤¯à¤¶ à¤Ĺ
Ġasp x
ĠiT rans
VAL UE
Ġret reat
Ġà¤®à¤ĩ à¤¶à¤¤
Pl ugin
Dele g
idd le
CERT IFIC
Fr ench
echn ology
IBase Result
Ġà¥ĥ à¥ĥ-
à¤Į à¤®
Ġà¤µà¤¸à¤® à¤ħ
alle l
enari os
ĠShi eld
à¥®à¥®à¥« à¥¯
Past ebin
Tur kish
Ġri se
Ġà¤®à¤Ĩà¤° à¤«à¤¤
Ġà¤®à¤Ĩà¤® à¤²à¤¤
itrou s
ĠReven ue
ĠOsc illation
% -
. ]
. ),
2 17
3 30
3 75
4 000
5 13
6 20
8 13
: \"
; )
< \\
A ks
A merica
A ccount
C OS
E V
E nglish
G Conf
I c
J S
J SON
L aw
M AR
M ake
N B
N C
O ctober
P er
P ixbuf
P eter
R s
R ES
R estore
T AN
U I
V ala
W ID
Z à¤¨
Z à¤¸
Z à¤¡
\ '
c ar
c ount
d u
d ot
d em
f ace
f older
f rame
g ing
h ot
h uman
h oriz
i ties
l iter
l sen
n atural
o ce
p c
r ran
s ource
w ise
} ',
Â ·
Ã ¤
Ġ oc
Ġ other
Ġ output
à¤° à¤°à¤¸
à¥ĩ à¥ģ
Ġà¤ķ à¤®à¤¨
Ġà¤ķ à¤¤à¤²
à¤Ĥ âĢĶ
à¤Ĥ :-
à¤¨ à¤¸à¤®
à¤¨ à¤Łà¤¨
à¤¨ à¤°à¤¨
à¤¨ à¤Ĩà¤īà¤Ł
à¤¨ china
à¤¤ à¤ī
à¤¤ à¤ŀ
à¤¤ iCalImp
à¥ĭ :-
à¤¯ à¤ħà¤¨
à¤¯ à¤¸à¤¤
à¤¸ à¤¬à¤²
à¤® à¤¤à¤¨
à¤® à¤¦à¤ķ
à¤® à¤Ńà¤ķ
Ġà¤¸ à¤ªà¤·
à¤¹ à¤¦à¤°
à¤² à¤Łà¤ķ
à¤² à¤Ĺà¤®
à¤² à¤²à¤ļ
Ġà¤ª à¤ļà¤¨
Ġà¤® à¤²à¤¤
Ġà¤® à¤Ĺà¤¨
Ġà¤® à¤¸à¤¨à¤µ
à¤¦ à¤¯à¤¹
à¤¦ à¤«à¤¨
à¤ª à¤Ĺà¤¤
à¤ª à¤ļà¤°
à¤ª à¤Ľà¤¤
à¤ª à¥ľ
à¤Ĺ à¤¸à¤¨
à¤Ĺ à¤®à¤²
à¤Ĺ à¤²à¤¬
à¤Ĺ à¤¨à¤®
à¤Ĺ à¤ľà¤ķ
à¥ĩà¤Ĥ à¥ĭ
à¥ĩà¤Ĥ âĢĿà¥¤
Ġà¤ľ à¤°à¤¨à¤²
Ġà¤ħ à¤ľà¤°
Ġà¤¨ à¤µà¤µ
Ġà¤¨ à¤²à¤¸
à¤ľ à¤ľà¤¬
à¤ľ à¤ĩà¤«
Ġà¤¬ à¤Ĺà¤ľ
Ġà¤¬ à¤īà¤ľ
Ġà¤¦ à¤²à¤ķ
Ġà¤ī à¤Ļ
à¤¶ à¤¸à¤ķ
à¤¶ à¤µà¤ķ
à¤¬ à¤£
à¤Ł à¤¨à¤ķ
à¤Ł à¤¹à¤°
à¤Ł à¤¬à¤¨
à¤ı à¤ªà¤²
à¤ı à¤ıà¤®à¤ıà¤¸
Ġà¤° à¤ļà¤ķà¤°
Ġà¤Ķà¤° à¤°
à¤· à¤ļà¤°
Ġà¤ķà¤° à¤¹
à¤ļ à¤ªà¤°
à¤ļ à¤¹à¤°
à¤ļ à¤¨à¤¤
à¤ļ à¤®à¤¸
à¤¡ à¤Ń
à¤¥ à¤ªà¤°
Ġà¤Ĩ à¤ī
Ġà¤Ĩ à¤µà¤¸
à¤£ à¤¸à¤®
à¤£ à¤®à¤¸
Ġà¤Ń à¤µà¤¤
Ġà¤Ĺ à¤°à¤¹
à¥Īà¤Ĥ |
à¥Īà¤Ĥ \"
à¥Īà¤Ĥ .....
Ġà¤ĩ à¤ľà¤¹
Ġà¤ļ à¤²à¤¯
à¤Ī à¤¯à¤¤
à¤Ī à¤¬à¤²
à¤Ī à¤Ĺà¤µ
à¤Ī à¤ıà¤Ĩà¤°
à¤Ī à¤¥à¤°à¤¨
Ġà¤¶ à¤µà¤¦
à¥Ģà¤Ĥ âĢĻ
à¤ªà¤¨ à¤Ĺ
à¤ĩ à¤Łà¤ķ
à¤ĩ à¤ķà¤®
à¤ĩ à¤ĭà¤¯
Ġà¤ıà¤ķ à¤¬à¤¦
Ġà¤¸à¤® à¤ļ
à¤¾à¤Ĥ à¥ĩ
à¤ħ à¤¨à¤¤
à¤ķà¤° à¤«
à¤ķà¤° à¤ķà¤²
à¤µà¤° à¤¶
à¤µà¤° à¤ļà¤¦
à¤¤à¤° à¤Ĺà¤¤
à¤ī à¤²à¤¨
à¤ī à¤¬à¤²
à¤ī à¤ĺà¤¡
à¤ĵ à¤¸à¤®
à¤ªà¤° à¤¯
à¤°à¤£ à¤¹
à¤°à¤£ à¤¦
Ġà¤¬à¤¨ à¤¯
Ġà¤¡ à¤ĭ
à¤Ķà¤° à¤ıà¤ļ
à¤ĥ )
à¤¾à¤ģ '
à¤¢ à¤¹à¤¨
à¤¸à¤° à¤Ī
à¤¹à¤° à¤¹
à¤¹à¤° à¤«
à¤¼à¥Ģ %
à¤°à¤¸ à¤ª
à¤°à¤¸ à¤°à¤£
Ġà¤²à¤Ĺ à¤ķà¤°
à¤¸à¤® à¤¦
à¤¸à¤® à¤¶
à¤¸à¤® à¤¬
Ġà¤¸à¤¹ à¤Ĺ
Ġà¤Ł à¤µ
Ġà¤Ł à¤ļà¤ª
à¤¼à¥ĩ à¤ĥ
à¤ļà¤¨ à¤¦
à¤ĺ à¤¦à¤°
Ġà¤ħà¤µ à¤ķà¤²
à¤Łà¤° à¤¨à¤²
Ġà¤ĵ à¤Ľ
Ġà¤īà¤¦ à¤¯à¤Ĺ
à¤ķà¤² à¤ĭ
Ġà¤ĩà¤¨ à¤ĭ
à¤µà¤¹ à¤¸
à¤§à¤¨ à¤ª
Ġà¤Ĩà¤µ à¤¦
Ġà¤¬à¤¢ à¤ĭà¤¤
à¤°à¤Ń à¤°
Ġà¤¤à¤° à¤°
Ġs ure
Ġs ie
à¤¯à¤° à¤ª
Ġà¤ħà¤ª à¤ĺà¤Ł
à¤®à¤² à¤ľ
Ġ' ?
Ġà¤®à¤¨ à¤¶
à¤ħà¤¨ à¤µà¤§
Ġà¤ľà¤¨ à¤ĭ
me t
ti ce
à¤Łà¤ķ à¤¯
à¤Łà¤ķ à¤¸
à¤²à¤ķ à¤ķ
in ation
à¤¬à¤¨ à¤¹
Ġà¤Ĩà¤¨ à¤¦
Ġà¤ĳ à¤¬à¤ľ
à¤Ĭ à¤ļ
à¤Ĭ à¤«
à¤¬à¤² à¤Ĺà¤®
à¤ħà¤² à¤ĸ
à¤ħà¤² à¤¹à¤¦
à¤¹à¤¨ à¤²
Ġà¤®à¤¦ à¤¯
à¥Ī? ?
à¤¯à¤ª à¤Łà¤²
ame l
à¤Ĩà¤Ī à¤¡à¤¬
à¤ļà¤° à¤ļà¤°
pr ise
Ġà¤²à¤¡ à¤¤
à¤¬à¤¦ à¤ĸ
à¤¯à¤µ à¤ķà¤¤
Ġà¤ķà¤Ī à¤¯
es lot
Ġ5 01
Ġà¤Ĳ à¤ªà¤²
Ġà¤Ĳ à¤¡à¤®
Ġ4 22
al ity
al ao
Ġd b
Ġd d
à¤ľà¤² à¤¦
à¤ľà¤² à¤§
or ation
à¤ħà¤§ à¤®
à¤ıà¤® à¤ıà¤µ
Ġk orea
Ġ6 10
Ġà¤¸à¤² à¤µà¤Ł
Ġà¤ĭà¤£ à¤ªà¤¤
ĠâĢľ âĢĿ
op os
à¤ıà¤² à¤¡à¤¬
à¤ıà¤² à¤ıà¤²à¤ª
Ġà¤ıà¤¸ à¤ıà¤¸à¤Ĩà¤Ī
ot t
Ġ18 28
à¤Ķ à¤¤
à¥Īà¥¤" ""
à¥Ĥà¤Ĥà¥¤ âĢĻâĢĻ
Ġà¤¦à¤² à¤ľ
Ġà¤ıà¤¨ à¤Ĩà¤°à¤Ī
à¤¥à¤° à¤¥à¤°
à¤ħà¤® à¤°à¤¤
à¤¯à¤¯à¤¨ à¤¶
à¤ıà¤« à¤ıà¤ĵ
à¥Īà¤ĥ à¥¤
Ġpr og
Ġpr oxy
ĠC atalog
ĠC amel
Ġà¥¨ à¥§à¥¦à¥¦
ly cos
re port
ĠA T
ĠA U
ĠA ut
Ġà¤īà¤¡ à¤¤
ob last
à¥Īà¤Ĥ) ;
ĠI cons
Ġ12 000
Ġ12 45
à¤ľà¤¤ à¤¦
à¤¼à¥ī .
Ġà¤ħà¤¸à¤® à¤¤
tp age
à¥ħ à¥ģà¤Ĥ
12 6
ol an
ou gh
à¤ħà¤ķ à¤¥à¤¨
ĠP a
ĠT asks
20 8
à¤Ĩà¤¯ à¤¡
Ġp ixbu
Ġp ermission
Ġb ase
Ġb ak
Ġb all
et h
Ġ16 05
Ġ16 66
Ġf oo
Ġf oci
Ġm od
ĠD eal
ĠR AM
à¤Ĺà¤ľ à¤Ł
à¥© à¥®
ĠN A
18 80
18 37
18 87
18 73
Ġw x
à¥ľ à¤¤
à¤¯à¤£ à¤¸
el la
ĠL ive
Ġà¤¹à¤¦ à¤¤à¤ķ
Ġe qu
à¤ħà¤« à¤ľ
ĠG PU
ĠG nuPG
Ġh um
Ġh aoM
ĠH em
ĠH ans
Ġà¤ıà¤« à¤ı
ut down
à¥īà¤ģ -
à¤ıà¤ļ à¤Ĩà¤°à¤¡
id th
ĠE R
ĠE ÅĪ
ĠE Folder
ent ry
ĠO lsen
à¤Ĥ. )
à¤¦à¤¬ à¤ĸ
Ġà¤Ĺà¤² à¤«à¤¡
à¤ķà¤ķ à¤ĸ
ac ts
.... ......
iv il
iv ing
Ġà¤Ĺà¤ł à¤°
à¤ªà¤¹ à¤¨à¤¨
25 5
à¤§à¤µ à¤Ĺà¤¢
Ġl u
Ġl à¤ħà¤¨
iii à¤ķà¤ĺ
08 0
08 13
hi ps
17 9
à¤¯à¤¬ à¤ĺà¤°
us r
Ġqu ery
ĠY Y
à¤¾âĢĻ âĢĻà¥¤
OR E
à¥ĩà¤Ĥ- %
Ġv b
Ġv ah
Ġv ector
à¤į à¤Ĺ
Ġà¤¶à¤°à¤£ à¤¸
28 3
28 8
28 9
28 33
26 7
06 14
RAN D
Ġà¤¦à¤® à¤¦à¤®
li er
Ġà¤ıà¤¯à¤° à¤«
Ġà¤®à¤°à¤® à¤¤
Ġà¥§à¥« à¥¬à¥¦
à¤ıà¤¸à¤ıà¤¸ à¤ı
à¤ıà¤¸à¤ıà¤¸ à¤ıà¤¸
Ġà¥§à¥® à¥¬à¥¦
à¥§à¥® à¥¬à¥¯
Ġà¥Ń à¥«à¥¦
Ġst ep
à¤ĵà¤ıà¤¸ à¤ĵà¤¸
Ġà¤ĵà¤µà¤° à¤¨
Ġ33 3
à¤Ĩà¤ĩ à¤ıà¤«
Ġà¥¨à¥¦ à¥¨à¥¦
à¤ħà¤¹ à¤Ļ
RO WS
"" à¥¤"
38 8
ount ered
od ing
Ġà¤ĥ -
tic s
)- (
EX P
con n
con tinuation
ber g
SA GE
SI G
à¤ħà¤µà¤ķ à¤²à¤¨
Ġà¥§à¥¬ à¥¦à¥«
na I
iz ation
ure d
à¤ĸà¤ĸ à¤Ĺ
à¤Ĩà¤Īà¤ı à¤ıà¤²
ant s
all en
Ġà¥§à¥Ń à¥¦à¥¦
Ġà¥§à¥Ń à¥¬à¥¦
DE F
ha el
à¤Ĺà¤Ĺ à¤ĸ
à¤ĩà¤ªà¤° à¤ª
amp les
St eve
à¤Ĺà¤Ń à¤¸
à¥§à¥¯à¥® à¥®
-> %
Ġmon oxide
Ġà¥§à¥¯à¥Ń à¥®
aj a
aj n
Ġint ext
à¤Ĩà¤Īà¤ıà¤« à¤ıà¤¸
CH A
à¤ĵà¤ªà¤¨ à¤ĳà¤«
ens es
Ġà¥§à¥¦à¥¦ à¥¦à¥¦à¥¦
à¤Ĩà¤Īà¤ıà¤® à¤Ķà¤°à¤ıà¤ļ
pl orer
pla te
à¥§à¥§à¥ «
à¥§à¥§à¥ §à¥
ĠInc ome
Ġà¤Łà¤ķ à¤Łà¤ķ
ff mpeg
à¥§à¥¯à¥¬ à¥«
lar us
MP EG
ĠUT C
Ġsc heme
Ġsc ience
isp here
Mac Roman
à¥§à¥¯à¥© à¥¨
Meeting Resp
Ġcomp iled
eet a
ĠMA C
ĠÅ Ł
ĠWeb DAV
Ġà¥§à¥¯à¥¦ à¥«
Ġth ree
à¥§à¥¯à¥ª à¥¨
à¤īà¤ĺ à¤¢
Ġmanual ly
à¤ħà¤ªà¤¤ à¤Ł
pol itical
Ġkr nao
Ġtr ue
ÃīÅ ½Ãº
à¤¶à¤°à¤¦ à¤¬
âĢ¦âĢ¦ âĢ¦âĢ¦
ĠAd v
à¤¤à¤°à¤¬ à¤¤à¤°
Ġres olution
à¤¡à¤°à¤¨ à¤°
Ġauthor s
Non ecal
Ġà¤Ńà¤¨ à¤Ńà¤¨
even tpage
Ġà¤Ĩà¤Īà¤ı à¤Ĩà¤°à¤Ĩà¤Ī
Ġdec igram
ĠSu ite
reg ionset
Group Wise
Ġcent ros
Ġenc ountered
ograph y
ĠNet scape
trop ical
Ġà¤Ķà¤· à¤§à¤ķ
Ġà¤²à¤ļà¤ķ à¤¦
Ġpoll ution
orb ital
Ġcue ing
Back end
Ġà¤Ĺà¤Ĭ à¤ĺ
ĠChrom oting
ĠPart y
âģ °
omin ators
Ġhead ers
ĠDist ribution
APP NAME
ticula te
LEG AL
RCP T
Ġthou sand
Ġà¤Ĩà¤Īà¤Ĩà¤° à¤ıà¤¨à¤ıà¤¸à¤ıà¤¸
Ġmach ine
Hop ital
Nov ell
sang eeta
Ġà¤Ĩà¤Īà¤Ĩà¤Īà¤Ī à¤ıà¤¸à¤Ł
Ġcra sh
ĠDI GEST
upgra de
Make files
rran ajn
opos al
Ġpixbu fs
ĠHem isphere
ĠEFolder List
% )à¥¤
' -
' ?
- ?
- ...
0 25
3 13
3 22
3 39
4 20
5 14
6 13
6 17
9 60
> -
> /
A b
A s
A t
A z
A bb
B an
B erke
C AR
C drdao
C RAM
D j
D SL
D ATA
F lash
F arsi
H indi
J ames
K V
L P
L à¤¸
L ua
M O
M ay
M ov
M atch
M ga
N S
O DB
P en
P od
R NA
S r
S he
S ub
S PA
S wap
S URVEY
T ax
V u
V IDEO
W x
W ith
Y T
Z E
Z à¤¬
a M
a q
b ur
b cc
c j
c at
d y
d ated
d etr
f i
f time
g compris
i h
i y
j ec
k B
l v
o or
p ython
r ul
s ize
s ach
u me
u ary
v d
x HE
z e
z ation
Â £
Â ®
Å ŀÃī
Ï İ
Ġ Äĺ
Ħ ¢
à¤° à¤¯à¤ķ
à¤° à¤¯à¤¹
à¤° à¤Łà¤¨
Ġà¤ķ à¤¸à¤¬
Ġà¤ķ à¤Ľà¤µ
à¤Ĥ à¥Ģ
à¤Ĥ à¥ģ
à¤¨ à¤¹à¤¨
à¤¨ weather
à¤¤ à¤¸à¤®
à¤¤ à¤¬à¤¹
à¤ķ à¤¹à¤°
à¤ķ à¤¶à¤¨
à¤ķ à¤ľà¤°
à¤ķ à¤¬à¤¦
à¤ķ à¤ļà¤ķ
à¤ķ à¤³
à¤ķ à¤ħà¤°à¤¬
à¥ĭ ....
à¤¯ à¤Łà¤®
à¤¸ à¤ı
à¤¸ à¤Īà¤¸
à¤¸ unit
à¤¸ à¤Ĩà¤¦à¤¤
Ġà¤¹ à¤µà¤¨
Ġà¤¸ à¤ĺ
à¤² à¤¤à¤¨
à¤² à¤®à¤¤
à¤² à¤²à¤ķ
à¤² à¤¡à¤¨
à¤² à¤ĸà¤¡
Ġà¤ª à¤¸à¤°
à¥Ī à¤¾
à¤µ à¤ĵ
à¤µ à¤¬à¤¤
à¤¦ à¤¯à¤ķ
à¤¦ à¤¬à¤¦
à¤ª à¤²à¤¤
à¤ª à¤¹à¤¸
à¥ĩà¤Ĥ à¥Ģ
à¥ĩà¤Ĥ ..
Ġà¤µ à¤¯à¤µà¤¸
à¤ľ à¤µà¤¨
à¤ľ à¤¸à¤¨
à¤¼ %
à¤¼ à¥Ĩ
Ġà¤¬ à¤²à¤¤
Ġà¤¤ à¤ĭ
Ġà¤¦ à¤¸à¤°
Ġà¤¦ à¤®à¤ķ
à¤¶ à¤¹à¤ľ
à¤¬ à¤ł
Ġà¤² à¤Ī
à¤Ł à¤ªà¤ķ
à¤Ł à¤Ĺà¤£
à¤ı à¤ľà¤¨
à¤ı à¤¸à¤¨
à¤ı à¤¡à¤¬
à¤ı à¤Ĩà¤°à¤Ł
à¤ı à¤ıà¤¸à¤Ĩà¤Ī
Ġà¤° à¤¸à¤®
à¤· à¤°à¤ķ
à¤· à¤°à¤®
à¤· à¤¯à¤¨
à¤ļ à¤ľ
à¤ļ à¤¨à¤ķ
à¤ļ à¤·à¤ķ
à¤¡ à¤¨à¤®
à¤¡ à¤¸à¤µ
à¤¥ à¤ĭ
Ġà¤Ĩ à¤°à¤Ń
à¤£ à¤«
à¤£ à¤¯à¤ķ
à¤£ à¤®à¤¤
Ġà¤Ń à¤Ń
Ġà¤Ń à¤®à¤¤
à¤ĸ à¤Ī
à¤ĸ à¤¨à¤ķ
à¤ĸ à¤²à¤¬à¤²
Ġà¤Ĺ à¤®à¤ķ
Ġ( ~
Ġ( à¤ĥ
Ġà¤ı à¤ªà¤²
à¤Ī à¤®à¤¨
à¤Ī à¤¡à¤¨
à¤Ī à¤Ĩà¤Īà¤Ł
à¤Ī à¤¦à¤¹
à¥Ģà¤Ĥ "
à¤ªà¤¨ à¤¸
Ġà¤ĸ à¤ªà¤ļ
à¤ĩ à¤®à¤ķ
Ġà¤ıà¤ķ à¤ª
Ġà¤ıà¤ķ à¤¦à¤²
Ġà¤¸à¤® à¤°à¤ķ
Ġà¤¸à¤® à¤ķà¤°à¤£
à¥Į à¤ĥ
à¤ħ à¤ķà¤°à¤£
à¤ħ à¤¸à¤¬
à¤ħ à¤Ĺà¤¡
à¤ħ à¤¹à¤¦
Ġà¤ħà¤ªà¤¨ à¤¯à¤¨
à¤Ĩ à¤ĩà¤¸à¤ķ
à¤Ĩ à¤ĩà¤ķ
à¤Ĩ City
à¤µà¤° à¤¯à¤¨
à¤¤à¤° à¤µà¤¸
à¤ī à¤¥à¤²
à¤ĵ à¤¦
à¤ĵ à¤įà¤¡
à¤°à¤£ à¤¯à¤¨
Ġà¤¡ à¤µà¤²à¤ªà¤®
Ġà¤īà¤ª à¤¥
Ġà¤īà¤ª à¤²à¤Ń
à¤ĥ âĢĻ
à¥Īà¤Ĥà¥¤ à¥¤
à¤°à¤® à¤¶à¤ķ
à¤¨à¤ķ à¤ļà¤¢
à¤°à¤¹ à¤²
Ġà¤ĺ à¤°à¤ķ
Ġà¤ĺ à¤¬à¤¡
à¤ªà¤¤ à¤¯
à¤²à¤¨ à¤®
à¤²à¤¨ à¤ª
à¤²à¤¨ à¤Ł
à¤¨à¤¤ à¤Ł
à¤¼à¤¿ -
à¤®à¤¨ à¤²
à¤¼à¥ĩ ;
Ġà¤īà¤¤ à¤ªà¤¨
à¤¯à¤¹ à¤ķà¤¤
à¤ļà¤¨ à¤¶
à¤ĺ à¤°à¤µ
à¤Ĺà¤¤ à¤ª
Ġà¤¸à¤¬ à¤µ
à¤·à¤£ à¤¦
à¤·à¤£ à¤°à¤¤
à¤°à¤¯ à¤¶à¤ķ
Ġà¤Ĩà¤¯ à¤¡
Ġà¤Ī o
à¤Łà¤° à¤¬à¤°
à¤¯à¤¨ à¤µà¤¸
Ġà¤¬à¤¡ à¤ĭà¤Ĩ
Ġà¤®à¤¹ à¤¨à¤¤
Ġà¤ĵ à¤Īà¤¸
à¤¦à¤° à¤¶
Ġà¤ħà¤Ń à¤¯à¤®
Ġà¤ĩà¤¨ à¤Ł
à¤¾. ,
à¤µà¤¸ à¤¹
à¤µà¤¸ à¤²
à¤®à¤ķ à¤ª
à¤§à¤¨ à¤¸
à¤¾) -
à¤µà¤² à¤Ĺ
à¤ĩà¤² à¤ķ
Ġs l
Ġs ing
Ġs ens
Ġs plit
Ġà¤Ŀ à¤µ
Ġà¤Ŀ à¤ªà¤ķà¤¤
à¤¯à¤° à¤¬à¤°
à¤Ĳ à¤Ł
Ġà¤ħà¤ª à¤²à¤ķ
à¤¤à¤ķ à¤¦
01 3
01 13
on line
Â¥Â ¦
à¤¾- âĢĺ
à¤ħà¤¨ à¤µà¤¸
à¤ħà¤¨ à¤µà¤¦
à¤°à¤¬ à¤¹
à¤°à¤¬ à¤§
à¤°à¤¬ à¤²à¤¤à¤®
à¤°à¤¨ à¤¸
à¤¤à¤® à¤¶
à¤¤à¤® à¤£
Ġà¤ħà¤¬ à¤¨
Ġà¤Ĩà¤ľ à¤ķ
Ġà¤ķà¤² à¤ªà¤ķ
Ġà¤®à¤¹à¤¤ à¤µà¤ª
Ġ3 11
in n
Ġà¤ĳ à¤ªà¤Ł
à¤¨à¤° à¤ª
à¤ıà¤¸ à¤ıà¤ļ
à¤¬à¤² à¤¦
à¤ķà¤Ł à¤®
à¤µà¤¯ à¤ª
Ġà¤Ķ à¤¡
à¤Ĩà¤° à¤ĵà¤¸
à¤¯à¤ª à¤°à¤ķà¤¤
à¤Ĩà¤Ī à¤®
à¤Ĩà¤Ī à¤Īà¤ıà¤¸
à¥ĭ) .
Ġt ax
Ġt hird
à¤¯à¤µ à¤ļ
Ġà¤ªà¤¢ à¤ĭà¤¨
es e
Ġ4 24
Ġ4 35
à¤Ľà¤² à¤ª
al y
al ger
Ġà¤Ĩà¤Ī à¤ıà¤²
Ġà¤Ĩà¤Ī à¤ıà¤¸à¤Ĩà¤Ī
Ġà¤¨à¤µ à¤Ĺà¤ł
à¤¦à¤ķ Name
Ġd ll
la pse
it ar
or ks
Ġà¤Ĩà¤® à¤ļ
à¤ıà¤® à¤ıà¤®
à¤ıà¤® à¤ıà¤®à¤ıà¤¸
à¤ªà¤Ł à¤¸à¤¨
à¤ħà¤ª à¤°à¤ķ
Ġk ig
à¤ķà¤® à¤ļà¤Łà¤ķ
à¤ªà¤£ à¤ķ
en cy
Ġà¤ıà¤¸ à¤Ĩà¤Ī
à¤ħà¤Ń à¤Ļ
Ġà¤§à¤¨ à¤ª
Ġ18 20
Â¤Âķ -
à¤µà¤ļ à¤¸
à¤µà¤ļ à¤²à¤¨
ar s
at able
at ell
Ġname s
à¤²à¤µ à¤®
Ġà¤ıà¤¨ à¤Ĩà¤°
Ġà¤ıà¤¨ à¤Ĩà¤°à¤ĵ
Ġà¤ıà¤¨ à¤Ĩà¤°à¤ıà¤®
ĠS D
ĠS H
ĠS er
ĠS he
ĠS earch
à¤ıà¤« à¤µ
à¤ıà¤« à¤¬
à¤ıà¤« à¤ıà¤Ł
à¤ıà¤« à¤ĵà¤µ
Ġ- &
Ġc ache
Ġc iphers
à¤¦à¤¯ à¤Ĺà¤¤
à¤ħà¤ľ à¤µ
ĠC ar
ĠC are
ĠC ount
Ġ20 26
Ġ9 78
à¤ªà¤¡ à¤¤
re quest
om ink
ĠA C
ĠA s
ĠA nd
ĠA VI
Ġà¤ıà¤® à¤Īà¤ķ
à¤¯à¤¶ à¤ª
Â¤Â¸ :
he m
he ma
à¤īà¤ª à¤¸à¤®
Ġdo ck
Ġ11 000
à¤¬à¤Ī à¤¨
se l
se ct
à¤ªà¤¹à¤² à¤µ
Ġdoes n
Ġà¤ıà¤² à¤ľ
Ġà¤ıà¤² à¤ıà¤®à¤Ł
à¤¦à¤² à¤¹à¤¨
ĠP er
ĠP re
ĠP AGE
ĠT TP
il it
Ġp U
Ġp e
Ġp layer
Ġb es
et a
à¤¦à¤¶ à¤ª
ĠF ROM
ĠF ILE
ĠF amil
âĢĺ %
di f
di se
à¤Ļ à¤²
ĠB ur
ra v
Ġf lo
Ġf eedback
Ġm ol
Ġm ill
Ġm ax
ĠD SL
ĠD ay
Ġ14 30
Ġ14 69
ĠN O
ĠN ote
ĠN aba
18 4
18 18
18 92
18 62
18 91
18 76
18 86
18 83
Ġ17 72
Ġ17 94
Ġw im
à¤¶à¤¯ à¤¦à¤°
Ġà¤®à¤² à¤ª
ĠG reen
Ġh ard
Ġà¤īà¤Ĺ à¤²à¤¨
Ġin di
Ġà¤¸à¤°à¤¦ à¤²
ĠH ar
Ġà¤ıà¤« à¤Ĩà¤Īà¤ıà¤«
Ġà¤ıà¤« à¤ĵà¤ıà¤²
ut or
Ġg px
Ġg cj
id gin
à¥ĩà¤Ĥà¤ĥ à¥¤
ĠE MAIL
ĠO CR
à¤Ĥ. -
14 1
14 8
16 3
Ġà¤ĩà¤ķà¤Ł à¤ł
Â¥Âĭ -
à¥Ģ? -
ac tive
iv a
iv alaya
Ġà¥© à¥¦à¥¦à¥¦
Ġà¤Ĩà¤īà¤Ł à¤¡
25 01
Ġl ocation
iii à¤ķà¤ĸ
08 14
23 2
23 6
ĠZ à¤ħà¤Ń
>> >
Ġ23 1
22 1
22 6
AN C
AP T
ĠY OFF
à¤ħà¤¶ à¤Ļ
OR BA
Ġ35 4
Ġ35 8
à¤į à¤ķ
à¤į à¤®à¤Ī
à¥Ĩ ,
ex ec
AR MS
à¤®à¤¡ à¤Ĺ
Ġ29 4
Ġ29 5
Ġ29 6
Ġ29 8
26 8
27 9
04 14
Ġcom press
ĠX I
ĠX OFF
Ġre qu
06 1
29 2
tr ate
ind ones
Ġor der
RAN S
ul ti
à¤µà¤® à¤¯à¤¤
Ġ45 00
à¤¤à¤¹ à¤²à¤ķ
Ġà¥§à¥« à¥®à¥¦
Ġà¥§à¥® à¥«à¥¦
Ġà¥§à¥® à¥¯à¥¦
Ġà¤¨à¤ķà¤² à¤ļ
à¤Ĩà¤Īà¤ıà¤¸ à¤ı
ĠĠ Ġ
nu clear
à¤ıà¤®à¤ıà¤² à¤ı
Ġ33 00
ah ar
à¥§à¥¦ à¥Ń
36 3
à¤Ńà¤Ĺà¤µ à¤¦à¤Ĺ
pp ly
33 3
Ġ34 1
}" .
ev ent
IC A
99 9
à¤ıà¤ķà¤² à¤µ
Ġà¤ļà¤¹ à¤²à¤ķà¤¦à¤®
Ġà¤Ĩà¤ĩ à¤įà¤®à¤Ī
Ġà¤į à¤¸
à¥§à¥¬ à¥¦à¥¦
hel lo
if i
à¥§à¥¯ à¥§à¥ª
Â¤Â£ :
Ġ39 1
ĠQ u
Ġà¥¯ à¥¦à¥¦à¥¦
à¥§à¥¯à¥Ń à¥®
all back
Ġà¤°à¤£ à¤§
à¤ıà¤¨à¤Ĩà¤° à¤ıà¤¸à¤Ĩà¤°
to ols
à¤ļà¤Ł à¤Ĺ
à¤ħà¤µà¤² à¤®
à¥§à¥¯à¥® à¥Ń
Ġint able
ud a
Ġà¥¯à¥ ª
ET WORK
ph p
Ġà¥§à¥¯à¥ª à¥¯
à¤ļà¤¹ à¤ļà¤¹
ond ay
GE OST
à¤ľà¤ľ à¤ĺ
Ġun able
eg a
sc ore
KChar Select
cent er
ĠUn it
pl an
Ġwh eel
Ġ00 1
à¥§à¥§à¥ ¬
Ġà¥¨à¥ª à¥¦
Ġà¥¨à¥ª à¥¦à¥¦
MD N
Ġ86 01
Ġà¤ªà¥ľ à¤¨
ĠEx plorer
ical ly
à¤¨à¤®à¤ķ à¤¹à¤°
Mac Ic
Mac Farsi
Ġà¥§à¥¯à¥¬ à¥ª
ward s
CR esult
ATE NAME
Ġcolor able
ĠSp amAssassin
lin ux
Ġà¥§à¥¯à¥¦ à¥©
à¤ļà¤°à¤ķ à¤¸
Ch oo
Ġper petr
tin e
PL UGIN
à¥§à¥¯à¥ª à¥®
odif ied
df es
à¤ıà¤¨à¤ıà¤ļ à¤¬
Ġpar ameter
Ġpar allel
cm d
DM IN
Ġmail dir
à¥§à¥¯à¥¦ à¥¨
SP F
Ġà¤¬à¤¢à¤ĭ à¤Ĩà¤¨
Ġacc ess
Ġpref erences
ĠAss istance
Ġaddress book
ash ington
eland ic
GTK mm
TH xHE
aniz ation
ĠGu ide
sum mary
Ġdisplay ed
Ġdivis ion
ester n
Ġà¤Ĩà¤Īà¤Ĩà¤Īà¤ıà¤¸ à¤¸
Ġà¤Ĩà¤Īà¤Ĩà¤Īà¤ıà¤¸ à¤Īà¤Ĩà¤°
uri es
Ġstr ftime
Open Change
Ġ223 1
QU IT
zer land
ras htrapati
Ġlocal e
à¥ļ à¤²
ĠWi Fi
Ġchrom ati
Ġà¤Ĩà¤Īà¤ıà¤« à¤ıà¤¸à¤¸
Lib isofs
Spec ial
ĠWork ing
HEL O
Ġden ominators
ĠInt egr
emph asis
uj arati
CUR R
ĠPay ment
Aut o
Ġà¤²à¤ĭ à¤Ł
Ġpack ets
ĠAi Q
dial og
AUT H
Min imal
freed omink
Ġpri ority
ĠNT SC
swit zerland
OH AB
bs nl
Ġtub ule
Ġincl ud
Plugin s
CERTIFIC ATENAME
MAR KUP
WID THxHE
oce ania
ott om
ĠER ROR
MacRoman ian
Berke ley
ODB CResult
sach ivalaya
à¤ķà¤ļà¤ķ à¤ļ
alger ia
orks hire
ĠFamil ies
ARMS CII
indones ia
GEOST D
MacIc elandic
rashtrapati sachivalaya
ĠIntegr ated
WIDTHxHE IGHT
" :%
- ]
- ://...
/ (
/ âĢĿ>
3 27
3 29
4 368
6 44
6 40
7 47
: )
> à¥¤
A c
C F
C M
C ent
D isplay
D uration
F lag
F irefox
F oreign
G ec
G od
G AM
I d
I MA
I con
K EN
K AGE
M T
M on
M onday
N N
O X
P al
R aj
S u
S qu
S IT
S yst
S UM
T N
T est
U K
V P
W eekday
Y UV
Z à¤°
a ve
a Na
b ul
c v
c li
c ast
c heck
c lick
d ing
d ownload
f rom
f low
g y
g z
g ar
g vi
g eneral
h v
h ub
i tion
i br
j abber
m od
m ode
r esh
t ets
w in
y e
y te
z h
} -${
~ %
Â Ģ
Ä į
â ĸł
Ġ ]
Ġ op
Ġ htm
Ġ escape
à¤¾ âĢľ
à¤° à¤°à¤£
à¤° à¤¥à¤°
à¥ĩ ''
à¥ĩ }:
à¥į à¥Ĥ
à¤¿ à¥°
à¤¿ ",
Ġà¤ķ à¤¯à¤°
à¤¨ à¤°à¤¯
à¤¨ à¤®à¤°
à¤¨ à¤Ĺà¤®
à¤¨ à¤Ļ
à¥Ģ à¥ģ
à¤¤ T
à¤¤ à¤¸à¤ķ
à¤ķ à¤¸à¤°
à¤ķ à¤¹à¤®
à¤ķ à¤ªà¤ķ
à¤¯ à¤Ĺà¤°
à¤¯ à¤ĺ
à¤¯ à¤Ńà¤ķ
à¤¯ à¤°à¤¸à¤¨
à¤¯ à¤¸à¤®à¤¯
à¤¸ africa
Ġà¤¹ à¤°à¤¦à¤¤
à¤® à¤¡à¤°
à¤® à¤¯à¤¸
à¤® à¤ķà¤°à¤¨
à¤¹ à¤¯à¤¤
à¤¹ à¤¨à¤ķ
Ġà¤ª à¤¦à¤°
à¥Ī ],
à¥Ī âĢĻâĢĻà¥¤
à¤µ à¤ĸ
à¤µ à¤¤à¤°à¤£
à¤µ à¤¦à¤¶
Ġà¤® à¤®à¤²
Ġà¤® à¤¥à¤¨
à¤¦ à¤¸à¤®
à¤¦ à¤ķà¤¨
à¤¦ à¤¶à¤°
à¤¦ à¤¹à¤¶
à¤¦ à¤Ĺà¤°à¤ľ
à¤ª à¤Ī
à¤ª à¤¸à¤ķ
à¤ª à¤ħà¤¨
à¤ª Name
à¤ª à¤°à¤ķà¤¤
à¤Ĺ à¤¸à¤®
à¤Ĺ à¤µà¤¨
à¤Ĺ à¤²à¤¯
à¤Ĺ à¤ħà¤ª
à¤Ĺ à¤Ĺà¤ķ
à¥ĩà¤Ĥ à¤¿
Ġà¤ľ à¤ł
Ġà¤ħ à¤ĳ
Ġà¤¨ à¤¨à¤¦
Ġà¤¨ à¤°à¤Ĺ
Ġà¤¨ à¤°à¤Ńà¤ķ
à¤ľ à¤¯à¤¤
à¤ľ à¤¦à¤°
à¤ľ à¤®à¤¸
à¤ľ à¤¸à¤¤
à¤ľ Query
à¤¼ ?
à¥Ĥ à¥ĭ
Ġà¤¤ à¤¨à¤¨
Ġà¤¦ à¤§
Ġà¤¦ à¤ķà¤¤
Ġà¤ī à¤£
à¤¶ à¤ķà¤¤
à¤¶ à¤µà¤¤
à¤¶ à¤¤à¤®
à¤¶ à¤µà¤§
à¤¬ à¤ªà¤¤
à¤¬ à¤µà¤¨
Ġà¤² à¤ķà¤°
à¤Ł à¤°à¤¹
à¤Ł à¤¯à¤°
à¤Ł à¤²à¤ķ
à¤ı à¤°à¤£
à¤ı à¤ħà¤²
à¤ı à¤ıà¤¸à¤ı
à¤ı à¤ıà¤¸à¤Ĩà¤°
Ġà¤° à¤ķà¤¤
Ġà¤° à¤ķà¤¨
à¤§ à¤¯à¤®
à¤§ à¤Łà¤¨
à¤§ à¤¶à¤°
à¤§ à¤¶à¤¹à¤°
à¤· à¤ŀ
à¤· à¤®à¤ķ
à¤· à¤Ļ
Ġà¤ķà¤° à¤¸
Ġà¤ķà¤° à¤ķà¤²
à¤ļ à¤Łà¤¨
à¤ļ à¤®à¤°
à¤ļ à¤ªà¤¦à¤¸
à¤¡ à¤Ľ
à¤¡ à¤°à¤ķ
à¤¡ à¤¸à¤°
à¤¡ world
à¤¡ à¤ĵà¤ª
à¤¡ unit
à¤¡ à¤°à¤®à¤²
à¤¥ à¤ªà¤ķ
Ġà¤Ĩ à¤°à¤¹
Ġà¤Ĩ à¤īà¤ļ
Ġà¤Ĩ à¥Ľ
à¤£ à¤¦à¤°
à¤£ à¤µà¤¸
Ġà¤Ń à¤ª
Ġà¤Ń à¤¦à¤°
à¤ĸ à¤®à¤£
Ġà¤Ĺ à¤¸
à¤Ń à¤°à¤®à¤¨
Ġà¤ªà¤° à¤®à¤¸à¤¤
Ġ( /
Ġà¤ĩ à¤°à¤«
Ġà¤ĩ à¤ĭà¤²
Ġà¤ı à¤ļà¤¯
Ġà¤ı à¤Ĩà¤°
Ġà¤ı à¤²à¤µ
Ġà¤ı à¤ıà¤®à¤¸
Ġà¤ı à¤ıà¤¸à¤Ĩà¤Ī
à¤Ī à¤°à¤£
à¤Ī à¤¸à¤°
à¤Ī à¤¸à¤ª
Ġà¤¶ à¤ļ
Ġà¤¶ à¤®à¤²
à¤ªà¤¨ à¤°
Ġà¤ĸ à¤ĭà¤°
à¤ĩ à¤Ĩà¤°
à¤ĩ à¤ªà¤°à¤µ
Ġà¤ıà¤ķ à¤¶
à¤¾à¤Ĥ à¤ĥ%
à¤Ľ à¤ķà¤Ł
à¤Ľ à¤łà¤µ
à¤ħ à¤°à¤¦
à¤ħ à¤Ńà¤µ
à¤ħ à¤¡à¤ķ
à¤ķà¤° à¤ĸ
à¤ķà¤° à¤Ń
Ġà¤ħà¤¨ à¤µà¤§
à¤Ĩ à¤ī
à¤Ĩ à¤¨à¤¦
à¤Ĩ à¤¸à¤µ
à¤Ĩ à¤¹à¤Ł
à¤ķà¤¤ à¤ħà¤²
à¤ł à¤®à¤²
à¤ł à¤ĸà¤ķ
à¤ł à¤ĸà¤Ĺ
à¤µà¤° Comment
Ġà¤ķà¤°à¤¤ à¤²
à¤ī à¤ļà¤¨
à¤ī à¤¦à¤Ĺ
à¤ī à¤¬à¤ķ
à¤ī à¤Ĩà¤Ĺ
à¤ī à¤Ŀà¤Ĺ
à¤¾, ,
à¤¾, .
à¤ªà¤° à¤Ńà¤ķ
à¥Ī, âĢĶ
Ġà¤¡ à¤°à¤¬
Ġà¤¡ à¤«à¤²
Ġà¤¡ à¤ªà¤Ł
à¤ľà¤¨ à¤Ĺ
à¥Īà¤Ĥà¥¤ âĢĻâĢĻ
à¥ī à¤¾
Ġà¤¤à¤¥ à¤ĭ
à¤Ŀ à¤°à¤¬
Ġà¤§ à¤¨à¤¤
Ġà¤§ à¤§à¤ķ
à¤°à¤® à¤¥
à¤°à¤® à¤¹à¤¤
à¤¢ à¤¹
à¤¢ à¤°à¤ª
Ġà¤Ľ à¤°
à¤¯à¤¤ à¤ķà¤¤
à¤¨à¤ķ à¤µ
à¤¨à¤ķ à¤²à¤ļ
à¤¹à¤° à¤¡
à¤¼à¥Ģ ?
à¤¯à¤® à¤µà¤¸
à¥Ī. --
à¤²à¤¨ à¤°
à¤°à¤¸ à¤µà¤ª
à¤¸à¤® à¤ķà¤ķ
à¤²à¤¤ à¤ķ
à¤²à¤¤ à¤ĸ
à¤µà¤¨ à¤¹
à¥Ģà¥¤ âĢĻ
à¤ļà¤¨ à¤ª
à¤ĺ à¤·
à¤ĺ à¤ĸ
à¤ĺ à¤®à¤¸
à¤ĺ à¤®à¤£
à¤ĺ à¤¦à¤£
à¤¬à¤° à¤ľ
à¤¸à¤¨ à¤®
à¤¸à¤¨ à¤ª
Ġà¤Ī à¤µà¤¨
Ġà¤Ī à¤Ĺà¤²
à¤²à¤¯ à¤ľ
Ġà¤ĵ à¤¯
Ġà¤ĵ à¤ĸà¤²
Ġà¤ĵ à¤Łà¤µ
00 9
à¤¦à¤¨ à¤¨à¤Ĺà¤°
à¤ķà¤² à¤Ĺ
à¤ķà¤°à¤£ à¤ķ
à¤®à¤ķ à¤Ī
à¤µà¤¤ à¤ĸ
Ġà¤Ĩà¤µ à¤·
à¥ģà¤Ĥ à¥¤
Ġà¤¬à¤¢ à¤Ī
à¤¶à¤ķ à¤Ĺà¤£
à¤µà¤² à¤ķ
à¤ĩà¤² à¤ĵ
Ġà¤°à¤¸ à¤ª
Ġà¤°à¤¸ à¤§
Ġs hr
Ġà¤¸à¤®à¤Ŀ à¤¬
à¤Ĳ à¤¯
à¤Ĳ à¤¶à¤¨
Ġà¤Ĩà¤° à¤Ĩà¤°
Ġà¤ħà¤ª à¤łà¤¨
à¤ªà¤ķ à¤µ
à¤¨à¤¨ à¤µ
à¤¸à¤² à¤Ī
à¤®à¤² à¤Ī
Ġ' \'
Ġà¤Ĩà¤Ĺ à¤²
on ts
Ġà¤¸à¤¤ à¤µ
à¤¾- âĢĿ
à¤Ĺà¤² à¤ļ
Ġà¤¬à¤² à¤µà¤¨
à¤ħà¤¨ à¤¸à¤®à¤Ŀ
à¤¤à¤® à¤ª
me dium
ti sh
Ġ3 14
à¤¨à¤µ à¤µà¤°
à¥¦ à¥ª
à¥ĩà¤Ĥà¥¤ âĢĻâĢĻ
à¤ľà¤° à¤ķà¤°
in stel
Ġn ear
à¤¯à¤µà¤¸ à¤ĭ
à¤µà¤°à¤£ à¤ķ
à¤¨à¤° à¤°
à¤¨à¤° à¤ľ
à¤ıà¤¸ à¤¡à¤¬
à¤·à¤¯ à¤¸
à¤Ĭ à¤¸à¤°
à¤Ĭ à¤¬à¤¨
à¤Ĭ à¤§à¤®
à¤Ĭ à¤Łà¤ªà¤Ł
Ġà¤ħà¤ľ à¤®à¤²
er r
ame nt
à¤Ĩà¤Ī à¤Ĩà¤°à¤ı
à¤Ĩà¤Ī à¤ıà¤®à¤¸
Ġt um
pr ef
à¤¯à¤µ à¤«à¤²
Ġà¤ªà¤¢ à¤ĭà¤Ĩà¤ĭ
Ġ5 20
Ġ5 18
Ġà¤Ĳ à¤¤à¤°
Ġ4 200
Ġ4 10
à¤¥à¤¨ Name
à¤Łà¤² à¤¶
Ġà¤Ĩà¤Ī à¤Ĩà¤Īà¤Ĩà¤Īà¤Ł
à¤ĸà¤° à¤ļ
à¤§à¤¤ à¤¤
à¤¦à¤ķ à¤®
à¤¦à¤ķ à¤ª
Ġd y
Ġd em
Ġa ce
à¤¹à¤ķ à¤¹
à¤ļà¤² à¤ķà¤°
la sing
it ation
or age
à¤¤à¤°à¤£ à¤¤
Ġà¤¬à¤ľ à¤¹
à¤ıà¤® à¤ıà¤¨à¤Ĩà¤°à¤Ī
Ġà¤¹à¤Ł à¤®
à¤ħà¤ª à¤ļà¤¯
à¤ħà¤ª à¤¶à¤¬
Ġk ar
Ġk ml
à¤®à¤¦ à¤¤
à¤®à¤¦ à¤¹
à¤®à¤¦ à¤¶
à¤®à¤¦ à¤Ń
à¤£à¤¯ à¤ľ
à¤¸à¤µ à¤¦à¤¤
op al
à¤ķà¤® à¤¬à¤ĸ
ab ar
Ġà¤ıà¤¸ à¤ıà¤ļà¤¸
ot or
à¤ĺà¤° à¤ĺà¤°
Ġ18 44
Ġ18 25
Ġ18 05
Â¤Â° .
Ġ< =
ii à¤ĸ
le ague
ar th
Ġ8 25
à¤¸à¤¬ à¤¡
à¤Ĩà¤ľ à¤ķ
à¤ıà¤¨ à¤¡à¤¬
à¤ķà¤µ à¤ķà¤¤
Ġ10 40
Ġà¤®à¤ķ à¤¦
Ġà¤īà¤ªà¤¸ à¤¹
ĠS P
ĠS ource
ĠS SH
ĠS etting
ĠS CS
st ock
à¤ıà¤« à¤ıà¤ķ
Ġc ab
Ġpr ophase
Ġ15 40
Ġ15 45
ĠC har
ĠC up
ĠC odec
ĠC RAM
ĠC roatian
Ġà¤¨à¤ľ à¤°à¤¬à¤¨
Ġà¤¨à¤° à¤¹à¤°
Ġ20 50
ĠA G
ĠA mb
ĠA IM
ĠA sh
ĠA ction
ĠA TT
ĠA IFF
à¤¸à¤¹ à¤ªà¤¤
à¤¸à¤¹ à¤¬à¤¦
à¤¸à¤¹ à¤ľà¤¤
ob o
Ġ12 20
Â¤Â¿ :
Ġà¤¤à¤² à¤¶à¤¨
à¤ħà¤ļ à¤ªà¤²
Ġà¤Ĩà¤² à¤®à¤Ĺ
Ġà¤Ĩà¤² à¤ļà¤ķ
à¤īà¤ª à¤²
à¥ĭ- %
Â¤Â¨ ...
à¤ħà¤µ à¤Ĺà¤£à¤¨
à¤ħà¤µ à¤Ĭà¤°
se ma
nt l
à¤ħà¤ķ à¤¬à¤ķ
Ġà¤ıà¤² à¤ıà¤¸
is o
is is
à¤¦à¤² à¤ªà¤¤à¤°
ĠP an
ĠP IM
ĠP AL
ĠT ransport
ĠT CV
ĠT echnology
ĠM S
ĠM ake
ĠM utt
il la
Ġp df
Ġp lace
Ġb l
Ġb ook
à¤¶à¤µ à¤¦
ĠF R
ĠF uel
à¤Ļ à¤®à¤¯
ĠB I
Ġf ig
à¤Ĩà¤ķ à¤ļ
Ġm ove
ĠD T
ĠD ec
Ġ13 10
Ġ13 15
Ġ13 73
ĠR V
ĠR oad
ĠU HC
Â¥ÂĢ :
ĠN AT
ĠN ov
ĠN FS
18 8
18 70
18 58
18 78
18 94
18 81
Ġ17 39
Ġ17 73
Ġw eek
Ġw allet
ĠL og
ĠL ist
ĠL iter
Ġe os
à¤ħà¤« à¤°à¤¨
ĠG e
ĠG o
ĠG urmukhi
Ġh ain
Ġh line
Ġin ser
ĠH Z
ĠH EL
ĠH aas
ĠH OST
ĠH elp
à¤ĩà¤ª à¤«
à¤ĩà¤ª à¤°à¤ķ
Ġà¤ıà¤« à¤Ĩà¤Īà¤ª
Ġx Ãī
à¤¡à¤® à¤¡
Ġg lobal
Ġg ayaa
id er
Â¤Â¯ :
à¥ĩà¤Ĥà¤ĥ -
ent atively
ĠO b
ĠO SS
à¤Ĥ. ,
à¤ıà¤¶ à¤Ĺà¤¬
Ġ24 2
à¤ħà¤Ĺ à¤£à¤¨
Ġà¤ıà¤ļ à¤µ
13 6
Ġu nc
Ġà¤µà¤ļà¤¨ à¤¬
à¥¤" ""
ri ting
Ġà¤ľà¤¯ à¤Ĺ
25 8
à¤īà¤² à¤Łà¤¨
Ġl ife
Ġl dif
vi olence
ur s
17 4
Ġ23 00
em issions
22 9
Ġà¤ħà¤¡ à¤¡
Ġ31 00
ĠW inter
ĠW ashington
24 00
Ġà¤ļà¤Ł à¤ĸ
us lim
ag er
Ġqu ality
AT T
à¤Ĩà¤² à¤®à¤Ĺ
Ġy ah
07 13
oc ra
ist s
Ġi M
Ġi r
Ġi à¤°
ĠV ISCII
ch at
ch lor
ex ample
ex mh
à¤«à¤¤ à¤¹
28 5
Ġr ar
Ġr ica
Ġr df
am bu
26 5
ĠX OR
ĠX ID
Ġre d
Ġre al
Ġre lated
à¤ĩà¤¬à¤° à¤¨
29 5
ay an
tr ee
194 1
Â¥ÂĪ ...
ter na
ter ms
de g
li ed
Ġà¥¦ à¥ª
un c
un ity
39 2
39 4
35 2
ric ulture
Ġ36 1
Ġ36 4
Ġà¥§à¥« à¥¦à¥¦à¥¦à¥¦
Ġà¥§à¥« à¥«à¥«
ĠK ar
à¤ĩà¤« à¤¸
Ġà¥§à¥® à¥®à¥¦
Ġà¥§à¥® à¥ªà¥¦
Ġà¤īà¤²à¤Ŀ à¤¤
ĠJ OHAB
à¥§à¥® à¥®à¥©
Ġà¤Ĺà¤® à¤Ľ
ct ool
à¤ĵà¤ıà¤¸ à¤¡
Ġà¤ĵà¤µà¤° à¤µ
Ġ33 2
Ġà¥® à¥ª
Ġà¥¨à¥¦ à¥§à¥©
à¤°à¤µà¤£ à¤¬
à¤ķà¤ļ à¤¹à¤°
Ġà¤·à¤¡ à¤¯à¤¨
Ġ48 9
Â¤Â· ,
à¤Ĺà¤°à¤£ à¤µ
ev ents
à¤īà¤ªà¤¸ à¤Ń
od ay
Ġj ar
99 5
à¤Ĩà¤¡ à¤²à¤ķ
im atable
Â¤ÂĪ -
64 7
time out
Ġan other
av aa
Ġz oo
à¤¡à¤Ĺ à¤ªà¤Ł
Ġ39 5
SS ID
SS API
à¤ĸà¤ĸ à¤ļ
Ġà¤¸à¤Ĺ à¤°à¤®
à¤¤à¤°à¤« à¤¦
à¤ıà¤Ĩà¤° à¤ľ
Ġex ec
Ġex amples
ep tem
Ġà¤īà¤Ľ à¤²à¤¨
à¤Łà¤¡ à¤ªà¤Ł
à¤Īà¤ıà¤¸ à¤ıà¤®
ĠCon fig
à¤ļà¤Ł à¤ªà¤Ł
à¤ĵà¤µà¤° à¤°
à¤¯à¤¬à¤² à¤¸
à¤¨à¤ĸ à¤¶
Ġ58 1
ro id
Ġà¥§à¥¯à¥ª à¥¦
Ġq a
GP G
à¤ĵà¤ªà¤¨ à¤°
à¤īà¤Ń à¤¯à¤²
à¥ĩâĢĻ à¥¤
ĠLDAP v
Ġat lasing
86 2501
pla s
à¤īà¤Ľ à¤²à¤¨
Ġwar ning
oper ation
à¥§à¥§à¥ ¨
ĠĠĠĠ ĠĠĠĠĠĠ
UN a
Ġsp inbox
ĠMac CE
ĠMac Roman
ĠMac Hebrew
ĠMac Cyrillic
ĠMac Turkish
Ġsqu are
Ġad ds
Ġen abled
ĠEx if
use d
à¥§à¥¯à¥© à¥¯
ang el
à¤¤à¤ªà¤Łà¤² à¤¶
ib ility
à¥ĺ à¤¦à¤®
sing le
Ġic on
Ġà¤Ĺà¤ĭ à¤¤à¤®
lin ed
ans kr
Ġà¥§à¥¯à¥¦ à¥®
rg anis
arb fp
ĠMIME à¤ª
à¤ıà¤ı à¤Ĩà¤Ī
130 7
PL ET
itor ial
itor Insert
lim ited
cra ft
à¤¹à¤¹ à¤¹à¤¹
aut od
Ġà¤²à¤Ļ à¤¨
Ġlz h
!! !
gr ind
Ġar j
bo ot
à¤ķà¤¨à¤ķ à¤¨
Ġsu ch
Ġ". "
Å£ Ã
header name
DM CP
Ex p
Ġmail hub
mbox Imp
ĠSc heme
Ġà¤¬à¤¢à¤ĭ à¤ķà¤°
TO KEN
App le
io tic
unch Pad
ĠEnter prise
cep t
Ġatt ack
Ġcredit s
ĠTr ue
not ation
cal ctool
à¤Ĩà¤Ĺà¤¤ à¤Ł
Ġik yaa
Mail s
Ġchr ome
eng al
eh ic
ĠCr oss
ĠCr isis
ĠEX IF
osi tive
ĠLa unchPad
rev Weekday
ĠDe uts
Ġ555 5
Ġcy cle
ĠAust ralia
Group Ed
be larus
sys fs
Ġasympt ote
ĠESendOptions Af
ĠESendOptions With
tain ing
à¤¾} -${
ograph ic
off screen
ĠRGB A
Ġresult s
ĠDr ugs
Ġrun command
Action GroupEd
spam c
spam d
ĠMacG reek
ĠMacG ujarati
sud o
Ġà¤¦à¤²à¤¬ à¤¦à¤²
ĠMem os
Ġmeas les
à¤ħà¤ªà¤¯ à¤¶
Ġsam aoM
ĠIC Q
ĠDev anagari
eme instel
Ġbind ings
ĠmaM id
Ġdef ines
ĠPro ject
Ġattach ments
cost a
squ o
ĠCan on
à¤Ĺà¤ĩ à¤¯à¤°à¤¬
Ġ'... '
Ġprov ide
Ġpla in
Ġvide olan
xem acs
Ġ'* '
ĠLD IF
PAC KAGE
bers hip
ĠSI GN
Ġlook up
Ġmess ages
PLA IN
Ġoc tets
à¤īà¤²à¤¨ à¤¬à¤Ł
allen ge
Abb revWeekday
Ġsens i
atell ite
dise ase
Ġindi vidual
utor ial
4368 45
Foreign Folder
Gec ko
Syst emeinstel
gvi m
Äį Å£
à¤¦à¤¹à¤¶ à¤¤à¤¨
ĠSetting s
ĠTCV N
ĠLiter ature
Ġinser tions
ambu j
Ġrelated related
eptem ber
anskr it
ĠDeuts ch
ĠESendOptionsAf ter
ĠESendOptionsWith in
ActionGroupEd itorInsert
AbbrevWeekday Name
Systemeinstel lung
, '
, /
, ]
- ,
/ +
/ ?
3 44
3 25
3 40
5 15
6 50
6 75
7 28
8 04
8 70
9 12
A G
A S
A ce
B aa
B ETA
C able
C dr
C haracter
C FC
C tl
C abinet
D OS
E UC
E piphany
F ORT
F CCC
F allback
G R
G ov
G ener
G SSAPI
H it
H CP
I s
I nt
I ML
I EL
I tip
K Config
L eg
L abel
M utt
N AT
O ld
P ART
R S
R ar
R SS
S out
S MIMEEncKeyPrefs
T DD
U G
V IP
W D
W ed
W allet
W riting
X z
[ %
] -
b est
b old
b its
b ody
c ting
d av
d inal
f ram
f lock
f ire
f ted
g ame
h older
l ens
m or
m id
m ap
m ory
m unit
m med
n ova
o la
o ly
o id
p id
p nc
p ati
p ages
p oint
p ne
s ocial
t ab
t rans
t our
t est
t asks
t ags
u C
u li
v u
v ersion
v ailable
v card
w x
w est
x z
x ix
x over
x viià¤ķ
y sema
Ã ¢
Ġ Ä
Ġ es
à¥ ł
à¤¾ \
à¤¾ âĢ¦
à¤° à¤ı
à¤° à¤µà¤°à¤£
à¤° à¤¥à¤¨
à¤° à¤¡à¤ķ
à¥ĩ `%
à¤¿ à¥ĭ
à¤¿ âĢĻâĢĻ
Ġà¤ķ à¤²à¤¯
Ġà¤ķ à¤ľà¤°
Ġà¤ķ à¤Łà¤²
Ġà¤ķ à¤¦à¤²
à¤¨ à¤¤à¤¨
à¤¨ à¤ķà¤°à¤£
à¤¨ à¤¬à¤¨
à¥Ģ Í¾
à¤¤ à¤ľà¤°
à¤¤ à¤²à¤°
à¤¤ Cancel
à¤¤ Deleg
à¤ķ à¤¯à¤¤
à¤ķ à¤ķà¤¨
à¤ķ world
à¥ĭ à¥°
à¤¯ à¤§à¤ķ
à¤¯ à¤ľà¤ķ
à¤¯ à¤ĳà¤ķ
à¤¸ à¤Ĩà¤°
à¤¸ te
à¤¸ Status
à¤® à¤ħ
à¤® à¤ĵ
à¤® à¤¯à¤®
à¤® à¤®à¤ķ
à¤® à¤¬à¤¨
à¤® à¤¥à¤¨
à¤® à¤§à¤°
à¤® Comment
Ġà¤¸ à¤°à¤¯
Ġà¤¸ à¤°à¤¦à¤°
à¤¹ à¤Ĩà¤§
à¤² à¤°à¤¹
à¤² à¤ķà¤°à¤£
à¤² à¤¸à¤¦
à¤² à¤Ńà¤Ĺ
à¤² à¤µà¤¶
à¤² à¤ħà¤ľ
à¥ģ "
à¥ģ ...
Ġà¤ª à¤Ī
à¥Ī âĻ«
à¤µ à¤Ľ
à¤µ à¤¸à¤ķ
à¤µ à¤ªà¤ķ
à¤µ Up
Ġà¤® à¤ķà¤¤
Ġà¤® à¤ļà¤¨
Ġà¤® à¤Ĩà¤¬
à¤¦ à¤µà¤¨
à¤¦ à¤Ĺà¤¤
à¤¦ à¤µà¤²
à¤¦ à¤²à¤¬
à¤¦ à¤ļà¤¤
à¤¦ Play
à¤ª à¤¯à¤¤
à¤ª à¤ªà¤¤
à¤ª à¤²à¤µ
à¤Ĺ à¤ªà¤¨
à¤Ĺ à¤µà¤¸
à¤Ĺ à¤¨à¤¸
à¤Ĺ à¤ªà¤¦
à¤Ĺ à¤Ļ
à¤Ĺ à¥ľ
à¤Ĺ à¤ľà¤¨à¤¨
à¤Ĺ à¤°à¤¤à¤Ł
Ġà¤ľ à¤°à¤¨
Ġà¤ħ à¤ŀ
Ġà¤ħ à¤Ĺà¤¤
Ġà¤ħ à¤Ļ
Ġà¤ħ à¥ŀ
Ġà¤ħ à¤¦à¤°à¤ĸ
Ġà¤ħ à¤ĳà¤°
Ġà¤µ à¤®
Ġà¤¨ à¤µà¤ķ
à¤ľ à¤¯à¤®
à¤ľ à¤°à¤µ
à¤ľ à¤ķà¤¨
à¤ľ à¤¯à¤²à¤²
à¤¼ :
Ġà¤¬ à¤²à¤¬à¤¨
Ġà¤¤ à¤¨à¤µ
Ġà¤¤ à¤®à¤Ĺ
Ġà¤ī à¤ķà¤¡
à¤¶ à¤ĵ
à¤¶ Comment
à¤¶ weather
à¤¬ à¤¥
à¤¬ à¤Łà¤°
à¤¬ à¤ĺà¤°
à¤¬ à¤Łà¤¤
Ġà¤² à¤¯à¤ķ
Ġà¤² à¤¯à¤¤
Ġà¤² à¤µà¤²
Ġà¤² à¤¯à¤ª
Ġà¤² à¤ªà¤°à¤µ
à¤Ł à¤ĸ
à¤ı à¤Ŀ
à¤ı à¤ıà¤®à¤¯
Ġà¤° à¤¸à¤®à¤¯
Ġà¤° à¤Ĭà¤«
à¤§ à¤¬à¤¨
à¤· à¤°à¤§
Ġà¤ķà¤° à¤¬
à¤ļ à¤°à¤®à¤°
à¤¡ à¤°à¤¹
à¤¡ à¤¸à¤µà¤°
Ġà¤Ĩ à¤¯à¤ķ
Ġà¤Ĩ à¤ĩà¤µ
Ġà¤Ĩ à¤³à¤µ
Ġà¤Ń à¤°à¤ķ
Ġà¤Ń à¤Ĺà¤¶
Ġà¤¯ à¤µà¤¸
Ġà¤¯ à¤®à¤ķ
Ġà¤¯ à¤®à¤ľ
à¤ĸ à¤«
à¤ĸ à¤®à¤¨
à¤ĸ à¤°à¤¬
à¤ĸ à¤¬à¤°à¤¦
Ġà¤Ĺ à¤Ĺ
Ġà¤Ĺ à¤ļ
à¤Ń à¤²à¤ķà¤°
Ġ( $
Ġ( ?
Ġà¤ĩ à¤ķà¤¸
Ġà¤ı à¤ıà¤®à¤ıà¤²
Ġà¤ı à¤Ĩà¤°à¤¸
à¤Ī à¤ķà¤°
à¤Ī à¤Ĩà¤Ī
à¤Ī à¤Ĩà¤°à¤Ĩà¤Ī
Ġà¤¶ à¤ĭ
à¤« à¤ĳà¤ª
à¤ªà¤¨ à¤ªà¤¤
à¤ĩ à¤ªà¤¨
à¤ĩ à¤¤à¤®
Ġà¤ıà¤ķ à¤Ľà¤¤
Ġà¤¸à¤® à¤¯à¤®
à¤ģ âĢĿ
à¤Ľ à¤¨à¤¨
à¤ħ à¤ľà¤°
à¤ħ à¤¬à¤°à¤¨
Ġà¤°à¤¹ à¤Ł
à¤ķà¤° à¤¯
Ġà¤ħà¤¨ à¤Ľ
Ġà¤ħà¤¨ à¤µà¤¸
à¤Ĩ à¤¸à¤°
à¤ķà¤¤ à¤ķ
à¤ł à¤ĺ
à¤ł à¤ĸà¤ĸ
à¤ī à¤¥à¤ª
à¤¾, %
à¥Ī, .
à¥Ī, ................
âĢ ¡
à¤ľà¤¨ à¤¦
à¤ľà¤¨ à¤ķà¤¤
à¤ľà¤¨ à¤ªà¤¥
Ġà¤īà¤ª à¤®à¤¤
Ġà¤īà¤ª à¤ļà¤°
à¤ĥ ".
à¥Īà¤Ĥà¥¤ ]
à¤Ŀ à¤ª
à¤¾à¤ģ %
Ġà¤§ à¤¨à¤ķ
à¤¸à¤° à¤Ĺà¤°
Ġà¤Ľ à¤²à¤¤
Ġà¤Ľ à¤ķà¤¡
à¤¯à¤¤ à¤µ
à¤¹à¤° à¤ª
à¤¹à¤° à¤¶
à¤Ĺà¤° à¤ľà¤¨
Ġà¤ĺ à¤Łà¤®
Ġà¤ĺ à¥ľ
à¤¯à¤® à¤¹
à¤²à¤¨ à¤¹
à¤°à¤¸ à¤®à¤£
Ġà¤²à¤Ĺ à¤Ń
à¤¹à¤¤ à¤ª
à¤µà¤¨ à¤¯à¤¨
à¤ŀ à¤¯
à¤¯à¤¹ à¤¸
à¤ĺ à¤µà¤°
Ġà¤Ī à¤ļ
Ġà¤Ī à¤ıà¤«
à¤Łà¤° à¤Łà¤¨
à¤¯à¤¨ Name
Ġà¤®à¤¹ à¤Ń
Ġà¤ĵ à¤·à¤§
Ġà¤ĵ à¤ľà¤ª
Ġà¤īà¤¦ à¤¯à¤¨
00 3
à¤¦à¤¨ à¤¹
Ġà¤¸à¤®à¤¯ Pop
Ġà¤ħà¤¤ à¤ķ
Ġà¤ħà¤¤ à¤²
à¥ĭ, -
à¤µà¤¸ à¤ª
à¤µà¤¸ à¤¯à¤¨
à¤Łà¤¨ à¤Ĺà¤°
à¤ıà¤ķ à¤Ľà¤¤
à¤īà¤¨ à¤Ĺ
à¤īà¤¨ à¤ļ
Ġs k
Ġs ip
Ġs Play
Ġs Time
Ġs ites
Ġs aver
Ġà¤ħà¤ļ à¤Ľ
Ġà¤ªà¤¡ à¤µ
à¤Ĳ à¤ĵà¤Ł
Ġà¤Ĭ à¤Ł
Ġà¤Ĭ à¤§à¤®
Ġà¤ħà¤ª à¤«
Ġà¤Ĩà¤¤ à¤¤
à¤¨à¤¨ à¤ĸ
à¤¸à¤² à¤ķ
à¤®à¤² à¤¬
à¤®à¤² à¤¹à¤®
01 7
Ġ' âĻª
à¤²à¤¬ à¤¹
à¤²à¤¬ à¤«
Ġà¤Ĩà¤Ĺ à¤£
Ġà¤Ĩà¤Ĺ à¤£à¤¨
Ġà¤¸à¤¤ à¤¸à¤Ī
Â¥Â §
à¤ħà¤¨ à¤¬à¤¨
à¤ħà¤¨ à¤ĭ
à¤ħà¤¨ à¤Ĺà¤¨
à¤ħà¤¨ à¤Ĺà¤£
à¤ħà¤¨ à¤Ĺà¤¢
à¤ľà¤¬ à¤²
à¤°à¤¨ à¤¦à¤®
Ġà¤ľà¤¨ à¤§à¤¨
à¤ķà¤¨ à¤Ĺ
Ġà¤ķà¤² à¤ķà¤²
Ġà¤¢ à¤¹à¤¨
ti a
Ġ3 85
à¤¨à¤µ à¤ľà¤¨
à¥¦ à¥¯
à¤¡à¤° Comment
à¤ľà¤° Name
in ate
in ess
Ġn g
Ġn ar
Ġn ext
Ġn ations
à¤®à¤¸ à¤ĸà¤°
Ġà¤ĳ à¤ķà¤²
à¤ıà¤¸ à¤ıà¤«à¤¸
an ity
an aa
Ġà¤īà¤ªà¤²à¤¬ à¤ĭ
à¤¬à¤² à¤Ī
à¤ķà¤Ł à¤¯
Ġà¤®à¤¦ à¤¤
Ġà¤Ķ à¤¤
er al
à¤¨à¤² à¤¸
à¤¨à¤² à¤¦
à¤Ĩà¤Ī à¤ıà¤¨à¤¬
Ġà¤°à¤ķ à¤¬
Ġt k
Ġt ag
Ġt ao
Ġt est
pr il
pr oposal
Ġà¤ħà¤® à¤ļ
Ġà¤²à¤¡ à¤ĭà¤ķ
Ġà¤īà¤² à¤ªà¤¬
à¤¶à¤¤ à¤®à¤¨
à¤¶à¤¤ à¤ªà¤¥
Ġà¤ªà¤¢ à¤Ī
Ġà¤Ĳ à¤Ł
Ġà¤Ĳ à¤īà¤¨
Ġ4 44
à¤¡à¤² à¤¹
à¤ĭ à¤ĵà¤¨
à¤°à¤ľ à¤²
à¤°à¤ľ à¤®à¤²
à¤¯à¤² à¤¸
al et
Ġà¤Ĩà¤Ī à¤µà¤°
Ġà¤Ĩà¤Ī à¤ĵ
Ġà¤Ĩà¤Ī à¤¡à¤¬
Ġà¤Ĩà¤Ī à¤Ĩà¤Īà¤¡
Ġà¤Ĩà¤Ī à¤Ĩà¤°à¤ľ
Ġà¤Ĩà¤Ī à¤ıà¤®à¤ıà¤«
Ġd im
Ġd ue
Ġd elete
19 1
la mp
it le
or a
or ra
or der
à¤¬à¤¤ à¤ħ
Ġà¤Ĩà¤® à¤µ
à¤¹à¤² à¤°
à¤¹à¤² à¤¦
à¤¯à¤¸ à¤ķà¤¤
Ġà¤¸à¤« à¤¦à¤°à¤ľ
à¤ıà¤® à¤Ĩà¤Īà¤ıà¤¸
44 0
ee per
Ġk uC
à¤¿) .
à¤ħà¤° à¤ªà¤¨à¤Ĺ
à¤Ĺà¤¨ City
ab yte
à¤ªà¤£ à¤ľ
Ġà¤ıà¤¸ à¤¯
Ġà¤§à¤¨ à¤ªà¤¤
à¤°à¤Ĺ à¤¹
Ġ18 19
Ġ18 09
Ġ18 41
Ġ'' ,
Ġ8 40
Ġ8 65
Ġ_ >
à¤®à¤¯ à¤ľà¤¨à¤ķ
à¤°à¤¥à¤® à¤ª
Ġà¤¹à¤² à¤¦
à¤ıà¤¨ à¤Ĩà¤Īà¤ıà¤¸
à¤ıà¤¨ à¤ıà¤«à¤ıà¤¸
à¤°à¤ª à¤¹
Ġà¤¦à¤² à¤ª
Ġà¤ıà¤¨ à¤ıà¤¸à¤ľ
Ġà¤ıà¤¨ à¤Īà¤ıà¤«à¤Ł
à¤ħà¤® à¤¹à¤¤
à¥Ī- ?
à¥Īà¤Ĥ? -
à¤ĳ à¤Ĺà¤¸
ĠS MIMEEncKeyPrefs
ĠS igner
st s
st an
st all
st atus
st yle
à¤¤à¤² à¤«
Ġà¤ħà¤« à¤°
à¤ıà¤« à¤Ĩà¤Īà¤ıà¤«
Ġc har
Ġc br
ĠC o
ĠC or
ĠC hange
Ġà¤Ĺà¤£ à¤µ
re t
Ġà¤ıà¤® à¤ıà¤®
à¤¥à¤ķ à¤ķà¤°à¤£
à¤¸à¤¹ à¤µ
à¤¸à¤¹ à¤²à¤Ĺ
ĠI nj
Ġà¤ĩà¤ļ à¤ĭ
Â¤Â¿ .
:// ....
à¤īà¤ª à¤¤à¤°
à¤ħà¤µ à¤°à¤¤
à¤ħà¤µ à¤ĺ
à¤ħà¤µ à¤®à¤°
Ġà¤«à¤² à¤Łà¤£
Ġà¤¦à¤¬ à¤ķà¤°
Ġ@ .
Ġ@ à¤ĥ
Ġà¤Ĩà¤¦à¤° à¤Ń
ol id
ol fram
ou ch
Ġà¤ıà¤² à¤«
Ġà¤ıà¤² à¤¬à¤°
Ġà¤ıà¤² à¤ıà¤ıà¤«
à¤ľà¤® à¤ķà¤°
ĠP EM
ĠP assword
Ġà¤¨à¤Ĺà¤° à¤µ
ĠT S
ĠT ER
ĠT rig
ĠM e
ĠM odified
20 5
nic al
Ġp ick
Ġb t
Ġb u
Ġb ool
et t
Ġ25 1
ĠF T
ĠF unction
ĠF lash
Ġ16 20
Ġ16 65
Ġ16 43
Ġ16 68
à¤Ļ à¤¤
à¤®à¤§ à¤²
ĠB ox
à¤Ĩà¤ķ à¤¬à¤¤à¤ħ
Ġm L
Ġm ain
Ġm atch
ĠD E
ĠD efault
Ġ13 20
Â¤Â® .
ĠR W
ĠR eg
à¤ĩà¤® à¤¶
à¤Ĺà¤ľ à¤ª
ĠU K
18 45
18 96
18 97
18 51
18 53
18 79
18 84
Ġ17 20
Ġ17 07
Ġ17 95
Ġ17 88
Ġw ifi
Â¤Â¤ :
à¤īà¤ļ à¤°à¤¨
ĠL ast
Ġe og
Ġà¤ķà¤¦ à¤®à¤¤
Ġh it
Ġh ota
30 4
Ġin s
ĠH ow
ĠH indi
ĠH ills
ĠH ealth
à¤ĩà¤¶ à¤°à¤¤
Ġà¤ıà¤« à¤¬
Ġà¤ıà¤« à¤ĵà¤ıà¤¸à¤ıà¤¸
15 5
15 7
Ġx yz
Ġg ame
Â¤Â¯ -
à¥ĩà¤Ĥà¤ĥ .
ĠE macs
ĠO K
ĠO ut
Ġà¤¹à¤¡ à¤¸à¤¨
Ġ100 000
à¤ħà¤Ĺ à¤¨à¤¤
Ġà¤¨à¤ľà¤° à¤ħà¤¨
13 1
13 7
à¤Ĩà¤¸ à¤µà¤¨
iv es
iv ate
Ġà¤īà¤Ń à¤¯
ri el
Ġà¥© à¥«à¥¦
Ġà¤ľà¤¯ à¤µà¤°
25 1
25 9
Ġ(% %
Ġl ld
iii à¤ķà¤Ĺ
vi g
hi le
Ġ28 3
Ġ28 4
ĠZ à¤ķà¤°
17 8
Ġà¤ªà¤ļ à¤ªà¤¨
Ġà¤ªà¤ļ à¤®à¤¢
Â¤ÂĹ .
24 2
24 7
24 9
à¥¯ à¥¦à¥¦
09 12
as c
as ic
Ġto o
AP OP
and orra
ĠY à¤ħà¤°
âĢĶ âĢĺ
oc ument
Ġà¥« à¥Ń
ist a
ist ered
ist ration
ad o
ad get
ad ata
Ġà¤ªà¤°à¤¤ à¤¦
Ġi Ph
ĠV II
ĠV ideo
Ġà¤¦à¤« à¤¤à¤°
Ġ35 7
Ġv o
Ġ60 6
IN BOX
Ġfor ward
ex pand
Ġr h
Ġà¥ª à¥®à¥¦
Ġà¤Ĺà¤¡ à¤ĭ
27 2
27 4
ĠX P
ĠX V
ĠX à¤ķ
ĠX VI
ĠX SPF
Ġre abs
06 13
29 3
ay out
à¥Ľ à¤Ĺ
à¥Ľ à¤°à¤²
tr ue
ĠUR N
um onia
Ġor dinal
---- -
Ġà¤ķà¤°à¤® à¤ļà¤¨
à¤Ńà¤¨ à¤Ńà¤¨
Ġà¤¶à¤² à¤ľà¤®
35 8
Ġà¥§à¥« à¥Ńà¥Ń
Ġà¥§à¥« à¥®à¥¬
à¤ıà¤¸à¤ıà¤¸ à¤¸
à¤ıà¤¸à¤ıà¤¸ à¤Ĩà¤°
à¤ıà¤¸à¤ıà¤¸ à¤ıà¤ļ
ĠK bps
ĠK Wallet
Ġà¥§à¥® à¥¬à¥©
à¤Ĩà¤Īà¤ıà¤¸ à¤Ī
Ġit s
ĠJ an
ĠJ ohn
à¥§à¥® à¥®à¥®
Ġst and
Ġst ore
Ġme an
Ġme mory
ast e
ĠÂ ±
Ġà¤ľà¤¨à¤¨ à¤¦
Ġ02 111
Ġà¥® à¥¨
Ġà¥® à¥¬
à¤Ĩà¤°à¤ıà¤² à¤ıà¤«
36 5
à¤¬à¤® à¤¬
Ġà¥¨à¥¦ à¥«à¥¦
Ġà¥§à¥¦ à¥§
gu lar
à¤¨à¤« à¤°à¤¤
Ġà¤°à¤¥ à¤¯
Ġà¥§à¥¯à¥¯à¥ ª
38 2
IT O
Ġj ournal
à¥¨à¥¦ à¥§à¥¨
Ġ47 0
EX IF
Ġà¤¨à¤Ĺ à¤°à¤ķ
con t
con vention
Ġà¥§à¥¯ à¥§à¥«
Ġà¥§à¥¬ à¥¨à¥¦
Ġà¥§à¥¬ à¥¦à¥Ń
av an
ak ia
à¤Ĺà¤¹ à¤Ī
iz ed
à¥§à¥¯ à¥§à¥©
ip es
à¤ıà¤¸à¤ıà¤² à¤Ł
unit s
ĠQ Latin
vii à¤ĸ
66 8
Ġà¤īà¤¦à¤° à¤¶
PRO T
PRO XY
ep hron
Ġà¤°à¤£ à¤¬
Ġà¤°à¤£ à¤Ľ
In dia
SE CA
IP T
ill ion
à¤Ĺà¤Ĺ à¤Ĺ
à¥Īà¤Ĥ... à¥¤
Count er
AL SE
à¤ĵà¤µà¤° à¤¬à¤°
ual Start
Ġ07 1
Ġà¥§à¥¯à¥Ń à¥¬
Reg ex
Reg Exp
ĠIn line
à¤Ńà¤Ĺà¤¤ à¤¸
Ġà¥¨à¥¨ à¥¨
ph ase
Ġun lock
aI ya
Ġà¥¨à¥¬ à¥©
Ġapp lied
Ġal ign
Ad obe
Ġph ase
à¤ıà¤¸à¤ıà¤® à¤¬
à¤ħà¤¨à¤ķ à¤¹
ĠUn read
ĠUn safe
Ġpl ural
reen ode
à¥§à¥§à¥ ©
à¥§à¥§à¥ ª
omb oy
Ġà¥§à¥¯à¥« à¥«
Ġà¥§à¥¯à¥« à¥Ń
isc o
Ġlist s
ff ix
Ġrep eat
Ġab sol
à¥§à¥¯à¥¬ à¥¬
Ġsp ac
HO TO
ĠIP TC
gen iso
à¤¨à¤°à¤® à¤ª
à¥¤à¥¤ à¥¤
Ġuser id
Ġ1800 1
Send mail
libgnome can
Ġà¥§à¥¯à¥¬ à¥«
Ġà¥§à¥¯à¥¬ à¥§
à¤Łà¤¹ à¤²à¤¨
à¤Ĩà¤Īà¤Ĩà¤Ī à¤ıà¤«à¤¸
Un able
ĠWeb GL
US ENET
par ent
way s
à¥§à¥¯à¥¨ à¥§
à¥§à¥¯à¥¨ à¥¯
Ġfrom Latin
ÃīÃ ©
org anizer
Ġà¤ŀ à¤®
vironment al
To KConfig
Date And
tiv ity
Ġà¥§à¥§à¥ ®
umb ia
MY SQL
tool tip
BO OL
let ype
Ġar c
Pr ovid
ech nical
Ġbegin ning
chi tis
Ġ119 2
ĠMy List
Ġinter sect
ĠAct ualStart
Ġserv ices
autom obile
Ġ(* .%
DI GEST
iti z
tac hed
mon o
ĠPRO PF
ester day
uri zation
Ġà¤¶à¤ķà¤° à¤ĸ
ĠOn ly
ĠInd ust
ĠMess age
Ġsecure ly
IND EX
Ġcub ed
ĠUk raine
ĠxB E
ĠSm og
Ġemp loy
igh bor
inc re
Ġcent rome
FILE NAME
Ġback up
à¤¨à¤Łà¤ĸà¤Ł à¤ªà¤¨
BB DB
val id
Ġprot ect
ĠAc tive
ĠAc cepted
bor der
Ġcri me
emph ysema
sud an
Ġob taining
Ġ"= "
TTY TDD
Ġne ighbor
ĠRA ID
Ġmultip lier
atm ospheric
aph ase
defin ition
serv er
tific ation
itr ogen
ĠPlace OfTheMeeting
etect ed
road way
jk stra
Import ant
Ġà¤īà¤ªà¤²à¤ĩ à¤§
Ġnak o
Ġdefin ite
develop ing
ĠSing h
ĠMO V
Ġpix els
udi es
ofluoroc arbon
slov akia
Tri mmed
fc ntl
Ġcb z
Ġlet ter
hot mail
Ġprog ress
DEF RA
KV pnc
Mov email
Ġflo at
APT CHA
Choo ser
PLUGIN NAME
Ġinclud ing
Ac cepted
Duration OfTheMeeting
à¤¤T entatively
Ġshr ink
ĠHEL P
ATT ERN
plas ma
Ġenabled gt
autod etected
Å£Ã ĵ
FORT RAN
Fallback ToKConfig
pne umonia
à¤¤Deleg ated
à¤¸te letype
à¤²à¤Ńà¤Ĺ à¤¢
à¤µUp dated
à¥Ī,................ ...
ĠInj uries
ĠTrig ger
ĠKWallet FallbackToKConfig
Ġabsol ute
geniso image
libgnomecan vas
DateAnd Time
MYSQL Result
Provid er
Ġintersect s
ĠActualStart DateAndTime
ĠPROPF IND
" }
% ;
' >
( _
, à¥¤
- ..
/ âĢĿ
/ \\\\
2 19
2 44
2 23
3 15
4 70
5 89
6 000
6 12
8 68
9 49
; :
; à¥¤
< \ï¿½\
A a
A MP
B C
B lu
B rowser
C hr
C SS
C OL
C IF
C limate
C ENT
C APTCHA
D R
D ust
D hv
E sc
E sq
F R
F X
G O
G ab
G MS
H ans
H elp
I O
I nd
J r
K G
K AL
K OI
L F
L Y
L og
L oo
M d
M ic
M ob
M ID
M oh
N ETWORK
O F
O ne
O rganis
P y
P IN
P OL
Q CI
Q RegExp
R a
S F
S q
S an
S ee
S ho
T E
U NT
V i
V EL
V III
W A
W N
W e
W ik
Y esterday
Z à¤¤à¤°
Z à¤¹à¤¤
a wards
b engal
c og
c ode
c ell
d or
d esc
f ear
g l
g o
i us
j ohn
k ao
m ount
n r
n one
n Å¯
n itrous
p q
p op
p her
p lay
p ha
p ass
p aper
r z
r ary
t d
t otal
u id
u lar
u file
u ham
u diation
v ens
v erb
w hatsThis
x iià¤ķ
y top
z a
z Me
Ã ·
Ã Ĥ
Ù ħ
ï Ģ
Ġ Â¾
Ġ ice
à¤° à¤ľà¤¬
à¤° à¤¥à¤ķ
à¤° world
à¤° afghanistan
à¥ĩ à¥Ĥ
à¥ĩ âĢĻâĢĻ
à¤¿ :%
Ġà¤ķ à¤ĩ
Ġà¤ķ à¤¨à¤¸
à¤¨ à¤¹à¤®
à¤¨ à¤Ĺà¤łà¤¨
à¤¨ à¤Ĺà¤ķ
à¤¨ color
à¤¨ usa
à¤¨ KCharselect
à¤¨ asia
à¥Ģ à¥Ī
à¥Ģ âĢį
à¤¤ à¤¯à¤ķ
à¤¤ à¤µà¤¸
à¤¤ Comment
à¤¤ à¤Ĺà¤¢
à¤¤ Permissions
à¤ķ à¤ĩà¤¨
à¤ķ à¤®à¤¸
à¤ķ Disc
à¤ķ à¤¹à¤ķà¤¹
à¤¯ à¤Ľ
à¤¯ à¤°à¤¯
à¤¯ à¤²à¤¬
à¤¸ à¤£
à¤¸ à¤¸à¤®
à¤¸ à¤ķà¤°à¤£
à¤¸ à¤Łà¤ķ
à¤¸ à¤¦à¤®
à¤¸ à¤ıà¤²
à¤¸ à¤¡à¤¨
à¤¸ à¤Īà¤¦
à¤® à¤¹à¤¨
à¤® à¤ľà¤¯
Ġà¤¸ à¤ľà¤¨
Ġà¤¸ Ã©
à¤¹ à¤Ľ
à¤¹ à¤²à¤Ĺ
à¤¹ à¤ľà¤®
à¤¹ à¤°à¤ķà¤¤
à¤¹ à¤°à¤®à¤¨
à¤¹ Monday
à¤² à¤¶à¤²
à¤² Disc
à¥ģ âĢį
à¥ģ âĢĺ
Ġà¤ª à¤·
à¥Ī âĢľ
à¤µ à¤ķà¤¸
à¤µ à¤¥à¤¨
Ġà¤® à¤°à¤¸
Ġà¤® à¤ļà¤²
à¤¦ à¤§à¤®à¤¨
à¤ª à¤§à¤¨
à¤ª à¤¯à¤°
à¤ª à¤Ĺà¤²
à¤ª à¤¬à¤²
à¤ª à¤µà¤ķ
à¤ª à¤¬à¤¦
à¤ª à¤¹à¤°à¤£
à¤ª à¤ķà¤¤à¤®
à¤ª Comment
à¤ª à¤µà¤¯à¤¸
à¤Ĺ à¤¨à¤¨
à¤Ĺ à¤ļà¤°
à¤Ĺ à¥Ŀ
à¥ĩà¤Ĥ ''
Ġà¤ľ à¤ªà¤¤
Ġà¤ľ à¤°à¤¸
Ġà¤ľ à¤Ĺà¤²
Ġà¤ľ à¤ľà¤®
Ġà¤ľ à¤ĭà¤°
Ġà¤µ à¤¨à¤ķ
Ġà¤¨ à¤ĸà¤°
à¤ľ à¤°à¤ķ
à¤ľ à¤°à¤¦
à¤ľ Name
à¤¼ à¥Ģà¤Ĥ,
à¤¼ à¤ĥ%
à¤¼ à¥Ģà¤Ĥ.
Ġà¤¬ à¤£
Ġà¤¬ à¤¬à¤°
Ġà¤¬ à¤Łà¤°
à¥Ĥ >%
Ġà¤¤ à¤²à¤¨
Ġà¤¤ à¤¶à¤°
Ġà¤¤ à¤°à¤¸à¤¤
Ġà¤¤ à¤®à¤¤à¤®
Ġà¤¦ à¤ª
Ġà¤ī à¤ĺà¤¡
à¤¶ à¤¤à¤¨
à¤¬ à¤ĩ
à¤¬ à¤¯à¤¨
à¤¬ à¤ķà¤²
à¤¬ à¤ķà¤¸
à¤Ł à¤¯à¤®
à¤Ł à¤Łà¤°
à¤Ł à¤¦à¤°
à¤Ł à¤¯à¤ª
à¤Ł à¤ªà¤¦
à¤Ł InsertInsert
à¤ı à¤§
à¤ı à¤ıà¤ķ
à¤ı à¤¬à¤¸
à¤ı à¤įà¤¸à¤Ĩà¤°
Ġà¤° à¤Ī
Ġà¤° à¤®à¤¤
Ġà¤° à¤¦à¤°à¤«
à¤§ à¤ĺ
à¤§ à¤ķà¤°à¤£
à¤§ à¤µà¤¤
à¤§ à¤ļà¤ķ
à¤· à¤ľà¤¨
à¤· à¤¦à¤¨
Ġà¤ķà¤° à¤Ń
Ġà¤ķà¤° à¤§à¤¨
Ġà¤ķà¤° à¤ľà¤Ī
à¤ļ à¤ľà¤¨
à¤ļ à¤Ĺà¤¤
à¤ļ à¤¤à¤²
à¤ļ à¤Ĺà¤ķ
à¤¡ à¤¬à¤¸
à¤¡ color
à¤¡ GenericName
à¤¡ Region
à¤¡ part
à¤¥ à¤«
à¤¥ à¤¨à¤ķ
à¤¥ à¤µà¤¤
à¤¥ à¤²à¤¸
à¤£ à¤¨à¤®
à¤£ à¤«à¤²
Ġà¤Ń à¤·
Ġà¤Ń à¤°à¤¦
à¤ĸ à¤µà¤²
à¤ĸ à¤ĸà¤¡
à¤Ń à¤·
à¤Ń à¤ł
à¤Ń à¤Ńà¤ķ
à¤Ń à¤ľà¤¨à¤ķ
à¤Ń à¤Łà¤ķà¤Ł
Ġà¤ªà¤° à¤£
Ġà¤ªà¤° à¤Ń
à¥Īà¤Ĥ "
Ġ( =
Ġ( à¤Ĥ
Ġ( ://..
Ġà¤ĩ à¤Ĺà¤²
Ġà¤ĩ à¤ķà¤¤à¤°à¤«
Ġà¤ı o
Ġà¤ı à¤ªà¤°
Ġà¤ı à¤®à¤¨
Ġà¤ı à¤¸à¤²
Ġà¤ı à¤ıà¤Ĩà¤Ī
Ġà¤ı à¤įà¤¸à¤Ĩà¤°
Ġà¤ļ à¤ªà¤¤
à¤Ī à¤¨à¤°
à¤Ī à¤Ĩà¤°à¤¸
à¤Ī à¤ıà¤®à¤Ł
à¤Ī china
Ġà¤¶ à¤¡
Ġà¤¶ à¤¤à¤µ
Ġà¤¶ à¤Łà¤¡
à¤« à¤ªà¤Ł
à¤« à¤«à¤¸
Ġà¤īà¤¸ à¤ª
à¥Ģà¤Ĥ >
à¥Ģà¤Ĥ --
à¤ªà¤¨ à¤ļ
Ġà¤ĸ à¤²à¤²
à¤ĩ à¤ľà¤¨
à¤ĩ à¤ĭà¤°
à¤Ľ à¤²à¤¤
à¤ħ à¤®à¤¸
à¤ħ à¤«à¤²
à¤ħ à¤¦à¤¯
à¤ħ à¤¥à¤ķ
à¤ħ à¤¸à¤®à¤¯
à¤ħ à¤¦à¤°à¤ĸ
Ġà¤« à¤ĭà¤ľ
à¤¾à¥¤ )
à¤ł à¤¦à¤£
à¤µà¤° à¤¬
à¤¤à¤° à¤¯
à¤ī à¤¬à¤°
à¤ī City
à¤ĵ à¤£
à¤ĵ à¤°à¤ķ
à¤ĵ à¤®à¤¨
à¤ĵ à¤ħà¤¨
à¤ªà¤° à¤ªà¤ŀ
à¤¯à¤ķ à¤ªà¤°
Ġà¤¡ à¤ķà¤µ
Ġà¤¡ à¤«à¤°
Ġà¤īà¤ª à¤®à¤¨
à¥ī à¥į
à¥ī à¤¿
à¥ī à¤Ĥ,
Ġà¤§ à¤Łà¤¨
à¤¸à¤° à¤ľà¤¨
Ġà¤Ľ à¤¨à¤¤
à¤¯à¤¤ à¤¸
à¤¯à¤¤ à¤¶
à¤¹à¤° à¤¯
Ġà¤¤à¤ķ à¤¨à¤²
Ġà¤ĺ à¤°à¤®
à¤¤à¤¨ à¤¨
à¤¤à¤¨ à¤¸
à¤¤à¤¨ à¤ªà¤°à¤ķ
à¤²à¤¨ à¤¨
à¤°à¤¸ à¤ªà¤¤
à¤¸à¤® à¤Ń
à¤¸à¤® à¤°à¤¸
Ġà¤¸à¤¹ à¤ªà¤¤
à¤µà¤¨ à¤¡
à¤µà¤¨ à¤°à¤ķ
à¥ĩ, ?
à¤®à¤¨ à¤Ĺ
Ġà¤Ł à¤¸à¤°
à¥Ģ, à¥¤
à¤ļà¤¨ à¤®
à¤ĺ à¤°à¤¤
Ġà¤ħà¤µ à¤¸à¤¨
Ġà¤¸à¤¬ à¤¦
Ġà¤Ī à¤ĵà¤¸
Ġà¤Ī à¤ıà¤¸à¤ľ
Ġ" à¥¤
Ġ" ,"
à¤Łà¤° à¤ľ
Ġà¤ĵ à¤µà¤¨
Ġà¤ĵ à¤ıà¤¸à¤¡
à¤¦à¤° à¤Ĺà¤¢
à¤¦à¤° à¤¨à¤Ĺà¤°
à¤°à¤µ à¤¹à¤®
Ġà¤īà¤¦ à¤¯à¤¸
à¤¦à¤¨ à¤®
Ġà¤¸à¤Ń à¤¯
Ġà¤ªà¤¤ à¤ĭ
Ġà¤¸à¤° à¤ķà¤°
Ġà¤¸à¤° à¤ľà¤®
ĠâĢ ²
à¥ģà¤Ĥ )
Ġà¤ħà¤° à¤Ĺ
à¥Īà¤Ĥ, âĢĵ
à¥Ĥà¤ģ "
à¤¶à¤ķ à¤ķ
Ġà¤¹à¤° Split
à¤ĩà¤² à¤Ĺ
Ġs s
Ġs em
Ġs ah
Ġs amp
Ġs ud
Ġs how
Ġs Location
Ġs ources
Ġs helf
Ġs hips
Ġà¤Ŀ à¤¬à¤°
Ġà¤ªà¤¡ à¤ĭà¤Ĩ
à¤¯à¤¦ à¤ķà¤¤
Ġà¤ħà¤ª à¤¯
Ġà¤ħà¤ª à¤ļà¤¯
à¤ªà¤ķ à¤ª
à¤ªà¤ķ à¤¥à¤¨
à¤®à¤² à¤ľà¤²
Ġ' ;
Ġà¤®à¤¨ à¤°
on Mob
à¤ħà¤¨ à¤ªà¤°
à¤ħà¤¨ à¤µà¤¯
à¤¤à¤µ à¤ĭ
Ġà¤ľà¤¨ à¤Ĩà¤¨
Ġà¤ľà¤¨ à¤¸à¤®à¤°
Ġà¤ķà¤² à¤ļ
à¤¼à¥ĭ '
à¥Ģ- --
Ġà¤¢ à¤¹à¤¤
à¤Łà¤ķ à¤ķà¤°
Ġ3 200
Ġ3 13
à¤²à¤ķ à¤¸à¤Ń
in f
in ing
in ated
Ġn ational
Ġn ormal
à¤µà¤ª à¤¦
à¤¨à¤° à¤Ĺ
à¤¨à¤° à¤¹à¤°
à¤ıà¤¸ à¤ıà¤¨
à¤ıà¤¸ à¤ıà¤Ł
à¤ıà¤¸ à¤Ĩà¤Īà¤¡
an th
an tic
an ces
an ny
an ega
à¤¬à¤² à¤¹
à¤ħà¤² à¤ª
Ġà¤ľà¤® à¤Īà¤ķ
à¤ķà¤Ł à¤²
à¤ķà¤Ł à¤¤à¤°
à¤¹à¤¨ à¤Ĺà¤°
Ġà¤®à¤¦ à¤®à¤¸
Ġà¤Ķ à¤±
à¤ĩà¤Ł à¤¥
à¤Ĩà¤° à¤Ĺ
à¤¯à¤ª à¤²
à¤Ĩà¤Ī à¤Ĩà¤°à¤ıà¤¸
Ġt rig
Ġt utorial
pr ec
Ġà¤²à¤¡ à¤ĭà¤Ĩà¤ĭ
à¤£à¤¨ à¤ĸ
à¤¯à¤µ à¤®
Ġ5 40
Ġ5 78
Ġà¤Ĳ à¤£
Ġ4 45
Ġ200 00
à¤¯à¤² à¤¹à¤°
à¤¯à¤² à¤µà¤¸
Ġà¤Ĭà¤ªà¤° à¤µ
al ine
al terna
à¥Ģà¤Ĥà¥¤ --
Ġà¤ĭ à¤¬
à¥ĩà¤Ĥ. )
à¥ĩà¤Ĥ. --
Ġà¤Ĩà¤Ī à¤ıà¤®
Ġà¤Ĩà¤Ī à¤ıà¤¸à¤Ł
Ġà¤Ĩà¤Ī à¤Ĩà¤°à¤ıà¤¸
Ġà¤Ĩà¤Ī à¤ıà¤¨à¤¬
Ġà¤¨à¤µ à¤Ń
à¤¦à¤ķ PermissionsLevel
Ġd ata
Ġa udacity
à¤ļà¤² à¤°
à¤ļà¤² à¤ªà¤¨
19 03
la de
... ,
it a
Ġ# (_
or on
Ġà¤ħà¤Ĺ à¤¨
Ġà¤ħà¤Ĺ à¤ª
à¤¸à¤¸ à¤¸à¤¸
à¤®à¤Ĺ à¤¨
à¤®à¤Ĺ à¤¦
Ġk eep
Ġà¤ľà¤Ĺà¤¹ à¤ªà¤°
Ġ6 39
à¤¦à¤¤ à¤²
ĠâĢľ -
à¤ħà¤° à¤ļ
à¤ķà¤® à¤ļ
à¤ıà¤² à¤ı
à¤ıà¤² à¤ĵà¤ıà¤¸
en et
à¤°à¤² à¤¯à¤ķ
ot en
à¤ħà¤Ń à¤ķ
à¤ħà¤Ń à¤¦
Ġ7 23
Ġ18 14
Ġ18 22
Ġ18 47
à¤łà¤ķ à¤ĸ
Â¤Â° -
Â¤Â° ...
Ġ'' .
à¥ĩ? à¥¤
Ġ< \ï¿½\
ii s
le te
ar aoM
ar sen
Ġà¤®à¤¸ à¤ĭ
Ġ8 45
à¤®à¤¯ à¤ĸ
at ospheric
Ġà¤ħà¤µà¤¸ à¤ĭ
à¤ıà¤¨ à¤ıà¤ª
à¤ıà¤¨ à¤ıà¤ļà¤ª
Ġ10 30
Ġà¤ıà¤¨ à¤ıà¤¸
Ġà¤ıà¤¨ à¤ıà¤ıà¤¸
Ġà¤ıà¤¨ à¤Īà¤ıà¤ļà¤¯
à¤Ĺà¤¡ à¤¤
Ġà¤ķà¤¨ à¤ª
Ġà¤īà¤ªà¤¸ à¤ļ
ĠS G
ĠS e
ĠS ex
ĠS imp
ĠS QL
ĠS helf
ĠS abha
ĠS RES
ĠS vens
st er
st ream
st ere
st umps
à¤ıà¤« à¤ıà¤¸à¤¡
à¤ıà¤« à¤ıà¤¸à¤Ĩà¤Ī
Ġà¤¨à¤¸ à¤ĭ
Ġc os
Ġc ir
Ġc lean
Ġc ampaign
Ġ15 56
ĠC OP
ĠC VS
ĠC opy
ĠC limate
ĠC ali
ĠC ache
ĠC lient
Ġà¤¨à¤ľ à¤°à¤ķ
à¤ľà¤Ĺ à¤¢
Ġ20 7
Ġ20 23
Ġ9 30
Ġ9 09
Ġ9 31
ly ing
ĠA POP
ĠA uthor
ĠA greement
ĠA merican
ĠA rlington
à¤¯à¤¯ à¤Ĺà¤¤
Ġà¤ıà¤® o
Ġà¤ıà¤® à¤ıà¤«
Ġà¤ıà¤® à¤ıà¤¨à¤Ĩà¤°à¤Ī
à¤¸à¤¹ à¤ļ
ob tain
ĠI ST
Ġ12 877
à¤ĸà¤ķ à¤Ĺà¤£
Â¤Â¸ -
Ġà¤ħà¤¸à¤® à¤µ
Ġdo e
à¤¬à¤¡ à¤ĭà¤Ī
se q
12 000
ol om
à¤ªà¤¶ à¤®à¤¨
is on
is ub
is tic
ĠP op
ĠP enn
ĠP ango
ĠP ATTERN
ĠT en
ĠT ex
ĠT IME
ĠT errorism
ĠT TS
ĠT emp
ĠT oday
ĠM R
ĠM iy
ĠM ulti
): :
il ante
Ġp p
Ġp s
Ġp t
Ġp en
Ġp ac
Ġp ay
Ġp ap
Ġp os
Ġp ump
Ġb al
Ġb hi
à¤¶à¤µ à¤ļà¤¨
à¥ĭ. ?
à¤¦à¤°à¤¤ à¤ķ
Ġ16 53
di ance
Ġà¤Ĩà¤¬ à¤ķ
ĠB ar
ĠB ack
ĠB run
ĠB rasero
ĠB anega
Ġà¤ļà¤ķ à¤¬
ra de
ra diance
Ġf d
Ġf t
Ġf in
Ġm y
ĠD A
ĠD es
ĠD el
ĠD emon
Ġ[ [
Ġ13 36
ĠR X
ĠR s
ĠR ight
ĠU ser
ĠU nder
ĠN on
18 14
18 28
18 34
18 88
18 69
18 63
Ġ17 10
Ġ17 15
Ġ17 45
Ġ17 83
à¥¬ à¥©à¥¨
Ġw or
Ġw ide
Ġw indows
Ġ30 7
à¤¶à¤¯ à¤¨à¤ķà¤ķ
Ġà¤¹à¤¤ à¤ĭ
Ġà¤¨à¤¬ à¤µ
el sh
ĠL S
ĠL ayout
ĠG as
ĠG ood
Ġh istory
30 2
30 8
à¤¨à¤Ł à¤¸
à¤¨à¤Ł à¤ªà¤¤
Ġà¤¬à¤Ĺ à¤Ńà¤Ĺ
Ġà¤°à¤¦ à¤¦
à¥Ń à¥«à¥¦
à¤¡à¤µ à¤µà¤¨
Ġà¤ıà¤« à¤ıà¤®à¤¡
ut tle
à¤ıà¤ļ à¤Ĩà¤Ī
à¤ıà¤ļ à¤ıà¤«
Ġg o
Ġg un
Ġg nu
Ġg eneral
Ġg reenhouse
id ing
ĠE NT
ĠE missions
Ġà¤ĺà¤¨ à¤«à¤²
à¥Ģà¤Ĥ. -
ĠO r
ĠO AB
ĠO vers
ĠO WA
14 3
ec tions
Ġ24 71
Ġà¥© à¥§à¥ª
qu e
qu ery
à¥Īà¤Ĥ: \"
ME TS
Ġl n
à¤¯à¤Ĺ à¤ķ
à¤¾: ?
ur p
hi st
ĠZ à¤Ķà¤°
17 7
Ġà¤ħà¤¡ à¤¯
og n
ĠW olfram
Ġ40 74
Ġà¤®à¤£ à¤§
Ġà¤ľà¤Ĺà¤¤ à¤¸
ĠY à¤¯
Ġy eh
ad in
ad al
ad CM
à¤Ĩà¤¶ à¤Ļ
02 8
OR M
à¥ĩà¤Ĥ- ://...
ĠV CD
Ġv card
Ġv ehic
IN FO
à¥Ĥ. /
à¥Ĩ à¤ĥ-
Ġr u
Ġà¥ª à¥¨à¥¦
Ġà¥ª à¥ªà¥¦à¥¦
Ġ29 7
Ġà¤ıà¤¡ à¤Ĺà¤°
Ġà¥¬ à¥¦à¥¦à¥¦
Ġà¥¬ à¥¨à¥©
Ġà¥¬ à¥©à¥¨
ub by
ub ella
Ġ* !
Ġ* )à¥¤
Ġà¤ħà¤¸à¤¹ à¤ľà¤¤
Ġcom bin
ĠX DMCP
Ġà¤Ľà¤ª à¤ķà¤°
29 0
29 6
à¤Ĩà¤ªà¤¨ à¤¤
ind linux
.âĢĵ [
um ati
Ġà¤¦à¤® à¤ĺ
ener gy
à¤²à¤Ŀ à¤¡
à¤¨à¤ľ à¤°à¤ķ
39 0
39 3
35 3
35 7
ig il
Ġo e
Ġo ce
Ġo zone
Ġà¥§à¥« à¥¦à¥¦à¥¦
Ġà¥§à¥« à¥®à¥«
Ġà¥§à¥« à¥®à¥§
Ġà¥§à¥« à¥Ńà¥ª
à¤ıà¤¸à¤ıà¤¸ à¤¬
à¤³ à¤ķ
ĠK i
ĠK ing
ĠK ubby
ef t
Ġà¥§à¥® à¥¯à¥®
Ġà¥§à¥® à¥®à¥¯
à¤¹à¤¡ à¤¸à¤¨
Ġà¤īà¤²à¤Ŀ à¤ķà¤°
à¥§à¥® à¥ªà¥®
à¥§à¥® à¥ªà¥¨
à¤²à¤Ł à¤ķà¤¨
Ġà¤Ĩà¤µà¤°à¤£ Disc
75 7
45 6
Â¤Âģ -
af ter
Ġà¤ĵà¤ªà¤¨ à¤¡
Ġà¤ĵà¤µà¤° à¤¹
ON ET
ah a
Ġ01 5
Ġà¤ªà¤¤à¤¨ à¤¶
Ġà¥¨à¥¦ à¥§à¥¨
sp ne
gu ment
gu isub
Ãī x
Ġ37 2
33 2
Ġà¤Ľà¤² à¤Ľà¤²
Ġà¥§à¥¯à¥¯à¥ ©
37 8
Ġà¥§à¥¨ à¥¦
Ġà¥§à¥¨ à¥¦à¥¦à¥¦
IC AR
IT ION
cri b
Ġj oin
Ġà¤ĥ .
ID C
ore pati
xx x
xx onMob
ck ett
à¥¨à¥¦ à¥¨à¥¦
Ġ38 7
à¥§à¥Ń à¥Ńà¥®
à¥§à¥Ń à¥©à¥Ń
à¤®à¤ĸ à¤®à¤²
Ġà¤¨à¤Ĺ à¤°à¤®à¤¹
ai ly
able ment
à¥§à¥¬ à¥¯à¥ª
à¥§à¥¬ à¥¦à¥¨
à¤¾âĢĿ -
à¤ħà¤µà¤ķ à¤®
Ġan umati
Ġà¥§à¥¬ à¥ªà¥®
ak h
ak istan
iz ing
if ied
à¤¡à¤ĭ à¤ķà¤°
à¥§à¥¯ à¥§à¥§
ip itation
EL L
SS H
à¤ĸà¤ĸ à¤ĺ
à¤ĸà¤ĸ à¤ĺà¤ķ
à¤ıà¤¨à¤ı à¤ıà¤®
à¤ķà¤®à¤° à¤¬
lib rary
int s
à¤ıà¤Ĩà¤° à¤ıà¤«
95 8
Ġev olution
Ġex port
Ġex pression
Ġà¥§à¥Ń à¥Ńà¥¬
SE TT
Ġà¥ŀ à¤°
à¤ıà¤¨à¤Ĩà¤° à¤Īà¤ľ
à¤ķà¤°à¤¤ à¤¬
sy lv
Ġle adin
ive ly
à¥ĪâĢĿ -
Ġra y
Ġà¤Ĥ à¤Ĥ,
Ġà¤īà¤¥à¤² à¤ª
Ġla w
Ġla st
ana aoM
à¤ļà¤ª à¤¥à¤¨
ĠSt ate
ĠSt udies
aj wa
ĠServ ices
Ġcont acts
à¤Ĩà¤Īà¤Ĩà¤° à¤Ĩà¤°
Ġtime Wed
Ġtime Yesterday
CH AR
DA O
own er
ĠEN GL
nicode Control
ens en
ens us
Ġà¥§à¥¯à¥© à¥ª
Ġà¥§à¥¯à¥© à¥¯
à¤ľà¤ĭ à¤Ĺ
)/ (
sc ienti
Ġà¥¨à¥¬ à¥¦à¥¦
Ġal arm
AB ET
Ad d
Ġà¤ķà¤ĭ à¤¨
olution ary
à¤¾] à¥¤
ĠUn known
Ġsub type
Ġwh o
Ġwar ming
ui se
à¥§à¥§à¥ ¯à¥
Ġà¥§à¥¯à¥« à¥ª
ĠCO UNT
aO sao
ff er
ff ect
à¥§à¥¯à¥¬ à¥©
à¥§à¥¯à¥¬ à¥Ń
Ġed it
line Account
Ġen able
ĠIP CC
ESS EL
ĠImage picture
LE VEL
à¦ ¦
Ġhe at
Ġ! !!
ope lag
ĠCOM PLET
PO WER
Ġproper ty
ĠÅ ½Ãº
par ticulate
Ġà¥§à¥¯à¥¦ à¥¯
à¤īà¤ĸ à¤°à¤¨
rg b
ĠApp oint
ÃīÃ ĩ
Ch rist
Ġth read
EM M
à¥«à¥¬ à¥§
ivers al
IR R
IR ECT
Ġsy nc
put er
à¥§à¥¯à¥ª à¥©
Ġfil trate
SR ES
1301 59
Ġà¥§à¥§à¥ ©
indi vidual
ĠRep lace
Ġhyp erb
à¤Ĩà¤Ĺà¤® à¤ľ
Ġmm ol
inter national
Ġà¥¬à¥¬ à¥§
Ar c
Key s
Key board
Ġsu pport
cr uise
Ġà¥Ńà¥« à¥¦à¥¦à¥¦
CL A
su pport
my co
ver ti
ver se
ĠDis ablement
EC K
Ex pand
Ġtrans liter
ĠSc enarios
Col umbia
ĠNo se
à¤ĺà¤ĺ à¤ĸ
Ġvc s
à¤ħà¤ªà¤¹à¤°à¤£ à¤ķà¤°
Ġsak o
Ġsak ta
Ġaction s
Ġà¥¬à¥« à¥¦à¥¦
ĠIT RANS
Ġba ad
ĠCH ECK
eng lish
ump ed
à¤½ à¤½
à¥Ļ à¤°
ĠCr orepati
xvii à¤ĸ
CON F
ern ment
ca uses
ĠAL SA
Ġga e
ĠOn lineAccount
à¤·à¤®Q ODBCResult
ĠFr iis
ĠLa unchpad
carbon ic
Ġpro of
rev olutionary
QU nicodeControl
Ġcy cl
stra tions
Ġenc oding
Ox ford
LAN K
dis k
gra fted
Ø§ ÙĦ
Ġdes ulf
DEVICE NAME
âĤ Ĥ
Ġdraw n
ipe dia
Lib burn
Ġpoll ut
guimenu item
ky o
sol id
rep udiation
Ġbar abar
ade an
Read om
Read cd
Ġà¥¯à¥Ń à¥¦
Ġà¤ĩà¤¬à¤¨ à¤°à¤¶
Ġcap tion
Ġcap ita
ulf ur
Download s
bat ting
host age
ĠMem bership
Ġbow ling
ĠOrg anizer
ĠMessages Important
PAN A
dec adal
tar ian
vo zMe
ĠRec ords
Ġà¤įà¤® à¤įà¤¸
Ġà¥¯à¥© à¥©
Ġmultip le
GU AGE
atm osphere
urb an
Ġeng lish
Ġfilter ing
glac ial
glac ier
ĠCreat or
ĠCreat ed
Can ada
Ġther moh
ĠSo am
à¤ıà¤«à¤ıà¤« à¤ıà¤®à¤¸
Ġfoc us
ĠRT L
Ġcre ckett
ĠCent re
Ġposs ible
ĠDi jkstra
Ġvis it
control led
Ġsubques tions
Bar aha
Ka un
fin land
à¤Ĩà¤Īà¤ıà¤®à¤ıà¤¸ à¤Ł
ĠWM V
ĠFormat ter
Ġsuper nova
ĠComple ted
Inc lude
Sam ajwa
gconf d
lank ton
ĠÏ Ģ
Ġprod uct
ĠPH ONET
ĠDire ct
ĠLim ca
ĠHen le
MEDI UM
extinc tions
phone tic
ĠHans en
Ġvector s
Ġdecigram s
At tached
ĠShe pher
hem ical
Ġbes ides
ÂĢ Â
Ġnear est
err no
ĠAmb ient
ĠAsh es
ĠFR AME
ĠBI OS
angel ion
Ġsensi tivity
Character Menu
PART ITION
Sout hern
west bengal
alet te
Ġdim ming
Ġstand ard
convention al
SECA M
Ġspac ing
Ġà¥§à¥§à¥® à¥Ń
Ġshrink age
Dhv ani
KAL PANA
Loo Keys
Moh it
Organis er
ytop lankton
à¤¡part s
prec ipitation
alterna tive
ĠSvens mark
stere o
ĠCali fornia
ĠPenn sylv
ĠTex as
ĠMiy an
ĠMulti decadal
ĠDemon strations
uttle craft
METS AT
Ġvcard s
spne a
guisub menu
xxonMob il
SETT INGS
ĠENGL ISH
scienti fic
opelag ic
ĠAppoint ments
Christ ensen
Ġthread s
ĠReplace with
Ġtransliter ation
ĠOnlineAccount s
QUnicodeControl CharacterMenu
Ġcycl one
Ġdesulf urization
Ġthermoh aline
Samajwa di
ĠPHONET IC
ĠShepher d
ĠPennsylv ania
" ",
- $
2 25
3 12
4 11
4 14
4 04
6 30
6 34
6 55
7 60
8 12
8 60
8 47
; /
? ,?
A ccess
C U
C UT
C ool
C arbon
D ER
D ue
D EL
D ocument
E l
F L
F ran
F il
F et
F alse
F acebook
F AQ
F ATCA
G T
G rav
H D
I f
I UM
I ENT
L ink
L inux
M an
M al
M et
N H
N ort
O s
P i
P ath
P ost
Q R
Q IBaseResult
R Y
R ec
R un
R GB
S D
S K
S a
S DL
T B
T k
T oggle
U DP
V C
V Q
V ob
V PN
V LC
V ANC
Z à¤¢
[ ***
b l
b reak
c ase
c drdao
c isco
d d
d in
d os
d ue
f ed
f ield
g db
k ha
m cxindia
m usic
n bsp
o ard
o oth
p t
p or
r sh
s on
s ak
s light
t tp
t mp
t oggle
u mes
v p
v es
w d
x à¤ĸ
z eal
¹ Ïİ
Â ¬
Â ±
Ã ¶
Î ¹Ïİ
Ġ Â¤
Ġ ops
ĩ Ĵ
à¤¾ *
à¤¾ à¥ĥ
à¤¾ à¥Į
à¤° à¤°à¤¤
à¤° à¤°à¤ļà¤¨
à¤° à¥ŀ
à¤° OU
à¤° iceland
à¥ĩ âĢĿ,
à¥ĩ \"
à¥į "
à¥į à¥ģ
à¥į âĢĿ,
à¤¿ à¤ģ
à¤¿ ..
à¤¿ ......
Ġà¤ķ à¤ªà¤¨
Ġà¤ķ à¤µà¤¨
Ġà¤ķ à¤µà¤²
à¤Ĥ à¥Īà¥¤
à¤Ĥ à¥°
à¤¨ à¤°à¤µ
à¤¨ à¤¶à¤ķ
à¤¨ à¤¯à¤°
à¤¨ à¤²à¤¬
à¤¨ à¤Ĺà¤¦
à¤¨ à¤ĸà¤²
à¤¨ hungary
à¤¤ à¤¬à¤¸
à¤¤ à¤§à¤°
à¤¤ à¤¶à¤²
à¤¤ à¤¦à¤¬
à¤¤ Cyrillic
à¤ķ à¤ĸà¤ķ
à¤ķ GenericName
à¥ĭ à¤¿
à¥ĭ à¤ĥ%
à¤¯ à¤ıà¤ķ
à¤¯ à¤µà¤²
à¤¯ à¤ĸà¤¨
à¤¯ à¤Ĺà¤®
à¤¯ à¤¯à¤ķà¤¤
à¤¯ à¤Ńà¤°
à¤¯ Name
à¤¯ à¤ħà¤ķ
à¤¯ à¤ľà¤¯
à¤¸ à¤Ľ
à¤¸ à¤¯à¤¤
à¤¸ à¤ªà¤¤
à¤¸ à¤²à¤¯
à¤¸ à¤µà¤¤
à¤¸ à¤ľà¤Ĺ
à¤¸ à¤ľà¤¨à¤ķ
à¤¸ à¤ĳà¤¡
à¤¸ à¤ıà¤ļà¤Ł
à¤¸ afghanistan
à¤¸ asia
à¤¸ slot
à¤¸ à¤ıà¤¸à¤ıà¤²à¤Ł
Ġà¤¹ à¤ª
Ġà¤¹ à¤Ĩ
Ġà¤¹ à¤«à¤¤
Ġà¤¹ à¤°à¤¦à¤¯
à¤® à¤ĩà¤²
à¤® à¤Łà¤ķ
à¤® à¤ľà¤¤
à¤® à¤ľà¤®
à¤® à¤ªà¤²
Ġà¤¸ à¤ŀ
Ġà¤¸ à¤Ļ
Ġà¤¸ à¥ŀ
à¤¹ à¤µà¤²
à¤¹ à¤Ļ
à¤² à¤¦à¤¨
à¤² à¤ļà¤²
à¤² à¤§à¤°
à¤² à¤µà¤°à¤®
à¥ģ âĢĵ
Ġà¤ª à¤µà¤°
Ġà¤ª à¤¤à¤°
Ġà¤ª à¤Ŀ
Ġà¤ª à¤¥à¤ķ
à¥Ī à¥įà¥¤
à¤µ à¤µà¤²
Ġà¤® à¤ĸà¤¨
Ġà¤® à¤Ĭ
Ġà¤® à¤²à¤®
Ġà¤® à¤¦à¤°à¤¬
Ġà¤® à¤ĭà¤ķ
à¤¦ à¤Ł
à¤¦ à¤¸à¤¨
à¤¦ à¤Ńà¤°
à¤ª à¤Ĺà¤¨
à¤Ĺ à¤Ńà¤Ĺ
à¤Ĺ à¤¬à¤ķ
à¤Ĺ à¤«à¤²à¤¤
à¤Ĺ GenericName
à¤Ĺ à¤ļà¤¯à¤¨à¤ķ
à¥ĩà¤Ĥ >
à¥ĩà¤Ĥ ......
Ġà¤µ à¤¦à¤¨
Ġà¤µ à¤³
Ġà¤¨ à¤®à¤¦
Ġà¤¨ à¤ĭà¤¦
à¤ľ à¤ķà¤¹
à¤ľ à¤³
à¤¼ ;
Ġà¤¬ à¤ķà¤¸
à¥Ĥ :
à¥Ĥ à¥Ĥ
Ġà¤¤ à¤ŀ
Ġà¤¤ à¤²à¤ķà¤°
à¥¤ ]
Ġà¤ī à¤²à¤¬
Ġà¤ī à¤¬à¤¨
à¤¶ à¤ľà¤¨
à¤¶ à¤Ĺà¤°
à¤¶ à¤¸à¤¨
à¤¶ à¤²à¤°
à¤¬ à¤ªà¤°
à¤¬ à¤Ĺà¤¡
à¤¬ à¤°à¤ķà¤²
à¤Ł à¤®à¤¨
à¤Ł à¤¹à¤¨
à¤Ł à¤Ļ
à¤ı Name
à¤ı à¤Ĩà¤Īà¤ª
Ġà¤° à¤¸à¤ķ
Ġà¤° à¤¨à¤µ
Ġà¤° à¤¨à¤°
Ġà¤° à¤¨à¤²
à¤§ à¤ĵ
à¤§ à¤°à¤¹
Ġà¤Ķà¤° à¤ķ
à¤· à¤ķà¤¨
à¤· à¤«à¤²
à¤· à¤ľà¤ķ
Ġà¤ķà¤° à¤£à¤µ
à¤ļ à¤¯à¤¤
à¤ļ à¤°à¤¸
à¤ļ à¤Łà¤°
à¤ļ à¤²à¤ķ
à¤¡ à¤ı
à¤¡ à¤ªà¤¨
à¤¡ à¤ĩ
à¤¡ à¤ĩà¤¨
à¤¡ à¤ħà¤²
à¤¥ à¤Ĺà¤°
à¤¥ à¤®à¤¸
à¤¥ à¤°à¤²
Ġà¤Ĩ à¤«à¤²
à¤£ à¤¨à¤¤
à¤£ à¤ķà¤²
à¤£ à¤ĭ
à¤£ à¤ªà¤¥
Ġà¤¯ à¤µ
Ġà¤¯ à¤®à¤²
à¤ĸ à¤§
à¤ĸ à¤ĺ
à¤ĸ à¤Łà¤¨
à¤ĸ à¤Ļ
Ġà¤Ĺ à¤²à¤ķ
Ġà¤Ĺ à¤«à¤²à¤¤
à¤Ń à¤µà¤°
à¤Ń à¤Łà¤¨
à¤Ń Comment
Ġà¤ªà¤° à¤¡
Ġà¤ĩ à¤Łà¤°
Ġà¤ĩ à¤¡à¤²
Ġà¤ı à¤¦
Ġà¤ı à¤°à¤¬
Ġà¤ı à¤ıà¤®
Ġà¤ı à¤¡à¤¬
Ġà¤ı à¤Ĩà¤ĩà¤ıà¤¸
Ġà¤ļ à¤·à¤ķ
à¤Ī à¤¥
à¤Ī à¤Łà¤°
à¤Ī à¤Ľà¤¨
à¤Ī à¤ıà¤®à¤ıà¤¸
à¤Ī à¤ıà¤®à¤ıà¤²
à¤Ī à¤ıà¤¸à¤¡
à¤Ī Hebrew
Ġà¤¶ à¤Łà¤°
Ġà¤¶ à¤°à¤¬à¤¤
à¤°à¤¤ à¤Ĺà¤¢
à¤« à¤ĸ
à¥Ģà¤Ĥ /
à¥Ģà¤Ĥ ".
à¤ªà¤¨ à¤¯
à¤ªà¤¨ à¤Ĺà¤°
Ġà¤ĸ à¤ĭ
à¤ĩ à¤ıà¤¸
à¤ĩ à¤łà¤²
à¤¾à¤Ĥ à¤Ĥ
à¤¾à¤Ĥ ...
à¤¾à¤Ĥ à¤ĥ-
à¤ģ à¥Ģ.
à¤ģ --
à¤Ľ à¤¨à¤¹
à¤Ľ à¤Łà¤ªà¤Ł
Ġà¤ķà¤°à¤¨ à¤ķ
à¥ĥ à¤¿
à¥ĥ à¥Ģ
à¤ħ à¤ķà¤¤
à¤ħ à¤Ŀ
à¤ħ à¤¦à¤ķ
à¤ħ à¤ľà¤¸
à¤ħ à¤°à¤¦à¤¨
à¤ħ à¤¸à¤¤à¤¤
à¤ķà¤° à¤¸
Ġà¤¹à¤® à¤¶à¤ķ
à¤°à¤ķ à¤®à¤ķ
à¤¼à¤¾ >
à¤¼à¤¾ âĢĻ
Ġà¤ħà¤¨ à¤¸à¤¬
à¤¾à¥¤ 'à¥¤
à¤Ĩ à¤µà¤¤
à¤Ĩ à¤®à¤°
à¤Ĩ à¤Ĭ
à¤Ĩ à¤¯à¤¸
à¤Ĩ à¤¬à¤Ĺ
à¤ł à¤Łà¤°
à¤µà¤° à¤«
Ġà¤ħà¤§ à¤®à¤¤
Ġà¤ħà¤§ à¤®à¤°
Ġà¤ħà¤§ à¤ľà¤²
à¤¤à¤° à¤²à¤¤
à¤¤à¤° à¤¸à¤°à¤ķ
à¤ī à¤ķà¤µ
à¤ī à¤¬à¤°à¤¨
à¤ĵ à¤ļ
à¤ĵ à¤Ľ
à¤ĵ à¤ıà¤¨
à¤ĵ à¤ıà¤«
à¥Ī, %
à¤°à¤£ à¤Ń
à¤ľà¤¨ à¤¨à¤ķ
à¤Ķà¤° à¤¸
Ġà¤īà¤ª à¤ªà¤°
Ġà¤īà¤ª à¤ªà¤¤
Ġà¤īà¤ª à¤Ĺà¤®
à¤¿à¤Ĥ à¤¿à¤Ĥ
à¤ĥ \
à¥ī /
à¥ī à¥Ģ
à¤Ŀ à¤¨à¤ķà¤¨
Ġà¤ªà¤¹ à¤¡
Ġà¤§ à¤Ł
à¤°à¤® à¤µà¤°à¤£
à¤¢ à¤¯
à¤¢ à¤ķà¤¨
Ġà¤ħà¤² à¤¤
à¤¸à¤° à¤ļ
à¤¸à¤° à¤ļà¤¨
à¤¸à¤° à¤ľà¤®
Ġà¤Ľ à¤¤à¤°à¤ª
à¤¨à¤ķ à¤¸
à¤°à¤¹ à¤Ĺ
à¤°à¤¹ à¤¶
à¤°à¤¹ à¤ł
Ġà¤ĺ à¤¨à¤®
à¤¯à¤® à¤®
à¥Ī. à¥¤
à¤°à¤¦ à¤¶à¤°
à¤°à¤¸ à¤ľ
à¤²à¤¤ à¤«
à¤¨à¤¤ à¤ª
Ġà¤¸à¤¹ à¤ľà¤ª
à¤µà¤¨ à¤Ĺ
à¤µà¤¨ à¤Ĺà¤ª
à¤ŀ à¤ļ
à¤¶à¤¨ à¤µ
à¤®à¤¨ à¤Ĺà¤¢
à¤®à¤¨ à¤¨à¤¶
Ġà¤īà¤¤ à¤®
à¥Ģ, %
à¤¸à¤ķ à¤µà¤°
à¤Ĺà¤¤ Chinese
Ġà¤ħà¤µ à¤ĺ
à¤·à¤£ à¤ª
à¤¸à¤¨ à¤ļ
à¤¸à¤¨ à¤Ī
Ġà¤Ĩà¤¯ à¤Ĺ
Ġà¤Ī à¤¶à¤¨
Ġà¤Ī à¤¥à¤°
Ġà¤Ī à¤ıà¤¸à¤¸
Ġà¤Ī à¤ıà¤¸à¤ıà¤²
Ġ" )
Ġà¤ķà¤® à¤²à¤¨
Ġà¤ķà¤® à¤ĸà¤°
à¤¯à¤¨ à¤¬
Ġà¤ĵ à¤®à¤¨
Ġà¤ĵ à¤ķà¤²
Ġà¤ĵ à¤¸à¤µ
Ġà¤ĵ à¤Ĩà¤°à¤ıà¤¸
à¤¦à¤° à¤°
à¤°à¤µ à¤¹à¤£
à¥ĩ) ;
Ġà¤¸à¤®à¤¯ à¤¬
à¤¾. :%
à¤ķà¤°à¤£ à¤µ
à¤¹à¤® à¤°
à¤µà¤¤ à¤¯à¤¨
à¤µà¤¹ à¤ª
à¤µà¤¹ à¤°à¤£
à¤§à¤¨ à¤§
à¤§à¤¨ à¤ķà¤°
Ġà¤¸à¤°à¤ķ à¤¨
Ġà¤Ĩà¤µ à¤ľ
Ġà¤ħà¤° à¤¨
à¤ıà¤ķ à¤ļ
à¤ıà¤ķ à¤¸à¤®
âĢį à¤¿
à¥Ĥà¤ģ :
à¥Ĥà¤ģ âĢĿà¥¤
Ġà¤¹à¤° à¤¡
à¤µà¤² à¤ľ
à¤ĩà¤² à¤ıà¤ķ
à¤ĩà¤² Name
Ġs f
Ġs w
Ġs à¤ķ
Ġs pr
Ġs ur
Ġs tic
Ġs lot
Ġs olve
à¤¯à¤° City
à¥ĩà¤Ĥ, %
à¤°à¤¶ à¤¦
à¤Ĳ à¤Ĩ
à¤Ĳ à¤¨à¤ķ
Ġà¤Ĭ à¤¸à¤°
Ġà¤ħà¤¸ à¤Ĺà¤°
Ġà¤ļà¤² à¤µ
à¤¤à¤ķ n
Ġà¤ł à¤¸
à¤®à¤² à¤ª
01 8
Ġà¤Ĩà¤Ĺ à¤¸
Ġà¤Ĩà¤Ĺ à¤¬à¤¬
Ġà¤®à¤¨ à¤Ł
à¤¾- \\
à¤Ĺà¤² à¤¦
à¤Ĺà¤² à¤Ī
à¤ħà¤¨ à¤ķà¤°
à¤ħà¤¨ à¤ł
à¤ħà¤¨ à¤²à¤®
à¤ħà¤¨ à¤ıà¤¨à¤ķ
à¤ľà¤¬ à¤¸
à¤ķà¤¨ à¤ª
à¤ķà¤¨ à¤Ł
me nd
à¥Īà¤Ĥ. )
Ġà¤ķà¤² à¤ĭ
à¥Ģ- (
Ġà¤¢ à¤Ĺ
ti le
ti sm
Ġ3 22
Ġ3 99
à¤²à¤ķ à¤¬
in er
in berg
Ġn s
à¤®à¤¸ à¤µ
à¥ĩ. --
à¥ĩ. ??
Ġà¤ľà¤² à¤ªà¤ķ
à¤¬à¤¨ à¤¸
à¤¬à¤¨ à¤Ĺà¤°
Ġà¤ªà¤¦ à¤ª
Ġà¤ªà¤¦ à¤¤à¤²
Ġà¤Ĩà¤¨ à¤¯à¤¨
Ġà¤ĳ à¤¥
Ġà¤ĳ à¤¨à¤ķ
Ġà¤ĳ à¤Ĺà¤®
à¤ıà¤¸ à¤Ĩà¤°à¤ı
à¤ıà¤¸ à¤Ĩà¤Īà¤ª
à¤ıà¤¸ à¤ıà¤«à¤Ł
à¤ıà¤¸ à¤ıà¤«à¤¡
an aly
Ġà¤¶à¤° à¤ļ
à¤ħà¤² à¤ľ
à¤ħà¤² à¤Ń
Ġà¤¬à¤° à¤¡
à¤Ńà¤µ à¤µ
Ġà¤Ķ à¤«
Ġà¤Ķ à¤ĺ
Ġà¤Ĩà¤¸ à¤µ
er o
à¤Ĩà¤° à¤ıà¤¸à¤Ĩà¤Īà¤¬
à¤ªà¤· à¤Ł
à¤Ĩà¤Ī à¤°
à¤Ĩà¤Ī à¤¸à¤²
à¤Ĩà¤Ī à¤ıà¤ļ
à¤Ĩà¤Ī à¤ıà¤ļà¤ıà¤®
à¤¦à¤® à¤ł
à¤¦à¤® à¤¨à¤ķ
Ġt op
Ġt gz
pr a
à¤¬à¤¦ à¤ľ
à¤¬à¤¦ à¤ľà¤¬
à¤¬à¤¦ à¤²à¤Ĺ
à¤¯à¤µ à¤µà¤¹
à¤¶à¤¤ à¤®à¤²
âĢĻ )
âĢĻ .
Ġ5 15
Ġ5 25
Ġ5 85
Ġ5 75
Ġ5 500
Ġ5 97
Ġ4 11
Ġ4 30
Ġ4 33
Ġ4 99
Ġ4 90
à¤ĭ à¤ĵ
à¤ĭ à¤Ĳ
à¤¸à¤¤ à¤Ĺ
à¤¯à¤² à¤ħà¤ª
Ġà¤ĭ à¤¦
Ġà¤ĭ à¤¶
Ġà¤ĭ à¤¸à¤¨
Ġà¤ĭ à¤ıà¤¡
Ġà¤Ĩà¤Ī à¤«
Ġà¤Ĩà¤Ī à¤Ĩà¤°à¤ı
Ġà¤Ĩà¤Ī à¤Ĩà¤Īà¤ª
Ġà¤Ĩà¤Ī à¤ıà¤¨à¤ı
à¤²à¤Ĺ à¤Ľ
Ġd on
Ġd one
Ġd etr
la o
Ġ# ${
Ġà¤ĸà¤¡ à¤ĭà¤ı
à¤ħà¤¬ à¤§
à¤µà¤§ à¤¸
ic on
à¤ıà¤® à¤Ĩà¤°à¤¸
à¤ªà¤Ł à¤ªà¤Ł
Ġà¤ĩà¤² à¤¸
Ġk ro
Ġk rec
à¤¼à¥ĩà¤Ĥ %
à¤¼à¥ĩà¤Ĥ -
à¤ħà¤° à¤ª
ĠâĢĿ )
en ed
à¤¾? .
à¤²à¤® à¤ļ
Ġà¤Ĩà¤¦à¤® à¤ĸ
Ġà¤ıà¤¸ à¤ıà¤²
Ġà¤ıà¤¸ à¤ıà¤¸à¤¸
à¤ļà¤ķ à¤¬à¤¸
Ġà¤¶à¤¤ à¤ªà¤¥
Ġ7 77
à¤°à¤Ĺ à¤¸
Ġ18 000
Ġ18 08
Ġ18 04
Ġ0 50
Ġ0 22
à¤§à¤ķ à¤Ĺ
à¤§à¤ķ à¤ķà¤°
ar a
à¤Ķ à¤ª
à¤Ķ à¤Ł
à¤Ķ à¤·
à¤²à¤° à¤ľà¤¨
Ġà¤ķà¤Ł à¤Łà¤°
at t
at tend
à¤Ĩà¤ľ à¤®à¤Ĺà¤¢
à¤¿- %
à¤ıà¤¨ à¤Ĩà¤Īà¤Ł
à¤ıà¤¨ à¤ĵà¤¸
à¤ıà¤¨ à¤Īà¤ıà¤ļà¤¯
Ġà¤ıà¤¨ à¤ıà¤®
Ġà¤ıà¤¨ à¤ĵà¤¸
Ġà¤ıà¤¨ à¤ıà¤¸à¤Ī
Ġà¤ıà¤¨ à¤Īà¤Ĩà¤°
à¤°à¤®à¤£ à¤ķà¤°
ĠS E
ĠS ub
ĠS um
ĠS MP
st and
à¤¤à¤² à¤¦
à¤ıà¤« à¤ķ
à¤ıà¤« à¤Ĩà¤Īà¤¡
Ġc ore
à¤ľà¤¸ à¤¹
Ġpr ivate
Ġ15 50
Ġ15 60
Ġ15 33
à¤ħà¤ľ à¤ª
ĠC F
ĠC ol
ĠC oolant
à¤ħà¤¸ à¤¯
Ġà¤Ĺà¤£ à¤¸
à¤ľà¤Ĺ à¤ľà¤Ĺ
Ġà¥¨ à¥¯à¥©
ly Forward
re l
re es
ĠA A
ĠA ap
ĠA uthentication
ĠA vailable
ĠA ITO
Ġà¤ļà¤¯à¤¨ à¤¶
ob el
à¥Īà¤Ĥ) )
ĠI A
à¤īà¤ª à¤ļà¤°
Ġ11 62
à¤ħà¤µ à¤¤à¤¨
à¤Ĺà¤£ à¤ª
à¤°à¤ĸ à¤°à¤¬
se par
à¤ĩà¤ķ à¤¹à¤°
12 2
à¤®à¤£ à¤ķ
ol ic
ol ent
ou ter
à¤ªà¤² à¤ľ
ĠP W
ĠP ower
ĠP HOTO
ĠT re
ĠT el
ĠT urn
ĠM o
ĠM IT
ĠM ID
ĠM anch
20 23
à¤īà¤Ł à¤¬
il li
Ġp at
Ġp ower
Ġp osition
Ġb i
Ġb last
Ġb ron
à¤¿à¤ĥ à¥¤
Ġà¤ķà¤¡ à¤ª
ĠF F
ĠF rom
ĠF iles
ĠF ALSE
di g
di ff
à¤Ļ à¤¸à¤µ
ĠB ush
ra j
ra se
ra oM
Ġf lag
Ġf rac
Ġf ollow
Ġf reenode
Ġm ass
Ġm oon
Ġà¤ªà¤¨ à¤ļà¤ķ
ĠD ue
ĠD SS
ĠD esktop
ĠD PI
ĠD ata
ĠD HCP
Ġ[ ,
Ġ[ ]
Ġ14 000
ĠR ef
à¤°à¤¥ à¤ª
ĠU CLA
Ġà¤ĩà¤® à¤°à¤¸à¤¨
à¥© à¥¦à¥¦
ĠN U
ĠN Ox
18 2
18 6
18 24
18 75
18 66
18 95
18 67
18 65
18 43
18 77
Ġ17 000
Ġ17 90
Ġ17 89
Ġ17 92
Ġ17 81
à¥ª à¥¦à¥¦à¥¦
Â¤Â¤ ...
Ġà¤ħà¤®à¤° à¤ľ
à¥Īà¤Ĥ- (
ĠG lobal
ĠG calctool
Ġh h
Ġh ome
Ġh ue
30 7
ĠH e
ĠH ot
ĠH igh
ĠH RP
Ġà¤ıà¤« à¤ĵà¤µ
15 1
15 39
ut ch
à¤ıà¤ļ à¤¡à¤¬
à¤ıà¤ļ à¤ıà¤¸à¤µ
Ġg ender
id a
id enti
ent a
à¤ªà¤¥ à¤Ĺ
ĠO M
ĠO p
14 89
à¤¦à¤¬ à¤°à¤®
16 30
Ġà¤¨à¤· à¤ĭ
Ġà¤ıà¤ļ à¤ľ
ac a
ac tic
à¤°à¤¯à¤¤ à¤ĭ
à¤Ĩà¤¸ à¤¥
Ġu nd
Ġu ris
Ġà¤Ĩà¤« à¤¸
ri x
ri er
Ġà¥© à¥§à¥¦
Ġà¥© à¥Ńà¥¦
qu ot
Ġà¤ľà¤¯ à¤ĺ
25 00
à¥ĩà¤Ĥ? ?
Ġl ow
Ġl um
Ġl ock
Ġà¤ħà¤¹à¤® à¤¦à¤¬à¤ĸ
à¤¾: ??
à¤®à¤°à¤£ à¤¶
iii à¤ĺ
vi à¤Ĺà¤ĸ
Ġà¤ĸà¤¤ à¤ĭ
Ġ28 7
Ġ28 9
ĠZ à¤¬à¤¹
17 0
17 07
17 78
à¤¤à¤ķà¤° à¤ĺ
à¤®à¤¶ à¤¤à¤µ
em ber
22 7
Ġà¤ħà¤¡ à¤ļà¤¨
Ġà¤²à¤ķà¤¡ à¤ĭà¤Ī
ĠW hat
ĠW ord
24 1
Ġà¤ļà¤Ł à¤Ĺ
60 3
Ġ40 5
09 0
09 14
Ġà¤Ĩà¤®à¤¤ à¤ĭà¤°
AT AN
à¤ħà¤ªà¤° à¤¦à¤¨
ĠY our
ĠY YY
à¤Ĩà¤īà¤Ł à¤¡
Ġy ak
Ġy yy
oc h
Ġà¥« à¥¦à¥¦à¥¦à¥¦
à¥ĩà¤Ĥ- '
à¤ļà¤°à¤£ à¤¬à¤¦
ĠV al
ĠV ir
ĠV III
ĠV IDEO
ĠV ista
Ġ35 3
Ġ35 5
Ġ35 000
ch ron
Ġfor ce
AR Y
28 2
28 6
Ġr ho
Ġr bi
Ġr squo
am l
/- )
à¤ļà¤µ à¤¡
Â¤Â¶ :
Ġà¥¬ à¥¯
26 3
Ġ* :
tr ic
à¤ıà¤®à¤Ī à¤Ĩà¤°à¤Ĩà¤Ī
à¤Ĩà¤°à¤ı à¤Ĩà¤Īà¤ıà¤¸à¤Ī
RAN DB
Ġà¤· à¤ķ
Ġcon s
Ġcon trol
ener ated
de bug
li fied
ap s
os ol
un der
ox imal
35 6
ER I
Ġ36 2
Ġà¥§à¥« à¥¬à¥¬
Ġà¥§à¥« à¥ªà¥¨
à¤Īà¤Ł à¤ªà¤°
à¤ıà¤®à¤ıà¤¸ à¤ıà¤®à¤°
col lapse
ĠK l
ĠK al
IS C
IS BN
à¤ħà¤®à¤° à¤ĸ
Ġà¥§à¥® à¥¯à¥Ń
Ġà¥§à¥® à¥Ńà¥Ń
à¤Ĩà¤Īà¤ıà¤¸ à¤Ĩà¤Ī
Ġà¤ĭà¤· à¤Ńà¤¦
ĠJ ew
MA L
à¥§à¥® à¥§à¥®
à¥§à¥® à¥«à¥¯
à¤²à¤Ł à¤ķà¤¤
à¤ħà¤°à¤¬ à¤µ
Ġà¤ıà¤®à¤ıà¤¸ à¤Īà¤¬
Ġà¤ĵà¤µà¤° à¤«
Ġ33 8
à¤Ĩà¤¦à¤® à¤ľ
à¤Ĩà¤ĩ à¤ıà¤¸à¤¬
à¤¤à¤°à¤¤ à¤ķ
Ġ44 2
MS B
Ġà¥§à¥¦ à¥¨
aa i
aa kar
Ġà¤§à¤¡ à¤ķà¤¨
à¤ħà¤ķà¤¬à¤° à¤¨
Ġ48 2
han ks
à¤¾... ?
RO ME
Ġà¤ħà¤Łà¤ķà¤² à¤¬
for ma
our t
à¤ĩà¤µà¤° Name
Ġà¤Ĩà¤¹à¤°à¤£ à¤ķà¤°
Ġà¥§à¥¨ à¥©
Re ign
à¤ĸà¤Ł à¤ķà¤¨
à¤ĸà¤Ł à¤ĸà¤Ł
tic ip
Ġ08 40
im um
); ;
Ġà¤ħà¤°à¤µ à¤®
à¥¨à¥¦ à¥§à¥©
ge o
EX CHAN
iss ing
48 1
con om
Ġà¥§à¥¯ à¥§à¥¬
Ġà¥§à¥¯ à¥§à¥§
Ġà¥§à¥¬ à¥¦à¥§
à¤ľà¤¬à¤° à¤¨
ock s
ĠIS NUMBER
ĠIS NUM
ound s
Ġ54 3
66 2
à¤ĸà¤ĸ à¤Ľ
à¤ıà¤¨à¤ı à¤ıà¤®à¤ª
95 3
rou ps
88 8
UT E
à¤Ĩà¤Īà¤ı à¤ıà¤¸
ateg y
ateg ic
Ġà¤°à¤£ à¤¥
Ġà¤°à¤£ à¤®à¤¸
Ġà¤°à¤£ à¤¥à¤®
à¤Īà¤ıà¤¸ à¤ı
sh ah
key ring
à¤Ŀà¤® à¤Ŀà¤®
Ġà¥§à¥ª à¥¦
Ġra s
St ack
Ġ74 05
ord inate
à¥§à¥¯à¥® à¥¬
Ġà¥§à¥¯à¥Ń à¥¨
101 0
Reg ister
?? ?
ĠIn su
ĠIn forma
à¤¬à¤¦à¤° à¤ª
Ġint egr
com puter
fic er
à¥Ģ'' ,
Ġà¥§à¥¯à¥ª à¥ª
GE MAPI
Ġâ ĩĴ
tive ly
Ġq ao
à¤ĵà¤ªà¤¨ à¤ľ
Ġà¥§à¥¯à¥© à¥©
Ġun intui
sc hema
à¤ıà¤¸à¤Ĩà¤° à¤Ĩà¤ĩ
AB EL
OC s
te am
Ġ~ /
Ġsub tra
Ġsub task
à¤ıà¤¨à¤ıà¤¸ à¤ıà¤ª
à¥¨à¥ª à¥¦
omb ing
Ġà¥§à¥¯à¥« à¥§
Ġà¥§à¥¯à¥« à¥©
Ġà¤£ à¤Ł
Ġha oto
Â° )
Sp ace
AND L
min utes
Ġà¤®à¤°à¤£ à¤¶
Ġcan not
Send ing
à¥§à¥¦à¥¦ à¥¦à¥¦
ĠPr es
à¤Ĩà¤¸à¤¨ à¤¸
Ġà¥§à¥¯à¥¬ à¥®
Ġcomp ounds
ib li
ĠCom mit
à¤®à¤¦à¤¨ à¤²
ĠRes earch
Ġsh own
Ġsh utdown
à¥§à¥¯à¥¨ à¥«
Ch ad
tin dia
Ġà¤ªà¤°à¤ĸà¤¨ à¤²
org ia
Ġ79 44
ĠMail Sending
Ġja ato
aya aoM
def am
Ġà¤®à¤Ŀ à¤¦
aut o
tiv es
AC E
AC KG
Ġà¤¨à¤¯à¤¨ à¤®
Ġà¥§à¥§à¥ ª
Ġà¥§à¥§à¥ Ń
Ġerror Other
Ġprogram s
ĠRep lyForward
Level ing
Ġ^ -
BO SS
à¤ħà¤¸à¤° à¤¹
Dev ice
res ource
pol icy
dire ct
ĠRem ove
class ification
aar un
Ġà¤²à¤Ľ à¤®à¤¨
ĠDis aster
Ġà¥§à¥¯à¥¨ à¥«
Ġà¥§à¥¯à¥¨ à¥ª
south america
Ġinter phase
Ġva Ya
Col umn
à¤Ĩà¤¨à¤² à¤ĩà¤¨
Ġele ction
ÃīÄ ĺ
Ġdis abled
ĠBook s
Ġatt ribute
à¤ıà¤«à¤ĵ à¤ıà¤¸à¤ıà¤¸
ĠTr ust
Ġvari able
Ġdiv iding
Ġplan et
Ġà¤ªà¤ķà¥ľ à¤ķà¤°
ROM IUM
à¤ıà¤µà¤° à¤Ĺ
aniz ed
Ġlog in
QN etwork
1100 11
An nu
eng th
mo on
Ġvol t
Ġvol umes
mer gency
à¤·à¤®Q MYSQLResult
Ġsecond s
Ġpop up
luor ide
AA s
IMS IN
à¥Ģà¤ĤâĢĿ ...
ĠSOCKS v
den mark
ĠWar a
à¥§à¥®à¥¦ à¥¯
Setting s
âĤ ģ
wa ve
ï¿½ï¿½ ï¿½
ues day
à¤īà¤Ńà¤¯ à¤ļà¤°
ĠCON VERT
Str uct
ĠAB TA
Ġà¤ļà¤ĭ à¤¥
à¤ħà¤¯à¤¶ à¤¸
Ġag ain
Ġplay ed
Ġrecurs ively
âĪ ļ
à¤ªà¤¦à¤¤ à¤²
Ġcomple te
AD VANC
Ġà¤Ĵ à¤°
Ġcal led
ĠTra ditional
Qu ick
iS ign
Ġran ge
ĠâĪ Ĵ
PHP BB
ira q
ĠGr ound
EEK DAY
aer osol
ĠClutter Grav
ĠEle ctron
ĠVer iSign
Pay Pal
rot ub
tw oten
Ġdev ice
Ġwik ipedia
ĠLiber ation
Ġrefer ence
ĠGuar dian
Law s
frame s
eth nic
ROWS ER
SIG INT
ĠAdv ice
ih ad
ĠSer ies
ĠAnd roid
Ġchromati ds
TN EF
ĠPan el
ĠNov ember
à¤ĩà¤ªà¤°à¤ķ à¤¡
best osis
à¤¦à¤²à¤¬ à¤¦à¤²
ĠiPh one
Ġmean ing
Ġemploy er
border types
AMP LE
Sq l
uham mad
ĠSimp lified
ĠDel hi
akh stan
ĠCOMPLET ED
Cool ie
Fet ching
Mal ayan
Nort hern
zeal and
Ġstic k
Ġkrec ipes
attend ee
ĠManch ester
Ġyyy y
EXCHAN GEMAPI
ĠInsu rance
Ġunintui tive
Ġsubtra cting
ACKG ROUND
ADVANC ED
ĠClutterGrav ity
) *
) --
) ",
. '
. [
. --
3 19
3 45
3 36
4 36
6 08
6 70
7 01
7 000
7 07
8 20
8 25
8 07
8 02
9 20
9 31
9 45
9 55
: ?
A U
A pril
B o
B IT
B ugzilla
B ESSEL
B LANK
C a
C l
C r
C her
C ER
C ook
C RA
C MY
C MYK
D r
D on
D OL
D iff
E ast
E EA
F ield
F IX
F ORM
G r
G Type
G etter
G adget
H ead
I i
I ss
J abber
K eep
L r
L AR
L IB
L GPL
M g
M i
M AN
M ap
M ess
M odel
M ONTH
N et
N aI
O DD
P p
P an
P urge
Q aI
R X
R ING
R PC
R FP
S W
S k
S at
T Z
T emp
T itle
U rl
V al
V ER
W ord
X N
Y acc
Z à¤¶
_ %
b h
b andw
c gi
c oolant
d es
f w
g al
g lobal
g raph
h d
i os
i Ãī
j ud
k a
k az
l ess
m L
m ber
m ission
o el
p ing
p ower
q at
r I
r up
r tindia
s ite
s ources
s ocks
t xt
v ard
v fs
v eep
w hat
w ast
w indow
w ide
w arn
w iki
x a
y ou
y ear
z ai
} }
Ã ¨
Ì ĥ
Ì Ħ
â Ħ¢
Ġ Ð
Ġ ..
Ġ ht
Ġ ly
Ġ ),
Ġ ill
Ġ ÃīÄ
Ĩ Ĵ
à¤¾ à¤¿à¤Ĥ
à¤¾ âĢĺâĢĺ
à¤° à¤²à¤¨
à¤° à¤¡à¤®
à¤° à¤¡à¤¸
à¥ĩ |
à¥ĩ âĢį
à¥ĩ âĢľ
à¥į ?
à¥į ),
à¤¿ ',
à¤Ĥ "
à¤Ĥ âĢĿ
à¤Ĥ --
à¤¨ à¤¯à¤®
à¤¨ à¤¨à¤¤
à¤¨ à¤°à¤ªà¤¤
à¤¨ à¤°à¤Ń
à¤¨ à¤ħà¤ª
à¤¨ à¤ħà¤°
à¤¨ à¤Łà¤®
à¤¨ unit
à¤¨ CategoryName
à¤¨ spain
à¤¨ armenia
à¤¨ Location
à¤¨ southkorea
à¤¤ à¤ħà¤²
à¤¤ à¤ªà¤¦
à¤¤ à¤¹à¤ľ
à¤¤ à¤ıà¤°
à¤¤ à¤ĭà¤¤
à¤¤ File
à¤ķ à¤¨à¤¤
à¤ķ à¤¯à¤°
à¤ķ à¤¦à¤ķ
à¤ķ à¤§à¤°
à¤ķ à¤Ńà¤ķ
à¤ķ à¤¨à¤¤à¤®
à¤ķ à¤¦à¤²
à¤ķ à¤¶à¤®
à¤ķ à¤ĺà¤ķ
à¤ķ à¤ĸà¤ĸ
à¤ķ CategoryName
à¥ĭ à¤ĥ-
à¥ĭ `%
à¤¯ à¤¢
à¤¯ à¤¯à¤¸
à¤¯ à¤Ĺà¤¡
à¤¯ à¤¬à¤ķ
à¤¯ Priority
à¤¸ à¤¯à¤ª
à¤¸ à¤¤à¤°à¤¹
à¤¸ brazil
à¤¸ à¤ĵà¤Ĩà¤°
Ġà¤¹ à¤¹
Ġà¤¹ à¤ļ
Ġà¤¹ à¤²à¤¨
Ġà¤¹ à¤¶à¤®
Ġà¤¹ à¤°à¤¸à¤®
à¤® à¤§à¤¨
à¤® à¤Łà¤¨
à¤® à¤µà¤ķ
à¤® à¤¦à¤Ĺ
à¤® à¤ĭà¤¤
à¤® à¤¸à¤ķà¤¨
à¤® à¤Ĺà¤²à¤°
Ġà¤¸ à¤ľà¤²
Ġà¤¸ à¤¸à¤¸
Ġà¤¸ à¤ĺà¤°
à¤¹ à¤ľà¤¨
à¤¹ à¤ļà¤¨
à¤¹ à¤²à¤¬
à¤¹ à¤¨à¤µ
à¤¹ à¤Ńà¤°
à¤¹ à¤Ĺà¤¨
à¤¹ à¤ªà¤¡
à¤¹ à¥ŀ
à¤² à¤°à¤®
à¤² à¤ĸà¤²
à¤² à¤¶à¤¬
à¤² à¤Ľà¤ķ
à¥ģ âĢĿ,
à¥Ī à¥ĩ
à¥Ī à¤¼
à¤µ à¤Ĺà¤°
à¤µ à¤ľà¤°
à¤µ à¤¬à¤²
à¤µ à¤«à¤²
à¤µ à¤¬à¤¦
à¤µ à¤¦à¤ķ
à¤µ à¤¦à¤¯
à¤µ à¤Łà¤µ
à¤µ à¤®à¤£
à¤µ Comment
Ġà¤® à¤ķà¤¨
à¤¦ à¤¨à¤¤
à¤¦ à¤ļà¤¨
à¤¦ à¤°à¤¯
à¤¦ à¤ķà¤°à¤£
à¤¦ à¤Ńà¤µ
à¤¦ à¤¯à¤ª
à¤¦ à¤¶à¤µ
à¤¦ à¤¬à¤°à¤¦
à¤¦ Comment
à¤¦ à¤°à¤¹à¤µ
à¤¦ à¤ªà¤°à¤µ
à¤¦ à¤¸à¤¹à¤ľ
à¤¦ Query
à¤ª à¤Ĺà¤®
à¤Ĺ à¤ĵ
à¤Ĺ à¤¯à¤¤
à¤Ĺ à¤¶à¤ķ
à¤Ĺ à¤ľà¤¬
Ġà¤ľ à¤ķà¤¤
Ġà¤ľ à¤¸à¤°
Ġà¤ľ à¤¸à¤ª
Ġà¤ľ à¤Īà¤¨
Ġà¤ħ à¤¢
Ġà¤µ à¤°à¤¹
Ġà¤¨ à¥Ľ
à¤ľ à¤·
à¤ľ à¤µà¤¤
à¤ľ à¤²à¤¬
à¤ľ à¤Łà¤²
à¤ľ à¤®à¤£
à¤ľ à¤Īà¤«
à¥ĭà¤Ĥ à¥Ī
à¥Ĥ "
à¥Ĥ ...
Ġà¤¤ à¤¬à¤°
Ġà¤¤ à¤¨à¤¯
Ġà¤¤ à¤¨à¤ķà¤°
Ġà¤¤ à¤°à¤£à¤¤
Ġà¤¦ à¤¬à¤¨
Ġà¤¦ à¤¶à¤°
Ġà¤ī à¤ķà¤¨
Ġà¤ī à¤¬à¤ķ
à¤¶ à¤µà¤²
à¤¶ à¤¤à¤µ
à¤¶ à¤ľà¤²
à¤¶ City
à¤¶ à¤łà¤¤
à¤¶ à¤Ĭà¤°
à¤¶ à¤Łà¤¡
à¤¶ CategoryName
à¤¶ Query
à¤¬ à¤ĵ
à¤¬ à¤²à¤¨
à¤¬ à¤¬à¤°
à¤¬ à¤ļà¤ķ
Ġà¤² à¤ªà¤²
Ġà¤² à¥ľà¤¨
Ġà¤² à¥ľà¤ķ
à¤Ł à¤¸à¤ķ
à¤Ł à¤µà¤²
à¤ı à¤¦à¤¨
à¤ı à¤ļà¤°
à¤ı à¤¡à¤²
Ġà¤° à¤ª
Ġà¤° à¤§
à¤§ à¤ĸ
à¤§ à¤°à¤ķ
à¤§ à¤°à¤¦
à¤§ à¤¯à¤¨
à¤§ à¤¶à¤ķ
à¤§ à¤µà¤²
à¤§ à¤ķà¤¨
à¤§ à¤ļà¤°
à¤§ CategoryName
à¤§ à¤Ĺà¤²à¤¨
à¤· à¤¸à¤¤
à¤· unit
à¤· à¤¡à¤¯
à¤ļ à¤¦à¤°
à¤ļ à¤Ĺà¤¨
à¤ļ Name
à¤ļ à¤Ĺà¤µ
à¤ļ à¤ĸà¤ķ
à¤ļ à¤¬à¤ķ
à¤ļ Comment
à¤ļ CategoryName
à¤¡ à¤²à¤¬
à¤¡ CategoryName
à¤¥ à¤¤à¤²
Ġà¤Ĩ à¤¯à¤®
Ġà¤Ĩ à¤µà¤¤
Ġà¤Ĩ à¤ĩà¤¨à¤¸
Ġà¤Ĩ à¤®à¤¸à¤Ń
à¤£ à¤Ĺà¤¤
à¤£ à¤¤à¤¤
à¤£ à¤ªà¤¶
à¤£ à¤¦à¤²
Ġà¤Ń à¤¯à¤®
Ġà¤Ń à¤¨à¤µ
Ġà¤Ń à¤ĭà¤¤
à¤ĸ à¤¤à¤¨
à¤ĸ à¤°à¤ľ
Ġà¤Ĺ à¤µà¤²
Ġà¤Ĺ à¤¦à¤¬
à¤Ń à¤®à¤£
Ġà¤ªà¤° à¤®à¤¤à¤¤
Ġà¤ªà¤° Jabber
à¥Īà¤Ĥ ]
à¥Īà¤Ĥ 'à¥¤
à¥Īà¤Ĥ âĢĿ.
à¥Īà¤Ĥ ....à¥¤
Ġ( ):
Ġ( ${
Ġà¤ĩ à¤ķà¤®
Ġà¤ı à¤Łà¤ķ
Ġà¤ı à¤Ĺà¤®
Ġà¤ı à¤²à¤Ĺ
Ġà¤ı à¤ĵà¤ª
Ġà¤ļ à¤¤à¤°
à¤Ī à¤ªà¤°
à¤Ī à¤¬à¤°
à¤Ī à¤·à¤¦
à¤Ī Comment
à¤Ī à¤Łà¤¸
à¤Ī à¤Ńà¤¤
à¤Ī à¤Ĩà¤°à¤ª
Ġà¤¶ à¤ª
à¤°à¤¤ à¤¯à¤ķ
à¤°à¤¤ à¤ķà¤²
à¤« à¤Ŀ
à¤« à¤¬à¤¨
à¥Ģà¤Ĥ ....
Ġà¤ĸ à¤Łà¤µ
à¤ĩ à¤°à¤¤
à¤ĩ à¤ĵ
à¤ĩ à¤ªà¤¸
à¤ĩ à¤¯à¤²
à¤ĩ à¤ľà¤®
à¤ĩ à¤«à¤ķ
à¤ĩ à¤¤à¤°à¤²
Ġà¤ıà¤ķ à¤µ
Ġà¤ıà¤ķ à¤Ł
Ġà¤¥ à¤¡
Ġà¤¸à¤® à¤§
à¤ģ ]
à¤ģ à¥Ĥ
à¤ģ à¤ĥ%
à¤ģ âĢ¦
à¤Ľ à¤ķà¤¨
à¥ĥ à¥ĩ
à¤ħ à¤¹à¤¨
à¤ħ à¤Ĺà¤¨
à¤ħ à¤µà¤¹à¤¨
à¤ħ à¤¹à¤µ
à¤ħ à¤ĸà¤¡
à¤ħ à¤°à¤Ńà¤ķ
Ġà¤« à¤°à¤¹
à¤ķà¤° à¤¸à¤°
à¤°à¤ķ à¤Ń
à¤¼à¤¾ '
Ġà¤ħà¤¨ à¤¤à¤°
Ġà¤ħà¤¨ à¤¦à¤°
à¤Ĩ à¤²à¤¬
à¤Ĩ à¤¹à¤ķ
à¤Ĩ à¤ĺà¤°
à¤Ĩ à¤ĸà¤²
à¤Ĩ à¤īà¤¬
à¤ķà¤¤ à¤¤
à¤ķà¤¤ à¤µ
à¤ł à¤§
à¤ł à¤ĸ
à¤ł à¤¸à¤ķ
à¤ł CategoryName
à¤ł toolbar
à¤ł ActionGroupEditorInsert
Ġà¤ħà¤§ à¤ªà¤ķ
à¤¤à¤° à¤¨à¤¤
à¤¤à¤° CategoryName
à¤ī à¤ı
à¤ī à¤ħà¤¨
à¤ī à¤ĺà¤°
à¤ī à¤§à¤®
à¤ī à¤¥à¤¶
à¤ī à¤§à¤¡
à¤ĵ à¤¢
à¤ĵ à¤¸à¤¨
à¤ĵ à¤ıà¤ķ
à¤ĵ à¤ľà¤¸
à¤ĵ City
à¤ĵ à¤«à¤¸
à¤ªà¤° à¤®à¤²
à¥Ī, '
à¤°à¤£ à¤¥
Ġà¤¬à¤¨ à¤®
à¤¯à¤ķ à¤Ĺà¤£
Ġà¤¡ à¤Ĺà¤°
Ġà¤¡ à¤¬à¤°
à¤ľà¤¨ à¤ĵ
à¤ľà¤¨ à¤Ĺà¤°
Ġà¤īà¤ª à¤ľà¤¨
à¤ĥ /
à¤ĥ --
à¥ī à¥ĩ
Ġà¤§ à¤§à¤ķà¤¤
Ġà¤ħà¤² à¤ª
à¤¸à¤° à¤Ĺà¤°à¤®
Ġà¤Ľ à¤Łà¤¨
à¤Ĺà¤° à¤¬
à¤¯à¤® à¤°à¤¹
à¤°à¤¸ à¤§
à¤°à¤¸ à¤ł
à¤¹à¤¤ à¤¬
Ġà¤¸à¤¹ à¤¶
Ġà¤¸à¤¹ à¤¬
Ġà¤¸à¤¹ à¤¯à¤¤
à¤µà¤¨ City
à¥Ģà¥¤ ),
Ġà¤¬à¤¹ à¤¤à¤°
à¤ŀ à¤µ
à¤ŀ à¤ĺ
à¤¶à¤¨ à¤¨
à¤¶à¤¨ à¤§
à¤¶à¤¨ City
à¤®à¤¨ à¤ª
à¤®à¤¨ à¤¬
à¤®à¤¨ à¤ļ
à¤®à¤¨ à¤¥à¤ª
Ġà¤Ł à¤«
à¤¸à¤ķ à¤Ł
à¤¸à¤ķ à¤ªà¤ķ
à¤ĺ à¤ī
à¤ĺ à¤°à¤¨
à¤ĺ à¤łà¤¨
à¤Ĺà¤¤ à¤¸
à¤Ĺà¤¤ CategoryName
à¤¬à¤° à¤µ
à¤¬à¤° à¤¬à¤¦
à¤¬à¤° à¤¬à¤¡
Ġà¤ħà¤µ à¤¤à¤²
Ġà¤¸à¤¬ à¤¹
Ġà¤¸à¤¬ à¤«
à¤·à¤£ à¤¯
à¤·à¤£ à¤ªà¤¤
à¤·à¤£ à¤Ńà¤°
Ġà¤Ī à¤¦à¤Ĺ
Ġà¤Ī à¤ıà¤¸à¤ı
Ġà¤ķà¤® à¤²à¤ķ
à¤¯à¤¨ à¤ķà¤¤
à¤²à¤¯ à¤¸
à¤²à¤¯ à¤¶
Ġà¤®à¤¹ à¤¶
Ġà¤®à¤¹ à¤ķà¤®
Ġà¤ĵ à¤ķà¤°
Ġà¤ĵ à¤®à¤°
Ġà¤ĵ à¥ľ
Ġà¤ĵ à¤®à¤ª
à¤°à¤µ à¤¹
à¤°à¤µ à¤¦à¤¨
00 000
à¤¦à¤¨ à¤ª
à¤ķà¤² à¤§
à¤ķà¤² Next
Ġà¤¤à¤°à¤¹ à¤¸
à¤¾. "
à¤µà¤¸ à¤¯
à¤®à¤ķ à¤¹
à¤µà¤¹ à¤¨à¤ķ
Ġà¤¸à¤° à¤Ĺà¤¨
à¤§à¤¨ à¤Ĺ
Ġà¤ħà¤° à¤°
à¥Īà¤Ĥ, ?
à¤ıà¤ķ à¤µ
à¤¶à¤ķ à¤®
à¤¶à¤ķ Comment
à¤ĩà¤² Comment
Ġs ent
Ġs oc
Ġs ession
Ġs recent
Ġà¤ħà¤ļ à¤ķ
Ġà¤Ŀ à¤°à¤¤
Ġà¤Ŀ à¤²à¤ķà¤¨
Ġà¤Ĩà¤§ à¤¯
à¤¯à¤¦ à¤Ĺ
à¤¯à¤° à¤Ł
à¤°à¤¶ à¤®
à¤Ĳ à¤²à¤¨
à¤Ĳ à¤ıà¤²
à¤Ĳ à¤ªà¤²
à¤Ĳ à¤¡à¤®
à¥ĭà¥¤ âĢĻâĢĻ
Ġà¤Ĩà¤° à¤¨
Ġà¤Ĭ à¤Łà¤ªà¤Ł
Ġà¤ħà¤ª à¤Ł
Ġà¤ħà¤ª à¤²à¤¬
à¤¸à¤² à¤®à¤¨
Ġà¤ł à¤Ĺà¤¨
à¤®à¤² à¤Ĺ
à¤®à¤² à¤¡
01 6
Ġ' /
on y
Ġà¥ Ĵ
à¤Ĺà¤² à¤Ĺà¤£
à¤Ĺà¤² à¤«à¤¡
Ġà¤¬à¤² à¤ķ
Ġà¤¬à¤² à¤ĸ
à¤ħà¤¨ à¤µà¤²
à¤ħà¤¨ à¤ħà¤¨à¤ª
à¤°à¤¬ à¤ļà¤¨
à¤ľà¤¬ à¤¹
à¤°à¤¨ à¤®
à¥ģà¤ģ à¥¤
me n
à¥Īà¤Ĥ. "
Ġà¤ķà¤² à¤°à¤®
à¥Ģ- à¥¤
Ġà¤¢ à¤²à¤ķà¤°
à¤¿, ]
Ġ3 19
Ġ3 96
à¤¨à¤µ à¤°à¤¤
Ġà¤Ĩà¤µà¤¶ à¤¯à¤ķ
à¤¡à¤° à¤«
à¤¡à¤° File
à¤²à¤ķ à¥ľ
à¥ĩ- >
in ch
Ġn atural
Ġà¤ªà¤¶ à¤ļ
Ġà¤ľà¤² à¤¦à¤¸
à¤µà¤°à¤£ à¤®
à¤µà¤ª à¤ª
Ġà¤ªà¤¦ à¤Ĺ
Ġà¤ªà¤¦ à¤®à¤¨
Ġà¤ĳ à¤Ĺ
à¤·à¤ķ à¤Ĺà¤£
à¤ıà¤¸ à¤Īà¤¡
à¤ıà¤¸ à¤ıà¤¨à¤ı
à¤ıà¤¸ à¤ıà¤ļà¤ı
à¤·à¤¯ à¤ªà¤°à¤ķ
à¤Ĭ à¤¹
à¤Ĭ à¤ļà¤°
à¤ħà¤² à¤ķà¤²
à¤ħà¤² à¤ķà¤¨
Ġà¤¬à¤° à¤¬à¤°
à¤ķà¤Ł à¤ľ
à¤ķà¤Ł à¤ĺà¤°
à¤¹à¤¨ à¤«
à¤µà¤¯ à¤µà¤¤
Ġà¤®à¤¦ à¤¦à¤ķ
Ġà¤®à¤¦ recent
à¤ħà¤ªà¤¨ à¤¯à¤¨
Ġà¤Ķ à¤Ĺ
à¤Ĩà¤° à¤ıà¤ķ
à¤¯à¤ª à¤¸
ame ra
à¤·à¤® à¤£
à¤Ĩà¤Ī à¤ıà¤µ
à¤Ĩà¤Ī à¤ıà¤¸à¤ıà¤¸
à¤µà¤ķ à¤ĭ
à¤¦à¤® à¤¹
à¤°à¤§ à¤®à¤¨
pr od
à¤¨à¤¸ Constellation
Ġà¤ªà¤¢ à¤ĭ
Ġ5 16
Ġ5 23
Ġ5 22
Ġà¤Ĳ à¤¯
Ġà¤Ĳ à¤²à¤°
Ġà¤Ĳ à¤¡à¤¸
à¤¥à¤® à¤Ĺ
Ġ4 32
à¤¡à¤² à¤ª
à¤ĭ à¤Ĩà¤¤
à¤¸à¤¦ à¤Ĺà¤£
Ġà¤µà¤ķ à¤ĭ
à¤°à¤ľ à¤¸
à¤°à¤ľ à¤Ł
à¤¯à¤² à¤®
à¤¯à¤² à¤Ĺ
Ġà¤¸à¤®à¤¸ à¤¯
al aI
Ġà¤®à¤¤ à¤ª
à¤ħà¤¤ à¤²
Ġà¤¨à¤µ à¤ļ
Ġd I
Ġd Us
Ġd ots
à¤¹à¤ķ CategoryName
19 3
it ude
à¤ľà¤² à¤ªà¤°
or th
or ies
à¤¹à¤² à¤ļà¤²
à¤ħà¤§ à¤®à¤¤
ic tur
ic tim
à¤ıà¤® à¤ıà¤ª
44 1
Ġà¤¹à¤Ł à¤µ
Ġà¤ķà¤ł à¤«
à¤ªà¤Ł à¤ķà¤¨
à¤ħà¤ª à¤Ĺ
à¤ħà¤ª à¤¢
à¤®à¤Ĺ à¤°à¤®à¤ļ
Ġ6 14
Ġ6 16
Ġ6 09
Ġ6 64
Ġ6 87
Ġ6 Â½
à¤®à¤¦ à¤¯
Ġà¤ĭà¤£ à¤ª
Ġà¤ĭà¤£ à¤Ń
à¤µà¤ľ à¤¤
à¤µà¤ľ à¤¯
à¥Ī) :
à¤£à¤¯ à¤ķà¤°à¤£
à¤¼à¥ĩà¤Ĥ "
à¤ķà¤® à¤¤à¤°
à¤ıà¤² à¤ıà¤ķ
à¤Ĺà¤¨ à¤¬
ab b
ab ia
ab out
ab org
Ġà¤ıà¤¸ à¤ĵ
Ġà¤ıà¤¸ à¤ıà¤®à¤¬
ot em
Ġ7 10
Ġ7 30
Ġ7 37
Ġ7 68
à¤°à¤Ĺ à¤¬
à¤łà¤ķ à¤łà¤ķ
Â¤Âķ ...
Â¤Â° ?
le tion
ar g
ar o
ar ter
Ġ_ )
at osphere
à¤¸à¤¬ à¤µ
à¥Įà¤Ĥ ,
à¤ıà¤¨ à¤ıà¤¸à¤Ĩà¤Ī
à¤ıà¤¨ à¤Īà¤ıà¤¸
à¤ıà¤¨ à¤Ĩà¤Īà¤ıà¤«
à¥Ĥà¤Ĥà¥¤ --
à¤²à¤µ à¤£à¤¤
à¤°à¤ª à¤ļ
à¤°à¤ª à¤¥à¤°
à¤¶à¤² à¤ľà¤®
Ġ10 76
Ġà¤ıà¤¨ à¤ıà¤¬
Ġà¤ıà¤¨ à¤Ĩà¤Īà¤ı
Ġà¤ıà¤¨ à¤ıà¤ļà¤ª
Ġà¤ıà¤¨ à¤ıà¤¸à¤ıà¤ª
à¥Ī- :
à¤ĳ à¤®
à¤ĳ à¤ķà¤²
à¤ĳ à¤¥à¤°
ĠS C
ĠS W
ĠS OL
ĠS CR
ĠS SP
st rip
à¤īà¤¦ à¤¯à¤Ĺ
à¤¤à¤² à¤Ľà¤Ł
Ġà¤ħà¤« à¤ľ
à¤ıà¤« à¤ıà¤²à¤ıà¤¸
Ġc c
Ġc r
Ġc er
Ġc at
Ġc ust
Ġc lear
Ġà¤ªà¤Ł à¤¹
Ġà¤ªà¤Ł à¤ķà¤¤
à¤ľà¤¸ à¤ľ
Ġpr oximal
Ġ15 10
Ġ15 04
ĠC UR
ĠC OL
ĠC CD
ĠC ORBA
à¤ħà¤¸ à¤«
à¤ħà¤¸ à¤ķà¤¤
Ġ20 40
Ġ9 73
Ġà¥¨ à¥§à¥¨
re vi
re land
ĠA b
ĠA ff
ĠA ccount
à¤ĩà¤¡ à¤°à¤®
Ġà¤ıà¤® à¤Ĩà¤°
Ġà¤ıà¤® à¤Īà¤ıà¤¸
Ġà¤ıà¤® à¤ıà¤²à¤ıà¤«
à¤¸à¤¹ à¤ª
à¤¸à¤¹ à¤Ĺ
à¤¸à¤¹ à¤ľà¤¨
Ġà¤ħà¤¸à¤® à¤¥
Ġ11 40
à¤¸à¤ª à¤²
se ction
se ts
12 34
nt u
à¤ħà¤ķ à¤¶
à¤Ĩà¤¨ City
is veep
à¤¦à¤² à¤ªà¤¤
Ġà¤µà¤¨ à¤ľ
à¤ľà¤¯ à¤ªà¤¤
ĠP l
ĠP aa
ĠP ref
ĠP atch
ĠP ales
ĠT ransla
ĠT able
ĠT ool
ĠT ags
ĠT ouch
ĠM AR
ĠM ay
ĠM ah
ĠM ode
ĠM VP
ĠM uhammad
à¤«à¤° à¤¡
20 2
il ine
il iter
Ġp c
Ġp g
Ġp ir
Ġp erson
Ġp add
Ġb ig
Ġb ah
Ġb est
Ġb ana
Ġb gr
Ġb iline
Ġ{ (
à¤¿. -
à¤¿. ).
10 51
Ġà¤ļà¤¢ à¤ķà¤°
ĠF S
ĠF ind
ĠF onts
di ble
ĠB aa
ĠB lack
ra ce
Ġf a
Ġf at
Ġf acebook
Ġf rame
à¤Ĩà¤ķ à¤¬
Ġm o
Ġm or
Ġm ight
ĠD L
ĠD ictionary
à¤¤à¤ª à¤°à¤ķ
Ġ[ :
à¤¹à¤¬ à¤¶
Ġà¤¦à¤¶à¤ķ à¤®
Ġ14 12
Ġ14 15
à¤ªà¤ļ à¤ªà¤¨
ĠR E
ĠR h
ĠR ed
ĠR TP
ĠR ud
à¤Ĺà¤ľ à¤¦à¤¨
Ġà¤ħà¤¶ à¤¨à¤ķ
ĠU nc
ĠU PS
à¥© à¥¦à¥¦à¥¦
ĠN in
ĠN AND
Ġà¤¤à¤¨ à¤ľ
18 15
18 35
18 38
18 55
18 49
18 41
18 61
Ġ17 02
Ġ17 91
Ġ17 93
Ġ30 9
à¤īà¤ļ à¤Ł
à¤īà¤ļ à¤¡
el ophase
ĠL td
Ġe macs
à¥Īà¤Ĥ- âĢľ
à¤¾à¤Ĥ, -
ĠG reat
ĠG DB
ĠG note
ĠG Streamer
ĠG UI
à¤¯à¤Łà¤¨ à¤¸
à¥® à¥¦à¥¦à¥¦
Ġh app
Ġh ards
Ġh uman
ĠH z
ĠH ome
ĠH ead
ĠH ere
ĠH istory
15 2
Ġx ao
Ġà¤ķà¤ªà¤¡ à¤ĭà¤Ĩ
ut er
ut ed
Ġg e
Ġg r
Ġg en
Ġg ro
Ġg db
Ġg au
ĠE mp
ĠE sc
ĠE scape
à¥ģ. )/(
à¤¬à¤ķ à¤ķà¤°
ĠO f
14 000
14 14
16 1
16 7
16 05
ed s
ed ic
ec o
ec isveep
à¥Ģ? .
à¤Ĩà¤¸ à¤ķà¤¤
Ġu pl
Ġu uid
à¤¨à¤¬ à¤ľ
Ġà¤īà¤Ń à¤¡
Ġà¤īà¤Ń à¤¯à¤²
ri tish
qu id
Ġà¤ľà¤¯ à¤ľà¤¯à¤ķ
Ġl rz
Ġà¤ħà¤¹à¤® à¤¦à¤¶
iii à¤ľ
iii à¤¡
iii à¤ķà¤ķ
23 1
23 38
ĠZ à¤¤
ĠZ à¤Ń
ĠZ à¤ĩ
ĠZ oom
17 1
Ġ23 01
ĠâĢ¦ âĢ¦âĢ¦âĢ¦âĢ¦
Ġ27 9
à¤Ĺà¤ł à¤ľ
à¤Ĺà¤ł à¤¬à¤¨
ĠW E
ĠW EP
à¤¯à¤¬ à¤ķà¤¤
Ġ80 3
à¤ĩà¤¤ à¤µà¤°
Ġ40 7
us hi
us age
ag at
as ub
SL OP
à¤Ĩà¤² à¤ľ
and s
ĠY orkshire
à¤Ĩà¤īà¤Ł à¤¸
Ġy i
oc us
oc ate
ad ow
ad em
Ġà¤ħà¤µà¤° à¤ļà¤¨
ĠV P
Ġv er
Ġv ii
Ġv rgb
à¤į à¤ªà¤²
IN R
28 1
Ġr ope
Ġr gb
Ġr ubella
am Spec
Ġà¤¢à¤ķ à¤ķà¤°
26 2
26 6
27 7
03 4
Ġ* )
ĠX DG
à¤ļà¤²à¤¨ à¤ª
Ġre pres
Ġre kha
à¤²à¤ĺ à¤Ł
29 9
tr ust
Ġor ig
à¤ıà¤®à¤Ī à¤Ł
à¤ıà¤®à¤Ī à¤ı
à¤Ĩà¤°à¤ı à¤ıà¤®à¤ıà¤¸
Ġcon cept
ter abyte
Ġà¤¦à¤® à¤ķà¤²
de pend
li ps
---- ---
ap UNa
os sh
Ġà¤¶à¤¹ à¤°à¤®
[...]
