{"<|endoftext|>":0,"!":1,"\"":2,"#":3,"$":4,"%":5,"&":6,"'":7,"(":8,")":9,"*":10,"+":11,",":12,"-":13,".":14,"/":15,"0":16,"1":17,"2":18,"3":19,"4":20,"5":21,"6":22,"7":23,"8":24,"9":25,":":26,";":27,"<":28,"=":29,">":30,"?":31,"@":32,"A":33,"B":34,"C":35,"D":36,"E":37,"F":38,"G":39,"H":40,"I":41,"J":42,"K":43,"L":44,"M":45,"N":46,"O":47,"P":48,"Q":49,"R":50,"S":51,"T":52,"U":53,"V":54,"W":55,"X":56,"Y":57,"Z":58,"[":59,"\\":60,"]":61,"^":62,"_":63,"`":64,"a":65,"b":66,"c":67,"d":68,"e":69,"f":70,"g":71,"h":72,"i":73,"j":74,"k":75,"l":76,"m":77,"n":78,"o":79,"p":80,"q":81,"r":82,"s":83,"t":84,"u":85,"v":86,"w":87,"x":88,"y":89,"z":90,"{":91,"|":92,"}":93,"~":94,"¡":95,"¢":96,"£":97,"¤":98,"¥":99,"¦":100,"§":101,"¨":102,"©":103,"ª":104,"«":105,"¬":106,"®":107,"¯":108,"°":109,"±":110,"²":111,"³":112,"´":113,"µ":114,"¶":115,"·":116,"¸":117,"¹":118,"º":119,"»":120,"¼":121,"½":122,"¾":123,"¿":124,"À":125,"Á":126,"Â":127,"Ã":128,"Ä":129,"Å":130,"Æ":131,"Ç":132,"È":133,"É":134,"Ê":135,"Ë":136,"Ì":137,"Í":138,"Î":139,"Ï":140,"Ð":141,"Ñ":142,"Ò":143,"Ó":144,"Ô":145,"Õ":146,"Ö":147,"×":148,"Ø":149,"Ù":150,"Ú":151,"Û":152,"Ü":153,"Ý":154,"Þ":155,"ß":156,"à":157,"á":158,"â":159,"ã":160,"ä":161,"å":162,"æ":163,"ç":164,"è":165,"é":166,"ê":167,"ë":168,"ì":169,"í":170,"î":171,"ï":172,"ð":173,"ñ":174,"ò":175,"ó":176,"ô":177,"õ":178,"ö":179,"÷":180,"ø":181,"ù":182,"ú":183,"û":184,"ü":185,"ý":186,"þ":187,"ÿ":188,"Ā":189,"ā":190,"Ă":191,"ă":192,"Ą":193,"ą":194,"Ć":195,"ć":196,"Ĉ":197,"ĉ":198,"Ċ":199,"ċ":200,"Č":201,"č":202,"Ď":203,"ď":204,"Đ":205,"đ":206,"Ē":207,"ē":208,"Ĕ":209,"ĕ":210,"Ė":211,"ė":212,"Ę":213,"ę":214,"Ě":215,"ě":216,"Ĝ":217,"ĝ":218,"Ğ":219,"ğ":220,"Ġ":221,"ġ":222,"Ģ":223,"ģ":224,"Ĥ":225,"ĥ":226,"Ħ":227,"ħ":228,"Ĩ":229,"ĩ":230,"Ī":231,"ī":232,"Ĭ":233,"ĭ":234,"Į":235,"į":236,"İ":237,"ı":238,"Ĳ":239,"ĳ":240,"Ĵ":241,"ĵ":242,"Ķ":243,"ķ":244,"ĸ":245,"Ĺ":246,"ĺ":247,"Ļ":248,"ļ":249,"Ľ":250,"ľ":251,"Ŀ":252,"ŀ":253,"Ł":254,"ł":255,"Ń":256,"à¤":257,"Ġà¤":258,"à¥":259,"à¤¾":260,"à¤°":261,"à¥ĩ":262,"à¥į":263,"à¤¿":264,"Ġà¤ķ":265,"à¤Ĥ":266,"à¤¨":267,"à¥Ģ":268,"à¤¤":269,"à¤ķ":270,"à¥ĭ":271,"à¤¯":272,"à¤¸":273,"Ġà¤¹":274,"à¤®":275,"Ġà¤¸":276,"à¤¹":277,"à¤²":278,"à¥ģ":279,"Ġà¤ª":280,"à¥Ī":281,"à¤µ":282,"Ġà¤®":283,"à¤¦":284,"à¤ª":285,"à¤Ĺ":286,"à¥ĩà¤Ĥ":287,"Ġà¤ľ":288,"Ġà¤ħ":289,"Ġà¤µ":290,"Ġà¤¨":291,"à¤ľ":292,"à¤¼":293,"à¥ĭà¤Ĥ":294,"Ġà¤¬":295,"à¥Ĥ":296,"Ġà¤¤":297,"à¥¤":298,"Ġà¤¦":299,"Ġà¤ī":300,"à¤¶":301,"à¤¬":302,"Ġà¤²":303,"Ķà¤°":304,"à¤Ł":305,"à¤ı":306,"Ġà¤°":307,"à¤§":308,"Ġà¤Ķà¤°":309,"à¤·":310,"Ġà¤ķà¤°":311,"à¤ļ":312,"à¤¡":313,"à¤¥":314,"Ġà¤Ĩ":315,"à¤£":316,"Ġà¤Ń":317,"Ġà¤¯":318,"à¤ĸ":319,"Ġà¤Ĺ":320,"à¤Ń":321,"Ġà¤ªà¤°":322,"à¥Īà¤Ĥ":323,"Ġ(":324,"Ġà¤ĩ":325,"Ġà¤ı":326,"Ġà¤ļ":327,"à¤Ī":328,"à¥Īà¥¤":329,"Ġà¤īà¤¨":330,"Ġà¤¶":331,"à¤°à¤¤":332,"à¤«":333,"Ġà¤īà¤¸":334,"à¥Ģà¤Ĥ":335,"à¤ªà¤¨":336,"Ġà¤ĸ":337,"à¤ĩ":338,"Ġà¤ıà¤ķ":339,"Ġà¤¥":340,"Ġà¤¸à¤®":341,"Ġà¤¨à¤¹":342,"à¤¾à¤Ĥ":343,"à¤ģ":344,"Ġà¤ĩà¤¸":345,"à¤Ľ":346,"Ġà¤ķà¤°à¤¨":347,"à¥ĥ":348,"à¥Į":349,"à¤ħ":350,"Ġà¤«":351,"Ġà¤°à¤¹":352,"à¤ķà¤°":353,"Ġà¤¹à¤®":354,"Ġà¤ħà¤ªà¤¨":355,"à¤°à¤ķ":356,"à¤¼à¤¾":357,"Ġà¤ħà¤¨":358,"à¤¾à¥¤":359,"à¤Ĩ":360,"Ġà¤µà¤¹":361,"à¤ķà¤¤":362,"Ġà¤¯à¤¹":363,"à¤ł":364,"à¤µà¤°":365,"Ġà¤ķà¤°à¤¤":366,"Ġà¤ħà¤§":367,"Ġà¤īà¤¨à¤ķ":368,"à¤¤à¤°":369,"à¤ī":370,"à¤ĵ":371,"Ġà¤ķà¤¹":372,"à¤¾,":373,"à¤ªà¤°":374,"à¥Ī,":375,"Ġà¤Ĺà¤¯":376,"à¤°à¤£":377,"Ãł":378,"Ġà¤¬à¤¨":379,"Ġà¤īà¤¸à¤ķ":380,"à¤¯à¤ķ":381,"Ġà¤¡":382,"âĢ":383,"à¤ľà¤¨":384,"à¤Ķà¤°":385,"Ġà¤īà¤ª":386,"à¤¿à¤Ĥ":387,"Ġ1":388,"à¤ĥ":389,"à¥Īà¤Ĥà¥¤":390,"Ġà¤¸à¤ķà¤¤":391,"à¥ī":392,"à¤ĩà¤¸":393,"Ġà¤¤à¤¥":394,"à¤Ŀ":395,"Ġà¤ªà¤¹":396,"à¤¾à¤ģ":397,"Ġà¤§":398,"à¤°à¤®":399,"Â¤":400,"Ĳà¤¸":401,"à¤¢":402,"Ġà¤ħà¤²":403,"à¤¼à¥ģ":404,"à¥ĩà¥¤":405,"à¤¸à¤°":406,"Ġà¤Ľ":407,"à¤¯à¤¤":408,"Ġà¤Ĩà¤ª":409,"à¤¨à¤ķ":410,"à¤¹à¤°":411,"à¤¼à¥Ģ":412,"à¤Ĺà¤°":413,"à¤°à¤¹":414,"Ġà¤Ĳà¤¸":415,"Ġà¤¤à¤ķ":416,"Ġà¤ĺ":417,"à¤¯à¤®":418,"à¤¤à¤¨":419,"à¥Ī.":420,"à¤ªà¤¤":421,"à¤²à¤¨":422,"à¤°à¤¦":423,"à¤°à¤¸":424,"Ġà¤²à¤Ĺ":425,"à¤¸à¤®":426,"Ġà¤°à¤ĸ":427,"à¤¹à¤¤":428,"Ġà¤ľà¤¬":429,"à¤²à¤¤":430,"à¤¨à¤¤":431,"Ġà¤¸à¤¹":432,"à¤¼à¤¿":433,"à¤µà¤¨":434,"Ġà¤µà¤°":435,"Â¤Â":436,"à¥Ģà¥¤":437,"Ġà¤¬à¤¹":438,"à¥ĩ,":439,"à¤ŀ":440,"Ġ2":441,"à¤¶à¤¨":442,"à¤®à¤¨":443,"Ġà¤Ł":444,"à¤¼à¥ĩ":445,"Ġà¤īà¤¤":446,"à¥Ģ,":447,"à¤¯à¤¹":448,"à¤¸à¤ķ":449,"à¤ļà¤¨":450,"à¤ĺ":451,"à¤®à¤¤":452,"à¤Ĺà¤¤":453,"à¤¬à¤°":454,"Ġà¤ħà¤µ":455,"Ġà¤¸à¤¬":456,"à¤·à¤£":457,"à¤°à¤¯":458,"à¤¸à¤¨":459,"Ġà¤Ĩà¤¯":460,"Ġà¤Ī":461,"Ġà¤ªà¤¹à¤²":462,"Ġ\"":463,"Ġà¤ķà¤®":464,"à¤Łà¤°":465,"à¤¯à¤¨":466,"Ġà¤¬à¤¡":467,"à¤²à¤¯":468,"Ġà¤®à¤¹":469,"Ġà¤ĵ":470,"Ġà¤¸à¤ķ":471,"à¤¦à¤°":472,"à¤°à¤µ":473,"Ġà¤īà¤¦":474,"00":475,"à¤¦à¤¨":476,"à¥ĩ)":477,"Ġà¤¸à¤®à¤¯":478,"Ġà¤ħà¤Ń":479,"à¤ķà¤²":480,"Ġà¤ħà¤¤":481,"Ġà¤¤à¤°à¤¹":482,"Ġà¤ĩà¤¨":483,"Ġà¤¸à¤Ń":484,"à¥ĭ,":485,"à¤¾.":486,"Ġà¤ĩà¤¸à¤ķ":487,"Ġà¤ªà¤¤":488,"à¤ķà¤°à¤£":489,"à¤µà¤¸":490,"à¤®à¤ķ":491,"à¤ıà¤Ĺ":492,"à¤¹à¤®":493,"à¤µà¤¤":494,"à¤µà¤¹":495,"Ġà¤¸à¤°":496,"à¤°à¤ªà¤¤":497,"à¤§à¤¨":498,"Ġà¤Ĺà¤Ī":499,"Ġà¤Ĺà¤ı":500,"Ġà¤¸à¤°à¤ķ":501,"Ġà¤Ĩà¤µ":502,"à¥Ĥà¤Ĥ":503,"à¤Łà¤¨":504,"Ġà¤ĵà¤°":505,"ĠâĢ":506,"à¥ģà¤Ĥ":507,"Ġà¤¬à¤¢":508,"à¤°à¤Ń":509,"Ġà¤ħà¤°":510,"à¥Īà¤Ĥ,":511,"à¤ıà¤ķ":512,"à¤ĩà¤¨":513,"à¤¾)":514,"âĢį":515,"Ġà¤Ĩà¤¦":516,"Ġà¤¤à¤°":517,"à¥Ĥà¤ģ":518,"Ġà¤¹à¤®à¤¨":519,"à¤¶à¤ķ":520,"à¥Ģ)":521,"Ġà¤¹à¤°":522,"à¥įâĢį":523,"à¤īà¤¨":524,"à¤µà¤²":525,"à¤ĩà¤²":526,"Ġà¤°à¤¸":527,"Ġs":528,"Ġà¤ħà¤ļ":529,"Ġà¤Ŀ":530,"Ġà¤Ĩà¤§":531,"Ġ19":532,"Ġà¤ªà¤¡":533,"Ġà¤¬à¤¦":534,"Ġà¤ıà¤µ":535,"..":536,"Ġà¤Īà¤®":537,"Ġà¤¦à¤°":538,"à¤¯à¤¦":539,"à¤¯à¤°":540,"à¥ĩà¤Ĥ,":541,"à¤°à¤¶":542,"Ġà¤¸à¤®à¤Ŀ":543,"à¤Ĳ":544,"à¥ĭà¥¤":545,"Ġà¤Ĩà¤°":546,"Ġà¤Ĭ":547,"Ġà¤ħà¤¸":548,"Ġà¤¯à¤¦":549,"Ġà¤ļà¤²":550,"Ġà¤ħà¤ª":551,"Ġà¤īà¤ªà¤¯":552,"à¤¤à¤ķ":553,"Ġà¤Ĩà¤ªà¤ķ":554,"Ġà¤Ĩà¤¤":555,"Ġà¤¬à¤ļ":556,"Ġ(_":557,"à¤ªà¤ķ":558,"à¤¨à¤¨":559,"à¤¸à¤²":560,"Ġà¤ł":561,"à¤®à¤²":562,"Ġà¤ľà¤¹":563,"01":564,"Ġ'":565,"à¥Ģ.":566,"à¤²à¤¬":567,"Ġà¤Ĩà¤Ĺ":568,"à¤¼à¥į":569,"Ġà¤®à¤¨":570,"à¤®à¤°":571,"Ġà¤¸à¤¦":572,"on":573,"Ġà¥":574,"Ġà¤¸à¤¤":575,"Â¥":576,"Â¥Â":577,"à¤¾-":578,"à¤Ĺà¤²":579,"Ġà¤¬à¤²":580,"à¤ħà¤¨":581,"Ġà¤Ĩà¤ķ":582,"à¤°à¤¬":583,"à¤ľà¤¬":584,"à¤¤à¤µ":585,"à¤°à¤¨":586,"à¥ģà¤ģ":587,"à¤¤à¤®":588,"Ġà¤ħà¤¬":589,"Ġà¤ľà¤¨":590,"Ġà¤¶à¤ķ":591,"Ġà¤Ĩà¤ľ":592,"Ġà¤¬à¤¦à¤²":593,"à¤ķà¤¨":594,"Ġà¤ħà¤Ĺà¤°":595,"me":596,"à¥Īà¤Ĥ.":597,"Ġà¤ķà¤²":598,"à¤¥à¤µ":599,"à¤¼à¥ĭ":600,"Ġà¤ħà¤ķ":601,"à¤ĸà¤¨":602,"à¥Ģ-":603,"Ġà¤¢":604,"ti":605,"à¤¿,":606,"à¥ĭà¤Ĥ,":607,"Ġà¤īà¤ł":608,"Ġà¤¬à¤¸":609,"Ġà¤®à¤¹à¤¤":610,"à¤Łà¤ķ":611,"Ġ3":612,"à¤¨à¤®":613,"Ġà¤°à¤¬":614,"à¤¨à¤µ":615,"Ġà¤Ĩà¤µà¤¶":616,"à¤ķà¤¡":617,"à¥¦":618,"à¤¡à¤°":619,"Ġà¤īà¤ļ":620,"à¥ĩà¤Ĥà¥¤":621,"à¤²à¤ķ":622,"à¤ľà¤°":623,"à¥ĩ-":624,"à¤ĩà¤¸à¤ķ":625,"in":626,"Ġn":627,"à¤¯à¤µà¤¸":628,"Ġà¤īà¤¸à¤¨":629,"Ġà¤°à¤¹à¤¤":630,"Ġà¤ªà¤¶":631,"à¤®à¤¸":632,"à¥ĩ.":633,"Ġà¤ľà¤²":634,"à¤¬à¤¨":635,"à¤µà¤°à¤£":636,"à¤µà¤ª":637,"Ġà¤ªà¤¦":638,"Ġà¤Ńà¤°":639,"Ġà¤ľà¤°":640,"Ġà¤¸à¤¬à¤¸":641,"Ġà¤Ĩà¤¨":642,"Ġà¤ĳ":643,"à¤¨à¤°":644,"Ġà¤ķà¤¹à¤¤":645,"à¤·à¤ķ":646,"à¤ıà¤¸":647,"Ġà¤µà¤¸":648,"Ġà¤¤à¤°à¤«":649,"à¤·à¤¯":650,"an":651,"à¤Ĭ":652,"Ġà¤ħà¤¥à¤µ":653,"Ġà¤īà¤ªà¤²à¤¬":654,"Ġà¤ªà¤°à¤µà¤°":655,"Ġà¤¶à¤°":656,"à¤¬à¤²":657,"Ġà¤Ĺà¤°":658,"à¤ħà¤²":659,"Ġà¤ĺà¤°":660,"Ġà¤ľà¤®":661,"Ġà¤¬à¤°":662,"Ġà¤¸à¤ļ":663,"Ġà¤°à¤ĸà¤¤":664,"Ġà¤ªà¤°à¤µà¤°à¤¦":665,"ĠÃł":666,"à¤ķà¤Ł":667,"à¤¹à¤¨":668,"à¤Ńà¤µ":669,"à¤ļà¤¯":670,"Ġà¤īà¤¸à¤¸":671,"à¤īà¤¸":672,"tion":673,"à¤µà¤¯":674,"Ġà¤īà¤¨à¤¸":675,"à¤«à¤²":676,"Ġà¤®à¤¦":677,"à¤ħà¤ªà¤¨":678,"à¤ªà¤¯":679,"Ġà¤ĩà¤¨à¤ķ":680,"Ġà¤ħà¤ľ":681,"Ġà¤¬à¤¤":682,"Ġà¤Ķ":683,"à¥Ī?":684,"Ġà¤¤à¤¬":685,"Ġà¤°à¤ĸà¤¨":686,"Ġà¤Ĩà¤¸":687,"à¤ĩà¤Ł":688,"er":689,"à¤ķà¤¸":690,"à¤īà¤¨à¤ķ":691,"à¤¨à¤²":692,"à¤Ĩà¤°":693,"à¤¯à¤ª":694,"à¤Ĺà¤®":695,"à¤ĸà¤¤":696,"ame":697,"à¤ªà¤·":698,"à¤·à¤®":699,"Ġà¤ķà¤°à¤ķ":700,"à¤Ĳà¤¸":701,"à¤Ĩà¤Ī":702,"à¤µà¤ķ":703,"à¥ĭ)":704,"à¥ĩà¤Ĥ)":705,"Ġà¤°à¤ķ":706,"à¤¦à¤®":707,"à¤ªà¤¸":708,"Ġà¤ĩà¤¸à¤®":709,"Ġà¤ħà¤µà¤¸à¤°":710,"Ġà¤°à¤¹à¤¨":711,"Ġà¤īà¤¨à¤®":712,"Ġà¤¸à¤¦à¤¸":713,"à¤°à¤§":714,"à¤ļà¤°":715,"Ġt":716,"Ġà¤ķà¤Ń":717,"§à¥":718,"pr":719,"à¤łà¤¨":720,"à¤¼à¥Į":721,"Ġà¤ħà¤®":722,"Ġà¤²à¤¡":723,"à¤£à¤¨":724,"à¤¬à¤¦":725,"à¤¯à¤µ":726,"Ġà¤ķà¤Ī":727,"Ġà¤īà¤²":728,"à¤¶à¤¤":729,"âĢĻ":730,"à¤°à¤¦à¤°":731,"à¤¨à¤¸":732,"Ġà¤ªà¤¢":733,"es":734,"Ġà¤¸à¤®à¤°":735,"Ġ5":736,"Ġà¤Ĳ":737,"à¤¥à¤®":738,"Ġà¤ħà¤²à¤Ĺ":739,"Ġ201":740,"à¤¼à¥ĭà¤Ĥ":741,"Ġà¤īà¤¸à¤®":742,"Ġ4":743,"Ġà¤Ĩà¤¶":744,"à¤¡à¤²":745,"à¤®à¤¹":746,"Ġ200":747,"Ġà¤¡à¤°":748,"à¤ĭ":749,"à¤¸à¤¤":750,"à¤Ľà¤²":751,"à¤¸à¤¦":752,"Ġà¤µà¤ķ":753,"Ġà¤ķà¤¹à¤¨":754,"Ġà¤¶à¤¬":755,"à¤µà¤µ":756,"Ġà¤§à¤°":757,"à¤¥à¤¨":758,"à¤°à¤ľ":759,"à¤¯à¤²":760,"Ġà¤ĸà¤°":761,"Ġà¤Ĭà¤ªà¤°":762,"à¤¨à¤¦":763,"Ġà¤²à¤ķ":764,"Ġà¤ªà¤ķ":765,"Ġà¤¸à¤®à¤¸":766,"ĠâĢĺ":767,"à¤Łà¤²":768,"al":769,"à¥Ģà¤Ĥà¥¤":770,"Ġà¤ĩà¤¤":771,"Ġà¤ħà¤µà¤§":772,"Ġà¤¤à¤¤":773,"Ġà¤ĭ":774,"à¥ĩà¤Ĥ.":775,"Ġà¤®à¤¤":776,"à¤·à¤¤":777,"Ġà¤®à¤§":778,"Ġà¤Ĩà¤Ī":779,"à¤ħà¤¤":780,"Ġà¤Ĺà¤¤":781,"à¤ĸà¤°":782,"à¤²à¤Ĺ":783,"à¤¬à¤¸":784,"Ġà¤¨à¤µ":785,"à¤§à¤¤":786,"à¤¦à¤ķ":787,"à¤Ńà¤Ĺ":788,"Ġà¤Ńà¤µà¤¨":789,"Ġd":790,"Ġa":791,"à¤¯à¤ķà¤¤":792,"Ġà¤ľà¤Ĺ":793,"Ġà¤¨à¤Ī":794,"Ġà¤®à¤°":795,"Ġà¤®à¤ľ":796,"à¤¹à¤ķ":797,"Ġà¤ĩà¤¸à¤²":798,"Ġà¤®à¤¦à¤¦":799,"à¤ļà¤²":800,"Ġà¤¸à¤¨":801,"19":802,"Ġ&":803,"la":804,"...":805,"it":806,"à¤īà¤¸à¤ķ":807,"Ġà¤ĩà¤¸à¤¸":808,"Ġ#":809,"à¤ľà¤²":810,"or":811,"à¤¤à¤¤":812,"Ġà¤Ĩà¤ı":813,"à¤¬à¤¤":814,"Ġà¤ħà¤Ĺ":815,"à¤¬à¤¹":816,"Ġà¤¦à¤¸":817,"Ġà¤Ĩà¤®":818,"à¥Ģà¤Ĥ,":819,"Ġà¤Ńà¤²":820,"Ġà¤¯à¤ķ":821,"à¤¤à¤°à¤£":822,"Ġà¤¸à¤ľ":823,"Ġà¤ħà¤¦":824,"201":825,"à¥Ī;":826,"à¤¹à¤²":827,"à¤¸à¤¸":828,"à¤¯à¤¸":829,"Ġà¤ĩà¤¤à¤¨":830,"à¤·à¤®à¤¤":831,"Ġà¤ĸà¤¡":832,"Ġà¤§à¤°à¤¤":833,"Ġà¤²à¤Ĺà¤¤":834,"Ġà¤¨à¤¯":835,"à¤ħà¤¬":836,"Ġà¤¸à¤«":837,"à¤µà¤§":838,"à¤ħà¤§":839,"ic":840,"Ġà¤¬à¤ľ":841,"Ġà¤ķà¤µ":842,"à¤ıà¤®":843,"44":844,"Ġà¤ľà¤¨à¤¤":845,"à¤ľà¤¹":846,"à¤¼à¥Ī":847,"Ġà¤¹à¤ķ":848,"Ġà¤¹à¤Ł":849,"Ġà¤¸à¤¹à¤¯":850,"Ġà¤ķà¤ł":851,"à¤ªà¤Ł":852,"Ġà¤ĩà¤²":853,"ee":854,"à¤¾/":855,"à¤ħà¤ª":856,"à¤®à¤Ĺ":857,"Ġk":858,"Ġà¤ľà¤Ĺà¤¹":859,"à¤¦à¤Ĺ":860,"Ġà¤ľà¤¬à¤ķ":861,"à¤¼à¥Ĥ":862,"Ġ6":863,"ht":864,"à¤Ńà¤°":865,"à¤¿)":866,"Â¾":867,"à¤®à¤¦":868,"à¤Ĩà¤ª":869,"à¤Ĺà¤łà¤¨":870,"Ġà¤¸à¤²":871,"Ġà¤²à¤Ĺà¤Ńà¤Ĺ":872,"Ġà¤Ĩà¤¯à¤¤":873,"Ġà¤¶à¤¹à¤°":874,"Ġà¤īà¤®":875,"Ġà¤ĭà¤£":876,"à¤µà¤ľ":877,"à¤¦à¤¤":878,"à¥Ī)":879,"à¤£à¤¯":880,"à¤¹à¤°à¤£":881,"Ġà¤ļà¤°":882,"Ġà¤¶à¤ĸ":883,"Ġà¤Ĩà¤ĸ":884,"à¤§à¤°":885,"à¤¼à¥ĩà¤Ĥ":886,"Ġ:":887,"à¤¸à¤µ":888,"à¤¾à¤ĥ":889,"ĠâĢľ":890,"à¤ķà¤¹":891,"à¤łà¤²":892,"à¤ħà¤°":893,"op":894,"Ġà¤«à¤°":895,"à¤ķà¤®":896,"à¤ıà¤²":897,"à¤Ĺà¤¨":898,"à¤¹à¤¤à¤°":899,"Â¥Âį":900,"ab":901,"à¤ªà¤£":902,"à¤ħà¤Ĺà¤°":903,"ĠâĢĿ":904,"en":905,"à¤¸à¤Ń":906,"à¤¾?":907,"à¤²à¤®":908,"Ġà¤Ĩà¤¦à¤®":909,"à¤¸à¤²à¤®":910,"Ġà¤īà¤ªà¤§":911,"Ġà¤¹à¤¸":912,"Ġà¤ıà¤¸":913,"à¤ļà¤ķ":914,"à¤ĩà¤¯":915,"à¤µà¤¶":916,"à¤°à¤²":917,"Ġà¥¤":918,"ot":919,"à¤īà¤¸à¤¨":920,"à¤ħà¤Ń":921,"Ġà¤¶à¤¤":922,"Ġà¤§à¤¨":923,"à¤ĺà¤°":924,"Ġà¤ļà¤²à¤¤":925,"à¤²à¤¸":926,"Ġà¤¦à¤ķ":927,"Ġà¤®à¤Ĺà¤°":928,"Ġ7":929,"à¤°à¤Ĺ":930,"à¤¨à¤¯":931,"à¤®à¤ļ":932,"Ġà¤¨à¤®":933,"Ġ18":934,"à¤łà¤ķ":935,"Â¤Âķ":936,"Â¤Â°":937,"gm":938,"à¤¹à¤¸":939,"Ġ0":940,"Ġ''":941,"à¤µà¤ļ":942,"à¤°à¤ļà¤¨":943,"à¥ĩ?":944,"Ġ<":945,"ii":946,"à¤§à¤ķ":947,"Ġkgm":948,"le":949,"ar":950,"Ġà¤®à¤¸":951,"à¤Ķ":952,"à¤¾;":953,"à¥Īà¥¤\"":954,"Ġ8":955,"à¤²à¤°":956,"Ġà¤ħà¤ªà¤°":957,"Ġà¤ªà¤¹à¤ļ":958,"âĢĿ":959,"Ġ_":960,"à¤®à¤¯":961,"ran":962,"à¤°à¤¥à¤®":963,"Ġà¤ķà¤Ł":964,"at":965,"à¤¸à¤¬":966,"à¤Ĩà¤ľ":967,"Ġà¤łà¤¹à¤°":968,"Ġà¤ħà¤µà¤¸":969,"Ġà¤¨à¤ı":970,"Name":971,"à¤·à¤°":972,"à¥Įà¤Ĥ":973,"à¤¶à¤°":974,"Ġà¤Ĩà¤¸à¤®":975,"Ġà¤¹à¤²":976,"à¤Łà¤®":977,"à¤¿-":978,"à¤ıà¤¨":979,"Ġà¤¤à¤¹à¤¤":980,"Ġname":981,"à¤°à¤ļ":982,"Ġà¤ľà¤µ":983,"Ġà¤¦à¤¯":984,"à¥Ĥà¤Ĥà¥¤":985,"à¤īà¤¤":986,"Ġà¥§à¥":987,"à¤²à¤ķà¤°":988,"à¤²à¤µ":989,"à¥¦à¥¦":990,"000":991,"Ġà¤¨à¤¦":992,"à¤°à¤ª":993,"à¤¶à¤²":994,"Ġà¤¦à¤²":995,"Ġà¤°à¤ļà¤¨":996,"à¤ķà¤µ":997,"à¤Ńà¤ķ":998,"Ġà¤¸à¤¬à¤ķ":999,"Ġ10":1000,"à¥§à¥":1001,"Ġà¤ıà¤¨":1002,"à¤£à¤¤":1003,"à¤¥à¤°":1004,"à¤ħà¤®":1005,"Â¥Âĩ":1006,"à¤¯à¤¯à¤¨":1007,"à¥ĭà¤Ĥ)":1008,"à¤Ĺà¤¦":1009,"Ġà¤ĺà¤Łà¤¨":1010,"à¤ĩà¤¸à¤²":1011,"Ġà¤®à¤ķ":1012,"à¤Ĺà¤¡":1013,"à¥Ī-":1014,"à¥į-":1015,"à¤°à¤Ĺà¤¤":1016,"Ġà¤Ńà¤µ":1017,"à¤¥à¤²":1018,"Ġà¤¸à¤µ":1019,"Ġà¤¹à¤µ":1020,"à¥Īà¤Ĥ?":1021,"à¤Ĩà¤ªà¤ķ":1022,"Ġà¤ķà¤¨":1023,"option":1024,"à¥Ģà¤ĥ":1025,"à¤°à¤®à¤£":1026,"Ġà¤ĩà¤ķ":1027,"à¤ĳ":1028,"à¤ªà¤¦":1029,"Ġà¤¨à¤ķ":1030,"Ġà¤īà¤ªà¤¸":1031,"ĠS":1032,"st":1033,"à¤īà¤¦":1034,"à¤¯à¤µà¤¹":1035,"à¤¤à¤²":1036,"Ġà¤ªà¤¸":1037,"Ġà¤ħà¤«":1038,"¯à¥":1039,"à¤ľà¤ķ":1040,"à¤ıà¤«":1041,"Ġà¤¨à¤¸":1042,"Ġ-":1043,"rans":1044,"Ġà¤ĳà¤«":1045,"Ġc":1046,"Ġà¤ªà¤Ł":1047,"à¤·à¤¦":1048,"à¤Ĩà¤¤":1049,"Ġà¤Ĭà¤°":1050,"Ġà¤¸à¤®à¤Ŀà¤¤":1051,"à¤µà¤ľà¤¨":1052,"à¤ľà¤¸":1053,"à¤Łà¤¤":1054,"Ġà¤¤à¤ķà¤¨":1055,"ransla":1056,"Ġà¤Īà¤¸":1057,"optional":1058,"Ġà¤ªà¤ķà¤¡":1059,"à¥Īà¤ĥ":1060,"Ġà¤¦à¤¶":1061,"Ġà¤ħà¤µà¤¶":1062,"à¤¹à¤®à¤¨":1063,"Ġà¤Ĺà¤µ":1064,"Ġà¤¹à¤ľ":1065,"Ġà¤ªà¤°à¤®":1066,"Ġà¤Ĩà¤ķà¤°":1067,"à¤ļà¤¤":1068,"à¤Ĺà¤µ":1069,"Ġà¤īà¤ªà¤¬":1070,"Ġpr":1071,"à¤¦à¤¯":1072,"Ġtransla":1073,"Ġ15":1074,"à¤ħà¤ľ":1075,"ĠC":1076,"Ġà¤ħà¤Ĺà¤²":1077,"à¤ħà¤¸":1078,"Ġà¤¨à¤ľ":1079,"Ġà¤¨à¤°":1080,"Ġà¤Ĺà¤£":1081,"à¤ľà¤Ĺ":1082,"Ġà¤¸à¤«à¤²à¤¤":1083,"Ġ20":1084,"à¤Ĭà¤£":1085,"Ġ9":1086,"Ġà¤®à¤ľà¤¬":1087,"Ġà¥¨":1088,"Ġà¤Ĩà¤ªà¤¸":1089,"ly":1090,"à¤ĸà¤²":1091,"à¤ªà¤¡":1092,"re":1093,"Ġà¤īà¤¨à¤ªà¤°":1094,"Ġà¤¤à¤®":1095,"om":1096,"ĠA":1097,"à¤¯à¤¯":1098,"Ġà¤¯à¤¥":1099,"à¤ĩà¤¸à¤®":1100,"Ġà¤Ĺà¤¹à¤°":1101,"à¤ĩà¤¡":1102,"à¤°à¤¸à¤¨":1103,"Ġà¤ıà¤®":1104,"à¤¤à¤¬":1105,"Ġà¤ļà¤¯à¤¨":1106,"à¤¯à¤¶":1107,"Ġà¤īà¤ªà¤ķà¤°à¤£":1108,"à¤¥à¤ķ":1109,"à¤Ĥ,":1110,"Ġà¤īà¤¡":1111,"à¤¸à¤¹":1112,"ity":1113,"Ġ199":1114,"ob":1115,"à¥ĭ!":1116,"à¤®à¤®":1117,"à¥¨":1118,"à¥Īà¤Ĥ)":1119,"Ġà¤ľà¤¹à¤¨":1120,"Ġà¤ķà¤¬":1121,"à¤°à¤¹à¤£":1122,"Ġà¤¬à¤¯":1123,"ĠI":1124,"Ġ12":1125,"//":1126,"Ġà¤ĩà¤ļ":1127,"à¤ĸà¤ķ":1128,"à¤°à¤ķà¤Ł":1129,"à¤ĵà¤Ĺ":1130,"Â¤Â¸":1131,"à¤ľà¤¤":1132,"Â¤Â¿":1133,"he":1134,"://":1135,"-#":1136,"Ġà¤¤à¤²":1137,"à¤°à¤°":1138,"Ġà¤µà¤ľà¤¹":1139,"âĢĵ":1140,"Ġà¤Ķà¤°à¤¤":1141,"à¤¼à¥ī":1142,"à¤ħà¤ļ":1143,"Ġà¤Ĩà¤²":1144,"Ġà¤ıà¤ķà¤¤":1145,"Ġà¤®à¤¶":1146,"Ġà¤ħà¤¸à¤®":1147,"à¤īà¤ª":1148,"Ġdo":1149,"Ġtranslation":1150,"tp":1151,"Â¤ÂĤ":1152,"à¥ĭ-":1153,"eed":1154,"Ġ11":1155,"à¤Łà¤µà¤°":1156,"Ġnot":1157,"à¤ĥ%":1158,"Ġà¤ªà¤²":1159,"Ġà¤¸à¤®à¤ķ":1160,"à¥ĥà¤Ĥ":1161,"à¤¬à¤¡":1162,"http":1163,"Ġà¤Ľà¤µ":1164,"à¤¸à¤ª":1165,"à¤ķà¤ª":1166,"Ġà¤°à¤ķà¤®":1167,"Ġneed":1168,"Â¤Â¨":1169,"à¥Ĥà¤ģà¥¤":1170,"à¤ħà¤µ":1171,"Ġà¤«à¤²":1172,"Ġà¤¦à¤¬":1173,"),":1174,"à¤ĩà¤¸à¤¸":1175,"à¤¤à¤ľ":1176,"Ġà¤¸à¤ĸ":1177,"à¤¬à¤Ī":1178,"Ġ@":1179,"à¤ľà¤µ":1180,"à¥ħ":1181,"à¤Łà¤µ":1182,"à¤¨à¤¹":1183,"à¤Ĺà¤£":1184,"à¤°à¤ĸ":1185,"Ġà¤¬à¤ĸ":1186,"se":1187,"Ġà¤ĺà¤Ł":1188,"à¤ĩà¤ķ":1189,"Ġà¤īà¤ªà¤¨":1190,"à¤ªà¤¹à¤²":1191,"12":1192,"Ġà¤Ĩà¤¦à¤°":1193,"Ġdoes":1194,"ably":1195,"Ġprob":1196,"nt":1197,"Ġprobably":1198,"à¤¨à¤ķà¤°":1199,"Ġà¤Ńà¤¯":1200,"City":1201,"à¤£à¤ªà¤¤":1202,"à¤®à¤£":1203,"à¤¡à¤¨":1204,"--":1205,"Ġà¤Ķà¤¦":1206,"ol":1207,"ou":1208,"Ġà¤Ĺà¤²à¤¤":1209,"à¤ħà¤ķ":1210,"Ġà¤ıà¤²":1211,"Ġà¤«à¤°à¤®":1212,"à¤ªà¤¶":1213,"à¤µà¤µà¤°":1214,"à¤¶à¤¬":1215,"Ġà¤ĩà¤¬":1216,"Ġà¤¸à¤«à¤²":1217,"à¤¹à¤¦":1218,"à¤£à¤µà¤¤":1219,"Ġà¤ıà¤ľ":1220,"Ġà¤¬à¤§":1221,"à¤Ĩà¤¨":1222,"à¤®à¤ªà¤°":1223,"à¤ľà¤®":1224,"à¤ªà¤²":1225,"à¤¨à¤¤à¤®":1226,"is":1227,"à¤®à¤Ĺà¤°":1228,"à¤¦à¤²":1229,"à¤²à¤Ń":1230,"Ġ196":1231,"Ġà¤ħà¤°à¤¬":1232,"of":1233,"Ġà¤ķà¤¦à¤®":1234,"Ġà¤µà¤¨":1235,"à¤ľà¤¯":1236,"ĠP":1237,"Ġà¤¨à¤Ĺà¤°":1238,"ĠT":1239,"Â²":1240,"ĠM":1241,"à¤«à¤°":1242,"):":1243,"Ġà¤ªà¤°à¤¨":1244,"her":1245,"20":1246,"à¤Ĺà¤¦à¤°":1247,"à¤Ľà¤¤":1248,"à¥ĩà¥¤\"":1249,"nic":1250,"à¤īà¤Ł":1251,"à¤Ĩà¤¯":1252,"à¤¸à¤°à¤ķ":1253,"11":1254,"Ġà¤¸à¤ª":1255,"à¤¸à¤®à¤¯":1256,"Ġà¤Īà¤¶":1257,"à¤¯à¤¤à¤¨":1258,"il":1259,"Ġp":1260,"Ġb":1261,"à¤¶à¤µ":1262,"à¤ļà¤¯à¤¨":1263,"Ġ{":1264,"à¤¤à¤°à¤°":1265,"à¤¿.":1266,"à¤ªà¤°à¤¨":1267,"à¥ĭà¤Ĥà¥¤":1268,"Ġà¤ªà¤¥":1269,"Ġà¤ķà¤¥":1270,"à¤°à¤£à¤¬":1271,"à¤¿à¥¤":1272,"Âª":1273,"à¤°à¤Ķ":1274,"à¤¼)":1275,"à¥ĭ?":1276,"200":1277,"à¤ķà¤Ń":1278,"Ġà¤¬à¤°à¤¸":1279,"à¥ĭ.":1280,"à¤°à¤Ķà¤¨":1281,"Ġà¤ĸà¤¤à¤°":1282,"et":1283,"Ġ195":1284,"Ġà¤ļà¤²à¤¨":1285,"à¤ľà¤¨à¤ķ":1286,"ww":1287,"-#-#":1288,"à¥Ģà¤Ĥ)":1289,"à¤¤à¤ļ":1290,"à¤ķà¤²à¤¨":1291,"à¤¿à¤ĥ":1292,"Ġ25":1293,"10":1294,"Ġà¤ļà¤¢":1295,"Ġà¤¡à¤°à¤¤":1296,"à¤¦à¤¶":1297,"Ġà¤ķà¤¡":1298,"htm":1299,"à¥«":1300,"à¥Ĥ-":1301,"Ġà¤ĺà¤¡":1302,"Ġà¤ķà¤ķ":1303,"Ġà¤¬à¤¨à¤¨":1304,"ĠF":1305,"à¤¦à¤°à¤¤":1306,"âĢĺ":1307,"Ġ16":1308,"di":1309,"à¤µà¤Ł":1310,"Ġ198":1311,"Ġ'%":1312,"à¤°à¤µà¤°":1313,"''":1314,"Ġà¤īà¤ªà¤°":1315,"à¤Ļ":1316,"à¤®à¤§":1317,"Ġà¤Ĩà¤¬":1318,"à¤ķà¤¤à¤°":1319,"ĠB":1320,"Ġà¤¸à¤¦à¤¨":1321,"ÂªÃł":1322,"ment":1323,"à¤¸à¤ļ":1324,"Ġà¤ħà¤¸à¤«à¤²":1325,"Ġà¤ķà¤®à¤ľ":1326,"à¤¹à¤°à¤¬":1327,"Ġà¤¸à¤¡":1328,"à¤®à¤µ":1329,"Ġà¤ļà¤ķ":1330,"Ġà¤ĩà¤¬à¤°":1331,"à¤Ĩà¤§":1332,"à¤¨à¤µà¤°":1333,"ra":1334,"à¤ķà¤¤à¤®":1335,"à¤Ĥà¥¤":1336,"Ġf":1337,"à¤Ĩà¤ķ":1338,"Ġà¤Ŀà¤Ĺà¤¡":1339,"à¤Ĩà¤ĸ":1340,"Ġà¤«à¤¸à¤²":1341,"Ġ194":1342,"à¤¯à¤§":1343,"Ġà¤°à¤µ":1344,"à¤ħà¤²à¤Ĺ":1345,"Ġm":1346,"Ġà¤Ĩà¤¹":1347,"Ġà¤ªà¤¨":1348,"Ġà¤²à¤ĺ":1349,"à¤ĺà¤¨":1350,"Ġà¤īà¤¤à¤¨":1351,"ĠD":1352,"Ġà¤Ńà¤Ĺà¤µ":1353,"Ġà¤ļà¤°à¤£":1354,"à¤ĺà¤Łà¤¨":1355,"à¤¤à¤ª":1356,"Ġ[":1357,"Ġà¤ļà¤¨":1358,"Ġ13":1359,"Ġà¤ªà¤°à¤¸":1360,"à¤µà¤¹à¤¨":1361,"à¤®à¤ľ":1362,"à¤¬à¤°à¤¦":1363,"à¤¹à¤¬":1364,"Ġ197":1365,"Â¤Â®":1366,"à¤µà¤¯à¤¨":1367,"Ġà¤¦à¤¶à¤ķ":1368,"Ġà¤īà¤ªà¤Ń":1369,"à¥ĭà¤Ĥ/":1370,"Ġ14":1371,"à¤ªà¤ļ":1372,"ĠR":1373,"à¥Ģ/":1374,"à¤¯à¤¥":1375,"à¤°à¤¥":1376,"à¤¦à¤¸":1377,"Ġà¤¤à¤Ł":1378,"à¤°à¤«":1379,"à¥§":1380,"à¤ĩà¤®":1381,"Ġà¤ķà¤¶":1382,"à¤Ĺà¤ľ":1383,"Ġà¤ħà¤¶":1384,"ĠU":1385,"à¤Ľà¤µ":1386,"Ġà¤ĩà¤®":1387,"à¥©":1388,"Â¥ÂĢ":1389,"à¤ıà¤µ":1390,"ĠN":1391,"à¤¸à¤°à¤£":1392,"Ġà¤ıà¤¶":1393,"Ġà¤ľà¤¨à¤¸":1394,"Ġà¤¤à¤¨":1395,"18":1396,"Ġ17":1397,"à¥¬":1398,"Ġà¤¹à¤°à¤Ĺ":1399,"Ġà¤®à¤¹à¤¸":1400,"Ġthe":1401,"Ġà¤ĩà¤°":1402,"à¤Łà¤°à¤¨":1403,"à¥ª":1404,"Ġw":1405,"à¥ľ":1406,"âĢľ":1407,"Ġ30":1408,"à¤¶à¤¯":1409,"Ġà¤®à¤²":1410,"à¤¾à¥¤\"":1411,"Ġà¤īà¤°":1412,"Ġà¤¸à¤°à¤ķà¤¶":1413,"à¤Īà¤²":1414,"à¤·à¤ľ":1415,"Ġà¤¹à¤¤":1416,"Ġà¤¨à¤¬":1417,"à¤ĸà¤ķà¤°":1418,"à¤¯à¤£":1419,"Ġà¤ĩà¤ľà¤°":1420,"Â¤Â¤":1421,"à¤¹à¤Ł":1422,"Ġà¤¸à¤®à¤¨":1423,"à¤ĸà¤¦":1424,"à¥ĩ;":1425,"Ġà¤ħà¤®à¤°":1426,"Ġà¤īà¤ªà¤ļ":1427,"à¤īà¤ļ":1428,"el":1429,"ĠL":1430,"Ġà¤¹à¤¦":1431,"Ġà¤¤à¤¯":1432,"Ġà¤¸à¤¹à¤®à¤¤":1433,"Ġe":1434,"à¤°à¤·":1435,"Ġà¤¸à¤°à¤²":1436,"à¥Īà¤Ĥ-":1437,"Ġà¤¬à¤¦à¤²à¤¨":1438,"à¤¾à¤Ĥ,":1439,"à¥ĭà¥¤\"":1440,"Ġà¤®à¤¤à¤²à¤¬":1441,"à¤ħà¤«":1442,"ĠG":1443,"ĠâĢĵ":1444,"Ġà¤°à¤ľ":1445,"Ġà¤ķà¤¦":1446,"à¤¯à¤Łà¤¨":1447,"Ġà¤Ĺà¤£à¤°":1448,"à¥®":1449,"Ġh":1450,"à¥ĩà¤Ĥ...":1451,"Ġà¤īà¤Ĺ":1452,"30":1453,"à¤¨à¤Ł":1454,"Ġin":1455,"Ġà¤¸à¤°à¤¦":1456,"à¤ªà¤ı":1457,"à¥ī.":1458,"à¤ªà¤®":1459,"Ġà¤¸à¤®à¤Ŀà¤¨":1460,"ĠH":1461,"Ġà¤¬à¤Ĺ":1462,"Ġà¤°à¤¦":1463,"ce":1464,"Ġà¤ĩà¤¨à¤®":1465,"Ġà¤ħà¤ĸ":1466,"pres":1467,"à¤ĩà¤ª":1468,"à¥Ń":1469,"à¤¡à¤µ":1470,"Ġà¤¤à¤ķà¤²":1471,"à¤¾!":1472,"à¤ĩà¤¶":1473,"à¤ĩà¤ľ":1474,"Ġà¤ıà¤«":1475,"Ġà¤Łà¤¨":1476,"15":1477,"Ġx":1478,"Ġà¤ķà¤ªà¤¡":1479,"ut":1480,"à¤¡à¤®":1481,"à¥īà¤ģ":1482,"Ġà¤īà¤¸à¤ªà¤°":1483,"Ġà¤²à¤®":1484,"Ġà¤Ĩà¤ļ":1485,"à¥Ģ;":1486,"Â¤ÂŁ":1487,"Ġà¤ķà¤°à¤µ":1488,"à¤¶à¤¨à¤²":1489,"Ġà¤Ĩà¤ªà¤¨":1490,"à¤ıà¤ļ":1491,"à¤īà¤ľ":1492,"Ġg":1493,"Ġà¤ľà¤¡":1494,"Ġà¤ħà¤¹":1495,"à¤ĸà¤Ń":1496,"id":1497,"Ġà¤ªà¤°à¤¹":1498,"Â¤Â¯":1499,"Ġ50":1500,"à¤¬à¤ļ":1501,"à¥ĩà¤Ĥà¤ĥ":1502,"Ġà¤īà¤¤à¤°":1503,"Ġà¤¨à¤¹à¤°":1504,"ĠE":1505,"Ġà¤¤à¤¸":1506,"à¥ģ-":1507,"ent":1508,"à¥Ĥà¤ģ,":1509,"à¥Ī!":1510,"à¥ģ.":1511,"Ġà¤¸à¤ľà¤¦":1512,"à¤µà¤Ń":1513,"à¤Ĺà¤ķà¤°":1514,"à¤¬à¤ķ":1515,"Ġà¤ĺà¤¨":1516,"à¤µà¤¦":1517,"Ġà¤Ĩà¤ıà¤Ĺ":1518,"à¤ªà¤¥":1519,"à¥Ģà¤Ĥ.":1520,"Ġà¤īà¤ªà¤ķ":1521,"Ġà¤Ńà¤ķ":1522,"ĠO":1523,"Ġà¤Ĩà¤Ń":1524,"à¤Ŀà¤¸":1525,"Ġà¤¹à¤¡":1526,"à¤Łà¤ķà¤°":1527,"Ġ+":1528,"Ġà¤¸à¤¹à¤ķ":1529,"à¤Ĥ.":1530,"Ġà¤ľà¤¨à¤µà¤°":1531,"omment":1532,"14":1533,"à¤²à¤ļ":1534,"à¤¦à¤¬":1535,"16":1536,"Ġà¤ĩà¤ķà¤Ł":1537,"à¤Ńà¤µà¤¤":1538,"Â¥Âĭ":1539,"à¤ħà¤Ĺà¤²":1540,"Ġà¤Ĺà¤²":1541,"Ġà¤¨à¤·":1542,"ed":1543,"Ġà¤ĩà¤ľ":1544,"uk":1545,"à¤°à¤ķà¤°":1546,"ec":1547,"à¥Ģ?":1548,"à¤ıà¤¶":1549,"à¤¤à¤°à¤¦":1550,"à¤¨à¤Ī":1551,"à¤¶à¤®":1552,"à¤¼-":1553,"Ġà¤ªà¤µ":1554,"Ġ100":1555,"Ġà¤Ľà¤¤":1556,"Ġà¤Ĳà¤¤":1557,"Ġ24":1558,"Comment":1559,"à¥°":1560,"à¤īà¤ªà¤¯":1561,"à¤·à¤§":1562,"à¤ĩà¤¨à¤®":1563,"à¤ķà¤ķ":1564,"à¤ħà¤Ĺ":1565,"50":1566,":%":1567,"à¤ĩà¤¨à¤ķ":1568,"Ġà¤ıà¤ļ":1569,"à¤Ĩà¤µ":1570,"Ġà¤ľà¤Ł":1571,"Ġ=":1572,"à¤µà¤¦à¤°":1573,"ac":1574,"Ġà¤ķà¤¸":1575,"Ġà¤¨à¤ľà¤°":1576,"à¤łà¤Ń":1577,"à¤°à¤¯à¤¤":1578,"Ġà¤īà¤ķ":1579,"Ġà¤¹à¤®à¤²":1580,"....":1581,"html":1582,"13":1583,"à¤ķà¤Ī":1584,"à¤Ĺà¤¢":1585,"Ġà¥§à¥¯à¥":1586,"ail":1587,"Ġà¤¦à¤µ":1588,"à¤Ĩà¤¸":1589,"à¤ĩà¤¬":1590,"Ġà¤Ĺà¤łà¤¨":1591,"à¤Īà¤®":1592,"iv":1593,"Ġu":1594,"à¤¾à¤ģ,":1595,"Ġà¤Ķà¤²":1596,"Ġà¤ªà¤¸à¤¨":1597,"à¤¨à¤ª":1598,"Ġà¤ķà¤ª":1599,"Ġà¤µà¤ļà¤¨":1600,"Ġà¤°à¤¹à¤®":1601,"Ġà¤¬à¤¨à¤¤":1602,"Ġà¤ķà¤®à¤°":1603,"à¤¨à¤¬":1604,"Ġà¤ļà¤ĸ":1605,"à¤Łà¤¶à¤¬":1606,"à¤ķà¤¦à¤®":1607,"Ġà¤ħà¤¸à¤®à¤°":1608,"à¤µà¤¸à¤¨":1609,"à¥ģ,":1610,"Ġà¤¨à¤«":1611,"à¤ĩà¤µ":1612,"à¤¦à¤µ":1613,"à¤ľà¤ª":1614,"Ġà¤īà¤§":1615,"à¤ļà¤¤à¤®":1616,"muk":1617,"à¥¤\"":1618,"Ġà¤¸à¤¶à¤ķ":1619,"Ġà¤Ĩà¤ł":1620,"Ġà¥§":1621,"à¤īà¤¨à¤²":1622,"pran":1623,"ing":1624,"Ġà¤Ĩà¤«":1625,"jee":1626,"à¤ħà¤®à¤¤":1627,"à¤Ĩà¤Ĺ":1628,"abmuk":1629,"herjee":1630,"pranabmuk":1631,"pranabmukherjee":1632,"Ġà¤īà¤Ń":1633,"Ġà¤Ĺà¤ł":1634,"Ġà¤¹à¤¥":1635,"prh":1636,"ri":1637,"à¤®à¤ª":1638,"Ġà¥©":1639,"Ġà¤ĩà¤¸à¤°":1640,"à¤ªà¤¹":1641,"Â¹":1642,"à¥Īà¤Ĥà¤ĥ":1643,"Ġà¤Ĩà¤°à¤®":1644,"à¤¤à¤¥":1645,"Ġà¤Ľà¤¹":1646,"à¤¡à¤ķ":1647,"Ġà¤®à¤ľà¤¦":1648,"Ġà¤Ĩà¤īà¤Ł":1649,"qu":1650,"à¤Īà¤¸":1651,"Ġà¤ħà¤Ĺà¤¸":1652,"à¤¶à¤¦":1653,"à¤°à¤Ĩà¤¨":1654,"Ġà¤¦à¤°à¤µ":1655,"à¤·à¤ķà¤°":1656,"à¤ķà¤¥":1657,"Ġà¤ľà¤¯":1658,"à¤¶à¤¸":1659,"à¤¤à¤¸":1660,"25":1661,"à¥ĩà¤Ĥ?":1662,"à¥Īà¤Ĥ:":1663,"Ġà¤ıà¤ķà¤®":1664,"Ġof":1665,"à¤¡à¤¬":1666,"à¤§à¤µ":1667,"Ġà¤¦à¤°à¤®":1668,"Ġà¤®à¤Ī":1669,"à¤¸à¤«":1670,"Ġà¤Ĩà¤¨à¤¨":1671,"Ġà¤¬à¤¹à¤¨":1672,"Ġà¤¤à¤Ń":1673,"à¤¾à¤ĥ%":1674,"Ġà¤¹à¤®à¤¸":1675,"Ġ26":1676,"à¤ķà¤¶":1677,"Ġà¤°à¤¹à¤®à¤¤":1678,"Ġ(%":1679,"Ġà¤ķà¤²à¤ķà¤¤":1680,"à¤¯à¤ľ":1681,"Ġà¤Ĩà¤ĵ":1682,"à¤īà¤²":1683,"ME":1684,"Ġà¤®à¤Ľà¤²":1685,"Ġà¤īà¤ľ":1686,"à¥Ī...":1687,"à¥Īà¤Ĥ;":1688,"ase":1689,"Ġl":1690,"Ġà¤ħà¤¹à¤®":1691,"à¤²à¤¡":1692,"à¤ķà¤²à¤¤":1693,"à¤Ľà¤¨":1694,"Âµ":1695,"à¤Ĺà¤£à¤¨":1696,"Ġà¤ĺà¤Łà¤ķ":1697,"à¤¯à¤Ĺ":1698,"2018":1699,"à¤¾:":1700,"à¤®à¤°à¤£":1701,"ĠâĢĿ-":1702,"Ġà¤ħà¤¨à¤ķ":1703,"à¤¸à¤®à¤Ŀ":1704,"Ġà¤Ĺà¤£à¤¨":1705,"Ġà¤ľà¤¨à¤ľ":1706,"iii":1707,"à¤ľà¤§":1708,"vi":1709,"à¤¸à¤ľ":1710,"à¤Ľà¤¡":1711,"ur":1712,"à¤¡à¤ª":1713,"Ġà¤ĸà¤¤":1714,"Ġà¥¨à¥¦à¥¦":1715,"Ġ193":1716,"Ġà¤Ĩà¤¸à¤ª":1717,"à¤łà¤¤":1718,"08":1719,"hi":1720,"à¤¨à¤·":1721,"Ġ28":1722,"ow":1723,"à¤ŀà¤¤":1724,"à¤¹à¤µ":1725,"à¤ħà¤¦":1726,"Ġà¤Ķà¤·à¤§":1727,"23":1728,"ĠZ":1729,"Ġà¤Ķà¤¸à¤¤":1730,"Ġà¤¸à¤¤à¤¹":1731,"Ġà¤¬à¤Łà¤¨":1732,"Ġà¤¸à¤®à¤Ĺ":1733,"Ġà¤ªà¤²à¤Ł":1734,"Ġà¤ĳà¤¨à¤²":1735,"Ġà¤®à¤¹à¤²":1736,"Ġà¤ħà¤µà¤ľ":1737,">>":1738,"17":1739,"www":1740,"Ġà¤ıà¤ĸ":1741,"à¤¤à¤ķà¤°":1742,"à¤¼à¤¾à¥¤":1743,"à¤°à¤ķà¤¤":1744,"à¤®à¤¶":1745,"à¤Ńà¤²":1746,"à¤²à¤Ĺà¤ĩà¤¨":1747,"à¥Ī:":1748,"à¤ķà¤®à¤¤":1749,"Ġà¤ħà¤ªà¤®":1750,"fo":1751,"à¤°à¤ļà¤²":1752,"Ġà¤Ńà¤¤":1753,"à¤ªà¤°à¤¸":1754,"Ġ23":1755,"em":1756,"Ġà¤Ńà¤Łà¤ķ":1757,"ĠâĢ¦":1758,"à¤£à¤ķ":1759,"à¤¦à¤ª":1760,"Ġà¤ľà¤²à¤µ":1761,"Ġà¤Īà¤°":1762,"ÂµÃł":1763,"Ġ2000":1764,"Ġ1961":1765,"Â¤Â¦":1766,"à¥§à¥¯à¥":1767,"à¤ĩà¤¤à¤¨":1768,"Ġà¤¹à¤Łà¤ķà¤°":1769,"Ġà¤ıà¤ķà¤²":1770,"Ġà¤ħà¤¸à¤²":1771,"Ġà¤¸à¤¹à¤ľ":1772,"Ġ27":1773,"Ġà¤ķà¤¤":1774,"Ġà¤ªà¤ļ":1775,"Â¤Âı":1776,"22":1777,"Ġà¤ħà¤¡":1778,"à¤¨à¤¶":1779,"à¤Ĺà¤ł":1780,"Ġ21":1781,"og":1782,"à¥ģà¤ĥ":1783,"Ġà¤¬à¤ķ":1784,"Ġà¤²à¤ķà¤¡":1785,"Ġà¤īà¤ªà¤ĸ":1786,"Ġà¤īà¤²à¤Ł":1787,"à¤Ĩà¤®":1788,"Ġ31":1789,"Ġ2015":1790,"dia":1791,"Â¤Âľ":1792,"ĠW":1793,"Ġ2014":1794,"à¤²à¤¦":1795,"Ġà¤ħà¤µà¤¤à¤°":1796,"Ġà¤ĩà¤¨à¤¸":1797,"Ġà¤¬à¤ļà¤¤":1798,"ĠâĢİ":1799,"Ġà¤ªà¤¹à¤¨":1800,"info":1801,"Ġà¤ķà¤ļ":1802,"Ġà¤ıà¤¹à¤¸":1803,"Ġà¤°à¤¹à¤¸":1804,"Â¤ÂĹ":1805,"24":1806,"à¥ĩ!":1807,"à¤¯à¤¬":1808,"à¤¸à¤µà¤°":1809,"Ġà¤«à¤°à¤µà¤°":1810,"à¥¯":1811,"Ġ80":1812,"à¤īà¤¨à¤®":1813,"Â¼":1814,"lease":1815,"Ġà¤ļà¤Ł":1816,"à¤Ĺà¤¶":1817,"60":1818,"Â¤Â¡":1819,"à¤ªà¤£à¤¨":1820,"à¤ľà¤Ń":1821,"à¤ĩà¤¤":1822,"Ġà¤µà¤°à¤¨":1823,"Ġ22":1824,"\\\\":1825,"Ġ40":1826,"AN":1827,"à¤ģ,":1828,"à¤ľà¤¨à¤¨":1829,"09":1830,"à¥Ī?\"":1831,"à¥ĭ;":1832,"Ġà¤Ńà¤¡":1833,"Ġ/":1834,"Ġà¤«à¤ľ":1835,"Ġà¤īà¤ªà¤ľ":1836,"à¤ĩà¤°":1837,"ome":1838,"à¤¸à¤¬à¤¸":1839,"à¤®à¤ķà¤¤":1840,"à¤¹à¤Ĺ":1841,"us":1842,"à¤¼à¤¾)":1843,"ag":1844,"Ġà¤Ĩà¤®à¤¤":1845,"à¤¯à¤®à¤¨":1846,"Ġ2016":1847,"Ġà¤µà¤Ĺ":1848,"2014":1849,"à¤¨à¤ı":1850,"à¤¼,":1851,"Ġà¤Ĩà¤°à¤ķ":1852,"Ġà¤ĸà¤¨":1853,"Ġà¤īà¤ªà¤¦":1854,"Ġqu":1855,"à¤¨à¤Ĺà¤°":1856,"199":1857,"Ġà¤®à¤£":1858,"à¤¶à¤ĸ":1859,"à¤Īà¤¯":1860,"Ġà¤ħà¤¯":1861,"'%":1862,")...":1863,"à¤²à¤¹":1864,"Ġà¤ĸà¤ľ":1865,"Ġà¤īà¤łà¤¤":1866,"Ġà¤ħà¤¹à¤²":1867,"Ġà¤¨à¤ķà¤¦":1868,"à¥Ĥà¤Ĥ,":1869,"à¤¸à¤ķà¤°":1870,"à¤¸à¤ªà¤°":1871,"Ġà¤Ĺà¤¦":1872,"Ġà¤Ńà¤°à¤¨":1873,"Ġ\"%":1874,"à¤¸à¤Ł":1875,"Ġà¤ļà¤¤":1876,"Ġ2013":1877,"à¤«à¤²à¤¤":1878,"Ġà¤ĸà¤£":1879,"Ġà¤®à¤ļ":1880,"Ġà¤ħà¤¸à¤°":1881,"Ġà¤ħà¤ķà¤¬à¤°":1882,"as":1883,"à¤°à¤¹à¤µ":1884,"Ġà¤ľà¤¤":1885,"à¤£à¤µ":1886,"à¤¾'":1887,"à¤¨à¤µà¤¤":1888,"Ġto":1889,"Ġquot":1890,"à¤Ĩà¤¦":1891,"à¤ķà¤¬":1892,"Ġà¤¸à¤¹à¤Ń":1893,"Ġà¤Łà¤°":1894,"à¤ĸà¤¡":1895,"AT":1896,"Ġà¤ľà¤Ĺà¤¤":1897,"à¤ħà¤ªà¤°":1898,"à¤°à¤®à¤¶":1899,"AP":1900,"Ġà¤ķà¤¹à¤²":1901,"Ġà¤®à¤¤à¤¦":1902,"SL":1903,"à¤Ĩà¤²":1904,"à¤¤à¤Ĺ":1905,"india":1906,"and":1907,"Ġà¤¹à¤®à¤ķ":1908,"ĠY":1909,"Ġà¤Ĺà¤¨":1910,"à¤Ĩà¤īà¤Ł":1911,"âĢĶ":1912,"à¤¾âĢĻ":1913,"à¥Ĥ,":1914,"Ġy":1915,"à¤¯à¤Łà¤ķ":1916,"ion":1917,"à¤ħà¤¶":1918,"Ġà¤¸à¤¤à¤¤":1919,"à¥Ģ!":1920,"Ġà¤ľà¤ľ":1921,"07":1922,"oc":1923,"Ġà¥«":1924,"ation":1925,"Ġà¤ķà¤·":1926,"ist":1927,"ad":1928,"Ġà¤ªà¤°à¤¤":1929,"à¤Ĩà¤¶":1930,"Â¤Â«":1931,"à¤ĺà¤ķ":1932,"à¥Ĭ":1933,"à¤¯à¤ķà¤°":1934,"02":1935,"05":1936,"Ġà¤ªà¤°à¤¦":1937,"Ġi":1938,"Ġà¤ħà¤µà¤°":1939,"OR":1940,"Ġà¤¬à¤¦à¤²à¤¤":1941,"etail":1942,"ate":1943,"à¤µà¤°à¤ķ":1944,"à¥ĩà¤Ĥ-":1945,"Ġ</":1946,"Ġà¤¬à¤ļà¤¨":1947,")à¥¤":1948,"à¤ªà¤¬":1949,"à¤¡à¤ķà¤°":1950,"Ġà¤Ķà¤ľ":1951,"à¤¬à¤Ĺ":1952,"Ġà¤¸à¤¸":1953,"Ġà¤īà¤Ńà¤°":1954,"Ġà¤ªà¤°à¤µ":1955,"Ġ2017":1956,"press":1957,"à¤¯à¤ķà¤²":1958,"Ġà¤®à¤Ĺ":1959,"Ġà¤Ĺà¤¢":1960,"Ġà¤ħà¤¨à¤¨":1961,"à¤Łà¤¸":1962,"à¤¹à¤²à¤¤":1963,"à¤£à¤¸":1964,"à¤ļà¤°à¤£":1965,"21":1966,").":1967,"Ġà¤ķà¤¥à¤¨":1968,"à¤¦à¤¨à¤¶":1969,"à¤ĭà¤£":1970,"à¥ĭà¤Ĥ-":1971,"Ġà¤¬à¤¨à¤ķà¤°":1972,"à¤īà¤¨à¤¸":1973,"ĠV":1974,"Ġà¤²à¤Ĺà¤¨":1975,"Ġ2006":1976,"Ġà¤¦à¤«":1977,"à¤°à¤¬à¤¨":1978,"à¤¸à¤®à¤°":1979,"Ġà¤Ńà¤Ł":1980,"Ġà¤¬à¤¦à¤ķ":1981,"Ġ35":1982,"Ġà¤ªà¤°à¤¸à¤¤":1983,"Ġv":1984,"à¤į":1985,"Ġà¤Ĺà¤¹à¤¨":1986,"Ġà¤¶à¤°à¤£":1987,"ident":1988,"ch":1989,"Ġà¤ħà¤Ł":1990,"à¤ŀà¤ª":1991,"Ġ60":1992,"Ġà¤Ĭà¤¤à¤ķ":1993,"IN":1994,"à¤¶à¤²à¤¤":1995,"à¤ľà¤¬à¤ķ":1996,"Ġà¤ıà¤ª":1997,"Ġà¤®à¤¸à¤²":1998,"Ġà¤¬à¤®":1999,"Ġ2007":2000,"à¤ľà¤¦":2001,"Ġà¤¸à¤ªà¤¨":2002,"president":2003,"ofindia":2004,"à¤¼à¥ĩ-":2005,"à¥Ĥ.":2006,"Ġà¤ļà¤®à¤ķ":2007,"presidentofindia":2008,"Â¤Â¬":2009,"à¤²à¤ª":2010,"Ġà¤¨à¤²":2011,"release":2012,"Ġfor":2013,"à¥Ĩ":2014,"à¤¹à¤¶":2015,"detail":2016,"ex":2017,"\",":2018,"âĺ":2019,"\"%":2020,"Ġà¤¸à¤°à¤ªà¤°à¤¸":2021,"AR":2022,"à¤«à¤¤":2023,"28":2024,"à¥į;":2025,"Ġr":2026,"à¤ģ.":2027,"Ġà¥ª":2028,"Ġ2005":2029,"am":2030,"à¤®à¤¡":2031,"à¤ªà¤Łà¤¨":2032,"Ġà¤ħà¤®à¤²":2033,"à¥Ģ'":2034,"à¤ļà¤¤à¤°":2035,"Ġà¤¦à¤°à¤¬":2036,"/-":2037,"à¤Ĭà¤ªà¤°":2038,"Ġà¤¬à¤ľà¤Ł":2039,"ao":2040,"à¤ļà¤µ":2041,"à¤ĸà¤£":2042,"Ġà¤ĳà¤¡":2043,"à¤²à¤ļà¤¸":2044,"à¤Ĩà¤Īà¤¸":2045,"Ġà¤Ĺà¤¡":2046,"Ġ29":2047,"Ġà¤¨à¤µà¤®":2048,"à¤ķà¤£":2049,"à¤¤à¤¯":2050,"Ġà¤®à¤¦à¤¦à¤Ĺ":2051,"Ġà¤ıà¤¡":2052,"à¤ķà¤¦":2053,"Ġà¤¢à¤ķ":2054,"Ġà¤Ķà¤ªà¤ļ":2055,"Ġà¤ĩà¤¸à¤¨":2056,"à¤¹à¤ľ":2057,"Ġà¤«à¤Ł":2058,"ĠâĢĺâĢĺ":2059,"Â¤Â¶":2060,"Ġà¥¬":2061,"Ġà¤¬à¤Ł":2062,"Ġà¤Ĩà¤ļà¤°à¤£":2063,"ub":2064,"à¤¿/":2065,"Ġà¤°à¤¤":2066,"-#-#-#-#":2067,"à¤¯à¤·":2068,"Ġà¤Ĺà¤µà¤°":2069,"Ġà¤ıà¤¹à¤¦":2070,"26":2071,"27":2072,"Ġà¤¬à¤¹à¤¸":2073,"03":2074,"ia":2075,"Ġà¤¨à¤¤":2076,"Ġ*":2077,"à¤¬à¤¢":2078,"à¤²à¤ľ":2079,"à¤¶à¤¹à¤°":2080,"Ġà¤°à¤ĸà¤ķà¤°":2081,"04":2082,"à¤ĩà¤ı":2083,"à¤¯à¤¤à¤¯":2084,"à¤¥à¤¤":2085,"Ġà¤ħà¤¸à¤¹":2086,"Ġà¤īà¤ªà¤¹":2087,"Ġà¤¬à¤¹à¤ķ":2088,"Ġà¤ħà¤µà¤ķ":2089,"Ġà¤®à¤°à¤¨":2090,"Ġà¤°à¤£à¤¨":2091,"2015":2092,"Ġcom":2093,"ng":2094,"ĠX":2095,"à¤¯à¤°à¤¤":2096,"à¤¬à¤°à¤¦à¤¸":2097,"à¤ļà¤²à¤¨":2098,"Ġà¤Ĩà¤¦à¤¤":2099,"à¤Ĺà¤£à¤ķ":2100,"Ġà¤¤à¤ĸ":2101,"à¤¬à¤µ":2102,"Ġà¤ªà¤¥à¤Ń":2103,"à¤ļà¤ķà¤°":2104,"Ġà¤Ľà¤ª":2105,"Ġre":2106,"Ġà¤Ńà¤°à¤¤":2107,"à¤¨à¤ļ":2108,"à¤²à¤ĺ":2109,"Ġà¤ĳà¤ªà¤°":2110,"à¤ģà¥¤":2111,"à¤ĳà¤«":2112,"à¤īà¤¡":2113,"à¤ĩà¤¬à¤°":2114,"Ġà¤ľà¤¨à¤°à¤²":2115,"à¤ıà¤Ł":2116,"âĺ»":2117,"06":2118,"à¤Ńà¤°à¤¤":2119,"29":2120,"à¤¯à¤µà¤°":2121,"à¤¹à¤¨à¤¤":2122,"à¤ľà¤¹à¤¨":2123,"à¤¼à¤Ĥ":2124,"à¤Ĩà¤ªà¤¨":2125,"Ġà¤¦à¤¹":2126,"à¤ıà¤¡":2127,"à¤¬à¤¦à¤²":2128,"Ġà¤°à¤¨":2129,"Ġà¤°à¤ļ":2130,"ay":2131,"à¤¦à¤¦":2132,"Ġ()":2133,"à¥Ľ":2134,"Ġà¤Ńà¤°à¤ª":2135,"à¤Ĩà¤Īà¤Ł":2136,"à¤¹à¤°à¤²":2137,"à¤°à¤ľà¤¨à¤¨":2138,"Ġà¤ħà¤ªà¤µ":2139,"à¤¼à¤¾,":2140,"à¥Ĥà¤ģà¥¤\"":2141,"à¥ĭà¤Ĥ!":2142,"ov":2143,"Ġ2001":2144,"tr":2145,"à¤ľà¤ªà¤¤":2146,"Ġ2019":2147,"ld":2148,"à¤°à¤¦à¤¤":2149,"Ġà¤ĵà¤¡":2150,"194":2151,"Ġà¤Ĩà¤ķà¤²à¤¨":2152,"Ġ2012":2153,"à¥į,":2154,"Â¥ÂĪ":2155,"à¤ıà¤ª":2156,"Ġà¤¸à¤¹à¤¨":2157,"ind":2158,"th":2159,"à¤µà¤£":2160,"Ġà¤«à¤²à¤¸":2161,"Ġà¤ħà¤¹à¤®à¤¦":2162,"ĠUR":2163,"Ġà¤ķà¤£":2164,".âĢĵ":2165,"à¤¾%":2166,"Ġà¤¬à¤°à¤¤":2167,"à¤ħà¤¯":2168,"à¤¯à¤Ł":2169,"à¤¶à¤¹":2170,"85":2171,"AME":2172,"à¤¡à¤¸":2173,"à¥Ģà¤Ĥ?":2174,"à¤ķà¤¸à¤Ń":2175,"um":2176,"Ġor":2177,"à¤ıà¤®à¤Ī":2178,"à¤¼à¥ĩà¥¤":2179,"à¤Ĺà¤ª":2180,"à¤Ĩà¤°à¤ı":2181,"Ġà¤¤à¤¸à¤¬":2182,"à¤Ńà¤¦":2183,"Ġ2008":2184,"à¤¸à¤¬à¤ķ":2185,"RAN":2186,"Ġà¤·":2187,"Ġcon":2188,"à¥ĩ/":2189,"à¤¾?\"":2190,"ter":2191,"Ġà¤¦à¤®":2192,"à¤«à¤ķ":2193,"à¤«à¤°à¤®":2194,"à¤īà¤¸à¤®":2195,"Ġà¤¹à¤ķà¤¦":2196,"ener":2197,"à¤¦à¤ķà¤¤":2198,"à¤¯à¤Ń":2199,"de":2200,"Ġà¤µà¤¨à¤¸":2201,"à¤ľà¤°à¤¤":2202,"Ġà¤ıà¤ķà¤¦à¤®":2203,"à¤ħà¤¸à¤²":2204,"à¤¼à¥Ģ-":2205,"li":2206,"Ġà¤¥à¤ķ":2207,"2016":2208,"à¤¸à¤ĸ":2209,"à¤µà¤Ĺ":2210,"à¥īà¤Ĥ":2211,"Â¥Âģ":2212,"à¤°à¤¬à¤²":2213,"Ġà¤Ĩà¤¶à¤¯":2214,"eat":2215,"Ġà¤¬à¤¹à¤°":2216,"197":2217,"à¤¸à¤¦à¤¸":2218,"à¤¾à¤¾":2219,"2013":2220,"à¤¨à¤¯à¤¨":2221,"Ġà¤ĩà¤ĸ":2222,"----":2223,"à¤Ĭà¤¦":2224,"Ġà¤Ĩà¤ªà¤°":2225,"195":2226,"Ġà¤ķà¤ļà¤°":2227,"à¤ªà¤°à¤®":2228,"Ġà¤ĩà¤¸à¤ªà¤°":2229,"à¤¸à¤¶":2230,"Ġà¤ķà¤¤à¤°":2231,"ap":2232,"à¤¦à¤¹":2233,"à¤¼à¥ĩ,":2234,"Ġà¤ķà¤°à¤®":2235,"Ġà¤ĸà¤¬à¤°":2236,"oo":2237,"à¤ķà¤ħà¤ª":2238,"à¤¬à¤ľ":2239,"à¤ªà¤µ":2240,"Ġà¤¨à¤°à¤®":2241,"à¤ļà¤¢":2242,"ĠâĢľ%":2243,"Ġ2020":2244,"Ġà¤Ĩà¤ªà¤¦":2245,"Ġà¤¸à¤ķà¤¨":2246,"Ġ#-#-#-#-#":2247,"age":2248,"his":2249,"à¥Ģ:":2250,"Â¥ÂĤ":2251,"Ġà¤²à¤¹à¤°":2252,"à¤·à¤ª":2253,"à¤ªà¤°à¤µ":2254,"Ġà¥¦":2255,"à¤Ĺà¤µà¤¤":2256,"à¤·à¤Ĺ":2257,"Ġà¤®à¤¤à¤Ń":2258,"à¤ªà¤¢":2259,"Ġà¤¦à¤°à¤ĸ":2260,"à¤Īà¤¶":2261,"eather":2262,"Ġà¤¸à¤¤à¤°":2263,"Ġà¤®à¤°à¤¤":2264,"Â¤Âĩ":2265,"Ġà¤¸à¤ļà¤®":2266,"à¤¶à¤®à¤¨":2267,"os":2268,"hat":2269,"à¥ĩà¤ĥ":2270,"à¤¦à¤°à¤Ĺ":2271,"Ġ2002":2272,"Ġà¤¸à¤Ł":2273,"à¤¾à¤ģ)":2274,"198":2275,"à¥Īà¥¤-":2276,"Ġà¤¸à¤®à¤¤":2277,"Ġà¤¶à¤¹":2278,"Ġà¤¯à¤¤":2279,"!\"":2280,"Ġà¤¬à¤¹à¤¤":2281,"à¤¼à¥Ģ)":2282,"ew":2283,"Ġà¤ħà¤Łà¤²":2284,"Ġ75":2285,"à¥ĩ%":2286,"Ġà¤§à¤¨à¤°":2287,"Â¤Âļ":2288,"ul":2289,"Ġà¤ĩà¤¤à¤°":2290,"Ġà¤ĩà¤¨à¤ª":2291,"Ġ115":2292,"Ġà¤ħà¤«à¤Ĺ":2293,"Ġ90":2294,"ML":2295,"Ġà¤ħà¤µà¤²":2296,"à¤ıà¤¬":2297,"à¤°à¤ķà¤²":2298,"Ġ1999":2299,"un":2300,"à¤Łà¤«":2301,"Ġà¤§à¤®à¤ķ":2302,"à¤µà¤®":2303,"Ġà¤ıà¤¯à¤°":2304,"à¥¨à¥¦à¥¦":2305,"weather":2306,"à¤·à¤°à¤¤":2307,"Ġà¤ħà¤µà¤¯à¤µ":2308,"à¤īà¤°":2309,"Ġà¤ªà¤¤à¤²":2310,"à¤¼à¥ĩ)":2311,"à¥ĩ?\"":2312,"Ġà¤ĩà¤·":2313,"Ġà¤ıà¤¹à¤ķ":2314,"à¤¤à¤¯à¤¶":2315,"Ġà¤®à¤°à¤®":2316,"Ġ45":2317,"ox":2318,"à¤²à¤Ĺà¤Ńà¤Ĺ":2319,"à¤²à¤Ŀ":2320,"Ġà¤ħà¤²à¤¬à¤¤":2321,"à¤¼à¥Ģ,":2322,"à¤ĺà¤Ł":2323,"Ġà¤¸à¤ķà¤²":2324,"à¤¨à¤ľ":2325,"à¤µà¤¥":2326,"à¤ıà¤¶à¤¨":2327,"à¤Ĺà¤®à¤¨":2328,"39":2329,"ers":2330,"Ġà¤ĩà¤¶":2331,"ort":2332,"Ġà¤µà¤¶":2333,"à¤ıà¤«à¤¸":2334,"à¥ĢâĢĻ":2335,"à¤®à¤¹à¤¤":2336,"Ġà¤Ĩà¤īà¤Łà¤ª":2337,"à¤¬à¤ĸ":2338,"à¤Ĺà¤¸":2339,"à¤Ńà¤¨":2340,"Ġà¤¶à¤²":2341,"à¤¿à¤ĥ%":2342,"35":2343,"ig":2344,"à¤®à¤¹à¤²":2345,"Ġà¤¹à¤«":2346,"à¤¸à¤®à¤¸":2347,"ER":2348,"Ġà¤ªà¤¬":2349,"à¤Ĺà¤ķ":2350,"ĠOF":2351,"196":2352,"ke":2353,"mp":2354,"Ġà¤Ĩà¤Īà¤¡":2355,"ric":2356,"Ġà¤µà¤¹à¤¨":2357,"à¤Łà¤ħà¤ª":2358,"Ġà¤Ĩà¤¡":2359,"wor":2360,"à¤¯à¤¡":2361,"Ġà¤¹à¤®à¤ªà¤°":2362,"à¤Ķà¤¦":2363,"Ġ$":2364,"Ġà¤ļà¤®à¤¤":2365,"ĠTRAN":2366,"ORS":2367,"à¥Ŀ":2368,"ATORS":2369,"SLATORS":2370,"ĠTRANSLATORS":2371,"Ġo":2372,"à¤°à¤Ĺà¤°":2373,"Ġ36":2374,"à¤¤à¤¶":2375,"à¤·à¤¸":2376,"à¤¤à¤¹":2377,"Ġ32":2378,"Ġà¥§à¥«":2379,"Ġà¤¤à¤¯à¤¶":2380,"à¤Īà¤Ł":2381,"Ġà¤°à¤ĸà¤°à¤ĸ":2382,"II":2383,"à¤ıà¤¸à¤ıà¤¸":2384,"à¤Łà¤¬":2385,"à¤īà¤ªà¤°":2386,"Âħ":2387,"Ġà¤°à¤«":2388,"31":2389,"à¤¤à¤¦":2390,"Ġ2003":2391,"Ġ189":2392,"TP":2393,"à¤¬à¤§":2394,"à¤«à¤²à¤ķ":2395,"Ġà¤Ľà¤ł":2396,"Ġà¤ħà¤Ĺà¤°à¤ļ":2397,"80":2398,"à¤³":2399,"à¤µà¤¤à¤¨":2400,"à¤£à¤®":2401,"à¤®à¤¦à¤¦":2402,"à¤īà¤®":2403,"à¤ıà¤®à¤ıà¤¸":2404,"Ġà¤ĩà¤¬à¤°à¤¤":2405,"à¤ªà¤¹à¤°":2406,"à¤Ńà¤ª":2407,"Ġà¤¤à¤¹":2408,"à¤¥à¤Ĺ":2409,"Ġà¤ıà¤°":2410,"Â¤Âĸ":2411,"col":2412,"ĠK":2413,"à¤¾à¤ģ-":2414,"ess":2415,"à¤µà¤ļà¤¨":2416,"Ġà¤ļà¤¶":2417,"à¤ķà¤°à¤¨":2418,"Ġà¤ĸà¤¤à¤°à¤¨":2419,"Ġà¤¨à¤®à¤ķ":2420,"Ġà¤ħà¤ĸà¤¬":2421,"IS":2422,"Ġà¤ħà¤£":2423,"Ġ2011":2424,"à¤¼à¤¾-":2425,"à¤¤à¤¨à¤¤":2426,"Ġà¤¬à¤¨à¤µ":2427,"Ġ2004":2428,"à¤ĳà¤¡":2429,"à¤¸à¤¡":2430,"lab":2431,"à¥Īà¤ĥ%":2432,"à¤ªà¤Łà¤²":2433,"Ġà¤µà¤ľà¤¨":2434,"Ġà¤¦à¤¤":2435,"Con":2436,"à¤¨à¤¡":2437,"à¤ĩà¤«":2438,"Ġ;":2439,"ef":2440,"tle":2441,"yp":2442,"Ġà¤¬à¤°à¤¬":2443,"à¤ħà¤®à¤°":2444,"Ġà¤ĺà¤°à¤µ":2445,"à¤®à¤Ł":2446,"à¤¤à¤°à¤¹":2447,"Ġà¥§à¥®":2448,"Ġà¤ķà¤µà¤°":2449,"à¤¹à¤¡":2450,"Ġà¤®à¤¹à¤«":2451,":-":2452,"Ġà¤¨à¤ķà¤²":2453,"à¤«à¤¡":2454,"à¤Ĩà¤Īà¤ıà¤¸":2455,"à¤£à¤¤à¤¯":2456,"nome":2457,"à¥ĩà¤Ĥ;":2458,"à¤¬à¤Ł":2459,"Ġà¤²à¤²":2460,"Ġà¤²à¤¶":2461,"Ġ1956":2462,"à¤¦à¤Ń":2463,"à¤ħà¤¸à¤®":2464,"Ġà¤īà¤²à¤Ŀ":2465,"Ġit":2466,"à¥ħà¤¾":2467,"Ġà¤µà¤²":2468,"40":2469,"Ġà¤ĺà¤¬à¤°":2470,"Ġà¤ĭà¤·":2471,"âĺ»âĺ»":2472,"ĠJ":2473,"MA":2474,"à¤¨à¤Ĺ":2475,"à¤¡à¤¤":2476,"Ġà¤°à¤¹à¤ķà¤°":2477,"à¥§à¥®":2478,"Ġà¤µà¤ľ":2479,"à¤²à¤Ł":2480,"à¤Ŀà¤ķ":2481,"Ġà¤Ĺà¤®":2482,"Ġà¤Ĩà¤µà¤°à¤£":2483,"Ġà¤¯à¤ľ":2484,"lation":2485,"à¤īà¤ªà¤¨":2486,"IL":2487,"Ġà¤Ĩà¤Īà¤Ł":2488,"Ġà¤¨à¤¶":2489,"Ġà¤ķà¤®à¤²":2490,"Ġ2018":2491,"Ġà¤¡à¤¬":2492,"à¤īà¤¸à¤¸":2493,"Ġ2010":2494,"Ġà¤¸à¤°à¤¸":2495,"Ġà¤¶à¤ªà¤¥":2496,"Ġà¤«à¤²à¤ķ":2497,"Ġà¤¦à¤°à¤Ĺ":2498,"ree":2499,"Ġà¤¶à¤¸":2500,"lic":2501,"à¤¤à¤°à¤ķ":2502,"Ġà¤ıà¤ķà¤ľ":2503,"Ġà¤Ĺà¤£à¤¤":2504,"à¤ĩà¤¨à¤¸":2505,".)":2506,"/%":2507,"75":2508,"ĠĠ":2509,"Ġà¤Ĩà¤¯à¤ķà¤°":2510,"à¤Łà¤°à¤ª":2511,"Ġà¥Ń":2512,"45":2513,"ct":2514,"Ġà¤¬à¤ķà¤°":2515,"Ġà¤²à¤ª":2516,"à¤§à¤ª":2517,"Ġà¤¸à¤¹à¤¸":2518,"Ġà¤Ĩà¤®à¤¦à¤¨":2519,"Ġtranslat":2520,"Ġà¤®à¤ĸ":2521,"Â¤Âģ":2522,"2019":2523,"ting":2524,"à¤ĩà¤¸à¤¨":2525,"nu":2526,"Ġà¤ıà¤£":2527,"Ġà¤¢à¤²":2528,"à¤Ĭà¤°":2529,"Ġà¤ĭà¤¤":2530,"à¤īà¤ªà¤ķà¤°à¤£":2531,"Ġhttp":2532,"à¤¾\"":2533,"Ġ(.":2534,"Â¤ÂĨ":2535,"à¤Łà¤ª":2536,"mi":2537,"Ġà¤¹à¤®à¤®":2538,"à¤ħà¤°à¤¬":2539,"Ġà¤īà¤ªà¤Ĺ":2540,"Ġà¤ħà¤µà¤Ĺà¤¤":2541,"af":2542,"end":2543,"Ġ70":2544,",%":2545,"Ġis":2546,"Ġà¤¤à¤°à¤ķ":2547,"Ġà¤ĺà¤®":2548,"à¤¶à¤¨à¤°":2549,"à¤¹à¤¯":2550,"Ġst":2551,"à¤²à¤¯à¤¨":2552,"Ġme":2553,"Ġà¤Ĩà¤Ĺà¤®à¤¨":2554,"à¤Ĩà¤Īà¤¡":2555,"vir":2556,"à¤ıà¤®à¤ıà¤²":2557,"à¤ĵà¤ıà¤¸":2558,"Ġà¤Łà¤ķà¤°":2559,"Ġà¤ĵà¤¬":2560,"à¤Ŀà¤ªà¤°":2561,"à¤°à¤¸à¤µ":2562,"erv":2563,"à¤Ĺà¤²à¤¤":2564,"Ġà¤ĵà¤ªà¤¨":2565,"Ġ2009":2566,"TML":2567,"ast":2568,"hou":2569,"Ġ`":2570,"à¥Ģ),":2571,"à¤£à¤Ĺ":2572,"Ġà¤¬à¤ļà¤ªà¤¨":2573,"nd":2574,"à¤¹à¤£":2575,"à¤ĸà¤¨à¤Ĭ":2576,"Ġà¤¨à¤ľà¤¦":2577,"ect":2578,"à¤°à¤¸à¤°":2579,"à¤ļà¤®":2580,"Ġà¤ħà¤«à¤¸":2581,"Ġà¤ıà¤®à¤ıà¤¸":2582,"Ġà¤ĩà¤¸à¤¹":2583,"ĠÂ":2584,"à¤®à¤ļà¤¨":2585,"à¥Ĥà¤ģ.":2586,"ve":2587,"à¥¯à¥":2588,"à¤Ĺà¤Łà¤¨":2589,"Ġà¤ıà¤Ł":2590,"stel":2591,"Ġà¤īà¤Ńà¤°à¤¤":2592,"à¤ľà¤®à¤¹à¤²":2593,"Ġà¤¬à¤¦à¤°":2594,"Ġà¤¦à¤°à¤ľ":2595,"Ġà¤īà¤łà¤¨":2596,"Ġà¤łà¤¹à¤°à¤¨":2597,"100":2598,"Ġà¤¬à¤°à¤ķà¤¤":2599,"à¤²à¤«":2600,"Ġà¤ªà¤ł":2601,"Ġà¤ľà¤¨à¤¨":2602,"à¤Īà¤ľ":2603,"Ġà¤ĵà¤µà¤°":2604,"Ġ02":2605,"à¤¯à¤ķà¤°à¤£":2606,"à¤¸à¤®à¤¨":2607,"ss":2608,"à¤ĩà¤¸à¤°":2609,"à¤¼à¥Ģà¥¤":2610,"Ġà¤¸à¤¶à¤¸":2611,"Ġà¤Ĺà¤ľ":2612,"à¥Ģà¤Ĥ-":2613,"Ġà¤ªà¤¦à¤ķ":2614,"Ġà¤ħà¤µà¤¤":2615,"Ġà¤ļà¤°à¤®":2616,"à¤¢à¤¨":2617,"2012":2618,"Ġà¤²à¤¯":2619,"Ġbe":2620,"stellation":2621,"ile":2622,"Ġà¤¤à¤¦à¤¬":2623,"Ġ33":2624,"à¤¼à¤¿à¤Ĥ":2625,"Ġà¥®":2626,"à¤¨à¤ªà¤°":2627,"à¤ķà¤ł":2628,"ON":2629,"Ġà¤ĳà¤¸":2630,"à¤īà¤ªà¤Ń":2631,"ah":2632,"à¤ıà¤°":2633,"à¤§à¤°à¤£":2634,"Ġà¤¤à¤°à¤²":2635,"à¤Ĩà¤°à¤ıà¤²":2636,"à¤§à¤®":2637,"à¤Ĩà¤¦à¤®":2638,"à¤®à¤²à¤µ":2639,"Ġ185":2640,"Constellation":2641,"Ġà¤²à¤Łà¤ķ":2642,"à¤·à¤¯à¤ķ":2643,"à¤Ĩà¤ĩ":2644,"Ġà¤¬à¤¶à¤°":2645,"à¤ħà¤µà¤¸":2646,"Ġà¤Ĩà¤ĺ":2647,"Ġ1947":2648,"âĢĿà¥¤":2649,"Ġ01":2650,"à¤¤à¤°à¤¤":2651,"ine":2652,"Ġà¤ªà¤¤à¤¨":2653,"à¤°à¤¹à¤®":2654,"Ġ188":2655,"à¤¤à¤Ń":2656,"Ġà¤¬à¤Ĺà¤²":2657,"à¥Ĥ)":2658,"à¤Īà¤ķ":2659,"à¤īà¤ªà¤²à¤¬":2660,"Ġà¤Ĩà¤ªà¤¤":2661,"title":2662,"are":2663,"2001":2664,"Ġà¤²à¤¦":2665,"à¤¤à¤ķà¤¨":2666,"à¤®à¤°à¤¨":2667,"à¥§à¥¦":2668,"36":2669,"box":2670,"Ġà¤ªà¤łà¤¨":2671,"à¤¬à¤®":2672,"Ġà¤²à¤ļ":2673,"Â¥Âī":2674,"Ġpo":2675,"Ġà¤®à¤¨à¤®":2676,"à¤ħà¤ĸ":2677,"Ġ44":2678,"à¤Ķà¤ľ":2679,"Ġà¤«à¤¸":2680,"MS":2681,"Ġà¤Ńà¤Ĺ":2682,"à¤¯à¤°à¤§":2683,"à¤¨à¤¸à¤Ń":2684,"color":2685,"Ġà¤¨à¤°à¤¸":2686,"Ġà¤¬à¤Ľà¤¡":2687,"à¤ħà¤µà¤°":2688,"à¤Ńà¤Ĺà¤µ":2689,"à¤ĵà¤¸":2690,"Ġà¤ĸà¤ªà¤¤":2691,"Ġ150":2692,"à¥ŀ":2693,"à¤ıà¤ľ":2694,"à¤Ĩà¤Īà¤ª":2695,"à¤Ŀà¤ķà¤°":2696,"Ġà¤§à¤ķ":2697,"à¤¨à¤ľà¤¨à¤ķ":2698,"à¤ķà¤ķà¤°":2699,"à¤¸à¤°à¤¤":2700,"à¤ªà¤°à¤ķ":2701,"Ġà¥¨à¥¦":2702,"à¤®à¤ķà¤°à¤£":2703,"à¥ĭà¤Ĥ?":2704,"Ġà¤Ľà¤¡":2705,"eneric":2706,"Ġà¤¤à¤«":2707,"à¤ħà¤¹":2708,"Ġ500":2709,"à¤¾à¥į":2710,"Ġà¤ķà¤ªà¤Ł":2711,"à¤°à¤µà¤£":2712,"2017":2713,"Ġà¥§à¥¦":2714,"sp":2715,"à¤ķà¤ļ":2716,"à¤Łà¤°à¤«":2717,"oog":2718,"à¥Ĥà¤ģ?":2719,"Ġà¤ħà¤ªà¤¶":2720,"ext":2721,"oogle":2722,"Ġbut":2723,"Ġà¤¤à¤¸à¤¦":2724,"à¤Ĩà¤¹":2725,"aa":2726,"Ġà¤µà¤¯à¤¸":2727,"Ġà¤ıà¤¨à¤ķ":2728,"Ġà¤§à¤¡":2729,"Ġ187":2730,"Ġà¤ħà¤¨à¤¦":2731,"Ġà¤Ĩà¤Īà¤¸":2732,"à¤µà¤°à¤¤":2733,"Ġà¤®à¤°à¤¯à¤®":2734,"Ġà¤·à¤¡":2735,"34":2736,"à¤¯à¤ļ":2737,"Ġà¤ļà¤®à¤¡":2738,"Ġà¤īà¤·":2739,"Ġà¤ıà¤ķà¤¡":2740,"Ġà¤ħà¤¸à¤«à¤²à¤¤":2741,"gu":2742,"à¥ĭà¤Ĥ.":2743,"pp":2744,"à¤Ńà¤¯":2745,"à¤°à¤¦à¤¸":2746,"Ġ1992":2747,"à¤ħà¤ķà¤¬à¤°":2748,"ĠURL":2749,"Ġà¤®à¤¹à¤°":2750,"à¤ĺà¤¡":2751,"ĠID":2752,"à¤°à¤¹à¤ķ":2753,"à¤ĩà¤¨à¤°":2754,"Ġà¤¹à¤°à¤ķà¤¤":2755,"à¤ľà¤¶":2756,"Ġ48":2757,"han":2758,"Â¤Â·":2759,"Ġà¤¸à¤®à¤Ŀà¤¦":2760,"Ġ1948":2761,"à¤²à¤²":2762,"à¤Īà¤ª":2763,"à¤¿:":2764,"à¤ľà¤¨à¤¯":2765,"à¥Īà¤Ĥ:-":2766,"à¤¿;":2767,"à¤¾...":2768,"Ġà¤ħà¤ªà¤²":2769,"2000":2770,"Ġà¤²à¤¤":2771,"à¤ĩà¤ľà¤°":2772,"à¥ĭ?\"":2773,"RO":2774,"Ãī":2775,"Ġand":2776,"à¤¯à¤°à¤¸":2777,"Ġà¤®à¤ķà¤¬à¤°":2778,"à¤Īà¤¨":2779,"âĢĻâĢĻ":2780,"Ġà¤ħà¤¸à¤¤":2781,"MAP":2782,"Ġ37":2783,"33":2784,"à¤§à¤ķà¤°":2785,"à¤Ĺà¤ªà¤¤":2786,"Ġà¤ħà¤¥":2787,"à¤«à¤¨":2788,"500":2789,"Ġà¤ĸà¤¨à¤¨":2790,"à¤ĳà¤¨à¤²":2791,"()":2792,"ory":2793,"Ġ34":2794,"à¤¯à¤ľà¤¨à¤ķ":2795,"Ġà¤ªà¤°à¤ľ":2796,"à¤°à¤¤à¤®":2797,"Ġà¤ªà¤Łà¤²":2798,"à¤ªà¤ķà¤°":2799,"à¥Ģà¤Ĥ;":2800,"NAME":2801,"ial":2802,"à¤ªà¤°à¤¤":2803,"Ġà¤ªà¤¹à¤¨à¤¤":2804,"Generic":2805,"à¤µà¤¡":2806,"Ġà¤¦à¤®à¤¨":2807,"à¤¾),":2808,"lami":2809,"atlami":2810,"ravir":2811,"Ġà¤ħà¤Łà¤ķà¤²":2812,"raviratlami":2813,"}\"":2814,"Ġà¤²à¤ĸà¤¨à¤Ĭ":2815,"Ġà¤Ĩà¤ķà¤¸":2816,"Ġhi":2817,"for":2818,"à¤°à¤«à¤²":2819,"Ġà¤ľà¤¨à¤ķ":2820,"à¤§à¤°à¤¤":2821,"indow":2822,"à¤ħà¤Ł":2823,"à¥Ģà¥¤\"":2824,"Ġà¤ļà¤²à¤ķà¤°":2825,"ain":2826,"Ġà¤īà¤¬":2827,"à¤¥à¤¶":2828,"Ġà¤ħà¤Ńà¤¯":2829,"Ġà¤¸à¤®à¤ķà¤ķ":2830,"ions":2831,"Ġà¤Ľà¤²":2832,"à¤¨à¤«":2833,"à¤ļà¤µà¤°":2834,"à¤®à¤¨à¤¦":2835,"Ġà¤ĳà¤ķ":2836,"Ġà¤ľà¤Ĺà¤¨":2837,"à¥¦à¥¦à¥¦":2838,"label":2839,"Ġà¤¤à¤¦":2840,"Ġà¤ĸà¤²":2841,"Ġà¤ķà¤¹à¤ķà¤°":2842,"Ġ1950":2843,"à¤Ĺà¤°à¤£":2844,"à¤¶à¤Ńà¤ķ":2845,"Ġà¤ĳà¤Ł":2846,"à¤ıà¤¸à¤¸":2847,"Ġà¤ĩà¤«":2848,"Ġà¤ĳà¤°":2849,"à¤§à¤¡":2850,"Ġ(&":2851,"à¤Ĩà¤¸à¤®":2852,"ard":2853,"à¥§à¥«":2854,"OP":2855,"ir":2856,"Ġà¤®à¤²à¤¯":2857,"\"\"":2858,"à¤Łà¤ķà¤Ł":2859,"Ġà¤Ĩà¤Ĺà¤°":2860,"à¤°à¤¶à¤¸":2861,"Ġà¤¤à¤®à¤¨":2862,"Ġà¤¸à¤¬à¤¬":2863,"our":2864,"',":2865,"à¤¸à¤Ĺà¤¢":2866,"Ġà¤¹à¤¨":2867,"Ġà¤°à¤¥":2868,"Ġà¤®à¤¹à¤ľ":2869,"art":2870,"Ġwhat":2871,"à¤ħà¤µà¤§":2872,"item":2873,"Ġorg":2874,"à¤Īà¤°":2875,"à¤ĩà¤µà¤°":2876,"Ġà¤¸à¤°à¤²à¤¤":2877,"Ġà¤ħà¤ķà¤¡":2878,"à¤¶à¤ľ":2879,"action":2880,"Ġà¥§à¥¯à¥¯à¥":2881,"Ġà¤®à¤°à¤¤à¤¬":2882,"38":2883,"ev":2884,"Ġà¤ľà¤²à¤¨":2885,"à¤łà¤ķà¤°":2886,"à¥Īà¤Ĥà¥¤\"":2887,"sthis":2888,"ount":2889,"Ġwhatsthis":2890,"37":2891,"hr":2892,"Ġà¤Ĩà¤¹à¤°à¤£":2893,"à¤īà¤ªà¤¸":2894,"Ġà¤¦à¤¶à¤®à¤²à¤µ":2895,"MAIL":2896,"Ġ1000":2897,"Ġà¤¤à¤¦à¤¨":2898,"Ġà¤ıà¤ķà¤ķ":2899,"Ġ1998":2900,"Ġ300":2901,"à¤ĳà¤ķ":2902,"nc":2903,"à¤·à¤¬":2904,"ĠName":2905,"à¤ĵà¤°":2906,"à¤¹à¤ª":2907,"Ġà¤¸à¤¹à¤¨à¤¶":2908,"Ġà¤ĵà¤²":2909,"erm":2910,"à¤ıà¤ĵ":2911,"à¤§à¤²":2912,"Ġ\"\"":2913,"à¤ıà¤¸à¤Ł":2914,"Ġwww":2915,"à¤Ŀà¤¤":2916,"à¤Ĥ/":2917,"à¤ķà¤ļà¤°":2918,"à¤ıà¤®à¤¸":2919,"ĠâĢĻ":2920,"32":2921,"od":2922,"à¤Ĥ-":2923,"à¤łà¤°":2924,"ton":2925,"à¤¶à¤ª":2926,"à¤Ĩà¤µà¤ľ":2927,"Ġà¤ľà¤¬à¤°à¤¦à¤¸":2928,"Ġà¥§à¥¨":2929,"eb":2930,"à¤Ĩà¤µà¤¶":2931,"à¤ĥ-":2932,"Ġà¤¦à¤¹à¤²":2933,"IC":2934,"à¤²à¤ªà¤¤":2935,"Ġà¤ĩà¤§à¤°":2936,"à¥§à¥¨":2937,"ype":2938,"à¤²à¤ĸ":2939,"à¤ĸà¤¨à¤¨":2940,"à¤Ĩà¤°à¤Ĩà¤Ī":2941,"Re":2942,"à¤¤à¤ĸ":2943,"IT":2944,"ust":2945,"Ġ,":2946,"Ġà¤ıà¤¨à¤ª":2947,"cri":2948,"à¤¸à¤ĺ":2949,"à¤®à¤¦à¤°":2950,"à¥ĩà¤Ĥ%":2951,"à¤ĸà¤Ł":2952,"à¤ĵà¤¡":2953,"à¤ĺà¤²":2954,"à¤ħà¤¤à¤ıà¤µ":2955,"EA":2956,"EMAIL":2957,"Ġj":2958,"Ġà¤¸à¤ĭ":2959,"Ġà¤Ĩà¤µà¤°":2960,"à¤Ńà¤µà¤¨":2961,"à¤Ĩà¤°à¤Ł":2962,"ser":2963,"ï¿":2964,"Ġà¤ĥ":2965,"à¤¨à¤¤à¤°":2966,"à¤²à¤¶":2967,"à¤·à¤ľà¤¨à¤ķ":2968,"à¤Ĩà¤¬":2969,"à¤¹à¤°à¤Ĺ":2970,"tic":2971,"Ġà¤ªà¤¡à¤¤":2972,"Ġà¤ĳà¤¨":2973,"GenericName":2974,"ï¿½":2975,"ID":2976,"Ġà¤²à¤ľ":2977,"à¥Ĥà¤Ĥ.":2978,"dition":2979,"Ġà¤īà¤ĸ":2980,"Ġà¤¯à¤®":2981,"Ġ1991":2982,"à¤£à¤°":2983,"à¥ĥ.":2984,"UR":2985,"Ġon":2986,"Ġà¤ªà¤Łà¤¨":2987,"ĠBAR":2988,"99":2989,"à¥ĭ%":2990,"Ġà¤®à¤ł":2991,"Ġà¤ľà¤ķà¤¡":2992,"à¤£à¤ª":2993,"Ġà¤ľà¤¯à¤ª":2994,"Ġà¤ħà¤·":2995,"à¤Ĩà¤ı":2996,"Ġà¤Īà¤¸à¤µ":2997,"Ġ42":2998,"ore":2999,"aol":3000,"à¤ıà¤¨à¤¸":3001,"Ġà¤Ĩà¤¸à¤¨":3002,"Ġ08":3003,"à¤Īà¤µ":3004,"xx":3005,"à¤®à¤¬":3006,"à¤·à¤¯à¤µà¤¸":3007,"à¤ĩà¤¨à¤²":3008,"Ġà¤Ĭà¤¨":3009,"Ġ1997":3010,"Ġà¤īà¤¤à¤°à¤¤":3011,"2011":3012,"Ġ1987":3013,")-":3014,"Ġà¤µà¤«":3015,"Ġà¤¬à¤°à¤¹à¤ķ":3016,"Ġà¤Ĺà¤°à¤®":3017,"à¤Ĩà¤¡":3018,"EN":3019,"Ġà¤ľà¤¬à¤¤à¤ķ":3020,"nj":3021,"rance":3022,"ecast":3023,"Ġforecast":3024,"Ġà¤Ńà¤£":3025,"à¤Ĩà¤ĩà¤ı":3026,"à¤ĭà¤¤":3027,"Ġ186":3028,"crip":3029,"à¤¹à¤ľà¤¹":3030,"har":3031,"gnome":3032,"Ġà¤ħà¤®à¤¨":3033,"Ġà¤µà¤§":3034,"à¥Īà¤Ĥ!":3035,"im":3036,"à¤ıà¤ķà¤²":3037,"à¤ĸà¤µ":3038,"à¤Īà¤¡":3039,"Ġà¤«à¤ķ":3040,"à¤®à¤¨à¤ªà¤¸":3041,"Ġà¤ļà¤¹":3042,"à¤Īà¤¦":3043,"Ġà¤īà¤¦à¤¯":3044,"uta":3045,"à¤ķà¤Ĺ":3046,"Ġà¤¤à¤ľ":3047,"Ġà¤¸à¤¦à¤ķ":3048,");":3049,"Ġà¤µà¤¬":3050,"Ġà¤ĩà¤£":3051,"ug":3052,"à¤ķà¤¹à¤¤":3053,"Ġà¤µà¤°à¤¦":3054,"Ġà¤¤à¤µ":3055,"à¤¬à¤¹à¤°":3056,"Ġà¤ıà¤Ĺ":3057,"à¤ģ?":3058,"à¤ĺà¤µ":3059,"Ġà¤Ŀà¤²à¤ķ":3060,"hould":3061,"Ġà¤¨à¤¨":3062,"Â¤Â¥":3063,"Ġà¤®à¤¨à¤ªà¤¸":3064,"ĠNAME":3065,"ck":3066,"à¤¾à¥°":3067,"Ġà¤ªà¤£":3068,"Ġà¤ħà¤°à¤µ":3069,"Ġ65":3070,"Ġà¤¨à¤Ĺà¤°à¤ª":3071,"Ġà¤¦à¤£":3072,"Ġà¤¡à¤ķ":3073,"world":3074,"à¤Ĺà¤¹à¤°":3075,"Ġà¤¬à¥Ŀ":3076,"Ġà¤Ķà¤ļ":3077,"Ġà¤¸à¤«à¤°":3078,"à¥¨à¥¦":3079,"à¤Ĥ)":3080,"DAP":3081,"OM":3082,"ject":3083,"à¤ĺà¤Łà¤ķ":3084,"njuta":3085,"ry":3086,"à¤¿%":3087,"à¤¤à¤§":3088,"à¤Ĩà¤ł":3089,"à¤łà¤¹à¤°":3090,"à¤¯à¤®à¤¯":3091,"Ġ38":3092,"55":3093,"Ġà¤īà¤§à¤°":3094,"à¤Ĺà¤®à¤Ĺ":3095,"ĠURI":3096,"à¤Ĩà¤Ń":3097,"Ġcondition":3098,"ge":3099,"hort":3100,"à¥Ģ\"":3101,"Ġà¤Ĭà¤·":3102,"Ġ47":3103,"à¤Ĩà¤īà¤Łà¤ª":3104,"EX":3105,"Ġà¤Ĩà¤łà¤µ":3106,"à¤¾à¤¿":3107,"Ġà¤¹à¤²à¤ķ":3108,"Ġà¤ļà¤®":3109,"à¤Ŀà¤²":3110,"à¤µà¤¨à¤¸":3111,"à¥§à¥Ń":3112,"Ġ1986":3113,"rica":3114,"ong":3115,"Ġ1996":3116,"à¤¤à¤¦à¤¨":3117,"CT":3118,"IME":3119,"à¤ļà¤¸":3120,"Ġà¤Ĩà¤ĩ":3121,"Â¤ÂĪ":3122,"iss":3123,"ĠGN":3124,"48":3125,"à¤®à¤ĸ":3126,"à¤īà¤ķ":3127,"à¤¸à¤°à¤²":3128,"à¤ıà¤¸à¤¡":3129,"Ġà¤į":3130,"Ġà¤¬à¤¦à¤¨":3131,"à¤¬à¤µà¤¤":3132,"Ġà¤Ńà¤Ĺà¤¤":3133,"Ġ1993":3134,"ahoo":3135,"france":3136,"Ġà¤ªà¤¥à¤°":3137,"Ġà¤ļà¤®à¤ķà¤¤":3138,"Ġà¤«à¤¤":3139,"Ġà¤¡à¤°à¤¨":3140,"Ġ1980":3141,"Ġà¤¨à¤Ĺ":3142,"à¤ĥ,":3143,"à¤ıà¤¸à¤Ĩà¤Ī":3144,"ai":3145,"Ġà¤¸à¤īà¤¦":3146,"à¤Ĺà¤¯":3147,"à¤ľà¤¨à¤¸":3148,"à¤ķà¤Łà¤¤":3149,"able":3150,"à¥§à¥©":3151,"Ġà¤ħà¤¹à¤¸":3152,"à¤ĵà¤ª":3153,"Ġ1988":3154,"à¤Ĩà¤°à¤¸":3155,"à¤¨à¤ķà¤¦":3156,"Ġà¤ķà¤²à¤®":3157,"à¥§à¥ª":3158,"à¥§à¥¬":3159,"70":3160,"con":3161,"à¥ĩ:":3162,"à¤ªà¤¸à¤¨":3163,"à¤¶à¤Ĺ":3164,"Ġà¤ħà¤¨à¤ľ":3165,"à¤īà¤§à¤°":3166,"Ġà¤Ĩà¤Īà¤ª":3167,"Ġà¥§à¥¯":3168,"Ġà¤ħà¤«à¤¸à¤°":3169,"à¤ªà¤¹à¤ļ":3170,"64":3171,"der":3172,"Ġà¤¤à¤²à¤µ":3173,"2007":3174,"ĠGoogle":3175,"à¤¸à¤ĭ":3176,"à¤īà¤£":3177,"à¤¯à¤°à¤²":3178,"ĠHTML":3179,"ber":3180,"à¤¾âĢĿ":3181,"à¤ĩà¤ķà¤²":3182,"à¤ħà¤²à¤¬":3183,"time":3184,"ense":3185,"SA":3186,"SI":3187,"ST":3188,"Ġà¤¤à¤ªà¤¸":3189,"à¤ħà¤µà¤ķ":3190,"Ġà¤§à¤¬":3191,"Ġan":3192,"Ġà¤¬à¤°à¤ķ":3193,"Ġà¤ķà¤°à¤£":3194,"à¤ľà¤¨à¤¤":3195,"à¤¾à¥Ģ":3196,"Ġà¤¸à¤®à¤¤à¤²":3197,"à¤¶à¤ķà¤¶":3198,"à¤¸à¤¹à¤ķ":3199,"Ġà¤ĩà¤Łà¤²":3200,"à¤ħà¤¡":3201,"Ġà¥§à¥¬":3202,"90":3203,"à¤Ĺà¤¬":3204,"à¤ľà¤¬à¤°":3205,"Ġà¤īà¤ªà¤µ":3206,"Ġà¤®à¤µ":3207,"à¤Ľà¤ª":3208,"Ġà¤īà¤ªà¤Ĺà¤¤":3209,"à¤°à¤ļà¤²à¤¨":3210,"av":3211,"à¤¤à¤¸à¤°":3212,"à¤¾)à¥¤":3213,"à¤Ĩà¤°à¤¡":3214,"à¤Ĩà¤Īà¤ĵà¤ıà¤¸":3215,"ak":3216,"à¤ľà¤¡":3217,"à¤¥à¤ª":3218,"à¤Ķà¤·à¤§":3219,"ock":3220,"à¤ķà¤ľ":3221,"Ġà¤¹à¤ł":3222,"one":3223,"à¤ĳà¤¸":3224,"à¤²à¤Ĺà¤¤":3225,"Ġà¤ħà¤§à¤°":3226,"à¤¯à¤µà¤¶":3227,"à¤ıà¤¨à¤ª":3228,"hel":3229,"à¤¤à¤®à¤ķ":3230,"à¤ªà¤ħà¤ª":3231,"Ġà¤Ĺà¤§":3232,"Ġ43":3233,"ue":3234,"Ġï¿½":3235,"à¤Ĺà¤¹":3236,"à¤ĸà¤®":3237,"Ġ55":3238,"ite":3239,"ary":3240,"Ġà¤ķà¤ľ":3241,"à¤Ńà¤¤":3242,"Ġà¤¬à¤¢à¤¤":3243,"Ġà¤¬à¤¸à¤µ":3244,"Ġ1957":3245,"Ġtranslate":3246,"%)":3247,"na":3248,"à¤ķà¤Łà¤µà¤°":3249,"ĠIS":3250,"ound":3251,"aoM":3252,"iz":3253,"à¤°à¤ªà¤Ł":3254,"Ġà¤ķà¤«":3255,"à¤®à¤Ľà¤²":3256,"Ġà¤¤à¤²à¤¬":3257,"à¤ľà¤¨à¤°à¤²":3258,"Ġz":3259,"à¤®à¤Ī":3260,"Ġà¤ªà¤µà¤¨":3261,"ublic":3262,"Ġà¤ıà¤®à¤ıà¤¸à¤ıà¤®à¤Ī":3263,"59":3264,"à¤īà¤Ĺ":3265,"à¤°à¤®à¤¤":3266,"icense":3267,"if":3268,"à¤«à¤¸à¤²":3269,"Ġà¤¬à¤¦à¤²à¤ķà¤°":3270,"à¤¬à¤¤à¤¦":3271,"à¤ļà¤²à¤¤":3272,"à¤¡à¤Ĺ":3273,"à¤¡à¤ĭ":3274,"à¤Ĩà¤ļ":3275,"à¥Ģà¤Ĥà¥¤\"":3276,"à¤ıà¤®à¤ª":3277,"à¥§à¥¯":3278,"ip":3279,"Ġà¤īà¤ķà¤¸":3280,"Ġà¤Ĩà¤ľà¤ķà¤²":3281,"Ġà¥§à¥¯à¥®":3282,"96":3283,"à¤¨à¤¹à¤°":3284,"à¤¬à¤Łà¤¨":3285,"à¤°à¤®à¤°":3286,"ode":3287,"à¤¾à¤¼":3288,"à¤¤à¤¬à¤²":3289,"à¤ķà¤¯":3290,"à¤ħà¤µà¤¶":3291,"à¤µà¤¨à¤ķ":3292,"Ġà¤¤à¤ª":3293,"Ġà¤Ĩà¤Ł":3294,"à¤°à¤¤à¤µ":3295,"est":3296,"859":3297,"--------":3298,"300":3299,"KC":3300,"Ġà¤§à¤®à¤¨":3301,"Â¤Â£":3302,"Ġà¤¦à¤¸à¤µ":3303,"Ġ03":3304,"Ġà¥¦à¥¦à¥¦":3305,"ma":3306,"à¤¾à¥ĩ":3307,"à¤Ĺà¤µà¤°":3308,"à¤¼à¥ĭ,":3309,"Ġà¤Łà¤²":3310,"à¤¦à¤®à¤¯":3311,"Ġ1995":3312,"Ġà¤¯à¤¨":3313,"à¤¼à¥ĩà¤Ĥ...":3314,"ĠChr":3315,"......":3316,"à¤īà¤²à¤Ł":3317,"EL":3318,"Â¤Â§":3319,"Ġà¤ĵà¤¸":3320,"Ġ1976":3321,"Ġà¤ħà¤µà¤¹":3322,"Ġà¤¦à¤¹à¤ķà¤¤":3323,"à¥ī)":3324,"ati":3325,"}'":3326,"Ġà¤ļà¤¯":3327,"à¤¾à¤Ĥà¥¤":3328,"à¤Ĩà¤¨à¤¨":3329,"à¤¸à¤°à¤¦":3330,"à¤ıà¤¸à¤ıà¤²":3331,"unit":3332,"gt":3333,"à¤ħà¤£":3334,"Ġ39":3335,"Ġ09":3336,"à¥§à¥¯à¥¯à¥":3337,"?\"":3338,"à¤¹à¤®à¤¤":3339,"à¤ľà¤¨à¤µà¤°":3340,"Ġshould":3341,"ink":3342,"Ġ1990":3343,"Ġà¤ľà¤¹à¤°":3344,"à¤ļà¤¡":3345,"Ġà¤ªà¤°à¤²":3346,".%":3347,"ĠQ":3348,"Ġà¤¶à¤¨":3349,"à¤«à¤Ł":3350,"à¤Ĩà¤ĵ":3351,"Ġà¤ĵà¤ľ":3352,"Ġà¤ħà¤ªà¤¡":3353,"SS":3354,"ure":3355,"vii":3356,"à¥¥":3357,"Ġà¤¸à¤ĺà¤¨":3358,"Ġ54":3359,"à¥ģà¥¤":3360,"à¤ıà¤¦":3361,"à¤ľà¤²à¤µ":3362,"à¤Ĩà¤ľà¤ķà¤²":3363,"à¤¼à¥ĭà¥¤":3364,"Ġà¤ĸà¤¦":3365,"à¤īà¤Łà¤²":3366,"Ġà¤ħà¤¤à¤ıà¤µ":3367,"Ġà¤µà¤ļà¤¨à¤¬à¤¦":3368,"66":3369,"à¤ªà¤²à¤¬":3370,"Ġà¤°à¤®":3371,"à¤Ĩà¤®à¤¤":3372,"ovin":3373,"Ġï¿½\\":3374,"à¤ĸà¤ĸ":3375,"Ġà¤Ĩà¤°à¤ľ":3376,"Ġà¤¬à¤²à¤°":3377,"Ġà¤Ńà¤¯à¤Ń":3378,"ĠLicense":3379,"Ġà¤ķà¤¸à¤®":3380,"à¤®à¤ļà¤°":3381,"à¤ĩà¤²à¤¨":3382,"Ġà¤ħà¤µà¤®":3383,"à¤ıà¤¨à¤ı":3384,"Ġ1971":3385,"ide":3386,"Ġà¤ļà¤¬":3387,"Ġà¤¸à¤¬à¤¨":3388,"Ġà¤¸à¤®à¤Ŀà¤ķà¤°":3389,"à¥ĭà¤ĥ":3390,"à¥Ģà¤Ĥ!":3391,"Ġ51":3392,"indows":3393,"Ġà¤¦à¤¨":3394,"à¤¥à¤¯":3395,"Ġà¤Ĩà¤®à¤¨":3396,"1947":3397,"47":3398,"à¤°à¤ķà¤°à¤£":3399,"à¤ķà¤®à¤°":3400,"à¤®à¤µà¤°":3401,"Ġ(\"":3402,"Ġà¤ĺà¤Łà¤¤":3403,"à¤°à¤¦à¤¨":3404,"à¥ĭ!\"":3405,"oft":3406,"Ġà¤īà¤¤à¤°à¤¨":3407,"à¥Ī)à¥¤":3408,"here":3409,"à¤ıà¤ļà¤Ł":3410,"Ġ245":3411,"Ġà¤¬à¤°à¤¤à¤¨":3412,"lib":3413,"à¤ľà¤°à¤¨":3414,"âĢĻ,":3415,"Ġà¤Ĳà¤²":3416,"out":3417,"à¥Ī!\"":3418,"à¤¸à¤Ĺ":3419,"Ġà¤¹à¤Łà¤¨":3420,"Ġà¤¯à¤ķà¤¤":3421,"Ġà¤¬à¤¦à¤¤à¤°":3422,"Ġ49":3423,"2002":3424,"mat":3425,"à¥ĭ/":3426,"Ġà¤¸à¤Ĺ":3427,"à¤¤à¤°à¤«":3428,"Ġà¤§à¤®":3429,"à¤µà¤¤à¤®":3430,"int":3431,"Ġ46":3432,"à¤ĭà¤°":3433,"ital":3434,"issions":3435,"8859":3436,"TTP":3437,"à¤Łà¤Ł":3438,"à¤¼à¤¾.":3439,"Â¤Âī":3440,"à¤¹à¤®à¤¦":3441,"Ġà¤²à¤¶à¤ķà¤°":3442,"Ġà¤¬à¤°à¤ķà¤¤à¤µ":3443,"à¤ķà¤ªà¤Ł":3444,"Ġà¤ħà¤Ľ":3445,"à¤§à¤ªà¤¤":3446,"à¤ķà¤²à¤ķà¤¤":3447,"à¤ªà¤¶à¤ª":3448,"Ġà¤ħà¤ł":3449,"Ġà¤īà¤¦à¤°":3450,"Ġà¤ĵà¤®":3451,"Ġà¤Ĳà¤ķ":3452,"EAD":3453,"à¤¸à¤¨à¤ķ":3454,"Ġà¤®à¤¯":3455,"à¤ľà¤ķà¤¤":3456,"à¤·à¤ĭ":3457,"à¤ĵà¤²":3458,"Ġ\"{":3459,"à¥Īà¤ĥ-":3460,"Ġà¥¨à¥«":3461,"istan":3462,"Ġà¤¶à¤¯":3463,"Ġ56":3464,"lay":3465,"Ġà¤¨à¤«à¤°à¤¤":3466,"87":3467,"Ġ\\":3468,"à¤°à¤Ł":3469,"à¤ıà¤Ĩà¤°":3470,"à¤¥à¤Ĺà¤¨":3471,"Ġà¤ĸà¤Ł":3472,"à¤Ľà¤°":3473,"escrip":3474,"Ġ1951":3475,"Ġ1970":3476,"Ġ1972":3477,"OL":3478,"à¥Ĥà¤Ĥ?":3479,"Ġà¤Ĩà¤Ĺà¤®":3480,"Ġà¥¯":3481,"à¥§à¥§":3482,"à¤¿à¤¼":3483,"à¥ĩà¤Ĥ/":3484,"à¤¥à¤¸":3485,"à¤Ľà¤¦":3486,"à¤ħà¤¥à¤µ":3487,"à¤łà¤®":3488,"à¤ķà¤²à¤ķà¤°":3489,"à¤®à¤ķà¤¥":3490,"Ġ1930":3491,"Ġà¤Ĳà¤¬":3492,"à¤ĳà¤ªà¤°":3493,"Ġà¤ªà¤²à¤Łà¤¨":3494,"95":3495,"DU":3496,"PRO":3497,"à¤ķà¤¹à¤¨":3498,"Ġà¤ĺà¤¨à¤¤":3499,"Ġà¤Ŀà¤Łà¤ķ":3500,"Ġ04":3501,"lex":3502,"âĢĿ,":3503,"ĠHEAD":3504,"rou":3505,"à¤¤à¤¨à¤¶":3506,"ĠChrome":3507,"ps":3508,"Í¾":3509,"Ġà¤ĸà¤Ĺ":3510,"Ġà¤ħà¤¨à¤§":3511,"à¤īà¤¥":3512,"Ġà¤¸à¤°à¤Ĺ":3513,"à¤·à¤¯à¤£":3514,"88":3515,"à¤¬à¤²à¤¤":3516,"à¤¤à¤°à¤«à¤²à¤ķ":3517,"Ġà¤ľà¤¨à¤Ĺà¤£à¤¨":3518,"Ġ400":3519,"1956":3520,"UT":3521,"Ġà¤ªà¤¹à¤°":3522,"à¤¯à¤®à¤¶":3523,"Ġà¤īà¤łà¤ķà¤°":3524,"Ġà¤ĳà¤¬":3525,"ice":3526,"Ġ1952":3527,"Ġ250":3528,"Ġ1974":3529,"Ġev":3530,"Short":3531,"Ġà¤ķà¤Ľ":3532,"à¤¦à¤£":3533,"à¤¹à¤°à¤ħà¤²":3534,"à¤ªà¤ķà¤¨":3535,"Ġà¤¨à¤µà¤ľ":3536,"Ġ1985":3537,"Ġà¤Ĺà¤łà¤¬":3538,"escription":3539,"ution":3540,"à¤¤à¤«":3541,"Ġà¤ªà¤Ľà¤¤":3542,"à¤·à¤¨":3543,"Ġà¤Ĩà¤Ĭ":3544,"âĢ¦":3545,"Ġà¤ªà¤¹à¤¨à¤¨":3546,"à¤Ĳà¤¬":3547,"à¤¯à¤¸à¤Ń":3548,"Ġà¤ªà¤²à¤Łà¤ķà¤°":3549,"Ġ1989":3550,"Ġex":3551,"Ġà¤Ńà¤Łà¤ķà¤¤":3552,"ep":3553,"ix":3554,"Ġà¤®à¤¥":3555,"à¤¼à¤¼à¥ģ":3556,"Ġà¤¥à¤°":3557,"à¤Ĩà¤Īà¤ı":3558,"2009":3559,"Ġ1946":3560,"Ġ1949":3561,"ult":3562,"à¤°à¤ĺ":3563,"à¥į)":3564,"à¤¸à¤¹à¤¨":3565,"Ġà¤ħà¤ľà¤¨":3566,"Ġà¤ĳà¤ª":3567,"Ġà¤²à¤¡à¤ķ":3568,"à¤·à¤¤à¤¯":3569,"à¥§à¥¯à¥Ń":3570,"à¥Ģ%":3571,"à¥ģ)":3572,"à¤Ĩà¤ªà¤¸":3573,"ant":3574,"all":3575,"Ġ:-":3576,"Ġà¤¸à¤¡à¤ķ":3577,"97":3578,"à¤²à¤®à¤¨":3579,"à¤īà¤§":3580,"Ġà¤¤à¤°à¤ľ":3581,"Ġà¤łà¤¨":3582,"ateg":3583,"Serv":3584,"à¤¨à¤ľà¤°":3585,"à¤ľà¤ķà¤°":3586,"à¤Łà¤¤à¤®":3587,"Ġà¤°à¤£":3588,"à¤ĩà¤Ĺ":3589,"Ġà¥§à¥Ń":3590,"eneral":3591,"57":3592,"67":3593,"In":3594,"SE":3595,"ace":3596,"mb":3597,"à¤¨à¤¤à¤¦":3598,"à¥Ĥà¤ģ)":3599,"Ġtranslated":3600,"IP":3601,"à¤¹à¤«":3602,"à¤ķà¤°EMAIL":3603,"à¤¤à¤¨à¤®":3604,"Ġà¤¬à¤¤à¤²":3605,"à¤®à¤ľà¤¦":3606,"à¤Ńà¤µà¤¤à¤¯":3607,"à¤ħà¤Ĺà¤¸":3608,"à¤¸à¤¦à¤¨":3609,"Ġà¤Ķà¤ªà¤¨":3610,"DE":3611,"Ġà¤¤à¤¡":3612,"à¤§à¤¨à¤¤":3613,"Ġà¤ıà¤ķà¤°":3614,"à¤°à¤ķà¤Łà¤¨":3615,"Ġà¤īà¤ªà¤®":3616,"Ġà¤ĺà¤¸":3617,"Ġà¤ħà¤¸à¤¹à¤®à¤¤":3618,"ear":3619,"Ġà¤Ńà¤¦":3620,"à¤°à¤®à¤ķ":3621,"Ġà¥ŀ":3622,"Ġ*.":3623,"Lex":3624,"à¤¾à¤Ĥ-":3625,"à¤°à¤µà¤¤":3626,"Ġà¤Ĳà¤¶":3627,"à¤ıà¤¨à¤Ĩà¤°":3628,"89":3629,"à¤ļà¤®à¤ķ":3630,"à¤ķà¤°à¤ĺ":3631,"à¤ĩà¤¨à¤ª":3632,"2005":3633,"cc":3634,"kt":3635,"ror":3636,"à¤¤à¤Ł":3637,"Ġà¤²à¤Ł":3638,"à¤ĩà¤ļ":3639,"Ġ05":3640,"Ġ120":3641,"à¤¥à¤¡":3642,"Ġà¤«à¤²à¤¨":3643,"à¤Ķà¤°à¤¤":3644,"Â¤ÂĽ":3645,"Ġà¤Ĳà¤¨":3646,"65":3647,"à¤¸City":3648,"à¤¼à¥°":3649,"à¤ģà¤ĥ":3650,"à¤²à¤¤à¤®":3651,"Ġ1960":3652,"ill":3653,"Ġà¤Ĩà¤«à¤¤":3654,"rib":3655,"NT":3656,"Uri":3657,"Ġ|":3658,"à¤ĸà¤²à¤¨":3659,"Ġà¤ĩà¤¬à¤²":3660,"à¤ĩà¤¦":3661,"à¤īà¤ł":3662,"à¤°à¤¸à¤¤":3663,"à¤ķà¤Łà¤¤à¤®":3664,"à¤Łà¤²à¤°":3665,"ith":3666,"africa":3667,"DUCT":3668,"LexUri":3669,"LexUriServ":3670,"Cal":3671,"ha":3672,"à¥ĩ...":3673,"Ġà¤ľà¤®à¤¨":3674,"à¤ľà¤Ł":3675,"Ġà¤¬à¥ľ":3676,"à¤¶à¤Ń":3677,"Ġà¤ªà¤°à¤ĸ":3678,"à¤Īà¤ļ":3679,"à¤ħà¤²à¤¬à¤¤":3680,"VD":3681,"à¤¿'":3682,"Ġà¤īà¤Ľ":3683,"à¤¬à¤¹à¤¨":3684,"à¤Łà¤¡":3685,"à¤ĩà¤¡à¤°":3686,"à¤ĺà¤®":3687,"à¤Ĩà¤Īà¤¬":3688,"Ġà¤ĸà¤°à¤Ĺ":3689,"Ġ64":3690,"ĠÂ·":3691,"uer":3692,"à¤Ĩà¤°à¤ķ":3693,"iver":3694,"to":3695,"Ġà¤®à¤ķà¤¸":3696,"à¤Ĺà¤«à¤²":3697,"à¤£à¤ķà¤Ł":3698,"à¤ĵà¤®":3699,"Ġà¤¤à¤¬à¤ķ":3700,"à¤¯à¤µà¤§":3701,"Ġà¤īà¤²à¤Ŀà¤¨":3702,"à¤¨City":3703,"Ġà¤¨à¤ª":3704,"à¤ıà¤¨à¤ķ":3705,"à¤ĸà¤Ĺ":3706,"à¤ķà¤°à¤®":3707,"âĢľ%":3708,"à¤°à¤£à¤¤à¤¯":3709,"à¤Ŀà¤¨":3710,"Ġ52":3711,"ook":3712,"à¤ķà¤°à¤¤":3713,"à¤®à¤ªà¤¤":3714,"à¤Ĺà¤Ĺ":3715,"à¤Ĺà¤ĩà¤¨":3716,"à¤°à¤¹à¤¨":3717,"à¤¦à¤°à¤ĸ":3718,"à¤¬à¤¸à¤µ":3719,"ĠGNU":3720,"sy":3721,"à¤¸à¤¤à¤¨":3722,"à¥ĩà¤Ĥ!":3723,"à¤Īà¤ıà¤¸":3724,"à¤ĩà¤ªà¤°":3725,"à¤°à¤¦à¤¯":3726,"à¤ĳà¤«à¤²":3727,"Ġà¤ķà¤¸à¤°à¤¤":3728,"Ġà¤ıà¤¡à¤µ":3729,"à¤ĩà¤¸à¤ªà¤°":3730,"Ġà¤ĺà¤£":3731,"à¤ľà¤°à¤²":3732,"à¤ıà¤®à¤Ł":3733,"ĠCon":3734,"2006":3735,"Ġuse":3736,"ategory":3737,"IM":3738,"Ġà¤¹à¤¸à¤¨":3739,"à¤ıà¤ķà¤¤":3740,"à¤¡à¤¬à¤²":3741,"à¤¤à¤°à¤ľ":3742,"à¤ĵà¤¨":3743,"à¤Ĺà¤¤à¤¤":3744,"urop":3745,"INK":3746,"43":3747,"à¤°à¤ľà¤¨":3748,"à¤²à¤¹à¤°":3749,"Ġà¤ĩà¤¦":3750,"à¤ĵà¤¹":3751,"à¤¯à¤¤à¤®":3752,"à¤ĩà¤Łà¤®":3753,"2010":3754,"Ġ85":3755,"........":3756,"Ġ)":3757,"à¤µà¤¸à¤®":3758,"Ġà¤Ĩà¤²à¤®":3759,"à¤µà¤°à¤®":3760,"à¤µà¤²à¤ªà¤°":3761,"Ġ72":3762,"Ġgnome":3763,"tor":3764,"à¤¸à¤ķà¤¤":3765,"à¥Īà¤Ĥ...":3766,"à¤Ĩà¤Ĺà¤°":3767,"Ġà¤Īà¤ķ":3768,"Ġà¤Ĩà¤ķà¤¡":3769,"menu":3770,"2008":3771,"à¥Ģ?\"":3772,"roup":3773,"mail":3774,"sh":3775,"Ġle":3776,"à¤¿\"":3777,"à¤®à¤Ń":3778,"star":3779,"Ġ1973":3780,"ive":3781,"Ġà¤¤à¤«à¤¸":3782,"ermissions":3783,"42":3784,"ghan":3785,"à¤ģà¥¤\"":3786,"Ġà¤īà¤²à¤«":3787,"à¤¾!\"":3788,"list":3789,"à¤¯à¤ľà¤²":3790,"Ġà¤¨à¤µà¤¯":3791,"Ġà¤ļà¤¹à¤°":3792,"à¤Ĩà¤¯à¤¤":3793,"til":3794,"Ġ41":3795,"49":3796,"ction":3797,"ey":3798,"à¤ľà¤¯à¤¨":3799,"à¤¤à¤°à¤µà¤°":3800,"à¤¢à¤ķ":3801,"Ġà¤ĵà¤Ł":3802,"à¤¨à¤µà¤ľ":3803,"key":3804,"SION":3805,"à¤¤à¤ķà¤²":3806,"à¤ªà¤ķà¤¤":3807,"à¤ļà¤Ł":3808,"à¤Ŀà¤®":3809,"à¤īà¤¸à¤ªà¤°":3810,"Ġà¥§à¥ª":3811,"à¤¹à¤Łà¤ķà¤°":3812,"ghanistan":3813,"46":3814,"à¤¯à¤°à¤µ":3815,"à¥ĪâĢĿ":3816,"à¤Ĺà¤®à¤¤":3817,"à¥ĭà¤Ĥ;":3818,"Ġà¤Ĺà¤°à¤¦à¤¨":3819,"à¤ıà¤¸à¤ª":3820,"ath":3821,"Ġà¥¨à¥¦à¥¦à¥®":3822,"amp":3823,"italy":3824,"58":3825,"Anjuta":3826,"ware":3827,"à¤°à¤¡":3828,"Ġà¤Ľà¤¨":3829,"à¤¸à¤¹à¤¯":3830,"1999":3831,"PRODUCT":3832,"77":3833,"Ġra":3834,"Ġà¤Ĥ":3835,"Ġà¤īà¤¥à¤²":3836,"à¤łà¤¶":3837,"oftware":3838,"Count":3839,"St":3840,"zil":3841,"à¤¤à¤ĺ":3842,"Ġà¤ħà¤¥à¤ķ":3843,"à¤Łà¤¯":3844,"Ġà¤ľà¤¨à¤¶à¤ķ":3845,"à¤ıà¤¸à¤ı":3846,"enef":3847,"atus":3848,"à¤®à¤ķà¤°":3849,"Ġà¤®à¤ķà¤°":3850,"à¤ĸà¤¬à¤°":3851,"Ġà¤¶à¤µ":3852,"Ġà¤īà¤ªà¤®à¤¹":3853,"Ġà¤ħà¤µà¤¤à¤°à¤£":3854,"à¤ķà¤²à¤ķ":3855,"Ġà¤ħà¤ķà¤¸à¤°":3856,"AL":3857,"Ġ\\\\":3858,"Ġà¤¹à¤¬":3859,"à¥ĩà¤Ĥ:":3860,"à¤ĵà¤¬":3861,"à¤¤à¤¨à¤ª":3862,"à¤µà¤²à¤ªà¤®":3863,"Ġà¤ħà¤ļà¤²":3864,"Ġ74":3865,"à¤Ķà¤¸à¤¤":3866,"Ġà¤Ĺà¤£à¤®":3867,"Ġ1994":3868,"ĠII":3869,"Ġà¥©à¥¦":3870,"enefit":3871,"à¤ĵà¤µà¤°":3872,"à¤¢à¤¤":3873,"Ġà¤īà¤ļà¤ķ":3874,"à¤ıà¤¸à¤¬":3875,"state":3876,"afghanistan":3877,"-%":3878,"68":3879,"à¤®à¤ı":3880,"à¤¹à¤¥":3881,"à¤ĩà¤®à¤°":3882,"à¤ħà¤µà¤²":3883,"à¤¾à¤ģà¥¤":3884,"à¤°à¤®à¤¬à¤¦":3885,"Ġà¤Ĩà¤µà¤§":3886,"Ġâĺ»âĺ»":3887,"à¤°à¤ªà¤°":3888,"à¤¿âĢį":3889,"à¤¤à¤¡":3890,"Ġà¤¥à¤²":3891,"à¤Ĺà¤®à¤°à¤®à¤°":3892,"red":3893,"\")":3894,"41":3895,"51":3896,"CC":3897,"HTML":3898,"ord":3899,"Ġà¤®à¤¸à¤ĸ":3900,"Ġ1963":3901,"ĠPublic":3902,"Ġ1984":3903,"Ġ139":3904,"à¤ıà¤ļà¤ª":3905,"à¤¬à¤ľà¤Ł":3906,"ISO":3907,"Ġmenu":3908,"lo":3909,"à¥ĩ\"":3910,"à¤Ĺà¤Ń":3911,"Ġà¤ħà¤¹à¤¦":3912,"à¤¬à¤Ĺà¤°":3913,"Ġà¤Ńà¤°à¤£":3914,"Ġà¤¸à¤®à¤ľ":3915,"à¤¦à¤¨à¤ªà¤¤":3916,"à¤Łà¤ķà¤ķ":3917,"à¤Ĩà¤°à¤ıà¤¸":3918,"à¥§à¥¯à¥®":3919,"à¤¬à¤ķà¤°":3920,"Ġà¤Ńà¤Ĺà¤µà¤¤":3921,"Ġà¥§à¥©":3922,"older":3923,"->":3924,"ake":3925,"dr":3926,"ts":3927,"à¤¸à¤¬à¤°":3928,"à¤§à¤¶":3929,"Ġà¤¡à¤Ł":3930,"âĢĭ":3931,"Ġmon":3932,"à¥Ī:-":3933,"per":3934,"à¤¸à¤«à¤°":3935,"à¤Ĺà¤Ł":3936,"à¤¶à¤Ńà¤°":3937,"à¤¸à¤¨à¤²":3938,"lect":3939,"2004":3940,"ĠGeneral":3941,"ual":3942,"à¤ķà¤Ĺà¤£":3943,"à¥ĩà¤Ĥ\"":3944,"Ġà¤¶à¤¹à¤¦":3945,"à¤¾à¥¤-":3946,"ance":3947,"Ġ66":3948,"Ġ07":3949,"oll":3950,"52":3951,"The":3952,"ost":3953,"Ġla":3954,"à¤¦à¤ķà¤°":3955,"à¤ģ)":3956,"Ġà¤ħà¤ªà¤µà¤°":3957,"à¤°à¤®à¤£à¤ķ":3958,"Ġ1962":3959,"Ġ1975":3960,"Ġbutton":3961,"Ġà¤ħà¤ľà¤¨à¤¬":3962,"Ġà¤®à¤ķà¤¸à¤¦":3963,"*.":3964,"78":3965,"à¤Łà¤ªà¤Ł":3966,"à¤Ńà¤°à¤£":3967,"Ġà¤ľà¤¨à¤¹":3968,"ana":3969,"Ġà¤ķà¤µà¤ļ":3970,"à¤ħà¤ªà¤µ":3971,"Ġà¥§à¥¯à¥Ń":3972,"à¤°à¤Ľ":3973,"à¤ļà¤ª":3974,"à¤ħà¤¨à¤¨":3975,"Ġ53":3976,"ram":3977,"Ġ${":3978,"98":3979,"à¤¦à¤¡":3980,"Ġà¤°à¤®à¤£":3981,"Ġà¤ıà¤ķà¤¸":3982,"à¤°à¤£à¤¤":3983,"à¤¯à¤²à¤Ł":3984,"Ġ1981":3985,"Ġà¤¬à¤Łà¤£":3986,"101":3987,"Ġà¤²à¤¨":3988,"à¤§à¤¸":3989,"à¤¾à¤ģ.":3990,"Ġà¤Łà¤Ł":3991,"Ġà¤¬à¤¢à¤¨":3992,"Ġà¤Ŀà¤°à¤¨":3993,"à¤¸à¤¬à¤µà¤°":3994,"ĠSt":3995,"Ġ1977":3996,"Reg":3997,"??":3998,"Ġà¤²à¤¸":3999,"à¤ıà¤¯à¤°":4000,"à¤ľà¤¨à¤ľ":4001,"Ġà¤Ĩà¤Ĺà¤µ":4002,"Ġà¥§à¥§":4003,"à¤ĳà¤°":4004,"à¤ĳà¤Ł":4005,"Ġcol":4006,"ĠIn":4007,"Ġ1965":4008,"Ġfile":4009,"aj":4010,"lock":4011,"à¤¿âĢĻ":4012,"à¥Ģ...":4013,"Ġà¤ľà¤¨à¤®à¤¤":4014,"Ġ1955":4015,"56":4016,"util":4017,"à¤µà¤²à¤¨":4018,"Ġà¤īà¤®à¤°":4019,")]":4020,"yahoo":4021,"à¤µà¤Ńà¤°":4022,"Ġà¤ĵà¤¢":4023,"Ġà¤¬à¤¦à¤ļà¤²à¤¨":4024,"à¥ĩà¤Ĥà¥¤\"":4025,"Ġà¤ĳà¤¯à¤²":4026,"à¤¨à¤¦à¤£":4027,"ass":4028,",âĢĵ":4029,".,":4030,"92":4031,"ire":4032,"Ġà¤ķà¤Łà¤ķ":4033,"à¤¸à¤«à¤²":4034,"à¤²à¤¹à¤¨":4035,"à¤¼à¥¤":4036,"Ġà¤ªà¤°à¤¶":4037,"Ġà¤¸à¤¬à¤®":4038,"à¤µà¤²à¤°":4039,"Ġ1908":4040,"Ġà¤¬à¤²à¤µ":4041,"ols":4042,"à¥Īà¤Ĥà¤ĥ-":4043,"usa":4044,"à¤¬à¤¦à¤°":4045,"à¤Ĩà¤µà¤°":4046,"à¤¾,)":4047,"Ġà¥Ľ":4048,"Ġà¤ªà¤¦à¤ļ":4049,"Ġà¤Ĳà¤ª":4050,"Ġint":4051,"Ġà¤īà¤Ńà¤°à¤¨":4052,"help":4053,"600":4054,"ud":4055,"à¤Ńà¤Ł":4056,"à¤īà¤·":4057,"à¤®à¤¨à¤¸":4058,"à¥Ī),":4059,"à¤ıà¤¨à¤ľ":4060,"Ġ1945":4061,"Ġ1978":4062,"Ġà¥¨à¥¦à¥¦à¥Ń":4063,"\".":4064,"à¥ĩà¤¼":4065,"à¤ıà¤Łà¤²":4066,"à¤¥à¤²à¤Ĺ":4067,"Ġà¤ļà¤ª":4068,"à¤ħà¤°à¤µ":4069,"Ġà¤īà¤¦à¤ĺ":4070,"à¥Ī--":4071,"2003":4072,"à¤¸à¤«à¤²à¤¤":4073,"à¤°à¤¹à¤°":4074,"à¤¯à¤¸à¤°":4075,"à¤¯à¤¬à¤²":4076,"Ġà¤Ĺà¤ªà¤¶à¤ª":4077,"Ġà¤īà¤¨à¤¹":4078,"à¤ħà¤¹à¤²":4079,"à¤īà¤¡à¤°":4080,"à¤¦à¤°à¤²":4081,"Ġà¤ļà¤²à¤ļ":4082,"eeting":4083,"Ġà¤Ńà¤µà¤Ń":4084,"API":4085,"Ġà¤ıà¤¯à¤°à¤²":4086,"CD":4087,"New":4088,"à¤ľà¤¯à¤ª":4089,"à¤°à¤¬à¤ĸ":4090,"Ġà¤Ĩà¤Īà¤Ĩà¤Īà¤Ł":4091,"à¤ľà¤Ĺà¤¹":4092,"Ġà¤ļà¤®à¤ķà¤¦":4093,"à¤¤à¤µà¤°":4094,"à¤¯à¤£à¤¤":4095,"à¤ªà¤ļà¤¯":4096,"Ġà¤ľà¤¸":4097,"Ġà¤Ĩà¤ĵà¤Ĺ":4098,"à¤ĸà¤ª":4099,"à¤Ńà¤Ĺà¤¤":4100,"à¤«à¤¸":4101,"Ġà¤ĸà¤¯":4102,"à¤Ĩà¤¦à¤°":4103,"Ġtype":4104,"ĠServ":4105,".-":4106,"62":4107,"72":4108,"91":4109,"SSL":4110,"à¤¨à¤ĸ":4111,"à¤ķà¤ĸ":4112,"à¤ķà¤«":4113,"à¤ķCity":4114,"Ġà¤ħà¤ľà¤¬":4115,"à¤ģ...":4116,"à¤łà¤µ":4117,"Ġà¤ħà¤ªà¤¹à¤°à¤£":4118,"Ġ58":4119,"Ġà¤ķà¤łà¤ª":4120,"Ġko":4121,"ack":4122,"com":4123,"à¤®à¤¹à¤°":4124,"Ġà¤¬à¤¸à¤¨":4125,"Ġà¤¬à¤«à¤°":4126,"Ġà¤ªà¤°à¤ķ":4127,"Ġà¤ħà¤¨à¤¸":4128,"Ġà¤ħà¤¨à¤µà¤°à¤¤":4129,"Ġà¤¡à¤¬à¤²":4130,"à¤Ĳà¤¤":4131,"à¤Ĩà¤¯à¤ķà¤°":4132,"à¤ħà¤«à¤¸":4133,"SC":4134,"Ġà¤¸à¤°à¤¤":4135,"à¤²à¤ķà¤¤":4136,"Ġà¤ıà¤¨à¤¸":4137,"à¤ħà¤Łà¤²":4138,"à¤¤à¤°à¤¨":4139,"à¤¤à¤°à¤ª":4140,"Ġsec":4141,"Ġ1920":4142,"à¥«à¥¦":4143,"EG":4144,"Ġà¤°à¤¶":4145,"à¤¾à¤Ĥ/":4146,"à¤ħà¤¸à¤®à¤°":4147,"à¤ªà¤°à¤²":4148,"à¤°à¤®à¤¸":4149,"à¤¨à¤®à¤¯":4150,"à¤Ĩà¤Īà¤ıà¤«":4151,"ĠPOP":4152,"Ġ1942":4153,"Country":4154,"))":4155,"à¤¤à¤ľà¤¨":4156,"à¤ķà¤ªà¤¡":4157,"Ġà¤¨à¤®à¤¨":4158,"Ġà¤¯à¤¶":4159,"Ġà¤¶à¤®":4160,"Ġà¤¶à¤«":4161,"à¤°à¤ķà¤®":4162,"à¤µà¤°à¤¨":4163,"Ġà¤Ķà¤¸à¤¤à¤¨":4164,"Ġ59":4165,"Ġ68":4166,"Ġ1939":4167,"Ġcont":4168,"LDAP":4169,"à¤¤à¤Ĺà¤¤":4170,"à¤ķà¤µà¤°":4171,"Ġà¤®à¤Ł":4172,"à¤¼.":4173,"Ġà¤ķà¤°à¤¦":4174,"Ġà¤ħà¤¨à¤Ĺ":4175,"Ġare":4176,"Ġli":4177,"ational":4178,"OME":4179,"à¥ĩ'":4180,"Ġà¤¸à¤§":4181,"Ġà¤ĩà¤®à¤°":4182,"à¤Łà¤¨à¤°":4183,"à¤¾--":4184,"à¤Ĩà¤Īà¤Ĩà¤°":4185,"Ġà¤ªà¤¢à¤¨":4186,"Ġ92":4187,"Ġà¥¨à¥¨":4188,"à¥©à¥¦":4189,"à¤¸à¤ľà¤¦":4190,"54":4191,"ro":4192,"à¤¦à¤°à¤ľ":4193,"Ġà¥¯à¥":4194,"ĠâĢĺ%":4195,"heck":4196,"Ġ1954":4197,"tring":4198,"à¤ıà¤®à¤ıà¤¸à¤ıà¤®à¤Ī":4199,"à¤¬à¤¹à¤°à¤¹":4200,"fic":4201,"Ġà¤ķà¤Ĺ":4202,"à¤¨à¤°à¤¸":4203,"à¥Ģ''":4204,"Ġà¤ªà¤²à¤ķ":4205,"à¤ªà¤Ĺ":4206,"Ġà¤ľà¤Ĺà¤®à¤Ĺ":4207,"à¤¼à¥ĩà¤Ĥ.":4208,"Ġà¤²à¤ĸ":4209,"à¤ĩà¤Łà¤°":4210,"à¤µà¤°à¤¯":4211,"Ġà¤ĭà¤£à¤¦":4212,"Ġà¤ªà¤²à¤Łà¤¤":4213,"Ġ1935":4214,"Ġmonth":4215,"%.":4216,"73":4217,"ET":4218,"ph":4219,"Ġà¤¿":4220,"à¤°à¤®à¤¨":4221,"à¤¨à¤¤à¤µ":4222,"Ġ600":4223,"à¤ħà¤Ĺà¤°à¤ļ":4224,"Ġà¥«à¥¦":4225,"Ġà¤¬à¤°à¤¤à¤°":4226,"Ġ1857":4227,"76":4228,"SV":4229,"Ġtime":4230,"à¤®à¤«":4231,"à¤ªà¤ľ":4232,"à¤ĩà¤ªà¤²":4233,"à¤µà¤°à¤µ":4234,"à¤īà¤ľà¤°":4235,"Â¤Âĥ":4236,"Ġà¤ĵà¤¹":4237,"à¤¦à¤°à¤µ":4238,"Ġà¤®à¤¦à¤¯à¤¨":4239,"ĠLINK":4240,"à¤¬à¤°à¤®":4241,"à¤ıà¤Łà¤°":4242,"à¤Īà¤ıà¤«":4243,"à¤Łà¤°à¤²":4244,"à¤°à¤µà¤ķ":4245,"à¤Ĭà¤¨":4246,"ents":4247,"word":4248,"à¤µà¤¶à¤ķ":4249,"Ġà¤¤à¤°à¤¸":4250,"Ġà¤¤à¤¹à¤¸":4251,"à¤µà¤°à¤ķà¤°":4252,"à¤ħà¤ªà¤®":4253,"Ġ06":4254,"à¤«à¤°à¤µà¤°":4255,"Ġà¥§à¥¯à¥ª":4256,"gui":4257,"ces":4258,"à¤°à¤ĸà¤°":4259,"à¥Ĥà¥¤":4260,"à¤¬à¤ª":4261,"Ġà¤°à¤ªà¤Ł":4262,"Ġà¤ĩà¤¥":4263,"à¤Ľà¤¹":4264,"à¤ħà¤ł":4265,"Ġà¤¬à¤¨à¤°":4266,"Ġ`%":4267,"53":4268,"`%":4269,"mage":4270,"Ġà¤ķà¤¯":4271,"à¤Ĺà¤®à¤°":4272,"à¤£à¤¦":4273,"à¤ĸà¤ľ":4274,"à¤°à¤®à¤¯":4275,"Ġà¤ħà¤¸à¤«":4276,"Ġas":4277,"Ġ:âĢĵ":4278,"à¤ıà¤«à¤ª":4279,"Ġ1967":4280,"à¤®à¤¶à¤°à¤£":4281,"ategoryName":4282,"MIME":4283,"ian":4284,"à¥Ģ]":4285,"à¤µà¤µà¤¤":4286,"Ġà¤Ĩà¤ĩà¤Łà¤®":4287,"Ġà¤ļà¤ĸà¤¨":4288,"à¤ĵà¤µ":4289,"ties":4290,"Ġà¤¬à¤°à¤Ĺ":4291,"à¥Ĭà¤Ĥ":4292,"Ġà¤Ńà¤Łà¤ķà¤¨":4293,"à¤ķà¤¸à¤®":4294,"à¤Ĩà¤«":4295,"à¤ĵà¤Ł":4296,"esh":4297,"Ġdist":4298,"Ġà¤®à¤¶à¤¹":4299,"Ġinlist":4300,"Ġà¥¨à¥¦à¥¦à¥¬":4301,"Ġ1931":4302,"ersion":4303,"à¥Ģà¥°":4304,"Ġà¤®à¤¦à¤¨":4305,"Ġà¤ħà¤²à¤µ":4306,"Ġà¤ħà¤²à¤®à¤¸":4307,"à¤µà¤¯à¤¸":4308,"eek":4309,"à¤ĳà¤ª":4310,"Ġà¤ıà¤ļà¤ª":4311,"ĠWindows":4312,"Ġitem":4313,"à¤ľà¤¯à¤¨à¤Ĺà¤°":4314,"à¤¾à¥ħ":4315,"Ġà¤¹à¤°à¤®":4316,"à¤¦à¤¯à¤¤":4317,"Ġà¤ıà¤¬":4318,"Ġà¤ļà¤Łà¤°":4319,"à¤°à¤¤à¤µà¤°":4320,"Ġà¤Łà¤¹à¤¨":4321,"à¤ªà¤ķà¤¡":4322,"Ġ125":4323,"à¤ħà¤µà¤Ĺ":4324,"à¤ħà¤«à¤Ĺ":4325,"Ġinlistbox":4326,"CH":4327,"CategoryName":4328,"à¤²à¤¹à¤µ":4329,"à¤ļà¤¹":4330,"Ġà¤Īà¤§à¤¨":4331,"à¤¦à¤°à¤¬":4332,"ĠâĢĭ":4333,"ĠCD":4334,"Ġ269":4335,"ĠYou":4336,"ama":4337,"ERSION":4338,"Ġstatus":4339,"DA":4340,"à¤®à¤²à¤¤":4341,"Ġà¤®à¤Ľ":4342,"Ġà¤°à¤ĸà¤µ":4343,"ond":4344,"Ġà¤¹à¤²à¤ļà¤²":4345,"à¤īà¤ªà¤ļ":4346,"Ġ1966":4347,"Ġ1938":4348,"own":4349,"ĠâĢĭâĢĭ":4350,"GE":4351,"cut":4352,"rom":4353,"à¤¤à¤ļà¤°":4354,"Ġà¤®à¤¶à¤ķ":4355,"à¤Īà¤ı":4356,"à¤Ĺà¤°à¤ª":4357,"Ġà¤ĵà¤ķ":4358,"provin":4359,"Ġà¤Ĳà¤µà¤ľ":4360,"à¤ĭà¤¦":4361,"à¤ıà¤¨à¤Ĩà¤Īà¤ĵà¤ıà¤¸":4362,"ART":4363,"italyprovin":4364,"italyprovince":4365,"\"{":4366,"Ġâ":4367,"à¤Ĥ;":4368,"Ġà¤ªà¤Ĺà¤¡":4369,"Ġà¤ħà¤¦à¤®":4370,"Ġà¤¤à¤¶":4371,"Ġà¤²à¤¬":4372,"à¤ĩà¤¥":4373,"à¤ĵà¤ķ":4374,"Ġà¤īà¤¦à¤¯à¤ª":4375,"Ġà¤¸à¤®à¤¯à¤¬à¤¦":4376,"Ġsa":4377,"Â¥Âĥ":4378,"tive":4379,"à¤ıà¤¸à¤ĵ":4380,"ania":4381,"Ġà¤¤à¤Łà¤¸":4382,"93":4383,"Ġà¤ħà¤¸à¤¨":4384,"Ġà¤¨à¤¸à¤°":4385,"à¤Łà¤¦":4386,"à¤¡à¤¶":4387,"Â¤Â¢":4388,"Ġà¤ľà¤²à¤®":4389,"à¤Ĩà¤Īà¤µ":4390,"ĠEN":4391,"Region":4392,"Ġq":4393,"à¤Ĺà¤°à¤®":4394,"à¤ľà¤ľ":4395,"Ġà¤¬à¤Ļ":4396,"Ġà¤īà¤Ĺà¤¤":4397,"Ġà¤°à¤ĺ":4398,"Ġà¤ħà¤¨à¤Ń":4399,"à¥ĩà¥¤-":4400,"à¤¸à¤°à¤¸":4401,"à¤¯à¤°à¤«":4402,"Ġnet":4403,"à¤ħà¤¸à¤«à¤²":4404,"Ġ1964":4405,"ĠThe":4406,"nicode":4407,"Ġby":4408,"#-#-#-#-#":4409,"Description":4410,"GP":4411,"Imp":4412,"à¤°à¤²à¤¯":4413,"à¤²à¤ķà¤¡":4414,"Ġà¤²à¤µà¤£":4415,"à¤Ľà¤ł":4416,"à¤Ĩà¤ªà¤°":4417,"à¤ĵà¤ªà¤¨":4418,"à¤ªà¤°à¤µà¤°":4419,"Ġà¤¤à¤ķà¤¬":4420,"à¤§à¤¨à¤°":4421,"Ġà¤Ŀà¤¡":4422,"Ġ1921":4423,"Ġ1929":4424,"ens":4425,"Ġ1969":4426,"Ġà¥§à¥¯à¥©":4427,"1992":4428,"à¤§à¤®à¤¨":4429,"Ġà¤ļà¤ªà¤Ł":4430,"à¤¾à¥¤]":4431,"à¤īà¤¬":4432,"à¤²à¤¬à¤®":4433,"Ġà¤®à¤ľà¤¹à¤¬":4434,"Ġà¥§à¥¦à¥¦":4435,"ĠVERSION":4436,"%%":4437,"74":4438,"94":4439,"MTP":4440,"Ġà¤ľà¤¯à¤¦":4441,"à¤ľà¤ĭ":4442,"ĠâĢĶ":4443,"à¤Ĺà¤²à¤ķ":4444,"Ġà¤Ńà¤°à¤ķà¤°":4445,"Ġ5000":4446,"Ġ--":4447,"Ġun":4448,")/":4449,"eg":4450,"sc":4451,"à¤İ":4452,"à¥ĩâĢĿ":4453,"à¤¿''":4454,"à¤®à¤ĺ":4455,"Ġà¤ªà¤Ļ":4456,"à¤ªà¤¸à¤®":4457,"à¤Ĺà¤²à¤ªà¤¨":4458,"Ġ63":4459,"Ġ1860":4460,"Ġcheck":4461,"KChar":4462,"CMS":4463,"aI":4464,"cent":4465,"à¤¨à¤Ń":4466,"Ġà¤ªà¤®":4467,"à¤µà¤ļà¤²":4468,"Ġà¤ħà¤°à¤¸":4469,"Ġà¤ħà¤¯à¤¸":4470,"Ġà¤²à¤ªà¤ķ":4471,"Ġà¤²à¤²à¤ķ":4472,"à¤ģà¤¾":4473,"à¤ħà¤®à¤²":4474,"à¤¯à¤¤à¤ķà¤°":4475,"Ġà¤łà¤ª":4476,"Ġà¤¢à¤¹":4477,"Ġà¤¬à¤°à¤ª":4478,"à¤ıà¤¨à¤¡":4479,"à¤ıà¤¨à¤ıà¤²":4480,"Ġà¥¨à¥¬":4481,"Ġneeds":4482,"CA":4483,"\\\"":4484,"à¥ĢâĢĿ":4485,"Ġà¤µà¤¯":4486,"à¤¥à¤ķà¤¤":4487,"Ġà¤Ĩà¤ĩà¤¨":4488,"à¤īà¤Ń":4489,"Ġà¤ĵà¤ª":4490,"à¤Ĳà¤ķ":4491,"à¤¬à¤²à¤°":4492,"Ġà¤®à¤¶à¤µà¤°":4493,"Ġhow":4494,"Ġà¤¹à¤¥à¤ķà¤°à¤ĺ":4495,"Ġrare":4496,"IMAP":4497,"up":4498,"à¤¨à¤®à¤¨":4499,"à¤®à¤²à¤¯":4500,"à¥Ī%":4501,"Ġà¤®à¤ķà¤¡":4502,"à¤¶à¤¶":4503,"à¤ıà¤£":4504,"Ġà¤°à¤ľà¤¤":4505,"à¤°à¤¹à¤¸":4506,"à¤¤à¤¨à¤Ĺà¤°":4507,"Ġà¤Ĩà¤¦à¤°à¤£":4508,"à¤ıà¤¸à¤Ĩà¤°":4509,"Ġà¤¬à¤°à¤«":4510,"eskt":4511,"Ġapp":4512,"à¤ħà¤µà¤¸à¤°":4513,"Ġ1958":4514,"ize":4515,"Ġà¤ļà¤¯à¤¨à¤ķ":4516,"Ġrarely":4517,"esktop":4518,"à¤¯à¤ľà¤¨":4519,"à¤¯à¤ļà¤°":4520,"Ġà¤ªà¤Łà¤°":4521,"à¤Īà¤¬":4522,"à¤Ĩà¤ķà¤°":4523,"à¤īà¤¤à¤°":4524,"Ġà¤®à¤¹à¤®":4525,"tip":4526,"Ġà¤ĳà¤²":4527,"Ġ88":4528,"Ġ1983":4529,"à¤¶à¤ĸà¤¬à¤°":4530,"ava":4531,"ĠISO":4532,"Ġal":4533,"à¥ĩâĢĻ":4534,"Ġà¤ķà¤µà¤ķ":4535,"à¤¨à¤¬à¤°":4536,"Ġà¤Ĩà¤ĩà¤²":4537,"à¤ģ-":4538,"Ġà¤§à¤¨à¤µ":4539,"Ġà¤Ľà¤¤à¤°":4540,"à¤Łà¤°Name":4541,"error":4542,"Ġthis":4543,"ĠFree":4544,"Ġ132":4545,"ĠLDAP":4546,"ged":4547,"à¤¾à¥ĭ":4548,"Ġà¤ľà¤²à¤¤":4549,"à¤¼à¥ĩà¤Ĥà¥¤":4550,"Ġà¤¤à¤¬à¤²":4551,"Ġà¤Ńà¤ľà¤¨":4552,"à¤Īà¤¹":4553,"à¤īà¤¦à¤°":4554,"à¤ĩà¤¸à¤µ":4555,"à¤¨à¤ķà¤²":4556,"à¤¸à¤®à¤¤":4557,"Ġà¤ħà¤¸à¤¬":4558,"Ġà¤ħà¤ľà¤®":4559,"Ġà¤ħà¤¦à¤²":4560,"Ġ800":4561,"ĠHTTP":4562,"69":4563,"AB":4564,"Permissions":4565,"à¤ķà¤Ŀ":4566,"à¤¬à¤°à¤¸":4567,"à¤ĩà¤®à¤¨":4568,"à¤ĩà¤§à¤°":4569,"à¤ħà¤µà¤¤":4570,"à¤īà¤ªà¤ķ":4571,"à¤Ĩà¤Īà¤ıà¤®":4572,"object":4573,"Ġblock":4574,"umber":4575,"Ad":4576,"à¤°à¤°à¤ķ":4577,"à¤¨à¤¸à¤¨":4578,"Ġà¤ľà¤¬à¤¡":4579,"Ġph":4580,"à¤Ĩà¤Īà¤ıà¤¸à¤ĵ":4581,"format":4582,"ĠServer":4583,"Ġà¤ķà¤ĭ":4584,"à¤ľà¤µà¤²":4585,"à¤ĩà¤Ĺà¤°":4586,"Ġà¤«à¤«":4587,"à¤¯à¤ķà¤µ":4588,"à¤¸à¤®à¤ķ":4589,"à¤®à¤¤à¤¦":4590,"Ġà¤ıà¤µà¤®":4591,"Ġà¤ĳà¤ĸ":4592,"à¤ıà¤¸à¤ıà¤®":4593,"Ġ81":4594,"Ġ1940":4595,"Ġà¥¨à¥¦à¥¦à¥«":4596,"1990":4597,"ribut":4598,"OC":4599,"ll":4600,"à¤¤à¤²à¤ķ":4601,"à¤ķà¤ĺà¤°":4602,"à¤µà¤¬":4603,"à¤¦à¤ľ":4604,"à¤ªà¤ķà¤²":4605,"Ġà¤²à¤µ":4606,"à¤ħà¤¨à¤ķ":4607,"olution":4608,"END":4609,"400":4610,"te":4611,"Ġ?":4612,"à¤¾]":4613,"à¤¸à¤¯":4614,"à¤Łà¤Ń":4615,"à¤·à¤¶":4616,"Ġà¤īà¤ªà¤¸à¤°":4617,"à¤¬à¤°à¤¨":4618,"Ġ1919":4619,"Ġà¤ıà¤µà¤ľ":4620,"Ġat":4621,"à¤¶à¤°à¤¥":4622,"select":4623,"ĠUn":4624,"à¥ĩ!\"":4625,"ader":4626,"apan":4627,"xxxx":4628,"79":4629,"pl":4630,"à¤¿âĢĵ":4631,"à¤ķà¤·":4632,"à¤ªà¤ª":4633,"à¤¤à¤°à¤¸":4634,"Ġ1922":4635,"Ġà¤¸à¤®à¤Ŀà¤µ":4636,"à¥Ī?-":4637,"à¥ħà¤Ĥ":4638,"ĠhO":4639,"Ġà¤¨à¤«à¤¸":4640,"'à¥¤":4641,"86":4642,"gov":4643,"iB":4644,"à¤Ĥà¤ĥ":4645,"Ġà¤¸à¤°à¤£":4646,"Ġà¤ªà¤Ĺ":4647,"à¤¥à¤¦":4648,"Ġà¤ļà¤ļ":4649,"Ġà¤°à¤¬à¤¡":4650,"Ġà¤ļà¤°à¤ĸ":4651,"Ġ700":4652,"Ġà¤ĳà¤«à¤¸":4653,"Ġà¤Łà¤¨à¤Ń":4654,"Ġunicode":4655,"Shortcut":4656,"Ġâĺ»âĺ»âĺ»âĺ»":4657,"KCharselect":4658,"br":4659,"pla":4660,"Ġ~":4661,"à¤ªà¤¤à¤°":4662,"à¤·à¤§à¤°":4663,"à¤īà¤Ľ":4664,"Ġsub":4665,"Ġà¤¬à¤²à¤ª":4666,"Ġà¤Ĩà¤ľà¤®":4667,"à¤Ĭà¤¤à¤ķ":4668,"ĠIMAP":4669,"Ġwh":4670,"oundation":4671,"OS":4672,"jesh":4673,"à¥ĪâĢĿà¥¤":4674,"Ġà¤Ĩà¤¸à¤ķ":4675,"Ġà¤¨à¤¹à¤²":4676,"Ġà¤ħà¤¨à¤°":4677,"Ġà¤ľà¤²à¤ª":4678,"Ġà¤¬à¤°à¤ķà¤°":4679,"Ġtar":4680,"Ġ67":4681,"ence":4682,"Ġà¤ħà¤«à¤µ":4683,"ogl":4684,"ource":4685,"DVD":4686,"à¤ķà¤ĭ":4687,"à¥ģà¥į":4688,"à¤¬à¤¦à¤¨":4689,"à¤ıà¤¨à¤ıà¤¸":4690,"reat":4691,"à¥¨à¥ª":4692,"Ġpl":4693,"Ġwar":4694,"Ġà¤ıà¤«à¤¡":4695,"à¤ıà¤ļà¤¡":4696,"à¤ľà¤Ńà¤µà¤¨":4697,"Ġà¤ħà¤¸à¤¹à¤¯":4698,"1948":4699,"61":4700,"ui":4701,"à¥įà¤¼":4702,"à¤®à¤¥":4703,"à¤®à¤ľà¤¬":4704,"Ġà¤Ĩà¤ĩà¤¸":4705,"Ġà¤ĩà¤Ł":4706,"à¤ķà¤¤à¤µà¤°":4707,"à¤ªà¤°à¤ľ":4708,"à¤ĺà¤¬à¤°":4709,"à¤¦à¤°à¤ħà¤¸à¤²":4710,"Ġà¤®à¤¨à¤¸":4711,"Ġà¤ĳà¥ŀ":4712,"à¤¸à¤¤à¤¤":4713,"à¤ĳà¤¨":4714,"Ġgroup":4715,"Ġà¤īà¤ľà¤°à¤¤":4716,"urity":4717,"Ġ1934":4718,"Ġyou":4719,"reen":4720,"yst":4721,"Ġà¤ħà¤ĺ":4722,"à¤ĩà¤ĳà¤ķ":4723,"Ġà¤Ľà¤ķ":4724,"à¤Ĺà¤°à¤ľ":4725,"Ġà¤ľà¤¬à¤°":4726,"à¤¸à¤ķà¤¨":4727,"à¥ĩ),":4728,"Ġ1928":4729,"à¤Ĳà¤²":4730,"Ġ'{":4731,"à¤ĭà¤ı":4732,"Ġ2022":4733,"Ġ99":4734,"Ġ1953":4735,"Ġ130":4736,"à¥Ĩà¥¤":4737,"gedit":4738,"82":4739,"BM":4740,"POP":4741,"name":4742,"à¤¿?":4743,"à¤¨à¤ĭ":4744,"à¤ķà¤®à¤²":4745,"Ġà¤ħà¤¶à¤ķ":4746,"à¥ĭà¤Ĥ'":4747,"à¤Łà¤°à¤¸":4748,"Ġà¤ıà¤¸à¤¸":4749,"à¤¤à¤¨à¤§":4750,"Ġà¤Ĩà¤°à¤Ł":4751,"à¤ĩà¤Łà¤²":4752,"à¤Ĩà¤Īà¤ıà¤²":4753,"Ġ57":4754,"Ġà¤¸à¤ľà¤Ĺ":4755,"ĠSoftware":4756,"à¤Łà¤¤à¤¯":4757,"ĠZà¤ķ":4758,"symb":4759,"ax":4760,"day":4761,"Ġ00":4762,"à¤¾''":4763,"à¤¤à¤ĭ":4764,"à¤ľà¤®à¤°":4765,"Ġà¤¦à¤ĸà¤²":4766,"Ġà¤Ĩà¤¹à¤¤":4767,"Ġà¤ĸà¤Łà¤ķ":4768,"à¤¾à¤ģà¤ĥ":4769,"Ġà¤¸à¤¹à¤®":4770,"Ġà¤¸à¤¹à¤ľà¤¤":4771,"à¥Ģ.)":4772,"à¤¼à¥ĭà¤Ĥ)":4773,"oper":4774,"à¥§à¥§à¥":4775,"omb":4776,"nter":4777,"Ġgt":4778,"Ġà¥§à¥¯à¥«":4779,"Ġversion":4780,"MB":4781,"lis":4782,"ÃĹ":4783,"Ġà¤£":4784,"Ġà¤ķà¤¦à¤°":4785,"à¤¯à¤°à¤®":4786,"à¤Ńà¤¡":4787,"Ġà¤«à¤²à¤¤":4788,"à¤Ĩà¤īà¤Łà¤²":4789,"à¤®à¤¤à¤²à¤¬":4790,"Ġtext":4791,"Ġ77":4792,"Ġà¤ıà¤¨à¤Ĩà¤Īà¤ĵà¤ıà¤¸":4793,"ĠCO":4794,"Ġ95":4795,"ĠInc":4796,"isc":4797,"Ġinmenu":4798,"view":4799,"symbols":4800,"ault":4801,"land":4802,"à¤ªà¤łà¤¨":4803,"Ġà¤¨à¤µà¤°":4804,"à¤·à¤°à¤£":4805,"Ġkey":4806,"Ġà¤¦à¤²à¤¦à¤²":4807,"Ġ1500":4808,"Ġ1959":4809,"ĠFoundation":4810,"84":4811,"PA":4812,"aO":4813,"à¤°à¤ł":4814,"Ġà¤¸à¤¨à¤¦":4815,"Ġà¤µà¤ĭ":4816,"Ġà¤¨à¤®à¤¸":4817,"Ġà¤¤à¤ķà¤°":4818,"à¤¡City":4819,"à¤£à¤§à¤°":4820,"à¤łà¤¯":4821,"Â¤ÂĤ.":4822,"Ġà¤īà¤ªà¤¨à¤Ĺà¤°":4823,"à¤ªà¤²à¤Ł":4824,"Ġà¤¬à¤°à¤¸à¤¤":4825,"ments":4826,"Ġlist":4827,"à¤¤à¤¹à¤ķ":4828,"à¤ľà¤Ĺà¤¤":4829,"Ġà¤īà¤ĸà¤¡":4830,"à¤Ńà¤§":4831,"Ġà¤«à¤°à¤ľ":4832,"Ġà¤ħà¤¨à¤²":4833,"Ġà¤Łà¤ķ":4834,"Ġset":4835,"à¤ıà¤®à¤¡":4836,"Ġà¤ĺà¤Łà¤ķà¤°":4837,"Ġ1968":4838,"Ġfind":4839,"Ġ1979":4840,"Ġha":4841,"à¤¬à¤ļà¤ªà¤¨":4842,"Ġ1937":4843,"ign":4844,"ĠĠĠĠ":4845,"\";":4846,"ty":4847,"à¥į.":4848,"à¤ķà¤¥à¤¨":4849,"à¤¯à¤¸à¤¨":4850,"à¤Ĺà¤²à¤¨":4851,"à¤Ĩà¤Ł":4852,"Ġà¤ħà¤ªà¤ķ":4853,"Ġà¤ľà¤Ĺà¤¦":4854,"Ġwindow":4855,"Ġ=%":4856,"urr":4857,"app":4858,"MAPI":4859,"'>>":4860,"Â°":4861,"à¤¤weather":4862,"Ġà¤®à¤¨à¤ķ":4863,"à¤Ĺà¤°à¤ķ":4864,"à¤¼à¥ĭà¤Ĥ,":4865,"à¤ķà¤²à¤®":4866,"iCal":4867,"lu":4868,"à¤¤à¤Ī":4869,"à¤¤à¤¬à¤¦":4870,"à¥ĪÍ¾":4871,"Ġà¤®à¤¢":4872,"à¥ĩà¤Ĥ'":4873,"à¤ıà¤¹à¤ķ":4874,"Ġà¤ĩà¤µ":4875,"à¤Īà¤ĵ":4876,"à¤°à¤¤à¤²":4877,"à¤ĩà¤¬à¤²":4878,"à¤Ĩà¤²à¤®":4879,"Ġà¤īà¤ªà¤²à¤ķ":4880,"Ġà¤Ĩà¤ªà¤®":4881,"Ġà¤Īà¤ľ":4882,"à¤°à¤µà¤ª":4883,"à¤¤à¤®à¤ĩà¤¨":4884,"à¤ıà¤®à¤ĵ":4885,"Ġ69":4886,"Ġà¤īà¤®à¤¡":4887,"à¥Ģà¤ĥ%":4888,"à¥¨à¥¬":4889,"Ġ117":4890,"Ġwith":4891,"Ġà¤ķà¤¤à¤Ī":4892,"à¥Ģà¤Ĥ?\"":4893,"UN":4894,"ff":4895,"à¤¬à¤¯":4896,"à¤Łà¤ľ":4897,"Ġà¤Ĩà¤īà¤Łà¤²":4898,"Ġ(*.":4899,"Ġà¤¸à¤®à¤·":4900,"Ġà¤īà¤ªà¤ķà¤°":4901,"à¤°à¤¸à¤ķ":4902,"à¤ĺà¤¤":4903,"à¤°à¤µà¤¶":4904,"Ġà¤¹à¤°à¤ľ":4905,"à¤«à¤²à¤¸":4906,"Ġ78":4907,"ĠMAPI":4908,"Ġmin":4909,"Ġrep":4910,"ssage":4911,"360":4912,"HA":4913,"You":4914,"à¤¿à¥ĩ":4915,"Ġà¤¸à¤¯":4916,"à¤µà¤¤à¤°":4917,"Ġà¤¨à¤°à¤ķ":4918,"à¤¶à¤ĭ":4919,"Ġà¤¶à¤°à¤¦":4920,"Ġà¤¸à¤®à¤µà¤°":4921,"à¤ħà¤¹à¤®à¤¦":4922,"à¤°à¤®à¤µ":4923,"Ġà¤Łà¤ªà¤ķ":4924,"à¤¸à¤ķà¤²":4925,"à¤Łà¤°à¤µ":4926,"Ġà¤łà¤£":4927,"Ġthat":4928,"à¤¡à¤²à¤°":4929,"Ġab":4930,"à¤ķà¤®à¤ľ":4931,"à¤ĳà¤²":4932,"Ġà¥¨à¥©":4933,"150":4934,"à¥§à¥¯à¥¬":4935,"KCS":4936,"iCalImp":4937,"sa":4938,"à¥Ģà¥ĩ":4939,"Ġà¤ªà¤§":4940,"Ġà¤°à¤Ĺ":4941,"à¤·à¤¯à¤°":4942,"à¤¡à¤¯":4943,"Ġà¤Ĩà¤ĩà¤ı":4944,"à¤ħà¤ªà¤ķ":4945,"à¤ķà¤¤à¤¨":4946,"à¤µà¤°à¤ļà¤¨":4947,"à¤·à¤£à¤ķ":4948,"Ġà¤Īà¤Ł":4949,"ell":4950,"eur":4951,"à¤¿>":4952,"à¤¹à¤°à¤¤":4953,"à¤µà¤¨à¤¤":4954,"à¤¯à¤¦à¤²":4955,"à¤Ĩà¤°à¤ª":4956,"lass":4957,"asia":4958,"63":4959,"71":4960,"à¤¸à¤ıà¤®à¤ıà¤²":4961,"à¤ĹCity":4962,"Ġà¤ıà¤®à¤¸":4963,"Ġà¤ıà¤¡à¤®":4964,"à¤Ĩà¤µà¤°à¤£":4965,"à¤ªà¤°à¤¦":4966,"à¤µà¤¨à¤¦":4967,"Ġsp":4968,"Ġ1927":4969,"à¤Ĳà¤¨":4970,"Ġà¤ľà¤¨à¤°":4971,"Ġà¤²à¤ķà¥ľ":4972,"ico":4973,"Ġà¥¨à¥ª":4974,"Ġà¤ıà¤²à¤ª":4975,"115":4976,"Ġed":4977,"ĠxA":4978,"Ġà¥ªà¥¦":4979,"ĠKB":4980,"HO":4981,"QShortcut":4982,"Sp":4983,"ks":4984,"line":4985,"Ġà¥ĩ":4986,"à¤°à¤Ļ":4987,"Ġà¤µà¤²à¤¯":4988,"à¤¬à¤°à¤¤":4989,"Ġà¤¥à¤®":4990,"à¤ķà¤°à¤¶":4991,"à¤ıà¤ķà¤®":4992,"à¤µà¤²à¤®":4993,"à¤ħà¤¨à¤ľ":4994,"ina":4995,"à¤ıà¤¸à¤µ":4996,"à¤Ĩà¤°à¤ľ":4997,"str":4998,"ĠMac":4999,"2020":5000,"ets":5001,"Ġ160":5002,"Ġwill":5003,"AND":5004,"spain":5005,"PI":5006,"RA":5007,"ise":5008,"kaj":5009,"viii":5010,"Ġhere":5011,"à¤¯à¤¥à¤¨":5012,"à¤Łà¤Ĺ":5013,"à¤·à¤µ":5014,"à¤ĩà¤£":5015,"à¤ķà¤°à¤°":5016,"à¤¶à¤¨à¤¶":5017,"Ġsqu":5018,"Ġà¤Ŀà¤ªà¤Ł":5019,"Ġ3000":5020,"à¥ĩà¤Ĥ)à¥¤":5021,"Ġà¤Ĩà¤¯à¤¤à¤¨":5022,"à¤ıà¤²à¤¡":5023,"ote":5024,"à¥¨à¥«":5025,"Ġ110":5026,"Ġtool":5027,"oss":5028,"jeshkaj":5029,"jeshkajha":5030,"MD":5031,"ms":5032,"min":5033,"à¤®à¤¸à¤®à¤°":5034,"à¤ķà¤°à¤ķ":5035,"à¤Ĩà¤°à¤®":5036,"Ġà¤īà¤ªà¤¤":5037,"een":5038,"à¥Ī).":5039,"à¤ıà¤²à¤ª":5040,"à¤·à¤°à¤ķà¤°":5041,"à¤Ĺà¤¡à¤®":5042,"Ġ153":5043,"Ġà¥¨à¥¦à¥¦à¥¦":5044,"Ġà¤¨à¤°à¤®à¤ª":5045,"ED":5046,"LS":5047,"net":5048,"ura":5049,"à¤®à¤¬à¤°":5050,"Ġà¤®à¤°à¤£":5051,"à¤¦à¤¹à¤µ":5052,"à¤Ĺà¤ļ":5053,"Ġà¤¨à¤Ł":5054,"Ġà¤¬à¤°à¤¦":5055,"à¤§à¤¦":5056,"Ġà¤Ĩà¤¬à¤¦":5057,"à¤ħà¤ĺ":5058,"à¤Ĩà¤°à¤¬":5059,"à¤µà¤¨à¤¶":5060,"à¥Ĥà¤ģ-":5061,"Ġtake":5062,"Ġad":5063,"lar":5064,"Ġ86":5065,"à¤¸à¤¹à¤Ń":5066,"à¤īà¤ªà¤Ĺ":5067,"ĠNew":5068,"Ġen":5069,"à¤°à¤ĸà¤¨":5070,"Ġà¤ªà¥ľ":5071,"à¤¦à¤ĸ":5072,"à¤ªà¤µà¤¨":5073,"Ġà¤¨à¤Ĺà¤£":5074,"à¤ľà¤Ĺà¤¦":5075,"Ġà¤Ńà¤¸":5076,"Ġà¤ıà¤²à¤°":5077,"Ġà¤¶à¤²à¤Ń":5078,"à¤īà¤ªà¤¦":5079,"Ġà¤ħà¤¬à¤¤à¤ķ":5080,"à¤ľà¤Ĺà¤£":5081,"à¥¨à¥©":5082,"à¤²à¤Ńà¤Ń":5083,"Ġthem":5084,"ĠEx":5085,"ficial":5086,"MP":5087,"TK":5088,"à¤¨à¤ªà¤¤":5089,"à¤¯à¤¸à¤®":5090,"à¤¸à¤¹à¤¸":5091,"à¥ĪâĢĵ":5092,"à¤Ĺà¤¤à¤¨":5093,"à¤Ĺà¤Ĩà¤īà¤Ł":5094,"à¥Ĥ!":5095,"à¤ĩà¤ķà¤°":5096,"Ġà¤¸à¤®à¤®":5097,"Ġà¤¸à¤®à¤¯à¤ķ":5098,"Ġà¤«à¤¨":5099,"Ġà¤Īà¤¦":5100,"ical":5101,"Ġà¤ıà¤¸à¤Ł":5102,"Ġ900":5103,"à¥¬à¥¦":5104,"Ġeurop":5105,"Ġuri":5106,"Ġ1932":5107,"à¤®à¤°à¤®":5108,"à¤Ŀà¤¡":5109,"à¤°à¤µà¤ļà¤¨":5110,"à¥ĩ)à¥¤":5111,"à¤ıà¤¸à¤Ī":5112,"ick":5113,"Ġkde":5114,"Ġà¤ıà¤¨à¤ľ":5115,"ĠIP":5116,"ĠUT":5117,"Ġà¤ıà¤ļà¤Ł":5118,"Ġà¤Ĺà¤łà¤¬à¤¨":5119,"Ġofficial":5120,"ocial":5121,"à¤Ĩà¤łà¤µ":5122,"gtk":5123,"'{":5124,"gen":5125,"jan":5126,"à¤¾âĢĶ":5127,"à¥ĩà¥į":5128,"Ġà¤¸à¤¨à¤ķ":5129,"à¤µà¤«":5130,"à¤¦à¤®à¤¤":5131,"Ġà¤¤à¤Ĺ":5132,"à¤ıà¤ıà¤¨":5133,"à¤ĸà¤¸":5134,"à¤ĸà¤Łà¤ķ":5135,"Ġà¤īà¤¨à¤µ":5136,"Ġà¤ľà¤¬à¤°à¤¨":5137,"à¤īà¤¨à¤ªà¤°":5138,"Ġà¤¬à¤ļà¤ķà¤°":5139,"ĠAnjuta":5140,"Ġ1936":5141,"ctory":5142,"ystem":5143,"OU":5144,"mm":5145,"vel":5146,"},":5147,"Ġà¤ķà¤²à¤¨":5148,"à¤¨à¤°à¤®":5149,"à¤¯à¤°à¤ķ":5150,"Ġà¤®à¤®":5151,"à¤¼à¤ĥ":5152,"à¥¤à¥¤":5153,"Ġà¤¦à¤¶à¤°à¤¥":5154,"Ġà¤²à¤ªà¤Ł":5155,"Ġà¤°à¤ļà¤¯":5156,"Ġà¤¶à¤¶":5157,"Ġà¤īà¤ªà¤ª":5158,"Ġà¤¸à¤¹à¤ķà¤°":5159,"à¤ķà¤²à¤µ":5160,"Ġsc":5161,"à¤ħà¤§à¤°":5162,"etc":5163,"âĢĺâĢĺ":5164,"Ġuser":5165,"ĠâĢ¦à¥¤":5166,"evel":5167,"ELEX":5168,"81":5169,"KS":5170,"VS":5171,"iew":5172,"Ġoption":5173,"à¥ĩà¤¾":5174,"à¤¨à¤®à¤ķ":5175,"à¤µà¤ķà¤°":5176,"à¤¦à¤¸à¤µ":5177,"à¤Ĺà¤¹à¤¨":5178,"à¤ıà¤¤":5179,"Ġà¤¯à¤ķà¤¸":5180,"Ġà¤ħà¤¨à¤®":5181,"Ġà¤īà¤ªà¤¸à¤Ń":5182,"à¤¸à¤®à¤Ĺ":5183,"Ġà¤Īà¤¸à¤°":5184,"0059":5185,"Ġà¤¬à¤¢à¤ķà¤°":5186,"Ġ32001":5187,"Ġà¤µà¤¸à¤µà¤¸":5188,"Ġ1800":5189,"ĠCELEX":5190,"Ġtranslations":5191,"Ġeu":5192,"ĠJob":5193,"Ġeuropa":5194,"ESS":5195,"Ġà¤¸à¤Ĭà¤¦":5196,"à¤¶à¤¬à¤¨":5197,"Ġà¤°à¤Ĺà¤¡":5198,"à¤§à¤ļ":5199,"Ġà¤Ĩà¤Ĺà¤¤":5200,"Ġà¤Ńà¤°à¤®":5201,"à¤Ńà¤ķà¤°":5202,"à¤ľà¤¨à¤¶":5203,"à¤¤à¤ķà¤ļ":5204,"Ġà¤¸à¤¦à¤®":5205,"Ġà¤¬à¤¸à¤¤":5206,"Ġà¤ľà¤²à¤¸":5207,"à¤¬à¤²à¤¡à¤¨":5208,"à¤ĭà¤Ĺ":5209,"Ġ62":5210,"Ġ73":5211,"Ġcan":5212,"Ġ91":5213,"ĠMB":5214,"Ġimp":5215,"Send":5216,"TY":5217,"à¤¯à¤«":5218,"Ġà¤ľà¤²à¤¯":5219,"à¤ľà¤ĸ":5220,"à¤¡à¤¡":5221,"Ġ\"-":5222,"Ġà¤ķà¤²à¤¶":5223,"à¤¨à¤®à¤¸":5224,"à¤µà¤¯à¤µ":5225,"Ġà¤¤à¤¬à¤¦":5226,"Ġ61":5227,"opy":5228,"ari":5229,"dir":5230,"rap":5231,"ĠmaoM":5232,"à¥§à¥¦à¥¦":5233,"Ġà¤Ńà¤°à¤¤à¤ª":5234,"1989":5235,"ative":5236,"libgnome":5237,"puer":5238,"ya":5239,"à¤¸à¤ł":5240,"Ġà¤®à¤¦à¤°":5241,"à¤¦à¤«":5242,"à¤ªà¤¶à¤ķ":5243,"à¤Ĺà¤Ľ":5244,"Ġà¤µà¤¤à¤¨":5245,"à¤ļà¤ĸ":5246,"Ġà¤Ĩà¤ĩà¤¡":5247,"à¤ħà¤·":5248,"Ġ101":5249,"à¤®à¤¨à¤Ĺà¤°":5250,"à¤¡à¤°à¤²":5251,"Ġà¤ĳà¤«à¤²":5252,"ared":5253,"Ġ1982":5254,"ĠBenefit":5255,"Ġà¤ļà¤°à¤£à¤¬à¤¦":5256,"à¤¾:-":5257,"à¤¸à¤®à¤Ŀà¤¨":5258,"Ġà¤²à¤Łà¤ķà¤¤":5259,"torico":5260,"puertorico":5261,"fig":5262,"à¤ªà¤Ń":5263,"Ġà¤ĸà¤ļ":5264,"Ġà¤«à¤¹à¤°":5265,"à¤Ĩà¤ĩà¤¸à¤²":5266,"Ġ1914":5267,"à¤Ĳà¤°":5268,"tions":5269,"à¤ħà¤ªà¤¡":5270,"à¤ıà¤«à¤Ĩà¤°à¤¡":5271,"à¥¨à¥Ń":5272,"ĠImage":5273,"à¥®à¥¦":5274,"à¤ıà¤ļà¤¸":5275,",-":5276,"IF":5277,"link":5278,"¯à¥¦":5279,"à¤°à¤ħ":5280,"à¤ªà¤ĸ":5281,"à¤ªà¤ĭ":5282,"Ġà¤Ĩà¤¹à¤°":5283,"Ġà¤«à¤Łà¤ķ":5284,"à¥Ī,âĢĵ":5285,"à¤¯à¤¨à¤¶":5286,"à¤¯à¤²à¤µ":5287,"à¤ªà¤£à¤¤":5288,"Ġ2021":5289,"isp":5290,"ĠPr":5291,"ĠPlease":5292,"1988":5293,"EGIN":5294,"ombia":5295,"HTTP":5296,"Mac":5297,"oh":5298,"row":5299,"à¤¹à¤²à¤ķ":5300,"Ġà¤¤à¤¦à¤°":5301,"Ġà¤¦à¤Ĺ":5302,"à¤ıà¤ıà¤¸":5303,"à¤§à¤¯":5304,"Ġà¤¶à¤¤à¤ķ":5305,"à¤Ĩà¤¸à¤¨":5306,"à¥Ī,\"":5307,"à¤°à¤£à¤¯":5308,"Ġstring":5309,"Ġ1944":5310,"Ġà¤¸à¤¦à¤Ń":5311,"à¤¨à¤µà¤®":5312,"arch":5313,"Ġ1941":5314,"Ġà¥§à¥¯à¥¬":5315,"1946":5316,"work":5317,"Ġà¤ıà¤®à¤ıà¤¸à¤ª":5318,"Ġ1882":5319,"utilus":5320,"CP":5321,"Yahoo":5322,"bra":5323,"ward":5324,"à¤¼!":5325,"à¤Łà¤¹":5326,"à¤ħà¤°à¤¸":5327,"à¤Ĩà¤ķà¤¸":5328,"à¤łà¤¤à¤®":5329,"à¤Ŀà¤Ĺà¤¡":5330,"Ġ1905":5331,"à¤¤à¤®à¤¸":5332,"à¤Ĭà¤¸":5333,"à¤Ĩà¤Īà¤ķ":5334,"Ġà¤®à¤¸à¤ĸà¤°":5335,"Ġà¤ıà¤¨à¤ıà¤²":5336,"hed":5337,"Ġà¥¨à¥¦à¥¦à¥©":5338,"BN":5339,"BEGIN":5340,"LE":5341,"mac":5342,"use":5343,"Ġà¤İ":5344,"à¤¨à¤Ĺà¤¤":5345,"à¤¦à¤®à¤¨":5346,"à¤¬à¤ļà¤¤":5347,"Ġà¤Ńà¤°à¤¸à¤ķ":5348,"Ġà¤ıà¤Łà¤²":5349,"à¤ģ/":5350,"à¤¾,\"":5351,"à¤ªà¤¤à¤²":5352,"à¤µà¤²à¤ª":5353,"à¤ĩà¤²à¤°":5354,"Ġ1924":5355,"Ġà¤ľà¤¨à¤¸à¤®":5356,"Ġà¤Ĩà¤¸à¤«":5357,"à¤Ĩà¤Īà¤Ĩà¤Ī":5358,"Ġà¤Ĩà¤Īà¤ıà¤¸à¤ĵ":5359,"rec":5360,"à¤°à¤ĸà¤ª":5361,"uth":5362,"Ġà¤ıà¤ļà¤Ĩà¤Īà¤µ":5363,"à¥§à¥¯à¥©":5364,"Ġyour":5365,"Ġà¤ªà¤°à¤µà¤²à¤¯":5366,"Ġà¤¦à¤«à¤¨":5367,"\"-":5368,"Meeting":5369,"book":5370,"à¤ķà¤Łà¤¨":5371,"Ġà¤¤à¤¸à¤²":5372,"Ġà¤°à¤¬à¤°":5373,"à¤¡à¤¯à¤¨":5374,"à¤¥à¤¹":5375,"Ġà¤ĸà¤®":5376,"à¤¾à¤ģ!":5377,"à¤¹à¤®à¤¸":5378,"Ġà¤ħà¤¸à¤¦":5379,"Ġà¤ĭà¤Ĺ":5380,"à¤Ĩà¤ªà¤¦":5381,"Ġ84":5382,"ref":5383,"à¤¸à¤¹à¤ľ":5384,"Ġà¥¨à¥¦à¥¦à¥ª":5385,"trol":5386,"EXT":5387,"brazil":5388,"1000":5389,"83":5390,"how":5391,"japan":5392,"à¦":5393,"à¤¨à¤ļà¤°":5394,"à¤¯à¤ļà¤ķ":5395,"à¤¹à¤Ń":5396,"Ġà¤®à¤¤à¤µ":5397,"Ġà¤¬à¤µ":5398,"à¤ıà¤¤à¤¨":5399,"à¤Ľà¤ķ":5400,"à¤ħà¤¸à¤¤":5401,"à¤Ĩà¤¯à¤¨":5402,"à¤¢à¤²":5403,"à¤µà¤¨à¤µ":5404,"Ġà¤¸à¤°à¤ľ":5405,"Ġ1917":5406,"ador":5407,"trl":5408,"colombia":5409,"earch":5410,"Ġphp":5411,"odi":5412,"yle":5413,"Ġhe":5414,"Ġhelp":5415,"à¤ķà¤Łà¤°":5416,"Ġà¤¹à¤°à¤ķ":5417,"à¤¼à¤¾à¤Ĥ":5418,"à¤¬à¤Ĺà¤²":5419,"à¤°à¤¤à¤°":5420,"à¤ĵà¤ľ":5421,"à¤Ŀà¤°":5422,"Ġà¤Ľà¤¦":5423,"Ġà¤Ľà¤Ł":5424,"Ġà¤ĩà¤¨à¤ľ":5425,"Ġà¤ľà¤¨à¤®":5426,"à¤Ĩà¤Īà¤ĵ":5427,"Ġà¤ıà¤¨à¤¡":5428,"à¥¨à¥¨":5429,"dio":5430,"Ġcomp":5431,"ugin":5432,"Ġsquared":5433,"Cogl":5434,"OT":5435,"PKCS":5436,"],":5437,"rl":5438,"transla":5439,"Ġà¤¸à¤¹à¤°":5440,"à¤¶à¤¨à¤ķ":5441,"à¤ĸà¤¬à¤¦":5442,"Ġà¤ļà¤µ":5443,"à¥Ģà¤Ĥà¤ĥ":5444,"Ġà¤¡à¤ļ":5445,"Ġ144":5446,"Ġsome":5447,"Ġà¤¦à¤°à¤ħà¤¸à¤²":5448,"à¤Ĺà¤²à¤µ":5449,"à¤ķà¤Łà¤¸":5450,"Ġà¤ħà¤¦à¤Ń":5451,"ĠAaO":5452,"china":5453,"IST":5454,"Ġà¤²à¤¯à¤¬à¤¦":5455,"ĠUTF":5456,"Please":5457,"ime":5458,"à¤°Name":5459,"à¤¹à¤ľà¤¨à¤ķ":5460,"à¤¼à¥ĩà¤Ĥ,":5461,"à¥ĭà¤ĤâĢĻ":5462,"à¤ĸà¤¯":5463,"Ġà¤ħà¤²à¤ķ":5464,"Ġà¤Īà¤¨":5465,"Ġà¤ľà¤¨à¤µ":5466,"à¤¼à¥ĭ)":5467,"à¤ĭà¤Ī":5468,"à¤Ķà¤ªà¤ļ":5469,"âĢĿ>":5470,"Ġ124":5471,"---":5472,"vià¤ķ":5473,"ocess":5474,"à¥Ĩà¤Ĥ":5475,"umn":5476,"uery":5477,"ik":5478,"ted":5479,"Ġ!":5480,"à¥ĭâĢĵ":5481,"à¤¸à¤¤à¤°":5482,"à¤¸à¤¶à¤¸":5483,"Ġà¤®à¤°à¤¦":5484,"Ġà¤ħà¤Łà¤ķ":5485,"Ġà¤¬à¤¸à¤°":5486,"à¤ļà¤¶":5487,"Ġà¤Ĩà¤¬à¤°":5488,"Ġà¤īà¤¨à¤ĭ":5489,"à¤°à¤ķà¤¨":5490,"à¥ĭ,\"":5491,"à¥Ģ)à¥¤":5492,"ope":5493,"oth":5494,"ator":5495,"à¤ıà¤«à¤Ł":5496,"à¤ıà¤«à¤ıà¤¸":5497,"ĠCOM":5498,"search":5499,"Ġ2500":5500,"Ġgoogle":5501,"à¥Ĥà¤ģ?\"":5502,"SCII":5503,"ĠAaOr":5504,"%%)":5505,"ght":5506,"à¥Ģà¤¾":5507,"à¤¤à¤¨à¤ķ":5508,"à¤ķà¤Łà¤ķ":5509,"à¤ªà¤¤à¤¨":5510,"à¤ļà¤¸à¤ĸ":5511,"à¤ĩà¤ĸ":5512,"à¤Ľà¤Ĺà¤Ľ":5513,"à¤®à¤¸à¤²à¤¨":5514,"ang":5515,"Ġà¤®à¤¦à¤°à¤¸":5516,"Ġà¤ħà¤ľà¤Ĺà¤°":5517,"arn":5518,"ated":5519,"Ġpre":5520,"Ġprovin":5521,"ĠCA":5522,"Ġ93":5523,"ĠIII":5524,"Ġà¤ªà¤¨à¤ª":5525,"Ġà¤®à¤¸à¤²à¤¹à¤¤":5526,"1974":5527,"à¥¨à¥¦à¥¦à¥®":5528,"ĠâĢĻâĢĻ":5529,"à¤¾à¥°à¥¤":5530,"urope":5531,"zilla":5532,"Ġprovinces":5533,"700":5534,"800":5535,"CR":5536,"à¤¿à¤¾":5537,"Ġà¤¸à¤¦à¤°":5538,"à¤Ĺà¤µà¤¶":5539,"Ġà¤ľà¤ĸ":5540,"à¤§à¤ľà¤¨":5541,"à¤¡à¤ľ":5542,"à¤Ńà¤¸":5543,"à¤¼à¥ĩ.":5544,"à¤ĺà¤¨à¤¤":5545,"à¤°à¤¨à¤²":5546,"à¤¤à¤®à¤¯":5547,"Ġà¤ķà¤²à¤ķ":5548,"Ġà¤Ķà¤§":5549,"à¤Ĩà¤Īà¤ľ":5550,"Ġà¤®à¤ľà¤²":5551,"Ġà¤ªà¤¨à¤¡":5552,"Ġà¤Ńà¤Ĺà¤µà¤¦":5553,"à¤¤à¤ªà¤Łà¤²":5554,"ĠRe":5555,"ĠxE":5556,"âĺº":5557,"For":5558,"Un":5559,"ib":5560,"sw":5561,"Ġà¤ļà¤°à¤µ":5562,"à¤«à¤¹à¤®":5563,"à¤ĩà¤°à¤¸":5564,"à¤ĩà¤«à¤²":5565,"Ġà¤¸à¤®à¤µ":5566,"à¤Ľà¤Ł":5567,"à¤Ĩà¤ķà¤²à¤¨":5568,"à¤łà¤ª":5569,"à¤¸à¤¨à¤¦":5570,"Ġà¤ĵà¤²à¤®":5571,"à¤¹à¤®à¤®":5572,"Ġ1923":5573,"Ġà¤¬à¤²à¤¶":5574,"Ġà¤¤à¤¬à¤¤à¤ķ":5575,"Ġà¤ĭà¤¸":5576,"à¤ıà¤®à¤ľ":5577,"eet":5578,"Ġ180":5579,"ĠCom":5580,"ĠId":5581,"Ġ112":5582,"ĠUS":5583,"Ġif":5584,"lication":5585,"Ġtooltip":5586,"DF":5587,"PO":5588,"gree":5589,"à¥ĺ":5590,"à¤¾âĢĵ":5591,"à¤®à¤ł":5592,"à¤¦à¤°à¤®":5593,"Ġà¤¨à¤ĭ":5594,"à¤ļà¤Ĺ":5595,"à¤¡à¤ļ":5596,"à¤Īà¤Ĩà¤°":5597,"à¥Ī..":5598,"Ġà¤īà¤¤à¤ĭ":5599,"Ġà¤Ĩà¤¨à¤²":5600,"à¤ĭà¤¯":5601,"à¤ıà¤²à¤ıà¤¸":5602,"à¤¸à¤¹à¤®à¤¤":5603,"old":5604,"dian":5605,"rack":5606,"ach":5607,"Ġà¥¬à¥¦":5608,"ules":5609,"URI":5610,"Ġabout":5611,"File":5612,"GL":5613,"Long":5614,"ful":5615,"à¥įà¤Ĥ":5616,"Ġà¤Ĩà¤ĩà¤¸à¤²":5617,"Ġà¤ªà¤°à¤ª":5618,"à¤ħà¤Ľ":5619,"Ġà¤¹à¤®à¤°":5620,"à¤Ĩà¤¯à¤°":5621,"à¤¤à¤°à¤µ":5622,"Ġà¤ħà¤²à¤®":5623,"Ġ1925":5624,"ont":5625,"Ġ71":5626,"ĠAN":5627,"Â¤ÂĤ...":5628,"Ġinc":5629,"Ġà¤īà¤ľà¤¡":5630,"Ġà¥¨à¥¦à¥¦à¥¯":5631,"1996":5632,"Â¥ÂĪ.":5633,"efault":5634,"Ġmessage":5635,"URL":5636,"Ġhave":5637,"(%":5638,",\"":5639,"à¤¸à¤Łà¤¨":5640,"à¤²à¤ĸà¤°":5641,"à¤ıà¤¡à¤®":5642,"à¤§à¤ľ":5643,"à¤ĸà¤¬":5644,"à¤Īà¤Ĺ":5645,"à¤ģ;":5646,"à¤ħà¤°à¤ķ":5647,"à¤ħà¤ķà¤¡":5648,"à¤¼à¥Ģ.":5649,"à¤²à¤¨à¤¶":5650,"âĢĻà¥¤":5651,"Ġdire":5652,"à¤Ķà¤²":5653,"Ġ87":5654,"à¥Īà¤Ĥ),":5655,"ism":5656,"ĠMA":5657,"Ġ143":5658,"1949":5659,"Ġà¤ĵà¤µà¤°à¤°":5660,"Ġ\\\\\\\\":5661,"Query":5662,"Type":5663,"UM":5664,"sv":5665,"sing":5666,"à¤°à¤§à¤¨":5667,"à¤ķà¤ıà¤£":5668,"à¤²à¤¸à¤°":5669,"Ġà¤ħà¤°à¤ķ":5670,"Ġà¤ħà¤ĳà¤«":5671,"à¤¡à¤¹":5672,"à¤ħà¤µà¤ľ":5673,"Ġà¤īà¤ªà¤²":5674,"à¥Ī.%":5675,"Ġà¤¸à¤¹à¤¦":5676,"à¤Łà¤¨à¤®":5677,".....":5678,"Ġà¤ħà¤ķà¤¸":5679,"ery":5680,"Ġà¤ħà¤®à¤°à¤¤":5681,"à¤¶à¤¤à¤¤":5682,"Ġà¤Ĩà¤Īà¤¬":5683,"Ġ82":5684,"Ġproper":5685,"à¥¨à¥®":5686,"Ġbug":5687,"1993":5688,"ATA":5689,"ATE":5690,"Ġhttps":5691,"ĠISBN":5692,"Ġimpli":5693,"ĠÅ":5694,"Ġĉ":5695,"Ġà¤ªà¤¦à¤¨":5696,"à¤¦à¤ĸà¤²":5697,"Ġà¤¨à¤µà¤ª":5698,"Ġà¤¤à¤µà¤ľ":5699,"à¤¶à¤ļ":5700,"à¤¡à¤«":5701,"à¤¡à¤¹à¤°":5702,"Ġà¤Ĩà¤²à¤¸":5703,"à¤łà¤¸":5704,"ala":5705,"1950":5706,"à¤Ĺà¤¦à¤¸":5707,"Ġ98":5708,"à¥¨à¥§":5709,"ĠMiB":5710,"à¤¸à¤ļà¤®":5711,"Ġman":5712,"Ġmbox":5713,"urn":5714,"ĠWeb":5715,"Ġà¤¦à¤¹à¤¶à¤¤":5716,"ĠGNOME":5717,"Ġcolor":5718,">%":5719,"US":5720,"get":5721,"the":5722,"ven":5723,"à¤Ĥ?":5724,"à¤²à¤ķà¤¨":5725,"à¤¬à¤°à¤ķà¤¤":5726,"Ġà¤²à¤¹":5727,"Ġà¤ıà¤¨à¤µ":5728,"à¤°à¤®à¤µà¤°":5729,"Ġà¤ĵà¤Ŀà¤²":5730,"Ġà¤Ŀà¤²à¤ķà¤¤":5731,"à¤ħà¤¨à¤®":5732,"Ġà¤Ĳà¤ľ":5733,"Ġday":5734,"à¤Ĩà¤ªà¤®":5735,"ĠSp":5736,"ĠAll":5737,"Ġbenefit":5738,"ogram":5739,"Ġrec":5740,"Ġreg":5741,"1986":5742,"athy":5743,"ĠĉĠĠ":5744,"UL":5745,"par":5746,"Ġic":5747,"à¤¯à¤ªà¤°":5748,"à¤®à¤¦à¤¨":5749,"à¥Ī/":5750,"à¥ĪâĢĶ":5751,"Ġà¤®à¤²à¤ķ":5752,"Ġà¤īà¤Ĺà¤¨":5753,"à¤£à¤¯à¤¨":5754,"Ġà¤Ĺà¤ĭ":5755,"Ġà¤ıà¤¤à¤°":5756,"Ġà¤«à¤Łà¤¨":5757,"à¤¯à¤¤à¤ķ":5758,"Ġà¤²à¤Ĺà¤µ":5759,"Ġà¤¸à¤¹à¤²à¤Ĺ":5760,"Ġà¤Łà¤ĸà¤¨":5761,"Ġà¤ħà¤µà¤ļ":5762,"Ġà¤¸à¤¬à¤²":5763,"Ġà¤¸à¤°à¤¸à¤°":5764,"Ġ1926":5765,"à¤ĭà¤·":5766,"Ġdx":5767,"ork":5768,"Ġà¤ĭà¤£à¤ķà¤°":5769,"à¤ıà¤¨à¤¬":5770,"ĠCSV":5771,"à¤īà¤ªà¤¹":5772,"à¤¦à¤¶à¤®à¤²à¤µ":5773,"Ġ1600":5774,"ĠRes":5775,"ĠUID":5776,"chan":5777,"Ġà¤ıà¤¯à¤°à¤ª":5778,",.":5779,"CVS":5780,"ES":5781,"HS":5782,"dom":5783,"lin":5784,"ool":5785,"pg":5786,"ung":5787,"ĠË":5788,"à¥Ħ":5789,"à¤ķà¤§":5790,"à¤®à¤¯à¤ķ":5791,"à¤²à¤Ī":5792,"à¤²à¤¸à¤¨":5793,"à¤²à¤ĭ":5794,"à¤²à¤ĸà¤¨à¤Ĭ":5795,"à¤ľà¤«":5796,"à¥Ĥ/":5797,"à¤¶à¤ķà¤°":5798,"à¤°à¤¤à¤¤":5799,"à¤°à¤¤à¤Ł":5800,"Ġà¤ħà¤¨à¤ª":5801,"à¤¹à¤°à¤¨":5802,"à¤°à¤¸à¤®":5803,"Ġà¤ħà¤µà¤¯à¤¸":5804,"Ġà¤Ŀà¤°":5805,"Ġà¤Ŀà¤ªà¤ķà¤¨":5806,"à¤¯à¤°à¤¨à¤®":5807,"Ġà¤¬à¤¦à¤²à¤µ":5808,"ans":5809,"Ġà¤ľà¤®à¤ķà¤°":5810,"à¤¸à¤¤à¤¹":5811,"Ġà¤Ĩà¤Īà¤ıà¤«à¤¸":5812,"ithou":5813,"Ġà¤¹à¤¸à¤°à¤¤":5814,"à¤¹à¤¸à¤ª":5815,"à¤īà¤ªà¤ľ":5816,"ofs":5817,"ĠFolder":5818,"Ġà¥©à¥§":5819,"Ġ288":5820,"à¤ıà¤¸à¤ıà¤¸à¤ıà¤²":5821,"à¥¯à¥®":5822,"Ġà¥§à¥¯à¥¦":5823,"redhat":5824,"ithout":5825,"SMTP":5826,"ĠÎ":5827,"à¤¾âĢĿà¥¤":5828,"à¤°à¤¬à¤°":5829,"à¤ķà¤ĺ":5830,"Ġà¤ªà¤Łà¤ķ":5831,"Ġà¤®à¤Łà¤°":5832,"Ġà¤®à¤¶à¤°":5833,"Ġà¤¬à¤ľà¤¨":5834,"Ġà¤¦à¤¹à¤¨":5835,"Ġà¤¥à¤²à¤Ĺ":5836,"à¤Ĩà¤¦à¤¤":5837,"Ġà¤¯à¤¹à¤¯":5838,"Ġà¤īà¤ªà¤¶":5839,"à¤¬à¤°à¤«":5840,"à¤°à¤ªà¤¤à¤µ":5841,"Ġà¤Ĩà¤µà¤ķ":5842,"Ġ1911":5843,"à¤Ĺà¤²à¤ª":5844,"à¤ĭà¤Ĩ":5845,"à¤ıà¤«à¤¡":5846,"Ġcsv":5847,"Ġà¥¨à¥§":5848,"://..":5849,"à¤ıà¤ļà¤ı":5850,"Ġgra":5851,"GN":5852,"\\.":5853,"tk":5854,"à¥ĭ...":5855,"Ġà¤¹à¤¸à¤¦":5856,"Ġà¤µà¤¨à¤µ":5857,"à¤Łà¤°à¤¤":5858,"à¤§à¤¬":5859,"à¤ļà¤¦":5860,"à¤ļà¤¬":5861,"à¤£à¤ľ":5862,"Ġà¤ıà¤²à¤¬à¤®":5863,"à¤īà¤ĸ":5864,"à¤°à¤¹à¤®à¤¤":5865,"Ġà¤Łà¤®":5866,"Ġsize":5867,"Ġà¤Ŀà¤Łà¤ªà¤Ł":5868,"à¥ĩà¤Ĥ,-":5869,"à¥Ģ.,":5870,"angu":5871,"Ġtab":5872,"ited":5873,"Ġà¤®à¤¸à¤²à¤¨":5874,"à¤ıà¤¨à¤Ł":5875,"à¥Īà¤Ĥ)à¥¤":5876,"isofs":5877,"2022":5878,"ĠFor":5879,"Ġ140":5880,"à¥ĩà¤Ĥ?\"":5881,"ĠXML":5882,"1972":5883,"1963":5884,"AIM":5885,"MAND":5886,"ft":5887,"rg":5888,"ĠÃ":5889,"à¤°à¤Ŀ":5890,"à¥Ģà¥į":5891,"à¤®à¤¬à¤¤":5892,"à¤¹à¤ļà¤°":5893,"à¤µà¤®à¤¯":5894,"à¤¦à¤°à¤¦":5895,"à¤ľà¤Ĺà¤¨":5896,"à¤¬à¤¸à¤°":5897,"à¤ıà¤¬à¤²":5898,"à¤£à¤®à¤¯":5899,"à¤Īà¤Ī":5900,"à¥ĥ-":5901,"à¥Ī,-":5902,"Ġà¤īà¤ªà¤¶à¤®à¤¨":5903,"Ġà¤¸à¤°à¤¨":5904,"à¤ĩà¤¨à¤¬":5905,"Ġsh":5906,"Ġ1913":5907,"Ġav":5908,"Ġà¤¹à¤Łà¤¤":5909,"ĠkI":5910,"arb":5911,"à¤ªà¤¦à¤£":5912,"Ġà¥¨à¥Ń":5913,"1995":5914,"1970":5915,"rick":5916,"MSN":5917,"space":5918,"nautilus":5919,"Ġà¤İà¤¸":5920,")\"":5921,"720":5922,"@}":5923,"DO":5924,"Ko":5925,"dl":5926,"ml":5927,"ula":5928,"way":5929,"ïĤ":5930,"Ġ000":5931,"à¤Ĥ...":5932,"à¥ĢâĢĵ":5933,"à¥ĩà¤ĤâĢĿ":5934,"Ġà¤¤à¤¹à¤°":5935,"à¤¶à¤°à¤£":5936,"à¤ıà¤¨à¤¯":5937,"Ġà¤Ĺà¤Ľ":5938,"Ġà¤¶à¤°à¤¤":5939,"à¤Ľà¤¬":5940,"à¤¤à¤°à¤®":5941,"à¤¤à¤°à¤²":5942,"Ġà¤¡à¤Ĺà¤®à¤Ĺ":5943,"à¤Ŀà¤Ł":5944,"à¤Ĺà¤°à¤¦":5945,"Ġ1918":5946,"Ġà¤¬à¤¦à¤Ĺ":5947,"Ġà¤¬à¤¦à¤¬à¤ĸ":5948,"à¤¤à¤ķà¤¥":5949,"à¤ķà¤Łà¤Ĺ":5950,"à¤¯à¤ªà¤°à¤ķ":5951,"à¤Ĩà¤Īà¤ıà¤«à¤¸":5952,"Ġà¤ªà¤ķà¤µ":5953,"...)":5954,"ĠApp":5955,"110":5956,"Ġ{@}":5957,"à¤¿.,":5958,"Ġà¤ªà¤¥à¤ª":5959,"Ġwithout":5960,"acter":5961,"Ġà¤¨à¤ľà¤°à¤ħ":5962,"1998":5963,"III":5964,"Ġà¤ıà¤°à¤¡":5965,"Ġcolumn":5966,"à¤ªà¤°à¤µà¤°à¤¦":5967,"ïĤ§":5968,"Giver":5969,"TLS":5970,"à¥Ģà¤¼":5971,"à¤®à¤°à¤ķ":5972,"à¥ģ/":5973,"Ġà¤ªà¤ķà¤¨":5974,"Ġà¤¦à¤¯à¤¨":5975,"à¤ŁCity":5976,"à¤ļà¤°à¤ķ":5977,"Ġà¤ªà¤°à¤Ńà¤ķ":5978,"Ġà¤ĩà¤²à¤ķ":5979,"Ġà¤ıà¤¨à¤°":5980,"Ġà¤ıà¤¤à¤¬":5981,"à¤ĩà¤«à¤°":5982,"à¤Ĩà¤¯à¤°à¤²":5983,"à¤µà¤°à¤ª":5984,"à¤ªà¤°à¤°":5985,"Ġà¤Łà¤¨à¤²":5986,"à¤¹à¤®à¤ĸ":5987,"Ġà¤Ŀà¤ķà¤Ŀ":5988,"Ġ1900":5989,"à¥ĭà¥¤-":5990,"Ġà¤ħà¤ªà¤¸":5991,"Ġà¤Ĳà¤ļ":5992,"ĠâĢĺâĢĻ":5993,"à¤²à¤Ĺà¤¨":5994,"Ġà¤¸à¤¨à¤¸à¤¨":5995,"Ġ76":5996,"Ġà¥¨à¥®":5997,"raine":5998,"à¥Ńà¥¦":5999,"à¥§à¥¯à¥¨":6000,"Ġ1872":6001,",,":6002,"250":6003,"file":6004,"pen":6005,"à¤¯à¤µà¤¤":6006,"à¤²Name":6007,"Ġà¤µà¤°à¤£":6008,"Ġà¤²à¤°":6009,"à¤£à¤¶":6010,"à¤ħà¤ļà¤²":6011,"Ġà¤¹à¤®à¤¦à¤°":6012,"à¤Ĩà¤¹à¤°à¤£":6013,"Ġà¤ķà¤°à¤¤à¤¬":6014,"Ġà¤ĺà¤°à¤¬":6015,"Ġà¤Ĩà¤¯à¤°à¤¨":6016,"Ġsee":6017,"Ġà¤¬à¤¦à¤¬":6018,"à¤ħà¤¨à¤Ń":6019,"à¤ıà¤¸à¤ıà¤¨à¤ıà¤²":6020,"à¤¯à¤²à¤°":6021,"Ġaa":6022,"Ġà¤Ĩà¤®à¤¦":6023,"Ġà¤ķà¤Łà¤µ":6024,"Ġ97":6025,"Ġ1200":6026,"Ġfrom":6027,"Ġ1943":6028,"ĠDVD":6029,"ĠNational":6030,"Ġà¥§à¥¦à¥¦à¥¦":6031,"owance":6032,"iga":6033,"mpathy":6034,"ypes":6035,"ÃīÃ":6036,"OCKS":6037,")'":6038,"/.":6039,"Ch":6040,"ns":6041,"sl":6042,"à¥įà¥¤":6043,"à¥ĭ\"":6044,"Ġà¤¬à¤ķà¤µ":6045,"Ġà¤¤à¤¹à¤ķ":6046,"à¤Łà¤°à¤ķ":6047,"à¤ıà¤¥":6048,"à¤Īà¤Ĩà¤°à¤Ł":6049,"à¤ķà¤°à¤¦":6050,"Ġà¤īà¤ªà¤«":6051,"à¤Ĭà¤·":6052,"à¤Ĩà¤°à¤Ĩà¤ĩ":6053,"Ġth":6054,"à¤°à¤Ĺà¤Ł":6055,"Ġ83":6056,"Ġ89":6057,"Ġà¤Ĺà¤£à¤¤à¤¨":6058,"à¥¨à¥¯":6059,"à¤īà¤ªà¤¶":6060,"à¤ħà¤µà¤¦":6061,"ĠMIME":6062,"Ġper":6063,"Ġma":6064,"ĠRSA":6065,"ceiver":6066,"ecu":6067,"Ġ271":6068,"1961":6069,"1964":6070,"nder":6071,"cript":6072,"----------------":6073,"change":6074,"-'":6075,"EM":6076,"IV":6077,"ele":6078,"gin":6079,"à¥įà¤ĥ":6080,"à¤²à¤¯à¤®":6081,"à¤µà¤ªà¤°":6082,"à¤µà¤Ĺà¤¤":6083,"Ġà¤®à¤®à¤¤":6084,"à¤ªà¤ł":6085,"à¤ıà¤ı":6086,"Ġà¤¯à¤®à¤¨":6087,"à¤ĸà¤®à¤°":6088,"Ġà¤ħà¤¨à¤ªà¤¢":6089,"à¤Ĩà¤«à¤¤":6090,"à¤°à¤¦à¤ķ":6091,"à¤°à¤¦à¤°à¤¹":6092,"à¤·à¤£à¤¤":6093,"Ġà¤Īà¤¡":6094,"Ġà¤Ĭà¤¬":6095,"Ġà¤ħà¤¸à¤¹à¤¨":6096,"à¤®à¤²à¤ķ":6097,"à¤ĭà¤ķ":6098,"Ġ''à¥¤":6099,"à¥¦à¥¦à¥¦à¥¦":6100,"Ġ96":6101,"à¥«à¥¬":6102,"email":6103,"ages":6104,"1971":6105,"Receiver":6106,"Ġà¤Ĩà¤ĩà¤ķà¤¨":6107,"ailab":6108,"ĠCOMMAND":6109,"ĠAllowance":6110,"wh":6111,"Ġà¤ķà¤¢":6112,"à¤¹à¤ł":6113,"à¤²à¤ļà¤°":6114,"à¤ªà¤®à¤¤":6115,"Ġà¤¨à¤µà¤²à¤°":6116,"Ġà¤¤à¤Łà¤µà¤°":6117,"Ġà¤²à¤¹à¤ľ":6118,"Ġà¤Ĩà¤£":6119,"Ġà¤¶à¤¹à¤¤":6120,"à¤Ĩà¤ĩà¤¨":6121,"à¤īà¤«":6122,"à¤µà¤¨à¤°":6123,"Ġà¤¬à¤¹à¤²":6124,"à¤ĺà¤¸":6125,"à¤ĩà¤²à¤¸":6126,"Ġ1912":6127,"ons":6128,"tin":6129,"Ġà¤¸à¤²à¤µ":6130,"ark":6131,"âĢĿ.":6132,"Ġà¤ıà¤®à¤ª":6133,"Ġà¤Ĺà¤²à¤¤à¤«à¤¹à¤®":6134,"à¤²à¤Ńà¤¤":6135,"Ġgov":6136,"ived":6137,"Ġ1933":6138,"span":6139,"haracter":6140,"ecuador":6141,"ailable":6142,"130":6143,"PL":6144,"xiii":6145,"à¥Ģà¥ĩà¤Ĥ":6146,"à¤ªà¤¦à¤¨":6147,"à¤Ĺà¤®à¤ķ":6148,"Ġà¤ħà¤¶à¤°":6149,"Ġà¤īà¤«":6150,"à¤ıà¤¨à¤¤":6151,"à¤ıà¤¸à¤ķ":6152,"à¤¡à¤°à¤¸":6153,"Ġà¤Ĺà¤®à¤¨":6154,"Ġà¤ªà¤°à¤Ľ":6155,"Ġà¤ªà¤°à¤ĸà¤¨":6156,"Ġà¤ļà¤ķà¤¤":6157,"à¤ĩà¤·":6158,"à¤łà¤Ĺ":6159,"à¤°à¤®à¤ľ":6160,"Ġà¤Īà¤ª":6161,"à¤Łà¤°à¤¶":6162,"Ġ1906":6163,"org":6164,"Ġ79":6165,"gmail":6166,"à¤ĳà¤¬":6167,"ĠST":6168,"Ġà¤Ĺà¤£à¤ķ":6169,"ĠAr":6170,"à¤°à¤ĸà¤£":6171,"125":6172,"ĠThis":6173,"Ġbet":6174,"raw":6175,"ivers":6176,"ĠZà¤¸":6177,"form":6178,"ITY":6179,"oller":6180,"IR":6181,"kiga":6182,"}%":6183,"à¤¤à¤¹à¤¤":6184,"à¤²à¤¬à¤°":6185,"Ġà¤ľà¤ª":6186,"Ġà¤īà¤ķà¤¤":6187,"à¤¬à¤¶à¤°":6188,"à¤ıà¤ıà¤«":6189,"à¤ļà¤®à¤¤":6190,"à¤ĸà¤ªà¤¤":6191,"Ġà¤ıà¤¹à¤¤":6192,"Ġà¤ļà¤Łà¤ķ":6193,"Ġà¤Ĩà¤¯à¤¨":6194,"Ġà¤Īà¤µ":6195,"Ġsy":6196,"Ġà¤ªà¤¡à¤¨":6197,"à¤Ĩà¤Īà¤Ĩà¤Īà¤Ł":6198,"Ġtw":6199,"1908":6200,"à¤ıà¤²à¤¸":6201,"à¤°à¤ļà¤£":6202,"ĠSee":6203,"ĠStr":6204,"Ġà¤ıà¤®à¤¬":6205,"oun":6206,"ĠFOR":6207,"Ġ175":6208,"acity":6209,"ĠZà¤¥":6210,"ING":6211,"ustom":6212,"ample":6213,"CHAN":6214,"plain":6215,"Ġedu":6216,";}":6217,"Web":6218,"ds":6219,"europe":6220,"sm":6221,"Ġ.":6222,"à¥ĩ..":6223,"à¤¤à¤²à¤µ":6224,"à¤¯à¤µà¤ķ":6225,"à¤®à¤¯à¤¤":6226,"à¤¹à¤µà¤°":6227,"à¤²à¤ĵ":6228,"Ġà¤īà¤Ľà¤²":6229,"à¤¬à¤°à¤ķ":6230,"Ġà¤ĩà¤°à¤¶":6231,"Ġà¤ĩà¤¤à¤®":6232,"à¤Īà¤ıà¤®":6233,"à¤īà¤Łà¤°":6234,"Ġà¤ĵà¤·":6235,"Ġ1910":6236,"Ġà¤¢à¤ķà¤¨":6237,"ines":6238,"à¤ıà¤¸à¤ľ":6239,"ank":6240,"Ġà¤¬à¤°à¤ĸ":6241,"Ġà¤Ĳà¤°":6242,"alb":6243,"itor":6244,"à¤ħà¤ªà¤²":6245,"Ġà¤ıà¤¸à¤ı":6246,"arc":6247,"ĠICA":6248,"Ġmore":6249,"ĠDN":6250,"à¥ªà¥®":6251,"ĠEn":6252,"Ġà¤¦à¤®à¤¨à¤ķ":6253,"lim":6254,"osp":6255,"à¥¨à¥¦à¥¦à¥§":6256,"efore":6257,"Ġstart":6258,"Ġà¤ıà¤Łà¤²à¤¸":6259,"text":6260,"Ġetc":6261,"Ġà¤ķà¤µà¤¯":6262,"à¤¨à¤µà¤¸":6263,"à¤¸Name":6264,"à¤®à¤ļà¤²":6265,"à¤²à¤¨à¤ķ":6266,"à¤Ĺà¤ľà¤¨":6267,"Ġà¤¯à¤°":6268,"à¤ħà¤¦à¤¨":6269,"à¤ħà¤¶à¤ķ":6270,"Ġà¤«à¤¡":6271,"à¥Ī....":6272,"à¤ħà¤¨à¤°":6273,"Ġ94":6274,"Ġà¤ıà¤®à¤ĵ":6275,"olog":6276,"ĠMail":6277,"ĠMeeting":6278,"Ġpi":6279,"à¤īà¤ľà¤¡":6280,"conf":6281,"anguage":6282,"-\\\\":6283,"iran":6284,"put":6285,"ween":6286,"wrap":6287,"à¤¾à¥Ī":6288,"à¤ķà¤ªà¤¨":6289,"à¤®à¤ıà¤¸":6290,"Ġà¤¸à¤°à¤¹":6291,"à¥Ī\"":6292,"à¤Ĺà¤§":6293,"Ġà¤ħà¤¦à¤¨":6294,"à¤¼à¥Ĥà¤Ĥ":6295,"Ġà¤īà¤¬à¤²":6296,"Ġà¤īà¤¬à¤°à¤¨":6297,"à¤¶à¤§":6298,"à¤ĸà¤ļ":6299,"Ġ(-":6300,"Ġà¤ıà¤¤":6301,"à¥Ģà¤Ĥ'":6302,"à¤īà¤ļà¤°":6303,"Ġà¤īà¤ªà¤¬à¤¨":6304,"Ġà¤¸à¤¹à¤²":6305,"à¤µà¤¨à¤ļà¤°":6306,"à¥ĭ,âĢĵ":6307,"Ġ1916":6308,"à¤¸à¤¦à¤ķ":6309,"à¤ļà¤²à¤ļ":6310,"à¤ıà¤®à¤¯":6311,"à¥Ī)?":6312,"à¤°à¤Ĺà¤£":6313,"ranjan":6314,"Ġà¤¦à¤¶à¤¹à¤°":6315,"ĠIATA":6316,"Ġ145":6317,"urtle":6318,"à¤¾âĢĻ,":6319,"ĠÂ°":6320,"Kolab":6321,"white":6322,"Do":6323,"TAB":6324,"cy":6325,"yth":6326,"à¤ķà¤ªà¤°":6327,"à¤¯à¤²à¤¯":6328,"à¤²à¤ı":6329,"Ġà¤®à¤¸à¤¨à¤¦":6330,"à¤Ĺà¤«":6331,"à¥ĩà¤Ĥà¤ĥ%":6332,"Ġà¤¨à¤Łà¤°":6333,"Ġà¤¤à¤ľà¤µ":6334,"Ġà¤ķà¤°à¤µà¤Ł":6335,"Ġà¤ıà¤ķà¤®à¤¤":6336,"à¤ħà¤µà¤¨":6337,"à¤¯à¤®à¤²":6338,"Ġà¤Ĩà¤¯à¤°à¤²":6339,"Ġsocial":6340,"à¤°à¤¬à¤¤":6341,"Ġ350":6342,"à¥ĩ--":6343,"à¤µà¤ªà¤²":6344,"any":6345,"à¤ħà¤²à¤®à¤¸":6346,"Ġthere":6347,"Ġ450":6348,"Ġà¤Ĩà¤Īà¤ıà¤®à¤Ī":6349,"orld":6350,"ica":6351,"Ġ750":6352,"ĠAPI":6353,"Ġpng":6354,"à¥«à¥Ń":6355,"à¥©à¥¨":6356,"180":6357,"à¥§à¥¯à¥ª":6358,"1962":6359,"viron":6360,"Ġà¤·à¤¡à¤¯":6361,"Ġja":6362,"Ġà¤įà¤«":6363,"ribution":6364,"redit":6365,"utils":6366,"lish":6367,"greece":6368,")?":6369,";.":6370,"DB":6371,"bar":6372,"cra":6373,"card":6374,"db":6375,"Ġà¤ŀ":6376,"à¤ķà¤¸à¤¨":6377,"à¤ķà¥ľ":6378,"à¥ĭ'":6379,"à¤²à¤ªà¤¨":6380,"à¤ľà¤¤à¤¨":6381,"à¤¬à¤ķà¤µ":6382,"à¤¯à¤ķà¤ķ":6383,"à¤¬à¤°à¤¬":6384,"med":6385,"Ġà¤¬à¤¤à¤ĸ":6386,"esult":6387,"à¤°à¤ªà¤¦":6388,"Ġà¤Ĺà¤£à¤ªà¤¤":6389,"Ġà¤¤à¤²à¤Ľà¤Ł":6390,"Ġ1100":6391,"à¤¸à¤°à¤ķà¤¶":6392,"à¥ľà¤¨":6393,"ukraine":6394,"Ġ280":6395,"Ġà¤Ńà¤Łà¤ķà¤ķà¤°":6396,"Ġà¤®à¤Ĺà¤§":6397,"aya":6398,"Ġ1890":6399,"Ġlearn":6400,"Ġsetting":6401,"vironment":6402,"Play":6403,"bu":6404,"port":6405,"à¤°à¤ľà¤¨à¤ķ":6406,"à¤¯à¤ĸ":6407,"à¤¸à¤Ļ":6408,"à¤®à¤®à¤¤":6409,"à¤¹à¤¹":6410,"Ġà¤ªà¤ĸà¤µ":6411,"à¤µà¤£à¤ķ":6412,"à¤Ĺà¤ĺ":6413,"Ġà¤ľà¤¶":6414,"Ġà¤ľà¤ĺà¤¨":6415,"à¤¬à¤¦à¤®":6416,"à¤Łà¤°à¤®":6417,"Ġà¤¶à¤¦":6418,"à¤ħà¤ªà¤¸":6419,"à¤ħà¤µà¤¯à¤µ":6420,"à¤µà¤¨à¤¯":6421,"Ġ\",":6422,"Ġà¤¹à¤°à¤¬":6423,"à¤®à¤Ĺà¤¢":6424,"Ġchan":6425,"ĠCh":6426,"Ġbefore":6427,"Ġfil":6428,"Ġ142":6429,"ĠGTK":6430,"ute":6431,"agu":6432,"ocation":6433,"1976":6434,"à¥¨à¥¦à¥¦à¥«":6435,"Ġà¤¹à¤łà¤§à¤°":6436,"Ġgradi":6437,"DD":6438,"FC":6439,"SR":6440,"Sec":6441,"TR":6442,"To":6443,"nia":6444,"ral":6445,"à¥ĩâĢĵ":6446,"à¤¯à¤¸à¤²":6447,"à¤®à¤¸à¤²":6448,"Ġà¤ªà¤Ľ":6449,"à¥Ī]":6450,"à¤µà¤¶à¤¤":6451,"Ġà¤ħà¤¤à¤°":6452,"Ġà¤µà¤¡":6453,"à¤¶à¤¤à¤°":6454,"à¤§à¤°à¤¨":6455,"à¤ļà¤®à¤¡":6456,"à¤¡à¤¬à¤°":6457,"Ġà¤Ĺà¤¹à¤¨à¤¤":6458,"Ġà¤ªà¤°à¤ļ":6459,"à¤Īà¤¤":6460,"à¤Īà¤ĺà¤°":6461,"à¤ģ!":6462,"à¤Ľà¤ªà¤Łà¤²":6463,"à¤īà¤ĺ":6464,"à¤¨à¤ķà¤®":6465,"à¤²à¤¨à¤¸":6466,"à¤¦à¤°à¤µà¤¨":6467,"à¤°à¤µà¤²":6468,"Ġà¤Ŀà¤Ł":6469,"Ġ'(":6470,"à¤²à¤¬à¤²":6471,"à¤ħà¤¨à¤²":6472,"Ġnumber":6473,"à¤¶à¤¤à¤¯":6474,"Ġdesktop":6475,"Ġà¤ĩà¤²à¤ľ":6476,"Ġà¤¸à¤²à¤¤à¤¨à¤¤":6477,"ĠSSL":6478,"ĠIBM":6479,"Ġà¤Ĩà¤¹à¤Ł":6480,"def":6481,"à¥Ģ:-":6482,"Ġ368":6483,"kturtle":6484,"Ġdistribut":6485,"odif":6486,"translator":6487,"Ġproperly":6488,"Ġmanual":6489,"Ġregions":6490,"ricket":6491,"%,":6492,"%),":6493,"Date":6494,"NTP":6495,"WY":6496,"co":6497,"can":6498,"ros":6499,"Ġà¤¼":6500,"à¤°à¤³":6501,"à¥ĩà¥ĩ":6502,"à¥ĩà¤¿":6503,"à¥ĭà¤ģ":6504,"à¤¸à¤§":6505,"à¤¸à¤Łà¤°":6506,"à¤®à¤¸à¤®":6507,"à¤²à¤ļà¤¨":6508,"Ġà¤®à¤Ŀ":6509,"Ġà¤®à¤²à¤¬":6510,"à¤Ĺà¤ªà¤¶à¤ª":6511,"à¤ľà¤®à¤¨":6512,"à¤¶à¤µà¤¸":6513,"à¤¬à¤°à¤®à¤¤":6514,"à¤ĸà¤¤à¤°":6515,"à¥Īà¤ĤâĢĿà¥¤":6516,"Ġà¤ıà¤ħà¤°":6517,"Ġà¤¹à¤®à¤µ":6518,"à¤Ŀà¤¬":6519,"à¤°à¤®à¤ª":6520,"à¤ĺà¤Łà¤¤":6521,"Ġà¤¸à¤¬à¤ªà¤°":6522,"Ġà¤ĵà¤¹à¤¦":6523,"Ġ1915":6524,"Ġà¤®à¤¨à¤ĺà¤¡":6525,"à¤°à¤¬à¤²à¤¤":6526,"Ġà¤¢à¤²à¤µ":6527,"tionary":6528,"Ġac":6529,"Ġà¤¦à¤²à¤¹à¤¨":6530,"Ġ206":6531,"Ġ259":6532,"dist":6533,"à¤°à¤¥à¤®à¤¤":6534,"à¥ªà¥¦":6535,"à¥Ńà¥®":6536,"à¥Ģ!\"":6537,"etails":6538,"Ġà¤ıà¤¡à¤µà¤°":6539,"Ġ1897":6540,"isplay":6541,"LongName":6542,"ĠICAO":6543,"CO":6544,"DN":6545,"Poss":6546,"VI":6547,"aut":6548,"bel":6549,"oint":6550,"Ġuk":6551,"à¥įà¤ĥ-":6552,"à¤¨à¤°à¤ķ":6553,"à¤¨à¤¸à¤°":6554,"à¤²à¤¤à¤°":6555,"à¤ªà¤µà¤°":6556,"à¥ĩà¤Ĥ]":6557,"à¤ľà¤¶à¤¬":6558,"à¤ŁName":6559,"à¤ıà¤¹à¤¦":6560,"à¤ļà¤ķà¤¤":6561,"Ġà¤ıà¤¥":6562,"Ġà¤ıà¤µà¤°":6563,"Ġà¤ıà¤¯à¤°à¤µ":6564,"Ġà¤ĸà¤¤à¤®":6565,"Ġà¤ıà¤ķà¤¬":6566,"Ġà¤¹à¤®à¤¸à¤°":6567,"à¤¼à¤¾à¤ģ":6568,"à¤īà¤ľà¤¬":6569,"à¥Ī,)":6570,"à¤°à¤®à¤ļ":6571,"Ġà¤Ľà¤ľ":6572,"à¤µà¤¨à¤Ĺà¤°":6573,"à¥Ģà¥¤-":6574,"Ġà¤ĵà¤ľà¤¸":6575,"à¤¾.)":6576,"à¤µà¤¸à¤µà¤¸":6577,"à¤¹à¤®à¤²":6578,"à¤Ĺà¤²à¤®":6579,"tiv":6580,"Ġ360":6581,"à¤ķà¤¸à¤°à¤¤":6582,"ictionary":6583,"à¤ļà¤ķà¤ª":6584,"ates":6585,"Ġ2025":6586,"Ġ121":6587,"Ġword":6588,"Ġhas":6589,"Ġhope":6590,"Ġà¤ħà¤ĸà¤£":6591,"1301":6592,"Ġ264":6593,"1973":6594,"Ġà¤¶à¤¹à¤µà¤¤":6595,"à¥¨à¥¦à¥¦à¥Ń":6596,"essive":6597,"à¤ıà¤¸à¤ıà¤²à¤µ":6598,"Ġà¤°à¤£à¤ľ":6599,"Ġsecurity":6600,"Ġà¤®à¤¦à¤¯à¤¨à¤µ":6601,"DAV":6602,"POSE":6603,"ungary":6604,"Ġavailable":6605,"Ġbetween":6606,"AC":6607,"Ctrl":6608,"PGP":6609,"View":6610,"lm":6611,"no":6612,"nor":6613,"})":6614,"à¤¯à¤§à¤°":6615,"Ġà¤®à¤Łà¤ķ":6616,"à¤ªà¤ŀ":6617,"Ġà¤²à¤Ļ":6618,"à¤·à¤Ń":6619,"à¤¡à¤®à¤°":6620,"Ġà¤ļà¤ķà¤°":6621,"à¤Īà¤«":6622,"Ġà¤¶à¤¯à¤¨":6623,"Ġà¤ĸà¤°à¤ªà¤¤à¤µ":6624,"à¤ĩà¤¥à¤¨":6625,"Ġà¤ıà¤ķà¤¤à¤°à¤«":6626,"Ġà¤ħà¤¨à¤ļ":6627,"Ġà¤µà¤¹à¤®":6628,"Ġà¤¡à¤®":6629,"à¤®à¤¨à¤®":6630,"à¤¬à¤°à¤²":6631,"à¥Ĥà¤Ĥ-":6632,"Ġ1909":6633,"à¤Ĳà¤¶":6634,"à¥ĭ),":6635,"Ġdetails":6636,"Ġ#%":6637,"à¤¼à¥ĩà¤Ĥà¤ĥ":6638,"rajeshkajha":6639,"Ġunder":6640,"ĠWAR":6641,"1991":6642,"à¤įà¤«":6643,"à¤ıà¤¡à¤µà¤°":6644,"1957":6645,"à¥¨à¥¦à¥¦à¥¬":6646,"MAIN":6647,"Ġà¥§à¥¯à¥¯à¥®":6648,"Ġà¤ĸà¤Łà¤ĸà¤Ł":6649,"UTF":6650,"Ġradio":6651,"Ġkeyword":6652,"Possessive":6653,"'.":6654,"GB":6655,"NESS":6656,"lt":6657,"mand":6658,"px":6659,"rite":6660,"seek":6661,"Ġiv":6662,"à¥ĩâĢĺ":6663,"à¥ĩâĢĿà¥¤":6664,"à¤¤à¤Ĩ":6665,"à¤Ĺà¤Ī":6666,"à¤Ĺà¤ľà¤¨à¤ķ":6667,"Ġà¤ľà¤ĭ":6668,"Ġà¤¨à¤¯à¤¨":6669,"Ġà¤¦à¤ĸ":6670,"Ġà¤²à¤«":6671,"à¤¡à¤°à¤¸à¤¨":6672,"Ġà¤ªà¤°à¤®à¤¹":6673,"à¤ħà¤¸à¤¨":6674,"Ġà¤«à¤µ":6675,"Ġà¤«à¤¤à¤¹":6676,"à¤ªà¤°à¤¹":6677,"à¤°à¤£à¤¨":6678,"âĢİ":6679,"Ġà¤¸à¤¹à¤ª":6680,"Ġsao":6681,"Ġtypes":6682,"ranty":6683,"Ġà¥§à¥§à¥":6684,"Ġ105":6685,"Ġcharacter":6686,"ĠASCII":6687,"ĠPUR":6688,"ĠPART":6689,"ĠMER":6690,"ĠFIT":6691,"à¤°à¤«à¤¤":6692,"Ġ260":6693,"ĠWIT":6694,"ations":6695,"Ġrules":6696,"RANTY":6697,"ILITY":6698,"endar":6699,"Ġà¥§à¥¯à¥¯à¥¬":6700,"ICUL":6701,"Ġeven":6702,"Ġuseful":6703,"Ġlevel":6704,"assword":6705,"Admin":6706,"Ġwarranty":6707,"HOUT":6708,"ĠANY":6709,"Ġimplied":6710,"ĠStreet":6711,"CHANTAB":6712,"albania":6713,"ython":6714,"Ġdistributed":6715,"ĠWARRANTY":6716,"ĠPURPOSE":6717,"ĠPARTICUL":6718,"ĠMERCHANTAB":6719,"ĠFITNESS":6720,"ĠWITHOUT":6721,"ĠPARTICULAR":6722,"ĠMERCHANTABILITY":6723,")%":6724,"./":6725,"ION":6726,"oom":6727,"rb":6728,"Ġerror":6729,"à¤¨à¤¹à¤¸":6730,"à¤²à¤¥":6731,"à¤²City":6732,"à¤Ĺà¥Ľ":6733,"Ġà¤ħà¤µà¤¨":6734,"Ġà¤¬à¤Ĺà¤¦":6735,"à¤¬à¤¹à¤ķ":6736,"à¤§à¤®à¤ķ":6737,"à¤§à¤Ĺà¤®":6738,"à¤·à¤ļ":6739,"à¤¡Name":6740,"à¥Īà¤ĤâĢĿ":6741,"Ġà¤ĩà¤¦à¤°":6742,"Ġà¤¶à¤¤à¤°":6743,"à¤«à¤¬":6744,"à¤¾à¤Ĥ)":6745,"à¤Ĩà¤ĩà¤¸":6746,"à¤ļà¤¨à¤ľ":6747,"Ġsoftware":6748,"Ġà¤¬à¤¦à¤®":6749,"à¥ĩà¤Ĥ,âĢĵ":6750,"Ġà¤Ĩà¤°à¤ª":6751,"Ġà¤ľà¤¨à¤ªà¤¦":6752,"Ġà¤ªà¤¦à¤µ":6753,"à¤ħà¤²à¤®":6754,"Ġà¤¨à¤µà¤¦":6755,"1922":6756,"Ġà¤¸à¤²à¤®":6757,"iià¤ķ":6758,"Ġcd":6759,"Ġprocess":6760,"Ġà¤¨à¤ľà¤°à¤¬":6761,"Ġà¤¤à¤²à¤¹à¤Ł":6762,"ĠTO":6763,"ĠEOL":6764,"Ġà¥§à¥¯à¥¯à¥¦":6765,"Ġà¥©à¥«":6766,"Ġrece":6767,"umb":6768,"ricts":6769,"ĠNameMeeting":6770,"ideo":6771,"load":6772,"Ġdistricts":6773,"libgnomeui":6774,"Gtk":6775,"Script":6776,"hungary":6777,"ies":6778,"yy":6779,"Ļª":6780,"à¤°à¤ªà¤¨":6781,"à¤°weather":6782,"à¤¤à¤ĵ":6783,"à¤¯à¤°à¤¹":6784,"à¤¯à¤£à¤¨":6785,"à¤¸à¤²à¤¨":6786,"à¤®à¤°à¤¤":6787,"à¤¹à¤¬à¤¦":6788,"Ġà¤ªà¤¸à¤²":6789,"à¤Ĺà¤¨à¤²":6790,"Ġà¤ľà¤³":6791,"Ġà¤¬à¤Ľ":6792,"à¤¬à¤°à¤¹":6793,"à¤ıà¤Ĩà¤Ī":6794,"à¤§à¤µà¤¨":6795,"Ġà¤Ĩà¤ĸà¤°":6796,"à¤ħà¤ķà¤°":6797,"à¤ħà¤ľà¤¨":6798,"à¤Ĩà¤ªà¤¤":6799,"Ġà¤¡à¤²à¤¹":6800,"à¤ĺà¤¨à¤ķ":6801,"à¤¾.-":6802,"Ġà¤łà¤¹à¤°à¤¤":6803,"à¤°à¤¬à¤¦à¤²":6804,"inic":6805,"Ġà¤ĩà¤¨à¤ķà¤®":6806,"à¤Ĩà¤°à¤ıà¤«à¤ª":6807,"alsa":6808,"à¤ħà¤ªà¤¹":6809,"Ġcoun":6810,"Ġà¤ħà¤°à¤¬à¤µ":6811,"ĠUSA":6812,"à¥¬à¥«":6813,"à¥Ńà¥«":6814,"à¥¯à¥¦":6815,"INT":6816,"ains":6817,"ShortName":6818,"strong":6819,"uration":6820,"ĠRece":6821,"Ġcounties":6822,"::":6823,"df":6824,"vis":6825,"à¤°à¤Ĺà¤²":6826,"à¤°à¤Ĺà¤®":6827,"à¤¿...":6828,"à¤¨Name":6829,"à¤¤à¤²à¤¨":6830,"à¤ķà¤µà¤ķ":6831,"à¤ķName":6832,"à¤¯à¤¨à¤ķ":6833,"à¤µà¤¯à¤ķ":6834,"Ġà¤ľà¤łà¤°":6835,"Ġà¤µà¤¸à¤²":6836,"Ġà¤ĩà¤ĭà¤°":6837,"à¥Į,":6838,"à¤Ĩà¤µà¤ķ":6839,"Ġà¤¸à¤¹à¤¬à¤¦":6840,"Ġà¤ĩà¤¨à¤¬":6841,"à¤°à¤Ńà¤¦":6842,"à¤ıà¤ķà¤¸":6843,"Ġà¤Ĩà¤°à¤ıà¤¸à¤ıà¤¸":6844,"Ġà¤ħà¤ªà¤¦à¤¸":6845,"à¤ľà¤¬à¤¤à¤ķ":6846,"indi":6847,"Ġnl":6848,"Ġà¤ľà¤²à¤¸à¤¨":6849,"erb":6850,"Ġam":6851,"à¤ıà¤®à¤Ĩà¤°":6852,"à¤ħà¤ªà¤µà¤°":6853,"Ġka":6854,"Ġà¤ıà¤¨à¤¬":6855,"Ġprogram":6856,"Ġ154":6857,"ĠIs":6858,"ĠIt":6859,"à¥©à¥§":6860,"eld":6861,"à¥®à¥«":6862,"Ġhai":6863,"ĠOS":6864,"Ġurl":6865,"1981":6866,"Ġà¤ªà¤£à¤§":6867,"Ġrepublic":6868,"Ġtwo":6869,"seeker":6870,"inican":6871,"AM":6872,"This":6873,"XX":6874,"gi":6875,"nown":6876,"thi":6877,"à¤µà¤ľà¤¹":6878,"à¤¬à¤«à¤°":6879,"Ġà¤Ĩà¤£à¤µ":6880,"Ġà¤ıà¤²à¤¨":6881,"à¤°à¤¤à¤ķ":6882,"à¤ħà¤®à¤¨":6883,"à¤ĵà¤Ĩà¤Ī":6884,"à¥Ī.-":6885,"à¤¸à¤¨à¤µ":6886,"Ġ\"(":6887,"Ġà¤ĵà¤¤":6888,"Ġsource":6889,"Ġ1907":6890,"à¤¿,âĢĵ":6891,"Ġnew":6892,"Ġ4000":6893,"à¤ĸà¤°à¤Ĺ":6894,"Ġà¤ıà¤¸à¤ıà¤®à¤Ī":6895,"à¤°à¤Ĺà¤®à¤¨":6896,"Ġ1850":6897,"à¤ıà¤¨à¤ıà¤ļ":6898,"ĠSMTP":6899,"Ġ155":6900,"à¤ħà¤ľà¤®":6901,"Ġ147":6902,"ĠRep":6903,"à¥§à¥¯à¥«":6904,"1994":6905,"ocal":6906,"Ġà¤īà¤Ńà¤°à¤ķà¤°":6907,"ĠJSA":6908,"à¥¯à¥¯":6909,"epart":6910,"Indian":6911,"dominican":6912,"Empathy":6913,"IG":6914,"Level":6915,"MY":6916,"aust":6917,"page":6918,"Ġ^":6919,"à¤¯à¤µà¤¨":6920,"Ġà¤¬à¤«":6921,"Ġà¤¦à¤°à¤¯":6922,"à¤ıà¤¨à¤µ":6923,"Ġà¤°à¤¤à¤¨":6924,"à¤·à¤µà¤°":6925,"Ġà¤Ĺà¤¹":6926,"Ġà¤ĸà¤ª":6927,"à¤¾à¤Ĥ.":6928,"à¤°à¤£à¤µ":6929,"Ġà¤Ľà¤®":6930,"Ġà¤īà¤¦à¤Ĺ":6931,"à¤Ĳà¤Ĺ":6932,"Ġà¤Ĩà¤°à¤¬":6933,"Ġà¤ħà¤ªà¤ł":6934,"ering":6935,"Ġà¤ħà¤Ĺà¤µ":6936,"Ġ108":6937,"Ġcopy":6938,"set":6939,"Ġbrack":6940,"Ġ{}":6941,"ĠFran":6942,"Ġhyp":6943,"Ġlz":6944,"ector":6945,"Ġ02110":6946,"Ġ1854":6947,"Ġ1883":6948,"ialog":6949,"irst":6950,"tical":6951,"make":6952,"à¥§à¥¯à¥¯à¥¯":6953,"tool":6954,"Ġused":6955,"ĠServerName":6956,"ĠServerAdmin":6957,"ribute":6958,"xxxxxxxx":6959,"ĠExchange":6960,"arbon":6961,"DOMAIN":6962,"nsdl":6963,"Ġbrackets":6964,"BO":6965,"LO":6966,"PS":6967,"String":6968,"ez":6969,"nam":6970,"number":6971,"à¤¸à¤ļà¤°":6972,"Ġà¤ªà¤ª":6973,"Ġà¤²à¤¹à¤¸":6974,"à¤§à¤Ń":6975,"à¤£à¤ķà¤°":6976,"Ġà¤¶à¤®à¤¨":6977,"à¤ħà¤¸à¤°":6978,"à¤ħà¤ªà¤¤":6979,"Ġà¤¹à¤®à¤¬":6980,"Ġà¤ħà¤¨à¤ĭ":6981,"à¤Ĩà¤Ĺà¤®":6982,"à¤ĵà¤Ĩà¤°":6983,"à¤ľà¤¨à¤°":6984,"à¥Ī.)":6985,"à¥Ī.?":6986,"à¥ĩ,-":6987,"Ġ1901":6988,"à¤ħà¤¨à¤ª":6989,"à¤ħà¤¨à¤Ĺ":6990,"Ġà¤¢à¤²à¤¨":6991,"à¤¯à¤ªà¤¦":6992,"à¤ļà¤°à¤²":6993,"à¤ħà¤ªà¤ļ":6994,"Ġ1885":6995,"let":6996,"Ġà¤ķà¤Łà¤ķà¤°":6997,"à¤ħà¤¸à¤¹":6998,"Ġ123":6999,"à¤īà¤ªà¤§":7000,"Ġfree":7001,"Ġ1700":7002,"Ġlt":7003,"ĠZà¤¹":7004,"Ġà¤ĸà¤¨à¤ĸà¤¨":7005,"Ġ356":7006,"Ġconfig":7007,"1952":7008,"1958":7009,"rich":7010,"9660":7011,"ĠJobseeker":7012,"Ġdirectory":7013,"!!":7014,"':%":7015,"144":7016,"Ass":7017,"Mo":7018,"gr":7019,"à¤²à¤§à¤¨":7020,"Ġà¤ħà¤°à¤£":7021,"Ġà¤ħà¤¤à¤°à¤«à¤²à¤ķ":7022,"à¤¼à¤¼":7023,"à¤ıà¤²à¤¬à¤®":7024,"Ġà¤Ĩà¤¥":7025,"Ġà¤ĩà¤¯":7026,"Ġà¤ĩà¤ķà¤²":7027,"à¤Īà¤ķà¤²":7028,"à¤ĩà¤¯à¤¤":7029,"à¤Ĩà¤µà¤§":7030,"à¤Ĩà¤¯à¤¤à¤¨":7031,"à¤¾à¤ģ?":7032,"Ġà¤ħà¤²à¤µà¤°":7033,"à¤¾-\"":7034,"à¤¨à¤µà¤¶":7035,"Ġterm":7036,"Ġà¤ĭà¤¸à¤ķ":7037,"Ġdate":7038,"Ġar":7039,"1960":7040,"à¤¹à¤²à¤¹":7041,"à¤¿)à¥¤":7042,"ĠSec":7043,"ĠBains":7044,"Ġmm":7045,"à¥©à¥«":7046,"à¥ªà¥«":7047,"right":7048,"Ġà¤Ĩà¤īà¤Łà¤¸":7049,"256":7050,"à¤ĳà¤«à¤¸":7051,"1955":7052,"1980":7053,"1965":7054,"Ġà¥¨à¥¦à¥§à¥¦":7055,"Ġà¤įà¤¨":7056,"Ġalong":7057,"ohn":7058,"record":7059,"arcus":7060,"ĠReceive":7061,"Dev":7062,"Pr":7063,"TT":7064,"fs":7065,"jama":7066,"pm":7067,"Ġà¤¾":7068,"à¤¾à¥ģ":7069,"à¤¤à¤¦à¤°":7070,"à¥ĭ:":7071,"à¤¯à¤Ĺà¤¤":7072,"Ġà¤¹à¤¶":7073,"à¤®à¤¶à¤ķ":7074,"à¤²à¤µà¤°":7075,"Ġà¤ľà¤ķ":7076,"à¤¼/":7077,"à¤¡à¤ªà¤®":7078,"Ġà¤¯à¤¶à¤¸":7079,"à¤«à¤ľ":7080,"à¤ħà¤°à¤®":7081,"à¤ħà¤µà¤¹":7082,"à¤°à¤¹à¤ķà¤°":7083,"Ġà¤Łà¤²à¤¤":7084,"à¤¾..":7085,"Ġà¤°à¤¸à¤¦":7086,"à¤¸à¤²à¤°":7087,"à¤Ĺà¤²à¤¸":7088,"tina":7089,"à¤Ĩà¤°à¤ĵ":7090,"Ġà¤Ĳà¤¡":7091,"à¤®à¤¹à¤ľ":7092,"lat":7093,"à¤ıà¤®à¤ı":7094,"Ġ<%":7095,"outh":7096,"Ġpage":7097,"à¤ķà¤ķà¤¥":7098,"viet":7099,"1951":7100,"Ġà¥¦à¥¦":7101,"hell":7102,"Ġcdrecord":7103,"jamaica":7104,"Bus":7105,"CE":7106,"Me":7107,"SHA":7108,"bo":7109,"do":7110,"fer":7111,"ià¤ķ":7112,"oice":7113,"ÅĪ":7114,"Ġà¤Ļ":7115,"à¥ĩ]":7116,"à¤¤à¤ªà¤¸":7117,"à¤¸à¤ªà¤¨":7118,"à¤®à¤¢":7119,"Ġà¤¸à¤¶":7120,"Ġà¤¸à¤Ĺà¤°":7121,"à¥ģ:":7122,"Ġà¤ħà¤¥à¤°":7123,"à¤¶à¤ªà¤¥":7124,"à¤¬à¤Ľà¤¡":7125,"à¤Łà¤¸à¤¨":7126,"Ġà¤Ĩà¤¶à¤¨":7127,"à¤£à¤¶à¤ķ":7128,"Ġà¤Ĺà¤«":7129,"Ġà¤ĩà¤Ĺ":7130,"à¤¾à¤Ĥ;":7131,"à¤łà¤¯à¤ķ":7132,"à¤°à¤£à¤µà¤¶":7133,"à¤°à¤¹à¤¸à¤¨":7134,"à¤°à¤µà¤§":7135,"à¤¨à¤µà¤µ":7136,"inter":7137,"Ġà¤ĭà¤¸à¤®":7138,"optic":7139,"à¤ıà¤¨à¤Īà¤ľ":7140,"à¤ĩà¤¡à¤¬":7141,"à¤īà¤ªà¤ĸ":7142,"Ġ116":7143,"Ġà¤ªà¤¨à¤¬":7144,"ech":7145,"ask":7146,"Ġà¥¬à¥¬":7147,"dev":7148,"1968":7149,"Ġ1891":7150,"Ġbegin":7151,"Ġà¥®à¥¦":7152,"Ġany":7153,"uthor":7154,"à¥įà¤ĥâĢĵ":7155,"Ġreceived":7156,"Ar":7157,"Key":7158,"ead":7159,"les":7160,"ne":7161,"ux":7162,"Ġlabel":7163,"Ġà¤¹à¤¨à¤¨":7164,"à¤¹à¤²à¤¨":7165,"Ġà¤®à¤¯à¤¸":7166,"Ġà¤ľà¤¸à¤µ":7167,"à¤ľà¤¯à¤¦":7168,"Ġà¤¤à¤¸à¤µ":7169,"à¤Ńà¤£":7170,"à¥Īà¥¤--":7171,"Ġà¤ıà¤ķà¤¨":7172,"à¤¬à¤°à¤ĸ":7173,"à¤°à¤Ńà¤ķ":7174,"Ġà¤®à¤¨à¤ļ":7175,"Ġà¥Ļ":7176,"Â¥ÂĮ":7177,"à¤ıà¤¸à¤¯":7178,"à¥ĭ)à¥¤":7179,"à¤¬à¤¦à¤²à¤¨":7180,"itain":7181,"Ġkao":7182,"Ġ103":7183,"1200":7184,"Ġà¤ıà¤²à¤Īà¤¡":7185,"ĠBost":7186,"Ġ136":7187,"Ġwrite":7188,"eden":7189,"à¤¸à¤®à¤Ŀà¤¦":7190,"243":7191,"ada":7192,"Ġrem":7193,"1977":7194,"1959":7195,"1969":7196,"à¥¯à¥Ń":7197,"Ġà¥§à¥¯à¥¯à¥¯":7198,"Ġà¥§à¥¯à¥®à¥¦":7199,"OLD":7200,"Ġevent":7201,"Ġexample":7202,"ĠControl":7203,"PRODUCTNAME":7204,"dress":7205,"eekday":7206,"Ġplugin":7207,"gentina":7208,"thiop":7209,"ĠBoston":7210,"\"--":7211,"220":7212,"Coptic":7213,"great":7214,"res":7215,"Ð¸":7216,"à¥į:-":7217,"à¤Ĥ:":7218,"à¤ķà¤¨à¤ķ":7219,"Ġà¤¨à¤ĸ":7220,"Ġà¤¨à¤µà¤¨":7221,"Ġà¤¤à¤µà¤ķ":7222,"Ġà¤ĩà¤¹à¤°":7223,"à¤ĩà¤²à¤¤":7224,"à¤ĩà¤¡à¤²":7225,"à¤µà¤°à¤¸":7226,"à¤īà¤¤à¤¨":7227,"à¤ªà¤°à¤ĸ":7228,"Ġà¤¡à¤²à¤µ":7229,"à¤¸à¤°à¤ľ":7230,"Ġà¤Ľà¤Ĭ":7231,"à¤°à¤¹à¤ª":7232,"à¤ĺà¤¦":7233,"Ġà¤ħà¤µà¤Ĺ":7234,"Ġà¤Īà¤Ĩà¤Īà¤ı":7235,"à¤¾.%":7236,"à¥Ĥà¤Ĥ;":7237,"à¤Łà¤¨City":7238,"Ġsu":7239,"Ġà¤ľà¤²à¤Ĺ":7240,"Ġà¤Ĺà¤°à¤ľ":7241,"à¤¹à¤¨à¤¦":7242,"à¤¬à¤¦à¤¬":7243,"à¤Ńà¤Ĺà¤µà¤¦":7244,"its":7245,"ither":7246,"Ġà¤ħà¤¦à¤°à¤ķ":7247,"Ġà¤ıà¤¸à¤¬":7248,"argentina":7249,"Ġà¤ĩà¤ķà¤¬":7250,"à¤ĳà¤¯à¤²":7251,"ĠSMS":7252,"ĠSHA":7253,"à¤¸à¤¹à¤¦":7254,"ĠPermissions":7255,"Ġpar":7256,"à¤¦à¤¶à¤¹à¤°":7257,"Ġeither":7258,"utton":7259,"à¤ıà¤ļà¤ľ":7260,"à¤ıà¤ļà¤ıà¤¸":7261,"à¤ĩà¤¨à¤ķà¤®":7262,"Ġà¥©à¥©":7263,"Ġ226":7264,"à¤¯à¤Ńà¤Ł":7265,"Ġà¤¬à¤¹à¤°à¤¹":7266,"1984":7267,"Ġ1893":7268,"Ġstate":7269,"Ġ`.":7270,"Ġ1861":7271,"immed":7272,"abled":7273,"ocket":7274,"uela":7275,"Ġà¤īà¤Ľà¤²à¤¤":7276,"ĠConn":7277,"britain":7278,"sweden":7279,"venez":7280,"GNOME":7281,"venezuela":7282,"-_":7283,"Disc":7284,"SH":7285,"cm":7286,"cr":7287,"flic":7288,"pol":7289,"send":7290,"Ġall":7291,"à¤¨à¤µà¤²à¤°":7292,"à¥ĢâĢĶ":7293,"à¤¯à¤¦à¤°":7294,"à¤¹à¤®à¤ķ":7295,"Ġà¤®à¤¨à¤¨":7296,"Ġà¤¤à¤¸à¤ķ":7297,"Ġà¤īà¤®à¤¦":7298,"Ġà¤Ńà¤Ī":7299,"à¤Ńà¤°à¤ķà¤®":7300,"à¤Īà¤Ĩà¤ķ":7301,"à¥Īà¥¤.":7302,"à¤«à¤²à¤¨":7303,"Ġà¤ĸà¤°à¤¨":7304,"Ġà¤¥à¤ķà¤¤":7305,"à¤Ĩà¤²à¤¸":7306,"à¤ĵà¤·":7307,"à¤¯à¤®à¤ķ":7308,"Â¤Âĺ":7309,"Ġà¤Łà¤ķà¤¸":7310,"Ġà¤ħà¤µà¤¨à¤¤":7311,"Ġà¤Ĩà¤¯à¤²":7312,"Ġ\".":7313,"à¥Ĥà¤ģ!":7314,"Ġshort":7315,"Ġ',":7316,"à¤ıà¤¸à¤Ĩà¤Īà¤¸":7317,"Ġà¤ľà¤Ĺà¤ľ":7318,"à¤ħà¤ªà¤¶":7319,"Ġkr":7320,"Ġà¤ıà¤¸à¤ª":7321,"Ġà¤ıà¤¸à¤ıà¤®à¤ıà¤¸":7322,"Ġ104":7323,"Â¥Âĩ-":7324,"ĠComment":7325,"Ġà¤ıà¤®à¤¡":7326,"Ġ122":7327,"Ġ129":7328,"dire":7329,"ĠBOLD":7330,"Ġmodif":7331,"1860":7332,"à¥¬à¥¨":7333,"à¤¸à¤®à¤Ŀà¤¤":7334,"à¤įà¤¨":7335,"ight":7336,"Ġà¥Ńà¥«":7337,"ĠÂ£":7338,"Ġevery":7339,"ĠÃĤ":7340,"formation":7341,"thiopian":7342,"CL":7343,"Java":7344,"ROR":7345,"SOCKS":7346,"`.":7347,"chi":7348,"lut":7349,"su":7350,"should":7351,"Å£":7352,"Ġâĺº":7353,"Ġà¤¹à¤µà¤¸":7354,"à¥ģà¤¾":7355,"à¥Ī'":7356,"à¤ªà¤ªà¤¨":7357,"à¥ĩà¤Ĥ!\"":7358,"Ġà¤¨à¤ĸà¤²":7359,"à¤ľà¤¦à¤°à¤¬":7360,"Ġà¤¬à¤¶":7361,"à¤¬à¤¬":7362,"à¤ıà¤¡à¤µ":7363,"Ġà¤°à¤¦à¤Ĺ":7364,"à¤ļà¤°à¤®":7365,"à¤ĸà¤¤à¤°à¤¨":7366,"Ġà¤ıà¤¤à¤ķ":7367,"Ġà¤ıà¤¤à¤¦":7368,"Ġà¤ĸà¤¸à¤°":7369,"à¤ĩà¤ķà¤¤":7370,"à¤ĩà¤Łà¤¨":7371,"Ġà¤ıà¤ķà¤¸à¤®":7372,"Ġà¤«à¤£":7373,"à¤ªà¤°à¤ª":7374,"à¥ĩ,\"":7375,"à¤®à¤¨à¤¨":7376,"Ġà¤ĵà¤ıà¤¸":7377,"Ġà¤ĩà¤¨à¤«":7378,"à¤ıà¤ķà¤¡":7379,"à¤¾).":7380,"Ġà¤ķà¤²à¤°":7381,"Ġ323":7382,"Ġno":7383,"Ġà¤ľà¤²à¤ķà¤°":7384,"Ġà¤¸à¤ļà¤²":7385,"Ġtr":7386,"Ġà¤Ĳà¤¤à¤¬":7387,"à¤ľà¤²à¤¸":7388,"à¤ıà¤®à¤Ĩà¤Ī":7389,"à¤ħà¤ªà¤ł":7390,"open":7391,"à¤¹à¤¤à¤°à¤®":7392,"ĠâĢĿ.":7393,"ata":7394,"à¤²à¤ķà¤°à¤¨":7395,"Ġch":7396,"Ġcl":7397,"à¤ħà¤µà¤®":7398,"120":7399,"Ġ1400":7400,"ĠRem":7401,"Ġ170":7402,"à¥ªà¥Ń":7403,"à¥ľà¤ķ":7404,"ĠLink":7405,"Ġhint":7406,"à¥īà¤ģ,":7407,"Ġgas":7408,"Ġup":7409,"riend":7410,"Ġà¥©à¥¯":7411,"Ġ276":7412,"Ġà¤īà¤ªà¤ĸà¤£":7413,"Ġà¤ķà¤£à¤Ńà¤°":7414,"house":7415,"Ġ1858":7416,"Ġ0114":7417,"sert":7418,"à¤ıà¤¸à¤Ĩà¤Īà¤Ĩà¤°":7419,"à¤¹à¤¥à¤ķà¤°à¤ĺ":7420,"anced":7421,"-(":7422,"cub":7423,"class":7424,"eal":7425,"tur":7426,"}.":7427,"à¤¨à¤¹à¤²":7428,"à¤¤à¤®à¤¨":7429,"à¤®à¤¸à¤¨":7430,"Ġà¤¸à¤¥":7431,"à¤ªà¤¹à¤¨":7432,"Ġà¤ľà¤Ĺà¤®":7433,"Ġà¤ħà¤ªà¤¤":7434,"Ġà¤ħà¤ķà¤²":7435,"Ġà¤µà¤¤":7436,"Ġà¤µà¤¦":7437,"à¤ľà¤¯à¤µ":7438,"à¤ľà¤łà¤°":7439,"Ġà¤ªà¤°à¤«":7440,"à¥Īà¤Ĥ--":7441,"à¥ĥà¥į":7442,"à¤Ĩà¤Ľ":7443,"à¤¾,?":7444,"à¤¶à¤¨à¤Ń":7445,"à¥Ģ,âĢĵ":7446,"Ġà¤Ĩà¤¯à¤°":7447,"Ġà¤ĵà¤¨":7448,"à¤°à¤µà¤£à¤¤":7449,"Ġà¤ĩà¤¨à¤²":7450,"à¤ıà¤ķà¤ķ":7451,"Ġ192":7452,"Ġ1903":7453,"à¤ħà¤¨à¤¸":7454,"à¤ħà¤¨à¤§":7455,"Ġà¤ĳà¤µ":7456,"à¤Ńà¤µà¤Ń":7457,"Ġ1880":7458,"ature":7459,"Ġà¤¹à¤ľà¤°à¤¤":7460,"Ġà¤ıà¤®à¤ıà¤®à¤ª":7461,"header":7462,"à¤īà¤ªà¤µ":7463,"Ġ111":7464,"Ġpub":7465,"à¤ķà¤²à¤¨à¤ķà¤°":7466,"à¥«à¥«":7467,"Ġà¤ªà¤¨à¤ªà¤¨":7468,"ĠhOM":7469,"à¤²à¤ļà¤Ł":7470,"Ġà¥¨à¥¦à¥¦à¥¨":7471,"à¤Ĩà¤®à¤¦à¤¨":7472,"à¤įà¤¸":7473,"à¥Ľà¤°":7474,"1975":7475,"ape":7476,"à¥¨à¥¦à¥¦à¥¦":7477,"Ġ1898":7478,"Ġ1899":7479,"Ġà¤¬à¤°à¤«à¤¬":7480,"lished":7481,"ĠEnvironment":7482,"Ġmodify":7483,"lutter":7484,")(":7485,".âĢĶ":7486,"DM":7487,"Na":7488,"UE":7489,"aar":7490,"imi":7491,"my":7492,"ver":7493,"wat":7494,"à¤Ĥà¥ĩ":7495,"à¤¨à¤µà¤¨":7496,"à¤®à¤Ľ":7497,"Ġà¤®à¤°à¤ľ":7498,"à¤ĹName":7499,"à¤ľà¤¯à¤ķ":7500,"à¤¼à¥Ģà¤Ĥ":7501,"à¤¬à¤ļà¤¨":7502,"Ġà¤²à¤Ľ":7503,"à¤ıà¤Ĩà¤Īà¤Ĩà¤°":7504,"Ġà¤Ńà¤°à¤ķà¤®":7505,"Ġà¤Ĺà¤§à¤°":7506,"Ġ(\\\\":7507,"à¤ħà¤¹à¤®":7508,"à¤Ĩà¤ĺ":7509,"à¤Ĩà¤ĩà¤¯":7510,"à¤Ĩà¤ļà¤°à¤£":7511,"Ġà¤¸à¤¹à¤ļà¤°":7512,"Â¤ÂĶ":7513,"Ġà¤ķà¤®à¤¸":7514,"Ġà¤®à¤¹à¤ķ":7515,"à¥Ģ)-":7516,"Ġse":7517,"Ġ1904":7518,"ane":7519,"à¤Ĩà¤Īà¤ıà¤¨":7520,"alse":7521,"oph":7522,"abase":7523,"atabase":7524,"à¤²à¤µà¤Ł":7525,"Ġ102":7526,"ĠSO":7527,"Ġco":7528,"Ġ158":7529,"Ġà¥¨à¥¯":7530,"://...":7531,"Ġ114":7532,"à¤ªà¤²à¤Łà¤¨":7533,"ĠBCC":7534,"Ġà¤ªà¤¨à¤ªà¤¤":7535,"ĠDis":7536,"à¥¬à¥©":7537,"Ġà¥§à¥¯à¥¨":7538,"Ġ239":7539,"Ġyear":7540,"tres":7541,"Ġà¤·à¤·":7542,"imal":7543,"iff":7544,"Ġà¤¸à¤°à¤¹à¤¦":7545,"Ġterms":7546,"Ġpublished":7547,"230":7548,"EC":7549,"Ex":7550,"Next":7551,"User":7552,"oe":7553,"Ļ«":7554,"à¥įà¥Ģ":7555,"à¤¿à¥į":7556,"à¤¸à¤īà¤¦":7557,"à¤®à¤°à¤¸":7558,"Ġà¤¸à¤ĺà¤¨à¤¤":7559,"à¤¦à¤®à¤ķ":7560,"Ġà¤µà¤®à¤¨":7561,"Ġà¤¨à¤Ń":7562,"à¤¬à¤¶":7563,"Ġà¤°à¤ľà¤µ":7564,"à¤·à¤®à¤²":7565,"à¥Īà¤ĤâĢĶ":7566,"à¥Īà¥¤)":7567,"à¤ħà¤µà¤ļ":7568,"à¤Ĩà¤¯à¤¶":7569,"à¤ªà¤°à¤¶":7570,"Ġà¤īà¤ªà¤¸à¤®":7571,"Ġà¤ªà¤¹à¤¨à¤ķà¤°":7572,"Ġà¤Ľà¤ªà¤¨":7573,"Ġà¤¸à¤¹à¤µ":7574,"à¤ĺà¤²à¤¨":7575,"à¤¯à¤¨à¤°":7576,"à¤¾....":7577,"Ġà¤ħà¤ļà¤°à¤ľ":7578,"Ġà¤ħà¤ªà¤¹":7579,"Ġà¤łà¤Ĺ":7580,"à¤¤à¤µà¤ķ":7581,"Ġà¤Ķà¤¶":7582,"Ġtrans":7583,"Ġdescription":7584,"1934":7585,"led":7586,"Ġ8000":7587,"atal":7588,"Ġà¤¹à¤²à¤«à¤¨":7589,"à¤²à¤µà¤£":7590,"Ġcount":7591,"Ġcricket":7592,"ĠCou":7593,"à¤ħà¤¸à¤Ļ":7594,"Ġmail":7595,"Ġà¤ķà¤¸à¤ķà¤°":7596,"Ġà¤Ĩà¤īà¤Łà¤¬":7597,"Ġà¤®à¤Ĺà¤°à¤®à¤ļ":7598,"Ġval":7599,"amAss":7600,"nglish":7601,"Ġredist":7602,"ove":7603,"à¥¨à¥¦à¥¦à¥ª":7604,"Ġ1894":7605,"à¥¯à¥«":7606,"Ġ1871":7607,"Ġanti":7608,"à¥§à¥¯à¥¦":7609,"layer":7610,"Ġlater":7611,"à¤µà¤²à¤¨à¤¶":7612,"assin":7613,"OUNT":7614,"limate":7615,"Ġgradients":7616,"amAssassin":7617,"Ġredistribute":7618,"050":7619,"Ethiopian":7620,"cu":7621,"dao":7622,"rranjan":7623,"south":7624,"uc":7625,"Ġà¤ķà¤¸à¤¨":7626,"à¤¤à¤¹à¤¸":7627,"à¤ķà¤Ľ":7628,"à¤¸à¤Ĺà¤°":7629,"Ġà¤¸à¤¶à¤°":7630,"à¤Ĺà¤ªà¤Ł":7631,"Ġà¤¨à¤¥":7632,"à¤ľà¤¹à¤°":7633,"à¤¼'":7634,"à¤¼à¥ĥ":7635,"Ġà¤¦à¤ĭà¤°":7636,"à¤¶à¤¯à¤¤":7637,"à¤Łà¤ļ":7638,"Ġà¤°à¤®à¤ľ":7639,"à¤§à¤¨à¤ķ":7640,"à¤¡à¤Ł":7641,"Ġà¤Ĺà¤¡à¤ķà¤°":7642,"Ġà¤ĩà¤¡":7643,"Ġà¤ļà¤¹à¤¤":7644,"Ġà¤ļà¤°à¤¨":7645,"à¤Īà¤Ĩà¤Īà¤ı":7646,"à¤«à¤°à¤ª":7647,"Ġ119":7648,"Ġà¤Ĩà¤ªà¤Ł":7649,"à¤¯à¤®à¤¸":7650,"Ġ220":7651,"Ġà¤Īà¤²":7652,"Ġà¤ķà¤®à¤¬à¤ĸ":7653,"à¤¦à¤¨à¤Ĺà¤°":7654,"à¥Ĥà¤ģ;":7655,"à¤Ĳà¤®":7656,"Ġà¤Ĭà¤ļ":7657,"anag":7658,"Ġ550":7659,"à¤¸à¤¤à¤²":7660,"Ġdefault":7661,"à¤¹à¤ķà¤®":7662,"Ġ109":7663,"Ġà¤®à¤¶à¤µ":7664,"ĠTax":7665,"ĠMy":7666,"Ġpassword":7667,"ĠFif":7668,"ĠFlo":7669,"ĠUN":7670,"à¥©à¥ª":7671,"à¥®à¥Ń":7672,"Ġintres":7673,"ĠEd":7674,"ĠOpen":7675,"1997":7676,"over":7677,"1987":7678,"Ġà¤¤à¤¹à¤ĸ":7679,"à¤Ĩà¤ĩà¤ķà¤¨":7680,"\"\"\"":7681,"ICQ":7682,"DEV":7683,"flict":7684,"ĠFifth":7685,"Ġintresting":7686,"SP":7687,"Socket":7688,"mbox":7689,"ner":7690,"vanced":7691,"Ã©":7692,"Ġout":7693,"à¤°à¤Ī":7694,"à¤Ĥà¤Ĥ":7695,"à¥Ģà¤¿":7696,"Ġà¤¸à¤µà¤°":7697,"à¤µà¤¦à¤¤":7698,"à¤¦à¤¶à¤ķ":7699,"à¤Ĺà¤£à¤¤":7700,"Ġà¤ľà¤¯à¤¸":7701,"Ġà¤īà¤¹":7702,"à¤¶à¤£":7703,"à¤·à¤²":7704,"à¤ļà¤°à¤¨":7705,"à¤¡à¤¸à¤¨":7706,"à¤£à¤²":7707,"Ġà¤ļà¤£":7708,"Ġà¤¸à¤®à¤²":7709,"Ġà¤¹à¤®à¤ľ":7710,"à¤łà¤£":7711,"à¤īà¤®à¤°":7712,"à¤²à¤¨à¤ªà¤¤":7713,"Ġ210":7714,"à¤¼à¥ĩ?":7715,"à¤¯à¤¨à¤®":7716,"à¥Ģ):":7717,"Ġ1902":7718,"Ġà¤łà¤Ł":7719,"Ġà¤¸à¤¤à¤²":7720,"à¤¤à¤µà¤ª":7721,"à¥Ģ--":7722,"ince":7723,"à¤ħà¤²à¤¸":7724,"à¤Ĩà¤°à¤Ī":7725,"Ġà¤ĭà¤®":7726,"1938":7727,"ĠSc":7728,"à¤ĩà¤¡à¤¶":7729,"Ġà¤ıà¤®à¤Ł":7730,"à¥ĭ--":7731,"à¤¿.)":7732,"à¥¬à¥¬":7733,"à¥ªà¥¨":7734,"Ġinter":7735,"à¤ªà¤¥à¤ª":7736,"Ġà¥¨à¥¦à¥¦à¥§":7737,"Ġva":7738,"Ġà¤¬à¤®à¤¬":7739,"Ġà¥ªà¥«":7740,"Ġà¤Ĺà¤¡à¤¬à¤¡":7741,"1978":7742,"oxide":7743,"Ġ1881":7744,"Ġ1886":7745,"Ġ1876":7746,"ÃīÅ":7747,"ncil":7748,"viià¤ķ":7749,"Ġà¥¯à¥¦":7750,"Insert":7751,"acebook":7752,"................":7753,"drdao":7754,"urrent":7755,":\"":7756,"Col":7757,"Font":7758,"IA":7759,"IB":7760,"ield":7761,"klin":7762,"va":7763,"à¤¾(":7764,"à¥į:":7765,"à¤¤à¤ªà¤¨":7766,"à¤¯à¤¯à¤ķ":7767,"à¤¯à¤¬à¤°":7768,"à¤¸à¤ªà¤¦":7769,"à¥ģ;":7770,"Ġà¤ªà¤²à¤¸":7771,"à¥ĩà¤ĤâĢĵ":7772,"Ġà¤¦à¤°à¤ķ":7773,"à¤¶à¤°à¤¦":7774,"à¤¬à¤ĭ":7775,"Ġà¤²à¤Ń":7776,"Ġà¤Ńà¤¨à¤ķ":7777,"à¤ĩà¤®à¤¸":7778,"Ġà¤¸à¤®à¤°à¤¸à¤¤":7779,"à¤ħà¤¶à¤°":7780,"Ġà¤ħà¤¨à¤¶à¤¨":7781,"à¤Ĩà¤¨à¤²":7782,"à¤Ĩà¤¸à¤ª":7783,"à¤łà¤¦":7784,"à¤īà¤¸à¤°":7785,"à¥īà¥¤":7786,"à¤®à¤¤à¤µ":7787,"Ġà¤ĵà¤¤à¤ª":7788,"Ġà¤¬à¤¢à¤ĭ":7789,"Ġsearch":7790,"Ġà¤ħà¤ļà¤¯à¤¨":7791,"Ġà¤¦à¤°à¤ª":7792,"Ġà¥ĺ":7793,"Ġà¤ľà¤¨à¤¶":7794,"à¤Ĭà¤ľ":7795,"à¤ħà¤²à¤µ":7796,"à¤Ĩà¤°à¤ıà¤®":7797,"america":7798,"à¤¬à¤¦à¤ķ":7799,"Ġà¤Ĳà¤¹":7800,"Ġacc":7801,"Ġà¤®à¤ľà¤®":7802,"à¤ľà¤²à¤ª":7803,"eep":7804,"Ġà¤ĩà¤ķà¤¹à¤°":7805,"ĠShow":7806,"Ġcategory":7807,"Ġpref":7808,"Ġ2030":7809,"ĠAct":7810,"Ġà¤ªà¤²à¤¡":7811,"iles":7812,"109":7813,"Ġ[\\\\":7814,"ĠNo":7815,"245":7816,"ood":7817,"1983":7818,"ĠÂ©":7819,"à¤ħà¤ĸà¤¬":7820,"orea":7821,"âĢ¦âĢ¦":7822,"Ġrajeshkajha":7823,"Ġâĺ»âĺ»âĺ»":7824,"centre":7825,"reenhouse":7826,"ĠFranklin":7827,"vietnam":7828,"imian":7829,"ĠCouncil":7830,"ĠFloor":7831,"Ob":7832,"Of":7833,"TO":7834,"bb":7835,"desktop":7836,"ie":7837,"mit":7838,"national":7839,"à¥ĩâĢĶ":7840,"à¥į'":7841,"à¥įà¤¾à¥Ģ":7842,"à¤ķà¤ı":7843,"Ġà¤ªà¤ĸ":7844,"à¥Īà¥į":7845,"Ġà¤®à¤°à¤µ":7846,"à¤¦à¤¯à¤¸":7847,"à¥ĭà¤Ĥà¤ĥ":7848,"à¤ıà¤Ī":7849,"Ġà¤°à¤®à¤¨":7850,"Ġà¤°à¤ļà¤¤":7851,"à¤§à¤¹":7852,"Ġà¤Ńà¤¡à¤ķ":7853,"Ġà¤Ĺà¤Ĺà¤¨":7854,"Ġ(),":7855,"Ġà¤ĩà¤ķà¤¤":7856,"Ġà¤¶à¤°à¤®":7857,"à¤ĩà¤ķà¤Ł":7858,"à¥Į)":7859,"à¥Į.":7860,"Ġà¤¹à¤®à¤¦":7861,"à¤¸à¤®à¤¤à¤²":7862,"Ġà¤ľà¤¬à¤²à¤ª":7863,"à¤µà¤¨à¤ªà¤°":7864,"à¤ŀà¤£":7865,"Ġà¤ĵà¤µ":7866,"à¤ķà¤²à¤°":7867,"Ġà¤ħà¤ªà¤ļ":7868,"Ġà¤®à¤¨à¤µ":7869,"mes":7870,"menia":7871,"à¤¬à¤²à¤µ":7872,"Ġà¤¬à¤°à¤Ĺà¤¦":7873,"ali":7874,"Ġà¤Ĩà¤Īà¤¨":7875,"icros":7876,"à¤ħà¤ªà¤ĺ":7877,"à¤ıà¤²à¤Ł":7878,"armenia":7879,"Ġà¤¦à¤²à¤ªà¤¤à¤°":7880,"read":7881,"ĠAd":7882,"ĠAss":7883,"Â¤ÂĤ:":7884,"111":7885,"ility":7886,"à¤ĩà¤®à¤Ĩà¤īà¤Ł":7887,"Ġà¤¤à¤¨à¤ĸ":7888,"à¥®à¥§":7889,"à¥Ńà¥¨":7890,"à¥Ńà¥Ń":7891,"Ġà¤ıà¤«à¤ª":7892,"Ġà¤īà¤¤à¤°à¤ķà¤°":7893,"acc":7894,"ivative":7895,"Ġlanguage":7896,"user":7897,"1982":7898,"ession":7899,"Ġà¥Ńà¥¦":7900,"Ġ1887":7901,"ENT":7902,"ixbu":7903,"peru":7904,"Ġaddress":7905,"Ġdays":7906,"Ġbenefits":7907,"toolbar":7908,"')":7909,".:":7910,"Ev":7911,"IBM":7912,"Time":7913,"])?":7914,"custom":7915,"mt":7916,"rame":7917,"rror":7918,"Ãº":7919,"Ġid":7920,"à¤¾âĢį":7921,"à¥įà¤¾":7922,"à¤¿!":7923,"Ġà¤ķà¤¸à¤°":7924,"à¤¨à¤Ĺà¤¢":7925,"à¤¸france":7926,"Ġà¤¸à¤Īà¤¦":7927,"Ġà¤µà¤¨à¤®":7928,"Ġà¤¬à¤¬":7929,"Ġà¤¦à¤®à¤ķà¤¤":7930,"à¤¶à¤°à¤®":7931,"à¤¬à¤¹à¤¤":7932,"Ġà¤°à¤Ł":7933,"à¤·à¤°à¤¶":7934,"Ġà¤ĩà¤ķà¤°":7935,"Ġà¤ıà¤¸à¤µ":7936,"Ġà¤ļà¤ķà¤¨":7937,"à¤ĪName":7938,"Ġà¤ĸà¤²à¤¨":7939,"à¤ħà¤°à¤£":7940,"Ġà¤ħà¤¨à¤Ĺà¤¢":7941,"à¤°à¤£à¤ķ":7942,"à¤¤à¤¨à¤Ń":7943,"à¤ĺà¤ĺ":7944,"à¤¦à¤¨à¤ķà¤°":7945,"à¤µà¤¤à¤¤":7946,"Ġà¤ľà¤¨à¤ª":7947,"Ġà¤ªà¤¦à¤Ń":7948,"à¤ĭà¤®":7949,"Ġà¤®à¤°à¤ķà¤°":7950,"ich":7951,"Ġ020":7952,"Ġà¤ıà¤¨à¤Ĩà¤Īà¤¸":7953,"à¥Ģà¤ĥ-":7954,"à¤īà¤¦à¤¯à¤ª":7955,"Ġà¤ªà¤Łà¤¸à¤¨":7956,"à¤ħà¤ľà¤ľ":7957,"Ġà¤®à¤¶à¤Ĺ":7958,"ish":7959,"ĠNNTP":7960,"Ġele":7961,"Ġà¤Ĺà¤łà¤ľ":7962,"Ġ263":7963,"ĠZà¤«":7964,"Ġà¤ķà¤ļà¤¹à¤°":7965,"uss":7966,"269":7967,"inder":7968,"erson":7969,"Ġ1892":7970,"Ġ1896":7971,"à¤³à¤µ":7972,"Ġà¤Ĺà¤ľà¤Ł":7973,"Ġ1889":7974,"ÃīÄ":7975,"jects":7976,"mbol":7977,"Ġ\\\\])?":7978,"Ġà¥§à¥¯à¥ªà¥Ń":7979,"directory":7980,"Ġ\\\\])?:":7981,"350":7982,"App":7983,"CN":7984,"PG":7985,"Qà¤·":7986,"Zà¤¤":7987,"\\-":7988,"friend":7989,"io":7990,"ipp":7991,"à¥ĭà¤¼":7992,"à¤®à¤«à¤²":7993,"à¤®à¤¶à¤¤":7994,"Ġà¤¸à¤¹à¤¤":7995,"à¤¦à¤ļ":7996,"à¥ĭà¤Ĥà¤¾":7997,"Ġà¤¬à¤°à¤¸à¤¨":7998,"à¤¶à¤°à¤ķ":7999,"à¤ļà¤Ń":8000,"Ġà¤ĩà¤®à¤²":8001,"Ġà¤ļà¤Łà¤¨":8002,"à¤Ľà¤ķà¤°":8003,"Ġà¤¡à¤²":8004,"Ġà¤īà¤ªà¤ķà¤²":8005,"à¤¯à¤®à¤µà¤°":8006,"à¤°à¤¸à¤¦":8007,"à¤µà¤¨à¤®":8008,"Â¤Âĵ":8009,"Ġà¤īà¤¦à¤Ńà¤µ":8010,"à¤¹à¤®à¤£":8011,"Ġserv":8012,"à¤²à¤¬à¤¨":8013,"à¤°à¤¨à¤Ĺà¤°":8014,"tit":8015,"à¤¨à¤°à¤²":8016,"à¤Ĭà¤²":8017,"à¤ķà¤Łà¤ª":8018,"à¤¹à¤¨à¤ľ":8019,"Ġà¤ħà¤ľà¤¯":8020,"à¥ĩà¤Ĥ).":8021,"à¤ĭà¤ľ":8022,"à¤°à¤ľà¤®":8023,"à¤Łà¤²à¤®":8024,"iter":8025,"à¤ħà¤¬à¤ķ":8026,"other":8027,"à¥Īà¤Ĥ?\"":8028,"ĠSIP":8029,"à¤īà¤¦à¤¯":8030,"Ġ9000":8031,"Ġ118":8032,"Ġà¤ķà¤¥à¤ķà¤²":8033,"Ġ256":8034,"Ġ134":8035,"Ġà¤¤à¤Łà¤°à¤ķ":8036,"à¥©à¥©":8037,"ĠNHS":8038,"Ġhref":8039,"Ġgconf":8040,"à¤¬à¤ķà¤¬à¤ķ":8041,"ash":8042,"Ġvc":8043,"Ġformat":8044,"Ġà¤Ńà¤°à¤¤à¤¨":8045,"à¤ªà¤°à¤µà¤²à¤¯":8046,"Ġ1873":8047,"derivative":8048,"Ġà¥§à¥¯à¥«à¥¦":8049,"Ġlistbox":8050,"ĠJobcentre":8051,"ĠUSB":8052,"icrosoft":8053,"/'":8054,"Database":8055,"au":8056,"burn":8057,"à¤¿:-":8058,"à¤Ĥà¤¾":8059,"à¤¤à¤ªà¤°":8060,"à¤¤à¤¹à¤°":8061,"à¤¤à¤µà¤¨":8062,"à¤¤à¤¤à¤®":8063,"à¥ĭâĢĻ":8064,"à¤¸à¤¤à¤ķ":8065,"à¤¹à¤ķà¤¤":8066,"à¤ªà¤²à¤°":8067,"Ġà¤¨à¤ļ":8068,"à¥Ĥà¥į":8069,"Ġà¤¤à¤Ĺà¤¡":8070,"à¤¬à¤ķà¤®":8071,"à¤ļà¤£":8072,"Ġà¤Ĩà¤ĩà¤ª":8073,"à¤£à¤Ń":8074,"Ġà¤ĩà¤®à¤¦":8075,"Ġà¤ļà¤°à¤¬":8076,"à¤Īà¤¸à¤µ":8077,"à¤«à¤£":8078,"à¤ĩà¤ıà¤®":8079,"à¤°à¤ķà¤¥à¤¨":8080,"Ġà¤ħà¤¨à¤µà¤°":8081,"à¤īà¤ķà¤¤":8082,"à¤ľà¤¨à¤ķà¤°":8083,"à¤¸à¤°à¤¨":8084,"à¤¸à¤®à¤¬à¤°":8085,"Ġà¤¸à¤¹à¤Ĺà¤²":8086,"0000":8087,"à¤¾)?":8088,"à¥Ģ))":8089,"Ġà¤®à¤¨à¤¹":8090,"Ġna":8091,"Ġà¤®à¤¦à¤¹":8092,"à¤¡à¤²à¤®":8093,"ĠaI":8094,"Ġà¤®à¤°à¤Ĺ":8095,"1985":8096,"à¤ħà¤ªà¤¹à¤°à¤£":8097,"Ġ650":8098,"abber":8099,"atch":8100,"à¤ıà¤¨à¤Īà¤ª":8101,"etwork":8102,"ĠFile":8103,"Ġ164":8104,"Ġ131":8105,"ĠNI":8106,"à¥ªà¥¬":8107,"Ġweekday":8108,"eland":8109,"Ġà¤īà¤¤à¤°à¤µ":8110,"à¥Ī......":8111,"Ġà¤ªà¤ļà¤¹à¤¤":8112,"à¤¾',":8113,"à¤¾âĢĻâĢĻ":8114,"unch":8115,"à¥¯à¥©":8116,"à¤¾......":8117,"Ġ1867":8118,"Ġreminder":8119,"ĠConnector":8120,"ĠRemote":8121,"Fmt":8122,"UC":8123,"Windows":8124,"ler":8125,"lob":8126,"xt":8127,"zone":8128,"Ġà¤³":8129,"à¤¯à¤ħ":8130,"à¤¯à¤Ļ":8131,"à¤¸à¤¦à¤°":8132,"à¤®à¤¤à¤°":8133,"à¤²à¤¹à¤¸":8134,"à¤²à¤«à¤¤":8135,"à¥ģà¥ħà¤Ĥ":8136,"à¥ĩà¤ĤâĢĺ":8137,"Ġà¤ľà¤¯à¤¶":8138,"Ġà¤ħà¤ķà¤°":8139,"Ġà¤¨à¤¤à¤®à¤¸":8140,"à¥ĭà¤Ĥà¥į":8141,"Ġà¤¬à¤ķà¤¤":8142,"à¥Ĥ'":8143,"Ġà¤¤à¤°à¤µ":8144,"à¤¬à¤ķà¤¤":8145,"à¤¬à¤ĺ":8146,"Ġà¤²à¤¹à¤²à¤¹":8147,"à¤Łà¤£":8148,"à¤ŁComment":8149,"à¤ıà¤¯":8150,"à¤·à¤ªà¤¦":8151,"Ġà¤ķà¤°à¤ĺ":8152,"Ġà¤ªà¤°à¤Ĺà¤¨":8153,"Ġà¤ĸà¤²à¤¬à¤²":8154,"à¤ĩà¤Ĩà¤ķ":8155,"Ġà¤¸à¤®à¤ª":8156,"à¥Į-":8157,"à¤ķà¤°à¤µ":8158,"à¤īà¤łà¤¨":8159,"Ġà¤§à¤°à¤¨":8160,"Ġà¤Ľà¤²à¤ķ":8161,"Ġà¤īà¤¦à¤Ń":8162,"Ġà¤ªà¤¤à¤Ŀà¤¡":8163,"à¤īà¤¨à¤¹":8164,"à¤ĩà¤²à¤¶":8165,"Ġà¤ħà¤ªà¤¶à¤ķ":8166,"à¤¤à¤ķà¤µ":8167,"à¤ľà¤¬à¤°à¤¦à¤¸":8168,"à¤°à¤¨à¤¹":8169,"Ġà¤ķà¤²à¤¹":8170,"Ġà¤¢à¤°":8171,"Ġ330":8172,"à¥ĩà¤Ĥ),":8173,"à¤¬à¤¦à¤²à¤¤":8174,"Ġdis":8175,"ĠaDate":8176,"Ġà¤¸à¤ľà¤Ĺà¤¤":8177,"à¤²à¤®à¤ĸ":8178,"à¤¨à¤¯à¤¶":8179,"à¤¤à¤²à¤¡":8180,"Ġ128":8181,"secon":8182,"ouse":8183,"ĠMC":8184,"ĠMD":8185,"Ġpython":8186,"à¤ķà¤¤à¤°à¤«":8187,"ray":8188,"Ġ[%":8189,"Ġà¤®à¤²à¤ľà¤²":8190,"Ġà¤ıà¤«à¤¸":8191,"ĠEnter":8192,"ection":8193,"ques":8194,"à¤¡à¤ªà¤Łà¤¨":8195,"Ġà¤ıà¤¡à¤ľà¤¸":8196,"Ġref":8197,"apps":8198,"Ġ1870":8199,"Ġà¤ļà¤®à¥ľ":8200,"Ġ--&":8201,"PermissionsLevel":8202,"urrpage":8203,"Ġà¤ıà¤®à¤ĵà¤Īà¤ıà¤«":8204,"Ġclust":8205,"ĠaDateFmt":8206,"AGE":8207,"System":8208,"iod":8209,"known":8210,"xi":8211,"Ġà¤ķà¤Łà¤¨":8212,"à¤¸à¤¥":8213,"Ġà¤¸à¤ªà¤°":8214,"Ġà¤ªà¤ªà¤¡":8215,"à¤µà¤ªà¤¨":8216,"à¤¦à¤ı":8217,"à¤ªà¤§":8218,"à¤ľà¤¯à¤¶":8219,"à¥ĭà¤Ĥ''":8220,"à¤¶à¤Ļ":8221,"à¤·à¤Ł":8222,"à¤¥à¤°à¤¨":8223,"à¤ĸà¤®à¤¯":8224,"Ġà¤Ĺà¤ĩ":8225,"Ġà¤Ĺà¤ľà¤ªà¤¤":8226,"à¤Ńà¤¯à¤¤":8227,"Ġà¤ıà¤Ĩà¤Ī":8228,"à¤«à¤Łà¤ķ":8229,"à¤ĩà¤¤à¤°":8230,"Ġà¤¨à¤¹à¤¸":8231,"Ġà¤«à¤¬à¤¤":8232,"à¤Ĩà¤ĩà¤Łà¤®":8233,"à¤¤à¤°à¤¬":8234,"à¤²à¤¤à¤®à¤¨":8235,"Ġ215":8236,"à¤¯à¤¨à¤µ":8237,"à¤°à¤µà¤¸":8238,"Ġsak":8239,"Ġà¤Ŀà¤£":8240,"à¤Ĳà¤ļ":8241,"Ġà¤Ĩà¤°à¤ıà¤«à¤ª":8242,"Ġà¤ªà¤¦à¤®":8243,"Ġà¤ªà¤¦à¤§":8244,"Ġà¤ĳà¤¨à¤°":8245,"à¤ļà¤¯à¤¨à¤ķ":8246,"à¤¯à¤ªà¤Ĺà¤¤":8247,"Ġ6000":8248,"à¤®à¤¦à¤¦à¤Ĺ":8249,"à¤¼à¥ĩà¤Ĥ?":8250,"Ġà¤ıà¤¨à¤Īà¤ľ":8251,"à¤ħà¤µà¤¤à¤°à¤£":8252,"Ġà¤«à¤²à¤¦":8253,"ous":8254,"Ġpart":8255,"à¥ĭ?-":8256,"ĠBook":8257,"Ġmd":8258,"Ġ148":8259,"ĠRSV":8260,"Ġek":8261,"ĠinEMAIL":8262,"cep":8263,"à¤¸à¤®à¤Ŀà¤ķà¤°":8264,"233":8265,"à¤²à¤Ĺà¤ĩà¤¨Name":8266,"à¤¯à¤¬à¤ľ":8267,"à¤¨à¤Ĺà¤°à¤ª":8268,"Ġ1878":8269,"Ġà¥§à¥¯à¥¯à¥§":8270,"Ġ1866":8271,"à¤¡à¤ĭà¤ı":8272,"estart":8273,"maildir":8274,"Ġatt":8275,"sendmail":8276,"Ġvalue":8277,"lobal":8278,"ĠRSVP":8279,"${":8280,")''":8281,".\"":8282,"BS":8283,"COM":8284,"HP":8285,"QFont":8286,"Sy":8287,"TW":8288,"XMP":8289,"germ":8290,"imp":8291,"man":8292,"ning":8293,"pad":8294,"we":8295,"à¤°à¤°à¤¹":8296,"Ġà¤ķà¤ķà¤¡":8297,"à¤¤à¤¬à¤°":8298,"Ġà¤¹à¤°à¤¦":8299,"à¤®à¤Ŀ":8300,"Ġà¤¸à¤°à¤®":8301,"à¤¹à¤§":8302,"à¤²à¤µà¤¨":8303,"à¥ģâĢĻ":8304,"à¥ĪâĢ¦":8305,"à¤µà¤®à¤¨":8306,"à¤ªà¤Ĺà¤¢":8307,"à¤Ĺà¤¨à¤µ":8308,"à¤¼à¥Īà¤Ĥ":8309,"à¤¶à¤¹à¤¦":8310,"à¤Łà¤¶":8311,"Ġà¤ķà¤°à¤Ĺ":8312,"à¤Ńà¤®":8313,"Ġà¤ıà¤¹à¤°":8314,"Ġà¤ıà¤²à¤¸":8315,"Ġà¤¸à¤®à¤¦":8316,"à¤¾à¤Ĥ?":8317,"à¤¾à¤ĤâĢĵ":8318,"à¤ħà¤²à¤ķ":8319,"à¤µà¤°à¤¦":8320,"à¤ľà¤¨à¤²":8321,"à¤°à¤®à¤²":8322,"à¤¨à¤ķà¤ķ":8323,"à¤¼à¥Ģà¤ĥ":8324,"à¤¹à¤¤à¤ķ":8325,"à¤®à¤ķà¤¡":8326,"Ġ'-":8327,"Ġ'<":8328,"Ġà¤ľà¤²à¤§":8329,"à¤¬à¤²à¤ª":8330,"à¤Ĩà¤°à¤ıà¤«":8331,"à¤°à¤ľà¤Ń":8332,"alk":8333,"1932":8334,"à¤µà¤§à¤°":8335,"à¤ıà¤®à¤¬":8336,"Ġà¤ıà¤¸à¤¡":8337,"Ġà¤®à¤¸à¤ľ":8338,"à¤ıà¤¨à¤ıà¤¸à¤¡":8339,"Ġà¤ıà¤¨à¤Ĩà¤Īà¤Ł":8340,"à¥Ī-(":8341,"Ġà¤ĩà¤ķà¤ł":8342,"à¤ıà¤«à¤ĵ":8343,"Ġcredit":8344,"ĠCity":8345,"à¤ħà¤¸à¤«à¤²à¤¤":8346,"ĠAp":8347,"ĠAir":8348,"à¥Ĥà¤ģà¥¤-":8349,"1215":8350,"ĠTr":8351,"Ġ10000":8352,"Ġoff":8353,"iiià¤ķ":8354,"via":8355,"ural":8356,"Ġvari":8357,"à¥Ĩà¤Ĥà¥¤":8358,"à¤¦à¤¹à¤¶à¤¤":8359,"ERROR":8360,"à¥¯à¥§":8361,"à¥¯à¥¨":8362,"à¥¯à¥¬":8363,"à¤¤à¤°à¤¤à¤®":8364,"Ġà¥§à¥¯à¥¯à¥Ń":8365,"ENSION":8366,"à¥§à¥¯à¥®à¥¦":8367,"command":8368,"ĠâĤ":8369,"Ġgtk":8370,"Ġsymbol":8371,"ributions":8372,"ralia":8373,"norway":8374,"latvia":8375,"board":8376,"QFontDatabase":8377,"900":8378,"DIST":8379,"Dialog":8380,"GTK":8381,"Pre":8382,"RC":8383,"WOS":8384,"YP":8385,"date":8386,"kar":8387,"not":8388,"nao":8389,"path":8390,"à¤°City":8391,"à¤¨à¤ķà¤¤":8392,"à¤¨à¤ĵà¤µà¤°":8393,"à¤¤à¤²à¤¤":8394,"à¤¤à¤¸à¤¬":8395,"à¤ķà¤µà¤ļ":8396,"à¤¸Comment":8397,"Ġà¤¹à¤°à¤£":8398,"à¤®à¤ľà¤¨":8399,"Ġà¤®à¤ľà¤¨":8400,"à¤¦à¤¯à¤°":8401,"à¤¦à¤ľà¤¨à¤ķ":8402,"à¤ľà¤ĺà¤¨":8403,"Ġà¤īà¤Ĺà¤²":8404,"à¤¶à¤«":8405,"à¤¬à¤«":8406,"à¤Łà¤ķà¤²":8407,"à¤§à¤ķà¤¤":8408,"Ġà¤ķà¤°à¤ķà¤°":8409,"Ġà¤Ńà¤Ĺà¤¦":8410,"Ġà¤Ĺà¤ª":8411,"à¥Īà¤Ĥ'":8412,"Ġà¤ĩà¤²à¤¯":8413,"Ġà¤ļà¤¸":8414,"Ġà¤¶à¤¹à¤¨":8415,"à¤ªà¤¨à¤¨":8416,"Ġà¤ĸà¥ľ":8417,"à¤ĩà¤®à¤²":8418,"à¤¾à¤Ĥà¤ĥ":8419,"Ġà¤ħà¤¨à¤µ":8420,"Ġà¤¤à¤ķà¤¦":8421,"à¤¤à¤¨à¤µ":8422,"à¥Ī.....":8423,"à¥ĩ,âĢĵ":8424,"à¤Ĺà¤¤à¤®":8425,"à¤¬à¤°à¤ª":8426,"Ġà¤ĵà¤Ŀ":8427,"Ġà¤īà¤¦à¤Ĺà¤®":8428,"Ġà¤¸à¤®à¤¯à¤¸":8429,"à¥Ĥà¤Ĥ!":8430,"à¤Łà¤¨à¤°à¤¶":8431,"à¥Ģ).":8432,"Ġà¤Ĩà¤§à¤°":8433,"Ġà¤ħà¤ªà¤¶à¤¬":8434,"à¥Ģ./":8435,"à¤®à¤°à¤¯à¤®":8436,"onia":8437,"Ġà¤Ĩà¤µà¤¶à¤ĭ":8438,"à¤µà¤°à¤£à¤¶":8439,"à¤ıà¤¸à¤ıà¤«":8440,"à¤¯à¤²à¤²":8441,"Ġà¤¨à¤µà¤µà¤°":8442,"Ġde":8443,"Ġdiv":8444,"Ġaction":8445,"à¤ļà¤²à¤®":8446,"lace":8447,"ority":8448,"ict":8449,"Ġà¤ıà¤¸à¤Ĩà¤°à¤Ĩà¤Ī":8450,"Ġ1824":8451,"à¤°à¤ªà¤µ":8452,"à¤ħà¤®à¤°à¤ķ":8453,"Ġ126":8454,"à¥ħà¥Ĥ":8455,"ĠTo":8456,"Ġ1300":8457,"à¥®à¥®":8458,"utes":8459,"Ġ240":8460,"hip":8461,"Ġres":8462,"Ġà¤Ľà¤ªà¤µ":8463,"1942":8464,"à¤§à¤ªà¤°à¤ķ":8465,"Ġstyle":8466,"à¥¯à¥ª":8467,"Ġà¤¸à¤°à¤²à¤¤à¤®":8468,"evolution":8469,"Ġcontributions":8470,"Ġplan":8471,"slot":8472,"autom":8473,"Mozilla":8474,"ĠMCX":8475,"Ġclustering":8476,"030":8477,";...)":8478,"EP":8479,"Email":8480,"John":8481,"Location":8482,"Marcus":8483,"NA":8484,"ODE":8485,"cal":8486,"ied":8487,"log":8488,"roll":8489,"si":8490,"type":8491,"windows":8492,"Ġà¥į":8493,"Ġâĺ»":8494,"à¤°à¤¶à¤¨":8495,"à¥įâĢĻ":8496,"à¤¿âĢĿ":8497,"à¤¨à¤Ŀ":8498,"à¤¤à¤ı":8499,"à¤¤à¤µà¤²":8500,"à¤¯à¤ı":8501,"à¤¯à¤ªà¤°à¤²":8502,"à¤¸à¤¶à¤°":8503,"à¤²à¤®à¤ķ":8504,"Ġà¤¬à¤Īà¤¦":8505,"à¤Łà¤ľà¤°à¤²":8506,"à¤¡à¤°à¤¨":8507,"Ġà¤¯à¤¯":8508,"Ġà¤Ĺà¤Ń":8509,"Ġà¤Ĺà¤ľà¤¨":8510,"Ġà¤ıà¤¹à¤²":8511,"à¥Ģà¤Ĥ!\"":8512,"Ġà¤¥à¤ªà¤¥à¤ª":8513,"à¤ģ:":8514,"à¤ħà¤ķà¤²":8515,"à¤ħà¤¹à¤¸":8516,"Ġà¤ħà¤¨à¤¶":8517,"Ġà¤ħà¤¨à¤ķà¤°":8518,"à¤Ĩà¤Ĺà¤¤":8519,"Ġà¤ķà¤¹à¤«":8520,"Ġà¤Ľà¤Łà¤ªà¤Ł":8521,"Ġà¤Ĩà¤ªà¤ªà¤°":8522,"à¤¹à¤°à¤¦":8523,"à¤¹à¤°à¤ľ":8524,"à¤°à¤¹à¤¤":8525,"à¥Ģà¥¤--":8526,"à¤Łà¤°à¤Ĺ":8527,"Ġà¤ĵà¤¦":8528,"à¤¹à¤®à¤ªà¤°":8529,"Ġà¤ħà¤ªà¤Ĺ":8530,"Ġà¤¸à¤¤à¤¤à¤¤":8531,"à¥¦à¥Ń":8532,"anc":8533,"à¤Ĭà¤ªà¤¨":8534,"Ġà¤°à¤ķà¤ħà¤¤":8535,"à¤°à¤§à¤°":8536,"à¤ļà¤°à¤ĸ":8537,"Ġà¤īà¤²à¤«à¤¤":8538,"Ġà¤ªà¤ķà¥ľ":8539,"Ġà¤Ĩà¤Īà¤Ĩà¤Īà¤ıà¤®":8540,"Ġà¤¬à¤ľà¤¤":8541,"à¤ªà¤Łà¤¤":8542,"à¥Ī);":8543,"enti":8544,"à¤ıà¤¨à¤Ĩà¤Ī":8545,"Ġà¤¤à¤²à¤ªà¤Ł":8546,"à¤¨à¤¹à¤Ĺ":8547,"ĠPM":8548,"ĠText":8549,"ĠMP":8550,"à¤¦à¤¶à¤®":8551,"1857":8552,"à¥¬à¥ª":8553,"ĠLF":8554,"ĠGroup":8555,"à¤ĩà¤¬à¤°à¤¤":8556,"Ġà¥©à¥¦à¥¦":8557,"Ġld":8558,"à¤²à¤Ĺà¤ĩà¤¨Comment":8559,"asa":8560,"Ġya":8561,"Ġik":8562,"ĠView":8563,"Ġà¥¬à¥¦à¥¦":8564,"Ġà¥¬à¥«":8565,"osis":8566,"1967":8567,"à¥ĭà¤Ĥ?\"":8568,"ROM":8569,"Ġà¥§à¥¯à¥®à¥ª":8570,"ĠsaM":8571,"errorism":8572,"Devhelp":8573,"Ġà¤ħà¤ªà¤¤à¤Ł":8574,"Ġantiderivative":8575,"friendly":8576,"ĠâĤ¹":8577,"**":8578,"?-":8579,"EY":8580,"LM":8581,"MF":8582,"OI":8583,"PN":8584,"gpg":8585,"ther":8586,"xiv":8587,"§à¥¦":8588,"Ġ...":8589,"à¤¿à¤¿":8590,"à¤¨à¤ĺ":8591,"à¥Ģà¥Ģ":8592,"à¤¸à¤¡à¤ķ":8593,"Ġà¤ªà¤¯":8594,"Ġà¤®à¤°à¤¹à¤®":8595,"à¤¦à¤°à¤ķ":8596,"à¤ªà¤µà¤¤":8597,"à¤ľà¤Ĺà¤®à¤Ĺ":8598,"Ġà¤¬à¤ľà¤°":8599,"à¤¬à¤¸à¤¨":8600,"à¤¬à¤ķà¤¨":8601,"à¤§weather":8602,"à¤·à¤¡":8603,"à¤ļà¤¯à¤ķ":8604,"à¤¥à¤ľ":8605,"Ġà¤Ńà¤Łà¤¨":8606,"à¤Ńà¤ļ":8607,"à¤Ńà¤Ń":8608,"Ġà¤ıà¤®à¤°":8609,"Ġà¤ļà¤°à¤ķ":8610,"à¥Īà¥¤âĢĻ":8611,"à¤°à¤¤à¤¨":8612,"Ġà¤ıà¤ķà¤ªà¤ķ":8613,"Ġà¤¥à¤ª":8614,"Ġà¤«à¤ľà¤²":8615,"à¤ľà¤¨à¤ªà¤¦":8616,"Ġà¤ħà¤²à¤°":8617,"à¤¹à¤°à¤¸":8618,"Â¤Âĳ":8619,"Ġà¤īà¤¦à¤¹":8620,"à¤īà¤¨à¤¶":8621,"Ġà¤ħà¤ªà¤Ń":8622,"à¤¾-(":8623,"à¤°à¤¬à¤¦":8624,"à¤¤à¤µà¤ľ":8625,"Ġà¤¢à¤²à¤¤":8626,"ered":8627,"à¤²à¤Ĺà¤¢":8628,"1920":8629,"1907":8630,"à¤Ĺà¤łà¤¨à¤ķà¤°":8631,"lean":8632,"rew":8633,"ĠIT":8634,"à¤īà¤ªà¤®":8635,"1112":8636,"1114":8637,"à¤Ļà¤¨":8638,"Ġ133":8639,"à¥©à¥Ń":8640,"ĠGiB":8641,"à¥®à¥©":8642,"Ġhao":8643,"Ġgram":8644,"Ġ243":8645,"aces":8646,"ache":8647,".......":8648,"à¤Ĩà¤¸à¤«":8649,"Ġà¥©à¥¨":8650,"Ġà¥©à¥ª":8651,"175":8652,"Ġ233":8653,"ubject":8654,"à¤Ńà¤°à¤¤à¤¨":8655,"à¤Ĩà¤°à¤ıà¤ĵ":8656,"ILE":8657,"à¤ķà¤łà¤ª":8658,"odel":8659,"Ġzoom":8660,"Ġà¤²à¤Łà¤ķà¤¨":8661,"Style":8662,"udacity":8663,"à¤Ĩà¤Īà¤ıà¤«à¤Ĩà¤°":8664,"DAY":8665,"ĠâĢĶ%":8666,"à¤ıà¤®à¤ĵà¤Īà¤ıà¤«":8667,"SpamAssassin":8668,"ĠÅĳ":8669,"ĠResolution":8670,"iversity":8671,"ological":8672,"canada":8673,"260":8674,";%":8675,">.":8676,"Day":8677,"LIN":8678,"Less":8679,"TH":8680,"TEXT":8681,"Xa":8682,"Zà¤ķ":8683,"back":8684,"ho":8685,"mar":8686,"tra":8687,"ups":8688,"à¥Ķ":8689,"à¤°à¤ĵ":8690,"à¤¯à¤¯à¤¤":8691,"à¤®à¤¨à¤ķ":8692,"à¤²à¤¯à¤ķ":8693,"Ġà¤ªà¥Ŀ":8694,"à¤µà¤¯à¤®":8695,"à¤µà¤²à¤¯":8696,"Ġà¤®à¤Łà¤®":8697,"à¤ªà¤²à¤ķ":8698,"à¤Ĺà¤Ĺà¤¨":8699,"Ġà¤µà¤Ł":8700,"à¤ľCity":8701,"à¥ĭà¤Ĥà¤Ĥ":8702,"à¤¶à¤¬à¤²":8703,"à¤ıà¤µà¤°":8704,"à¤·à¤°à¤¹":8705,"Ġà¤ķà¤°à¤²":8706,"à¤¡à¤§":8707,"Ġà¤Ĩà¤°à¤¸":8708,"à¤£à¤§":8709,"Ġ(*":8710,"à¥Ģà¤Ĥ...":8711,"Ġà¤ĸà¤¸":8712,"Ġà¤ĩà¤¸à¤ĭ":8713,"à¤ħà¤Ĺà¤¤":8714,"à¤ħà¤«à¤°":8715,"à¤Ĩà¤£à¤µ":8716,"à¤łà¤¹":8717,"Ġà¤¡à¤¸":8718,"à¤ªà¤¤à¤µ":8719,"Ġà¤¬à¤¡à¤ĭà¤ı":8720,"à¤ıà¤ķà¤¦":8721,"Ġsound":8722,"Ġà¤¬à¤¦à¤¹":8723,"à¥Ģ.-":8724,"Ġà¤ªà¤¦à¤¸":8725,"aniz":8726,"eston":8727,"estiv":8728,"à¤¨à¤¦à¤¯":8729,"Ġdi":8730,"Ġdr":8731,"Ġdictionary":8732,"1928":8733,"1936":8734,"lam":8735,"à¤ıà¤«à¤ı":8736,"Ġcurrent":8737,"Ġà¤Ĺà¤£à¤ª":8738,"Ġba":8739,"etting":8740,"Ġ254":8741,"ĠNP":8742,"Ġwid":8743,"Ġà¤ħà¤®à¤°à¤¨":8744,"à¥®à¥¯":8745,"ĠEnglish":8746,"Ġlog":8747,"ĠâĢİâĢİ":8748,"aspx":8749,"Ġà¤ķà¤¤à¤°à¤¨":8750,"essment":8751,"Ġstd":8752,"Ġà¥§à¥¯à¥¦à¥¦":8753,"intui":8754,"uras":8755,"à¤ıà¤ıà¤¨à¤ıà¤«":8756,"ators":8757,"CRL":8758,"Ġshader":8759,"ÃīÃ¤":8760,"ointment":8761,"Media":8762,"OfThe":8763,"estonia":8764,"estival":8765,"Clutter":8766,"DI":8767,"Google":8768,"List":8769,"MH":8770,"Mail":8771,"OW":8772,"Page":8773,"QL":8774,"QN":8775,"REA":8776,"Show":8777,"TS":8778,"]]":8779,"air":8780,"ger":8781,"mal":8782,"so":8783,"Â³":8784,"Ġà¤ķà¤¨à¤ķ":8785,"à¥Ģà¤ģ":8786,"à¥ĭâĢĿ":8787,"à¤¸à¤¡à¤°":8788,"à¤®à¤¶à¤µ":8789,"Ġà¤ªà¤²à¤¨":8790,"Ġà¤ªà¤²à¤¤":8791,"à¤ªà¤Łà¤°":8792,"à¤Ĺà¤ĸ":8793,"à¤ľà¤ĺ":8794,"Ġà¤¬à¤ĺ":8795,"Ġà¤¤à¤®à¤¸":8796,"à¤¶à¤ļà¤¨":8797,"à¤ļà¤ļ":8798,"à¤¥à¤¬":8799,"Ġà¤¯à¤¶à¤µ":8800,"à¤Ńà¤µà¤¹":8801,"à¥Īà¤ĤÍ¾":8802,"Ġà¤ĩà¤°à¤µ":8803,"Ġà¤¸à¤®à¤Ń":8804,"à¤ħà¤¹à¤°":8805,"à¤Ĩà¤¢":8806,"à¤°à¤£à¤ķà¤°":8807,"à¤¯à¤ķà¤®":8808,"Ġà¤¡à¤Łà¤ķà¤°":8809,"à¤ľà¤¨à¤®":8810,"Ġà¤īà¤ªà¤µà¤°":8811,"Ġà¤¬à¤¹à¤®à¤¨":8812,"à¤¶à¤¨à¤¦":8813,"Ġà¤ĵà¤£à¤®":8814,"Ġà¤¤à¤°à¤¹à¤ķ":8815,"à¤®à¤ķà¤¦":8816,"Ġà¤¬à¤¦à¤¹à¤µ":8817,"Ġà¤¸à¤¤à¤ª":8818,"à¤ħà¤¨à¤¬":8819,"Ġà¤ľà¤²à¤¡à¤®à¤°":8820,"à¤¯à¤²à¤ª":8821,"Ġà¤²à¤ķà¤ª":8822,"Ġà¤ħà¤¦à¤¬":8823,"ename":8824,"ley":8825,"à¤Ķà¤ªà¤¨":8826,"à¤ıà¤¨à¤ıà¤¨":8827,"à¤ıà¤¨à¤ıà¤¸à¤ıà¤¸":8828,"Ġà¤ıà¤¨à¤Ł":8829,"ream":8830,"ĠIV":8831,"Ġà¤ħà¤¸à¤®à¤¯":8832,"1100":8833,"etr":8834,"Ġ167":8835,"Ġ[-":8836,"Ġ135":8837,"Ġ+)":8838,"Ġà¤ıà¤ļà¤¸":8839,"hift":8840,"Ġ273":8841,"ATH":8842,"Ġà¥«à¥©":8843,"ORT":8844,"Ġ352":8845,"Ġà¥ªà¥¦à¥¦":8846,"ards":8847,"Ġà¥§à¥¯à¥¯à¥«":8848,"Ġevents":8849,"phil":8850,"Ġappointment":8851,"ffice":8852,"gency":8853,"United":8854,"aguay":8855,"germany":8856,"516":8857,"?)":8858,"FF":8859,"LINK":8860,"NG":8861,"PU":8862,"Wise":8863,"by":8864,"hond":8865,"iti":8866,"tes":8867,"tem":8868,"ugu":8869,"yana":8870,"½Ãº":8871,"à¤°à¤ļà¤¯":8872,"Ġà¤ķà¤Łà¤°":8873,"à¤¯à¤ĵ":8874,"à¤¯à¤ªà¤ķ":8875,"Ġà¤¹à¤Ī":8876,"à¤®à¤¹à¤®":8877,"à¤²à¤ªà¤°":8878,"Ġà¤¬à¤ķà¤¨":8879,"Ġà¤¤à¤¹à¤ľ":8880,"Ġà¤īà¥ľ":8881,"Ġà¤°à¤Īà¤¸":8882,"à¤§à¤Ĺ":8883,"Ġà¤Ĩà¤®à¤²":8884,"à¤ĸà¤°à¤£":8885,"Ġ('":8886,"Ġ(\"%":8887,"à¥Īà¥¤âĢĻâĢĻ":8888,"à¤¾à¤Ĥ:":8889,"à¤Ľà¤®":8890,"à¤°à¤ķà¤¬":8891,"à¤¾à¥¤--":8892,"à¤ĵà¤ıà¤®":8893,"à¤°à¤¸à¤ĭ":8894,"Ġà¤¸à¤¹à¤ħà¤¸":8895,"Ġà¤¸à¤¬à¤µà¤°":8896,"à¤®à¤ķà¤¨":8897,"à¤¹à¤®à¤¯":8898,"à¤Ĳà¤ª":8899,"Ġà¤ħà¤¸à¤Ń":8900,"Ġà¤ľà¤¨à¤¸à¤Ń":8901,"Ġà¤Ķà¤¨":8902,"Ġtxt":8903,"Ġà¤ªà¤¢à¤¤":8904,"Ġauthor":8905,"à¤ªà¤£à¤¸":8906,"ĠâĢĿà¥¤":8907,"Ġ1875":8908,"à¤ıà¤¨à¤Ĩà¤Īà¤¸":8909,"Ġchr":8910,"ĠCH":8911,"Ġà¤ıà¤®à¤ıà¤®à¤Ł":8912,"à¤ħà¤µà¤¸à¤¨":8913,"ĠBcc":8914,"ĠRestart":8915,"à¥ªà¥©":8916,"ĠGu":8917,"ĠGame":8918,"Ġ249":8919,"Ġ266":8920,"Ġà¥«à¥¦à¥¦":8921,"Ġà¥«à¥¦à¥¦à¥¦":8922,"Ġà¤¸à¤¹à¤¨à¤¶à¤ķ":8923,"1954":8924,"Ġ1895":8925,"Ġà¤ĵà¤µà¤°à¤¡":8926,"Ġ1884":8927,"guyana":8928,"ncamerica":8929,"Ġ0870":8930,"Ġ1862":8931,"Ġà¤ļà¤¹à¤ļà¤¹":8932,"Ġà¤¬à¤¦à¤¨à¤¸":8933,"Calendar":8934,"Ġà¤Ĥà¤Ĥ.":8935,"1016":8936,"Ġlike":8937,"Ġà¥¯à¥¯":8938,"ĠâĻª":8939,"Ġoptions":8940,"rowser":8941,"EXTENSION":8942,"ĠÎ¼":8943,"Security":8944,"à¤ħà¤ľà¤¨à¤¬":8945,"ĠReport":8946,"chile":8947,"Ġà¤Ńà¤Ĺà¤¦à¤¡":8948,"honduras":8949,"AQ":8950,"An":8951,"Non":8952,"SU":8953,"XML":8954,"YY":8955,"button":8956,"came":8957,"ja":8958,"korea":8959,"russ":8960,"tac":8961,"uel":8962,"à§":8963,"Ġhtml":8964,"à¤¾à¥Ĥ":8965,"à¤¤à¤ĸà¤¤":8966,"à¤¯à¤Ķ":8967,"à¤®à¤µà¤¤":8968,"à¤²à¤Łà¤¨":8969,"à¥Ī\\\"":8970,"à¤µà¤®à¤¤":8971,"à¤Ĺà¤ĭ":8972,"Ġà¤ľà¤«à¤°":8973,"Ġà¤µà¤£":8974,"à¤ľà¤ªà¤°":8975,"à¤ľà¤²à¤¨":8976,"Ġà¤¬à¤°à¤¹":8977,"à¤¶à¤µà¤°":8978,"à¤¶à¤²à¤®":8979,"à¤ıà¤ıà¤®":8980,"Ġà¤°à¤¡":8981,"Ġà¤°à¤«à¤¤":8982,"à¤§à¤¤à¤°":8983,"Ġà¤ıà¤¸à¤ķ":8984,"à¤«à¤°à¤ľ":8985,"à¤«à¤Łà¤µ":8986,"Ġà¤¥à¤¨":8987,"à¤Ľà¤¤à¤°":8988,"à¤ħà¤¥":8989,"à¤ķà¤°à¤ķà¤Ł":8990,"à¤īà¤¨à¤¤":8991,"à¤īà¤®à¤¡":8992,"à¤ĵà¤£à¤®":8993,"à¤¾,??":8994,"à¤¯à¤ķà¤ĭ":8995,"à¤ľà¤¨à¤Ĺà¤£à¤¨":8996,"à¤°à¤®à¤¹":8997,"à¤¸à¤®à¤µ":8998,"à¤¸à¤®à¤¯à¤ķ":8999,"à¤µà¤¨à¤²":9000,"à¥Ģà¥¤]":9001,"à¤·à¤£à¤®":9002,"Ġà¤ĵà¤°à¤¸":9003,"à¤°à¤µà¤¹à¤¨":9004,"001":9005,"à¤®à¤ķà¤¬à¤°":9006,"Ġà¤Ĩà¤µà¤Ńà¤Ĺà¤¤":9007,"Ġsystem":9008,"Ġà¤ħà¤ªà¤ĺà¤Łà¤¨":9009,"Ġ'.":9010,"Ġà¤®à¤¨à¤Ń":9011,"à¤ħà¤¨à¤ĸ":9012,"à¤°à¤¬à¤¡":9013,"à¤ķà¤Łà¤°à¤®à¤£":9014,"à¥Ī?à¥¤":9015,"à¤ĩà¤Łà¤¹":9016,"Ġtra":9017,"à¤ĭà¤¸":9018,"Ġà¤²à¤ķà¤µ":9019,"Ġamp":9020,"eng":9021,"à¤²à¤®à¤ª":9022,"à¤²à¤®à¤Ł":9023,"oto":9024,"à¤°à¤Ĺà¤¢":9025,"lets":9026,"à¤Ķà¤ªà¤¬":9027,"atem":9028,"à¤ıà¤¨à¤ıà¤®":9029,"à¤ıà¤«à¤ıà¤®":9030,"à¤ıà¤«à¤ıà¤²":9031,"Ġà¤¦à¤¶à¤®":9032,"Ġ156":9033,"Ġà¤ļà¤¯à¤¨à¤ķà¤°":9034,"à¤°à¤¹à¤£à¤¶":9035,"ĠIM":9036,"1214":9037,"ousing":9038,"ĠPDF":9039,"Ġpfriendly":9040,"raph":9041,"1882":9042,"Ġ176":9043,"Ġweb":9044,"Ġà¤ıà¤«à¤µ":9045,"ĠElm":9046,"160":9047,"Ġ262":9048,"à¥§à¥¯à¥¯à¥¦":9049,"Ġ270":9050,"Ġ227":9051,"à¤Ńà¤°à¤¤à¤ª":9052,"ump":9053,"ERT":9054,"1966":9055,"guatem":9056,"ĠURLs":9057,"Ġà¥§à¥¯à¥¯à¥¨":9058,"ICODE":9059,"period":9060,"Ġà¥§à¥¯à¥Ńà¥«":9061,"Ġcontext":9062,"roon":9063,"à¤ıà¤¨à¤ıà¤¸à¤Ĩà¤Īà¤¸":9064,"MBER":9065,"application":9066,"Forward":9067,"ĠComp":9068,"paraguay":9069,"Ġsettings":9070,"southkorea":9071,"DayName":9072,"cameroon":9073,"russia":9074,"guatemala":9075,"BIN":9076,"NU":9077,"None":9078,"PR":9079,"az":9080,"eh":9081,"greenhouse":9082,"mon":9083,"pan":9084,"sum":9085,"unt":9086,"uct":9087,"yaa":9088,"zip":9089,"à¤½":9090,"à¥Ļ":9091,"à¤¨à¤ĸà¤°":9092,"à¥ĢâĢĺ":9093,"à¥Ģ\",":9094,"à¤ķà¤¢":9095,"à¤¯à¤¸à¤ķ":9096,"à¤¯à¤«à¤²":9097,"à¤¸à¤Ĺà¤¤":9098,"à¤¸à¤¶à¤ķ":9099,"à¤¹à¤°à¤®":9100,"à¤²à¤¹à¤Ł":9101,"Ġà¤ªà¤ľ":9102,"à¥ĪâĢĻ":9103,"à¤µà¤Ī":9104,"à¥ĩà¤ĤâĢ¦":9105,"Ġà¤ľà¤¦":9106,"à¤ľà¤Ī":9107,"Ġà¤¤à¤Łà¤°":9108,"Ġà¤¦à¤¬à¤¦à¤¬":9109,"à¤¶à¤ªà¤¤":9110,"à¤¶à¤®à¤ķ":9111,"Ġà¤²à¥ľ":9112,"à¤§à¤Ĺà¤¯":9113,"Ġà¤Ĩà¤ķà¤²":9114,"Ġà¤Ĺà¤ľà¤²":9115,"à¥Īà¤ĤâĢĵ":9116,"Ġà¤ļà¤°à¤¤":9117,"Ġà¤¥à¤ķà¤¨":9118,"à¤ħà¤¥à¤°":9119,"à¤Ĩà¤¬à¤¦":9120,"à¤Ĩà¤¡à¤®":9121,"à¤¸à¤°à¤Ĺ":9122,"à¤²à¤¤à¤¯":9123,"Ġà¤¸à¤¹à¤§à¤°":9124,"à¤¼à¤¿.)":9125,"à¤ŀà¤ľ":9126,"Ġà¤Łà¤ª":9127,"à¤ĺà¤ľ":9128,"à¤¸à¤¨à¤¹":9129,"Ġà¤Ĩà¤°à¤¡":9130,"Ġà¤Ĭà¤¬à¤¡":9131,"à¤¨à¤µà¤Ĺ":9132,"à¤¡à¤°à¤Ĺ":9133,"inux":9134,"à¤·à¤¯à¤Ĺà¤¤":9135,"Ġà¤ľà¤®à¤¶":9136,"ere":9137,"ert":9138,"à¤Ĩà¤Īà¤¯":9139,"Ġà¤Ĳà¤®":9140,"à¤ĭà¤¨":9141,"à¤°à¤ľà¤µ":9142,"Ġà¤ĭà¤¨à¤ķ":9143,"Ġdisplay":9144,"Ġdepart":9145,"1937":9146,"à¤¾à¤ĥ-":9147,"Ġà¤ıà¤¨à¤ıà¤¸à¤Ĩà¤Īà¤¸":9148,"Ġà¤ªà¤ķà¤¡à¤¨":9149,"oman":9150,"à¤īà¤ªà¤«":9151,"à¤ħà¤µà¤·":9152,"ĠPRO":9153,"114":9154,"1116":9155,"à¥§à¥¦à¥¦à¥¦":9156,"Ġind":9157,"à¤Ĩà¤Ĺà¤®à¤¨":9158,"Ġ234":9159,"ngine":9160,"1945":9161,"thane":9162,"umar":9163,"Ġ365":9164,"Ġà¤ķà¤ªà¤Łà¤ª":9165,"âĢĻâĢĻà¥¤":9166,"force":9167,"odec":9168,"à¥§à¥¯à¥¯à¥Ń":9169,"Ġà¤¥à¤°à¤¥à¤°":9170,"1014":9171,"applets":9172,"Ġreport":9173,"Ġ9001":9174,"gtkhtml":9175,"olders":9176,"Ġthumb":9177,"ixbuf":9178,"Ġvcf":9179,"icture":9180,",?":9181,"216":9182,"CII":9183,"Engine":9184,"KR":9185,"Ph":9186,"SWY":9187,"Voice":9188,"nps":9189,"ril":9190,"run":9191,"âĻ«":9192,"Ġent":9193,"à¤°à¤ļà¤°":9194,"à¤¤à¤²à¤®":9195,"à¤¸à¤ľà¤¨":9196,"à¤¹à¤°à¤ķ":9197,"à¥ģ'":9198,"à¥ģà¥ĩ":9199,"à¥ģà¤¼":9200,"Ġà¤®à¤¡":9201,"Ġà¤ľà¤¯à¤¤":9202,"Ġà¤ľà¤¯à¤°":9203,"Ġà¤µà¤¯à¤ķ":9204,"Ġà¤¨à¤µà¤¸":9205,"à¥ĭà¤Ĥ\"":9206,"à¤¬à¤°à¤¸à¤¨":9207,"Ġà¤²à¤ķà¤¸à¤Ń":9208,"à¤Łà¤®à¤°":9209,"à¤ıà¤¹":9210,"à¤ıà¤ĸ":9211,"à¤§à¤¹à¤¸":9212,"Ġà¤ķà¤°à¤®à¤ļ":9213,"Ġà¤Ĩà¤ĩà¤ľ":9214,"Ġà¤Ĩà¤ĩà¤µà¤°":9215,"Ġà¤Ńà¤¨":9216,"Ġà¤Ĺà¤¦à¤°":9217,"Ġ(âĢľ":9218,"à¤Īà¤ĸ":9219,"à¤«à¤¦":9220,"Ġà¤ĸà¤°à¤¬":9221,"à¥ĥà¤¾":9222,"à¤łà¤¤à¤°":9223,"à¤ľà¤¨à¤¹":9224,"à¤ľà¤¨à¤¶à¤ķ":9225,"à¤¾à¤ģ/":9226,"Ġà¤Ľà¤ªà¤¤":9227,"à¤Ĺà¤°à¤¹":9228,"Â¤ÂĬ":9229,"à¤ŀà¤ķ":9230,"à¤®à¤¤à¤Ń":9231,"Ġà¤ħà¤µà¤Ł":9232,"à¤Łà¤°à¤¬":9233,"à¤Łà¤°à¤Ł":9234,"à¤¯à¤¨à¤ĳà¤¯à¤²":9235,"à¤ķà¤²à¤¶":9236,"ĠâĢ¢":9237,"ones":9238,"Ġà¤¬à¤²à¤¦":9239,"à¤ķà¤¨à¤ķà¤°":9240,"à¤Łà¤ķà¤Łà¤ķ":9241,"à¥¦à¥«":9242,"Ġà¤ªà¤¦à¤¦à¤²":9243,"à¤Ĭà¤Ł":9244,"à¤Ĩà¤Īà¤Ī":9245,"Ġà¤ħà¤®à¤°à¤ķ":9246,"Ġà¤īà¤²à¤Łà¤¨":9247,"Ġ480":9248,"Ġà¤¡à¤°à¤ķà¤°":9249,"à¤ĭà¤²":9250,"1930":9251,"1935":9252,"Ġà¤ĩà¤²à¤¹":9253,"ability":9254,"Ġà¤¹à¤²à¤µ":9255,"Ġclass":9256,"ĠCr":9257,"ĠAR":9258,"ĠIN":9259,"Ġà¤ıà¤²à¤¡":9260,"ĠTED":9261,"à¥«à¥®":9262,"ĠDo":9263,"Ġ141":9264,"à¥¬à¥Ń":9265,"Ġhost":9266,"à¥Ńà¥§":9267,"Ġà¤ıà¤«à¤ıà¤ĵ":9268,"Ġxml":9269,"Ġ+.":9270,"Ġà¤ıà¤ļà¤¡":9271,"Ġà¤ķà¤ªà¥ľ":9272,"ings":9273,"ower":9274,"oci":9275,"mpt":9276,"efin":9277,"Ġ1855":9278,"Ġ370":9279,"Ġà¤¤à¤¦à¤§":9280,"Ġ1869":9281,"imb":9282,"à¤łà¤¹à¤°à¤¨":9283,"ission":9284,"Ġà¤¹à¤łà¤¯":9285,"ĠConflict":9286,"Ġà¤Ĥà¤Ĥ":9287,"ĠStates":9288,"ownload":9289,"Ġwhen":9290,"elling":9291,"Ġscroll":9292,"Ġrecur":9293,"ĠSTART":9294,"osphere":9295,"WYSWY":9296,"LongNamePossessive":9297,"visit":9298,"turkey":9299,"ĠUNICODE":9300,"Object":9301,"WYSWYG":9302,"!)":9303,"!-":9304,"DL":9305,"Festival":9306,"Git":9307,"Image":9308,"JP":9309,"MR":9310,"Result":9311,"TG":9312,"aw":9313,"bsp":9314,"cap":9315,"mol":9316,"ply":9317,"unic":9318,"xvii":9319,"Ġà¤Į":9320,"à¥ĩà¤ģ":9321,"à¥ĩà¥°":9322,"à¤¨à¤¥":9323,"à¥ĭ>":9324,"Ġà¤¹à¤¸à¤®":9325,"à¤®à¤ļà¤ķ":9326,"à¤¹à¤ķà¤°":9327,"à¤¹à¤¬à¤¤":9328,"à¤ªà¤Ľ":9329,"à¤ªà¤¥à¤°":9330,"Ġà¤¨à¤¡":9331,"à¤ľà¤²à¤¤":9332,"à¤ľà¤²à¤ķ":9333,"à¥Ĥà¤ĥ":9334,"Ġà¤īà¤¬à¤°":9335,"à¤¶à¤¬à¤°":9336,"à¤¶à¤¯à¤¶":9337,"Ġà¤²à¤¬à¤°":9338,"à¤ıà¤ķà¤°":9339,"Ġà¤°à¤²":9340,"Ġà¤Ĩà¤¬à¤¨":9341,"Ġà¤¶à¤Łà¤²":9342,"à¤«à¤«":9343,"à¤¾à¤Ĥ'":9344,"à¤ħà¤Ĺà¤£":9345,"Ġà¤«à¤¹à¤®":9346,"à¤Ĩà¤°à¤µ":9347,"à¤Ĩà¤ĩà¤¡":9348,"à¤īà¤ķà¤¸":9349,"à¤īà¤Ńà¤°à¤¤":9350,"à¤ĵà¤²à¤®":9351,"à¤¾,-":9352,"à¤¼à¥Ģ/":9353,"à¤ŀà¤Ĺ":9354,"à¤ŀà¤ĸ":9355,"Ġ225":9356,"à¤®à¤¨à¤µ":9357,"à¤Ĺà¤¤à¤ķà¤°":9358,"à¤°à¤µà¤¦":9359,"à¥Ģ);":9360,"Ġà¤Ŀà¤¨":9361,"à¤¤à¤ķà¤®":9362,"à¤¤à¤ķà¤¬":9363,"à¤¸à¤²à¤µ":9364,"à¥¦à¥§":9365,"Ġà¤ľà¤²à¤°":9366,"anch":9367,"à¥ĩà¤Ĥ):":9368,"Ġà¤²à¤¡à¤¨":9369,"à¤°à¤ľà¤¤":9370,"à¤°à¤ľà¤ķ":9371,"Ġà¤ĭà¤¨":9372,"Ġaf":9373,"Ġap":9374,"Ġasy":9375,"1919":9376,"à¤¬à¤¹à¤¸":9377,"à¤ıà¤®à¤ıà¤«":9378,"à¥Ī)-":9379,"âĢĿ)":9380,"Ġ106":9381,"ĠInter":9382,"1212":9383,"ĠPR":9384,"ild":9385,"à¥¬à¥¯":9386,"à¥®à¥¦à¥¦":9387,"à¥Ńà¥ª":9388,"à¤¾!-":9389,"à¤ıà¤ļà¤ĵ":9390,"à¤¶à¤®à¤¶":9391,"à¤īà¤²à¤Ŀ":9392,"ogen":9393,"Ġà¥¬à¥ª":9394,"ube":9395,"Ġà¤·à¤Ł":9396,"unction":9397,"Ġà¤¤à¤¹à¤²à¤ķ":9398,"even":9399,"ebrew":9400,"sero":9401,"Ġà¤ĥà¥¤":9402,"ific":9403,"à¤¡à¤ĭà¤Ī":9404,".........":9405,"à¤ĸà¤ĸà¤ĸ":9406,"NTLM":9407,"Ġcontain":9408,"Ġapplication":9409,"Ġsubjects":9410,"ĠĠĠĠĠĠ":9411,"HTTPS":9412,"Ġics":9413,"Ð¸Ð¸":9414,"Ġelement":9415,"ippines":9416,"Sync":9417,"Ġdivis":9418,"Ġstdout":9419,"philippines":9420,"Ġdepartments":9421,"VoiceName":9422,"FestivalVoiceName":9423,"\").":9424,"Balsa":9425,"CON":9426,"CID":9427,"PM":9428,"Sc":9429,"UP":9430,"bi":9431,"bin":9432,"ga":9433,"ier":9434,"mo":9435,"Âº":9436,"Ġend":9437,"Ġopen":9438,"à¤¾âĢĺ":9439,"à¤¤à¤£":9440,"à¤¤à¤¶à¤¤":9441,"à¤ķà¤Ļ":9442,"Ġà¤¸à¤ł":9443,"Ġà¤¸à¤Ĩà¤¦à¤¤":9444,"à¤¹à¤¨à¤¨":9445,"à¤²à¤µà¤¤":9446,"à¤²à¤µà¤ķ":9447,"à¤²à¤ªà¤Ł":9448,"à¥ģ>":9449,"à¤µà¤¦à¤¨":9450,"à¤¦à¤¨à¤ķ":9451,"à¤¦à¤ªà¤¤":9452,"à¤Ĺà¤¬à¤¹":9453,"à¥Ĥà¤¾":9454,"à¥¤'":9455,"à¤¶à¤¯à¤¨":9456,"à¤¬à¤¬à¤¤":9457,"Ġà¤²à¤ı":9458,"Ġà¤²à¤ķà¤¤":9459,"Ġà¤²à¤ĸà¤¨":9460,"Ġà¤Ĩà¤·":9461,"Ġà¤Ĩà¤°à¤¤":9462,"Ġà¤Ĩà¤ĩà¤¸à¤ķ":9463,"à¤£à¤¹":9464,"à¤ĸà¤ĭ":9465,"à¤Ńà¤Ī":9466,"à¥Īà¤Ĥ..":9467,"Ġ((":9468,"Ġà¤ıà¤¥à¤²":9469,"Ġà¤ĩà¤¸à¤ª":9470,"à¤ħà¤°à¤¨":9471,"à¤¼à¤¾?":9472,"Ġà¤ħà¤¨à¤«":9473,"à¤Ĩà¤®à¤¦":9474,"à¤Ĩà¤ĩà¤ª":9475,"à¤µà¤°à¤¹":9476,"à¤¤à¤°à¤¶":9477,"à¤ĵà¤«":9478,"à¤¯à¤ķà¤¶":9479,"Ġà¤ħà¤²à¤¸":9480,"Ġà¤ħà¤²à¤«":9481,"Ġà¤ħà¤²à¤¹à¤¦":9482,"à¤¸à¤°à¤¬":9483,"à¤¯à¤¤à¤¤":9484,"à¤°à¤¸à¤°à¤ķ":9485,"Ġà¤¸à¤¹à¤ļ":9486,"Ġà¤¬à¤¹à¤ķà¤°":9487,"Ġ230":9488,"Ġà¤Łà¤ªà¤ķà¤¤":9489,"à¤ĺà¤ª":9490,"à¤®à¤¤à¤®":9491,"Ġà¤ħà¤µà¤¦":9492,"Ġà¤ªà¤¹à¤²à¤µ":9493,"Ġà¤¬à¤¡à¤ĭà¤Ī":9494,"Ġà¤īà¤¦à¤¦":9495,"à¤ķà¤²à¤¹":9496,"à¤¾.?":9497,"à¤ıà¤ķà¤¨":9498,"Ġà¤Ĩà¤°à¤ı":9499,"Ġà¤łà¤ł":9500,"Ġ'/'":9501,"Ġà¥ł":9502,"Ġà¤®à¤¹à¤¤à¤ĭ":9503,"Ġ320":9504,"ern":9505,"à¤¦à¤®à¤¬":9506,"ester":9507,"Ġà¤Ĩà¤Īà¤ı":9508,"Ġà¤Ĩà¤Īà¤Ĩà¤Īà¤ıà¤¸":9509,"Ġà¤¨à¤µà¤°à¤¤":9510,"à¤¬à¤¤à¤ĸ":9511,"Ġ617":9512,"aragu":9513,"à¤Ķà¤¸à¤¤à¤¨":9514,"Ġà¤ķà¤¨à¤µà¤°":9515,"Ġà¤ķà¤¨à¤ªà¤Ł":9516,"ĠSh":9517,"ĠSound":9518,"à¤ħà¤¸à¤¹à¤®à¤¤":9519,"à¤ħà¤µà¤Ł":9520,"à¤Ĺà¤£à¤ªà¤¤":9521,"sec":9522,"ĠPGP":9523,"ĠTV":9524,"):-":9525,"nicaragu":9526,"rasero":9527,"Ġmust":9528,"Â¥ÂĢ-":9529,"Ġworld":9530,"ĠLe":9531,"ĠEX":9532,"ĠEUC":9533,"....à¥¤":9534,"urugu":9535,"Ġvol":9536,"ters":9537,"1979":9538,"osi":9539,"à¥ĢâĢĻâĢĻ":9540,"nuPG":9541,"Ġ1888":9542,"Ġ1877":9543,"ITLE":9544,"Ġà¤¬à¥Ŀà¤¤":9545,"START":9546,"STUN":9547,"Ġà¥§à¥¯à¥®à¥¯":9548,"ccess":9549,"Ġà¥§à¥¯à¥Ńà¥¦":9550,"à¤Īà¤ıà¤«à¤ı":9551,"ĠUnix":9552,"Ġminutes":9553,"Ġincre":9554,"Ġchange":9555,"default":9556,"GtkHTML":9557,"à¤®à¤°à¤¤à¤¬":9558,"ShortNamePossessive":9559,"poland":9560,"SocketEngine":9561,"nicaragua":9562,"uruguay":9563,",--":9564,"112":9565,";-":9566,"Error":9567,"Folder":9568,"Text":9569,"UID":9570,"Ya":9571,"balsa":9572,"ca":9573,"pon":9574,"rd":9575,"uri":9576,"Ġii":9577,"ĠÃĹ":9578,"à¥ĩ......":9579,"à¤¤à¤Ĺà¤°":9580,"à¤¤à¤Łà¤¸":9581,"à¤®à¤ķà¤²":9582,"à¤®à¤ĭ":9583,"à¤²à¤ľà¤¯":9584,"à¤²à¤ªà¤®":9585,"Ġà¤ªà¤ªà¤°":9586,"à¤¦à¤°à¤¹":9587,"à¤ªà¤®à¤¨":9588,"à¥ĩà¤Ĥ--":9589,"Ġà¤ħà¤ĸà¤°":9590,"Ġà¤¨à¤Ĺà¤¦":9591,"à¤¼à¥Ĥà¤ģ":9592,"à¤¼à¥Ģà¤Ĥà¥¤":9593,"à¥¤)":9594,"à¤¶à¤¹à¤¤":9595,"à¤¶à¤®à¤¯":9596,"Ġà¤Ĩà¤ĩà¤Ł":9597,"Ġà¤Ĩà¤ĩà¤¯":9598,"à¤£à¤µà¤°":9599,"à¤£à¤ªà¤Ł":9600,"Ġà¤Ĺà¤Ł":9601,"à¤Īà¤ľà¤°":9602,"Ġà¤¶à¤ķà¤°":9603,"à¤¾à¥¤.":9604,"Ġà¤µà¤¹à¤¶":9605,"à¤īà¤¢":9606,"à¤¢à¤¸":9607,"à¤¨à¤ķà¤¨":9608,"à¤¤à¤¨à¤ĸ":9609,"à¤¸à¤®à¤²":9610,"à¤®à¤¤à¤¤":9611,"Ġ\"),":9612,"Ġà¤ķà¤®à¤¤à¤°":9613,"à¤¯à¤¨à¤ľ":9614,"Ġà¤ĩà¤¨à¤¹":9615,"Ġstr":9616,"à¤¯à¤°à¤ļà¤¨":9617,"0116":9618,"Ġà¤¬à¤²à¤µà¤¤":9619,"à¤¤à¤®à¤ľ":9620,"Ġ312":9621,"Ġ324":9622,"Ġnick":9623,"à¤®à¤¸à¤¤":9624,"à¤®à¤¸à¤ĸ":9625,"à¥ĩ.-":9626,"à¥ĩ.?":9627,"à¤Ĺà¤®à¤¯":9628,"à¤Ĺà¤®à¤ķà¤°":9629,"esc":9630,"à¤®à¤¹à¤«":9631,"Ġà¤ĭà¤¸à¤¸":9632,"Ġà¤®à¤¤à¤²":9633,"Ġdu":9634,"Ġdec":9635,"lash":9636,"à¤¹à¤²à¤µ":9637,"iceland":9638,"à¤ħà¤ªà¤¦":9639,"à¤§à¤ķName":9640,"lear":9641,"arm":9642,"à¤ıà¤¨à¤ıà¤«":9643,"à¤¶à¤²à¤Ń":9644,"ĠSu":9645,"ĠAL":9646,"Ġ127":9647,"à¤ħà¤µà¤¨à¤¤":9648,"à¤ĩà¤ķà¤¬":9649,"1216":9650,"ĠTYP":9651,"116":9652,"Ġ253":9653,"ĠFacebook":9654,"à¤°à¤«à¤²à¤ķ":9655,"à¤¾à¤Ĥ,âĢĵ":9656,"Ġinformation":9657,"à¥Ńà¥¬":9658,"à¥Ńà¥¯":9659,"Ġga":9660,"Ġgeneric":9661,"ĠEv":9662,"ĠOn":9663,"à¤Ĩà¤¸à¤ªà¤¡":9664,"ĠZZ":9665,"ĠZà¤ħà¤§":9666,"ĠZà¤ĩà¤«à¤°":9667,"Ġà¥«à¥¬":9668,"à¥Ĩà¤Ĥ,":9669,"1953":9670,"à¥¨à¥¦à¥¦à¥©":9671,"Ġà¥§à¥«à¥¦à¥¦":9672,"ICE":9673,"Ġ0800":9674,"ENET":9675,"UTC":9676,"CalDAV":9677,"Ġwhite":9678,"icket":9679,"ativeSocketEngine":9680,"ĠProt":9681,"Ġà¤ħà¤¶à¤°à¤«":9682,"belgi":9683,"Ġcharacters":9684,"Ġleveling":9685,"ĠIslam":9686,"australia":9687,"ĠSecond":9688,"alities":9689,"automake":9690,"LINE":9691,"Lesson":9692,"belgium":9693,"Ba":9694,"Box":9695,"Big":9696,"Default":9697,"DATE":9698,"EE":9699,"EF":9700,"Ekiga":9701,"GIN":9702,"No":9703,"aas":9704,"bit":9705,"hai":9706,"ko":9707,"low":9708,"num":9709,"session":9710,"Â¨":9711,"Ġtitle":9712,"à¤Ĥà¥į":9713,"à¤¨à¤ĺà¤°":9714,"à¤¤à¤¸à¤²":9715,"à¤¤à¤Łà¤µà¤°":9716,"à¤¤à¤«à¤°":9717,"à¤¯à¤²à¤¨":9718,"à¤¯à¤²à¤ķ":9719,"à¤¸à¤¨à¤¤":9720,"à¤®à¤®à¤¯":9721,"à¤®à¤ªà¤¦":9722,"à¤®City":9723,"Ġà¤¸à¤ķà¤°":9724,"à¤¹à¤ķà¤²":9725,"à¤²à¤·":9726,"à¤²à¤®à¤°":9727,"à¤¦à¤µà¤°":9728,"à¤ªà¤¦à¤ķ":9729,"Ġà¤ľà¤Ī":9730,"Ġà¤ħà¤µà¤¨à¤¦":9731,"Ġà¤¨à¤¸à¤²":9732,"Ġà¤¤à¤ĭà¤°":9733,"à¤¬à¤Ľ":9734,"à¤Łà¤Ī":9735,"à¤ıà¤ªà¤°":9736,"à¤§à¤µà¤°":9737,"à¤·à¤ļà¤¨":9738,"à¤·à¤Ńà¤°":9739,"Ġà¤Ĺà¤ļà¤ķ":9740,"Ġà¤ıà¤«à¤°":9741,"Ġà¤ıà¤¯à¤°à¤ķ":9742,"à¥Īà¥¤'":9743,"à¤«à¤Ĺ":9744,"à¤ģ%":9745,"Ġà¤ĩà¤¸à¤µ":9746,"Ġà¤«à¤¬":9747,"à¤¼à¤¾à¤ĥ":9748,"à¤¾à¥¤'":9749,"à¤Ĩà¤®à¤¨":9750,"Ġà¤¯à¤¹à¤¦":9751,"à¤ĵà¤¶":9752,"à¤ªà¤°à¤«":9753,"Ġà¤¡à¤Ĺ":9754,"à¤¸à¤°à¤¶":9755,"à¤¯à¤®à¤¤":9756,"à¤¤à¤¨à¤¤à¤®":9757,"à¤ªà¤¤à¤®":9758,"Ġ222":9759,"à¤°à¤¯à¤¨":9760,"à¤µà¤¸à¤¤":9761,"Ġà¤¹à¤°à¤ıà¤ķ":9762,"Ġà¤Ŀà¤ķ":9763,"Ġ190":9764,"à¤¯à¤°à¤¬":9765,"à¤Ĳà¤¡":9766,"à¤ħà¤¨à¤¦":9767,"mer":9768,"media":9769,"methane":9770,"Ġà¤ľà¤²à¤®à¤Ĺ":9771,"à¤µà¤°à¤£à¤µ":9772,"anao":9773,"à¤ļà¤¯à¤ª":9774,"à¤ĩà¤Łà¤¸":9775,"à¤·à¤®Q":9776,"printui":9777,"Ġà¤¸à¤®à¤¸à¤ĭ":9778,"Ġass":9779,"1939":9780,"Ġà¤ħà¤Ĺà¤°à¤¤à¤²":9781,"à¤ħà¤¬à¤¤à¤ķ":9782,"ics":9783,"eel":9784,"à¤ħà¤ªà¤¶à¤ķ":9785,"à¤®à¤Ĺà¤£":9786,"à¤¹à¤°à¤£à¤¸":9787,"abwe":9788,"Ġà¤§à¤¨à¤¶":9789,"Ġ1830":9790,"à¤Ķà¤ļ":9791,"à¤ıà¤«à¤Ĩà¤Ī":9792,"à¤ħà¤ľà¤°à¤¬":9793,"ĠCtrl":9794,"Ġ203":9795,"Ġ209":9796,"reg":9797,"ĠInd":9798,"ĠIRC":9799,"à¤ľà¤®à¤¶":9800,"ĠMess":9801,"Ġ255":9802,"à¥«à¥¨":9803,"à¥«à¥ª":9804,"ĠFr":9805,"''(":9806,"Ġfirst":9807,"à¥¬à¥®":9808,"Ġwork":9809,"ĠLa":9810,"ĠLIST":9811,"ĠGTG":9812,"Ġinput":9813,"à¥°)":9814,"ailand":9815,"Ġus":9816,"ington":9817,"Ġà¥©à¥¬":9818,"quest":9819,"à¥Ī...à¥¤":9820,"Ġà¤ħà¤¹à¤®à¤¦à¤¨à¤Ĺà¤°":9821,"Ġà¥ªà¥®":9822,"à¤¹à¤ľà¤°à¤¤":9823,"Ġà¤«à¤Łà¤ķà¤¨":9824,"ths":9825,"thailand":9826,"à¤Ĩà¤°à¤ıà¤ıà¤¸":9827,"ull":9828,"à¤ĺà¤Łà¤¨à¤ķ":9829,"Conf":9830,"ĠJava":9831,"ender":9832,"Ġà¤ļà¤°à¤®à¤°":9833,"Ġà¤ĸà¤Łà¤®à¤²":9834,"à¥§à¥¯à¥Ńà¥Ń":9835,"ĠStand":9836,"Ġsecure":9837,"Ġsecond":9838,"à¤°à¤ĸà¤°à¤ĸ":9839,"à¤®à¤¶à¤°à¤£à¤ľ":9840,"Ġà¥§à¥¯à¥©à¥¬":9841,"plit":9842,"Ġ~/.":9843,"Ġwhich":9844,"Ġminute":9845,"RAM":9846,"mmc":9847,"opyright":9848,"libgnomeprintui":9849,"Ġheader":9850,"othes":9851,"oolant":9852,"ĠDNS":9853,"Ġjaao":9854,"imbabwe":9855,"\":":9856,")!":9857,">]":9858,"ASE":9859,"ASCII":9860,"DG":9861,"DVI":9862,"Elm":9863,"Fi":9864,"Inter":9865,"Open":9866,"PE":9867,"Tw":9868,"ken":9869,"lot":9870,"missions":9871,"ptions":9872,"sub":9873,"ta":9874,"ule":9875,"xii":9876,"zimbabwe":9877,"Â§":9878,"Ġà¥ģ":9879,"à¤¨à¤ĵ":9880,"à¤¤à¤®à¤°":9881,"à¤ķà¤ĵ":9882,"à¤¯à¤¤à¤°":9883,"Ġà¤¹à¤¯":9884,"à¤®à¤ľà¤¸":9885,"Ġà¤¸à¤¬à¤°":9886,"à¤²à¤Łà¤°":9887,"à¤¦à¤¹à¤ķ":9888,"à¤Ĺà¤Ńà¤¦":9889,"à¥ĩà¤Ĥ....":9890,"Ġà¤ľà¤¯à¤¨":9891,"Ġà¤ħà¤¹à¤°":9892,"à¤¼à¥ĩà¤Ĥ)":9893,"à¤¼),":9894,"à¤¼à¥ħ":9895,"à¥ĭà¤ĤâĢĶ":9896,"Ġà¤¤à¤¨à¤¹":9897,"Ġà¤¦à¤®à¤£":9898,"à¤Łà¤¬à¤¦":9899,"à¤ļà¤°à¤¤":9900,"Ġà¤Ĩà¤¡à¤®":9901,"Ġà¤¯à¤Ĺ":9902,"à¤Ńà¤Łà¤ķ":9903,"à¤«à¤°à¤ķ":9904,"Ġà¤°à¤¹à¤µ":9905,"à¤ķà¤°à¤²":9906,"à¤°à¤ķà¤¸":9907,"à¤ĵà¤ıà¤¸à¤ıà¤¸":9908,"à¤°à¤£à¤²":9909,"à¤ĥà¥¤":9910,"à¥Īà¤Ĥà¥¤-":9911,"à¤Ŀà¤ĸ":9912,"à¤Ŀà¤Łà¤ķ":9913,"à¤Ŀà¤Łà¤ªà¤Ł":9914,"à¤¤à¤¨à¤°":9915,"à¤²à¤¤à¤¤":9916,"à¤®à¤¨à¤ľ":9917,"Ġà¤Łà¤²à¤¨":9918,"Ġà¤Łà¤°à¤¬":9919,"à¤°à¤¯à¤¦":9920,"à¤¸à¤¨à¤¸à¤¨":9921,"à¤Łà¤¨à¤¸":9922,"Ġà¤ħà¤°à¤¹à¤°":9923,"à¤ıà¤ķà¤¦à¤®":9924,"Ġà¤ħà¤ļà¤°":9925,"Ġà¤Ŀà¤ªà¤ķ":9926,"Ġà¤Ĩà¤°à¤¡à¤¬à¤²":9927,"à¤²à¤¬à¤¦":9928,"Ġà¤¸à¤¦à¤¯à¤¤":9929,"à¤ħà¤¨à¤ļ":9930,"à¤°à¤¬à¤²à¤¨":9931,"Ġà¤ħà¤¬à¤²":9932,"message":9933,"Ġà¤¢à¤¬":9934,"Ġà¤¢à¤ķà¤¤":9935,"Ġà¤¤à¤°à¤«à¤¦":9936,"ani":9937,"à¤Ĭà¤ķ":9938,"Ġà¤īà¤ªà¤²à¤¬à¤§":9939,"à¤Ĩà¤Īà¤Īà¤Ł":9940,"à¥Ģà¤Ĥà¥¤-":9941,"Ġà¤Ĩà¤Īà¤ľ":9942,"Ġà¤¨à¤µà¤Ĺ":9943,"last":9944,"lated":9945,"à¤ªà¤Łà¤ķà¤°":9946,"à¤ķà¤¹à¤ķà¤°":9947,"Ġ720":9948,"à¤¾;]":9949,"Ġ107":9950,"Ġcdrdao":9951,"à¤ħà¤¸à¤¹à¤¨":9952,"ĠAudacity":9953,"à¥Īà¤Ĥ).":9954,"ĠPar":9955,"herland":9956,"2021":9957,"1113":9958,"Ġpop":9959,"Ġ168":9960,"Ġfr":9961,"Ġfolder":9962,"Ġmat":9963,"Ġmul":9964,"ĠDATE":9965,"à¥ªà¥¦à¥¦":9966,"à¤ħà¤«à¤µ":9967,"Ġà¤ĺà¤¨à¤¶":9968,"Ġ+/":9969,"act":9970,"riority":9971,"ures":9972,"0214":9973,"IND":9974,"270":9975,"thod":9976,"à¥Ģà¤Ĥ?-":9977,"à¥¨à¥¦à¥¦à¥¨":9978,"à¤Ĩà¤Īà¤ıà¤¸à¤¡":9979,"Ġ1856":9980,"Ġ1874":9981,"371":9982,"Ġjaa":9983,"aving":9984,"atin":9985,"ĠQString":9986,"à¥§à¥¯à¥Ńà¥ª":9987,"à¤ĩà¤ªà¤°à¤Ł":9988,"Ġà¥¨à¥¨à¥¬":9989,"romania":9990,"Ġsave":9991,"Ġà¤¬à¤°à¤«weather":9992,"Advanced":9993,"luor":9994,"à¥§à¥¯à¥¬à¥¦":9995,"rowisofs":9996,"ĠËĩ":9997,"cuba":9998,"Evince":9999,"unchpad":10000,"Ġrefers":10001,"QNativeSocketEngine":10002,"npscra":10003,"AA":10004,"DP":10005,"Game":10006,"LC":10007,"Priority":10008,"both":10009,"cing":10010,"carbon":10011,"doc":10012,"hy":10013,"mark":10014,"uania":10015,"ÅŁ":10016,"à¤°à¤ªà¤ķ":10017,"à¥įà¥į":10018,"à¥įâĢĵ":10019,"à¤¨à¤§":10020,"à¤¨à¤¸à¤²":10021,"à¤¨à¤§à¤°":10022,"à¤¤à¤¸à¤¦":10023,"à¤¤à¤¸à¤µ":10024,"à¤¯à¤¨à¤¤":10025,"à¤¯à¤Łà¤°":10026,"à¤¯à¤¬à¤¦":10027,"à¤¸à¤¬à¤¤":10028,"Ġà¤¹à¤°à¤¸":10029,"à¤²à¤°à¤ķ":10030,"à¥ģà¤¿":10031,"à¤µà¤ķà¤¤":10032,"à¤µà¤¸à¤°":10033,"à¤¦à¤¶à¤¨":10034,"à¤ªà¤¸à¤°":10035,"Ġà¤ħà¤¯à¤¥":10036,"Ġà¤µà¤¨à¤°":10037,"à¤ľà¤¸à¤Ń":10038,"Ġà¤¦à¤°à¤Ń":10039,"Ġà¤¦à¤ķà¤¨":10040,"à¤¶à¤¤à¤ķ":10041,"à¤¶à¤®à¤¸":10042,"à¤¬à¤¨à¤¨":10043,"Ġà¤²à¤²à¤ļ":10044,"à¤Łà¤Ĩà¤īà¤Ł":10045,"Ġà¤°à¤ľà¤¨":10046,"Ġà¤°à¤ķà¤¸":10047,"à¤·à¤ķà¤¤":10048,"à¤ļà¤Łà¤ķ":10049,"à¤ļà¤µà¤Ł":10050,"Ġà¤¯à¤§à¤ª":10051,"Ġà¤Ĺà¤¶":10052,"Ġà¤ªà¤°à¤¬":10053,"Ġà¤ıà¤ıà¤¸":10054,"Ġà¤¶à¤Ĺ":10055,"à¥Ģà¤Ĥ:":10056,"à¤ªà¤¨à¤¡":10057,"à¤ĩà¤ķà¤¸":10058,"Ġà¤ıà¤ķà¤Łà¤ķ":10059,"Ġà¤¸à¤®à¤ªà¤°":10060,"à¤ħà¤Ī":10061,"à¤ħà¤¸à¤ķ":10062,"à¤ħà¤µà¤¯à¤¸":10063,"Ġà¤ħà¤¨à¤¹":10064,"à¤Ĩà¤¬à¤°":10065,"à¤Ĩà¤ķà¤²":10066,"à¤Ĩà¤Ĺà¤µ":10067,"à¤ĵà¤ĵ":10068,"Ġà¤ķà¤¹à¤°":10069,"à¥Ī,?":10070,"à¤¯à¤ķà¤µà¤¸":10071,"Ġà¤¡à¤Ĺà¤²à¤¸":10072,"Ġà¤īà¤ªà¤ľà¤¤":10073,"à¤Ŀà¤µ":10074,"à¤Ŀà¤Ĺ":10075,"Ġà¤ħà¤²à¤¬":10076,"à¤Ĺà¤°à¤²":10077,"à¤²à¤¨à¤ķà¤°":10078,"à¥Ģà¥¤,":10079,"Ġ223":10080,"Ġà¤Łà¤¯":10081,"à¤ĺà¤Ĺ":10082,"à¤ĺà¤¨à¤¨":10083,"Ġà¤Īà¤Ī":10084,"Ġà¤Īà¤¥à¤°à¤¨":10085,"Ġà¤®à¤¹à¤¬":10086,"Ġà¤ªà¤¤à¤µ":10087,"à¤µà¤¤à¤¶":10088,"à¤§à¤¨à¤µ":10089,"à¤§à¤¨à¤¶":10090,"Ġà¤ħà¤°à¤ľ":10091,"à¤¾);":10092,"à¥Ģ)/":10093,"à¤¯à¤°à¤¡":10094,"à¤¸à¤²à¤¸":10095,"Ġà¤Ĩà¤Ĺà¤ľà¤¨":10096,"à¤°à¤¨à¤ª":10097,"merica":10098,"Ġ344":10099,"Ġ340":10100,"à¤¨à¤µà¤¯":10101,"à¤¡à¤°à¤°":10102,"Ġà¤ľà¤®à¤ĺà¤Ł":10103,"amer":10104,"à¤ªà¤·à¤ĭ":10105,"à¤ļà¤°à¤°":10106,"à¤£à¤¨à¤«à¤²":10107,"Ġà¤Ĩà¤Īà¤ķ":10108,"Ġdir":10109,"1931":10110,"lag":10111,"à¤ħà¤§à¤¸":10112,"ices":10113,"à¤ħà¤ªà¤Ń":10114,"à¤¿),":10115,"à¤ħà¤°à¤«":10116,"à¤ıà¤²à¤ıà¤¸à¤Ĩà¤Ī":10117,"à¤ªà¤£à¤ĸ":10118,"à¤¾?-":10119,"Ġà¤ıà¤¸à¤ıà¤ļà¤ľ":10120,"otes":10121,"à¤Ĩà¤ľà¤®":10122,"à¤ıà¤¨à¤ıà¤«à¤¸":10123,"Ġà¤ıà¤¨à¤ıà¤µ":10124,"à¤ħà¤®à¤¦à¤¨":10125,"Ġcub":10126,"Ġpro":10127,"ĠCredit":10128,"rev":10129,"ĠAgency":10130,"Ġdocu":10131,"tput":10132,"Â¤ÂĤ?":10133,"Ġ@%":10134,"à¤®à¤£à¤µ":10135,"à¤ħà¤ķà¤¥":10136,"ĠTITLE":10137,"à¥«à¥©":10138,"Ġ169":10139,"''à¥¤":10140,"ĠDe":10141,"ĠUk":10142,"ĠNa":10143,"ĠxB":10144,"à¥ģ.)":10145,"à¥°à¥¤":10146,"à¤¨à¤ªà¤¢":10147,"ria":10148,"Ġ238":10149,"Ġ272":10150,"ogg":10151,"Ġà¥«à¥ª":10152,"ĠVI":10153,"ĠXlib":10154,"troller":10155,"Ġcontroller":10156,"Ġà¥¦à¥¯":10157,"ulink":10158,"à¤¾\"\"":10159,"afe":10160,"ĠÂ¨":10161,"ĠÂ½":10162,"Ġà¤ĵà¤µà¤°à¤¸":10163,"Ġ1853":10164,"Ġ011":10165,"à¥Ĥà¤ģ?à¥¤":10166,"Ġ377":10167,"à¤ħà¤Łà¤ķà¤²":10168,"Ġà¤īà¤¬à¤²à¤¤":10169,"ody":10170,"Ġonly":10171,"Ġà¥¨à¥«à¥¦":10172,"epar":10173,"à¥§à¥¯à¥Ńà¥¯":10174,"ithuania":10175,"ondon":10176,"iki":10177,"ĠËĿ":10178,"ospher":10179,"ĠTOOL":10180,"Ġlzo":10181,"anager":10182,"Ġdriver":10183,"REAK":10184,"haiti":10185,",âĢĶ":10186,".(":10187,"020":10188,"310":10189,"Bcc":10190,"IX":10191,"LA":10192,"My":10193,"OFF":10194,"QU":10195,"SON":10196,"cam":10197,"fare":10198,"look":10199,"ming":10200,"stit":10201,"top":10202,"zer":10203,"Ġvi":10204,"à¤°à¤Ĩ":10205,"à¥ĩà¥ĭ":10206,"à¤Ĥ'":10207,"à¤¨à¤¨à¤ķ":10208,"à¤¨Comment":10209,"à¤¤à¤ķà¤°à¤£":10210,"à¤¸à¤ħà¤¤":10211,"à¤¸à¤Ĭà¤¦":10212,"à¤®Name":10213,"à¤¹à¤ļ":10214,"à¤¹à¤¤à¤¨":10215,"à¤²à¤¦à¤¸":10216,"à¤¦à¤¹à¤¨":10217,"à¥ĩà¤ĤâĢĻ":10218,"Ġà¤ľà¤¯à¤²à¤²":10219,"Ġà¤ħà¤¦à¤°":10220,"Ġà¤¨à¤µà¤²":10221,"Ġà¤¨à¤¤à¤®":10222,"à¤ľà¤ļ":10223,"à¤ľà¤ªà¤ķ":10224,"à¤¼à¤¼à¤¾":10225,"Ġà¤¤à¤«à¤°":10226,"Ġà¤¦à¤¹à¤ķ":10227,"à¤¬à¤¨à¤µ":10228,"à¤¬à¤Ĺà¤¦":10229,"à¤§à¤¶à¤¤":10230,"à¤¡à¤°à¤µ":10231,"à¤¡Comment":10232,"à¤£à¤ļ":10233,"à¤£à¤¤à¤°":10234,"à¤£à¤ĺ":10235,"à¥Īà¤Ĥ\",":10236,"Ġà¤ıà¤Łà¤®":10237,"Ġà¤ļà¤ĸà¤¤":10238,"à¥Īà¥¤à¥¤":10239,"Ġà¤ĸà¤°à¤¹":10240,"Ġà¤¸à¤®à¤¬à¤¨":10241,"à¤ħà¤µà¤ª":10242,"à¤ħà¤°à¤ľ":10243,"Ġà¤ħà¤¨à¤ĩ":10244,"à¤Ĩà¤ĸà¤°":10245,"à¤īà¤ľà¤²":10246,"Ġà¤¡à¤®à¤°":10247,"Ġà¤¡à¤°à¤¬à¤¨":10248,"à¥ĩà¥¤,":10249,"Ġà¤Ľà¤¬":10250,"Ġà¤ľà¤¬à¤¸":10251,"à¤¨à¤¤à¤ľ":10252,"Ġà¤¬à¤¹à¤ķà¤¤":10253,"Ġà¤Łà¤¬":10254,"à¤ĺà¤²à¤¤":10255,"à¤·à¤£à¤µ":10256,"à¤·à¤£à¤ķà¤°":10257,"à¤°à¤µà¤®à¤¯":10258,"à¤¾./":10259,"à¤µà¤¤à¤¯":10260,"à¤§à¤¨à¤¹":10261,"Ġà¤°à¤¸à¤¤":10262,"Ġà¤°à¤¸à¤Ĺ":10263,"Ġshell":10264,"Ġà¤¬à¤¦à¤¦":10265,"à¤¯à¤¦à¤ķ":10266,"à¤°à¤¶à¤°":10267,"Ġà¤Ĩà¤Ĺà¤¨":10268,"Ġà¤¸à¤¦à¤Ĺ":10269,"Ġà¤¸à¤¤à¤¯":10270,"Ġà¤¬à¤²à¤Ĺà¤®":10271,"à¤ħà¤¨à¤®à¤¨":10272,"Ġà¤īà¤łà¤µ":10273,"ins":10274,"à¤·à¤ķà¤µ":10275,"Ġà¤¶à¤°à¤²":10276,"à¤Ĺà¤®à¤Ńà¤¨":10277,"à¥ĭ)-":10278,"Ġà¤īà¤²à¤®":10279,"Ġ555":10280,"Ġà¤ĭà¤ķ":10281,"Ġà¤ħà¤Ĺà¤£":10282,"à¤¬à¤¹à¤²":10283,"icy":10284,"Ġ6500":10285,"Ġ:âĢĶ":10286,"Ġ1838":10287,"à¤¸à¤¬à¤¬":10288,"ĠSA":10289,"ĠSm":10290,"à¤ıà¤«à¤ıà¤®à¤ıà¤¸":10291,"Ġcy":10292,"Ġcode":10293,"ĠCogl":10294,"reamer":10295,"ĠAust":10296,"Ġ113":10297,"123":10298,"ĠPNG":10299,"113":10300,"Ġbel":10301,"à¥ĭà¤Ĥà¥¤\"":10302,"à¥«à¥§":10303,"à¤Ļà¤ķ":10304,"ĠBE":10305,"ĠBASE":10306,"ras":10307,"ĠRoller":10308,"à¥©à¥¯":10309,"Ġemp":10310,"Ġhu":10311,"Ġà¤īà¤¤à¤°à¤¦":10312,"Ġà¤Ĩà¤«à¤ķ":10313,"Ġà¥©à¥®":10314,"Ġlocal":10315,"emp":10316,"à¥Ģ!)":10317,"ĠiCalendar":10318,"ORIG":10319,"Ġà¤ļà¤®à¤ķà¤¨":10320,"0616":10321,"Ġà¤¬à¤°à¤¤à¤¤":10322,"Ġà¤¥à¤ķà¤ķà¤°":10323,"Ġà¤ķà¤¤à¤°à¤µ":10324,"igh":10325,"Ġmethod":10326,"ectures":10327,"à¤¾...à¥¤":10328,"Ġjava":10329,"Ġà¥§à¥¯à¥®à¥Ń":10330,"Ġà¤¶à¤¯à¤¨à¤ķà¤ķ":10331,"à¥§à¥§à¥¦":10332,"à¥§à¥¯à¥®à¥¯":10333,"à¤ıà¤Łà¤²à¤¸":10334,"GEST":10335,"ĠEND":10336,"Ġunit":10337,"Ġà¤ªà¤Ļà¤¤":10338,"Ġtextbox":10339,"netherland":10340,"Ġà¥§à¥¯à¥¬à¥¦":10341,"Ġà¤īà¤ªà¤²à¤§":10342,"ĠÎĺ":10343,"à¤¹à¤łà¤§à¤°":10344,"Ġstartups":10345,"BOX":10346,"Ġtransfer":10347,"Ġprefectures":10348,"Ġplanar":10349,"OWA":10350,"unicip":10351,"ospheric":10352,"netherlands":10353,"(.":10354,"060":10355,"750":10356,">:":10357,"CS":10358,"Cc":10359,"FS":10360,"Group":10361,"Hà¤¶":10362,"IMS":10363,"Options":10364,"Qà¤¤":10365,"RESS":10366,"Roman":10367,"Se":10368,"Source":10369,"Subject":10370,"TA":10371,"Tr":10372,"TIME":10373,"TION":10374,"be":10375,"ctr":10376,"files":10377,"iber":10378,"lithuania":10379,"oIP":10380,"ron":10381,"vid":10382,"video":10383,"âĻª":10384,"à¥ļ":10385,"à¤°à¤µà¤¨":10386,"à¤°à¤²à¤ķ":10387,"à¤°à¤ħà¤ľ":10388,"Ġà¤ķà¤¶à¤¤":10389,"Ġà¤ķà¥ľ":10390,"à¤¨à¤Łà¤°":10391,"à¥Ģ..":10392,"à¤¯à¤ŀ":10393,"à¤¯à¤Ĺà¤¢":10394,"à¤¸à¤ĺà¤¨":10395,"à¤¸à¤łà¤µ":10396,"à¤®à¤¸à¤ķ":10397,"à¤¹à¤¶à¤¤":10398,"à¤¹à¤¸à¤¦":10399,"à¤²à¤§":10400,"à¤²à¤ħà¤²":10401,"Ġà¤ªà¤ŀ":10402,"à¥Ī'à¥¤":10403,"à¤¦à¤Ĩà¤²":10404,"à¤¦à¤¶à¤°à¤¥":10405,"à¤ªà¤²à¤¨":10406,"à¤Ĺà¤¥":10407,"à¥ĩà¤ĤâĢĶ":10408,"Ġà¤ľà¤²à¤ķ":10409,"Ġà¤ħà¤Ĺà¤®":10410,"Ġà¤ħà¤¹à¤ķ":10411,"à¤ľà¤²à¤¯":10412,"à¤¼à¤¼à¤¿":10413,"à¤¼à¤¼à¥Ĥ":10414,"Ġà¤¤à¤ľà¤²":10415,"à¥¤.":10416,"à¤¶à¤Ĺà¤¤":10417,"à¤¶à¤¯à¤¸":10418,"Ġà¤²à¤°à¤ľ":10419,"Ġà¤²à¤¹à¤¬":10420,"à¤Łà¤ı":10421,"à¤Łà¤°à¤¸à¤¨":10422,"à¤ıà¤¹à¤°":10423,"à¤ıà¤¤à¤ķ":10424,"à¤·à¤¦à¤°":10425,"Ġà¤Ĩà¤ĩà¤ķ":10426,"Ġà¤¯à¤«":10427,"Ġà¤¯à¤¶à¤°":10428,"Ġà¤¯à¤Ĭà¤ķ":10429,"Ġà¤Ĺà¤²à¤¨":10430,"Ġà¤Ĺà¤¹à¤²":10431,"à¤Ńà¤¶":10432,"à¥Īà¤Ĥ%":10433,"Ġà¤ĩà¤®à¤¤":10434,"Ġà¤ıà¤²à¤¯":10435,"Ġà¤ļà¤¶à¤®":10436,"à¤Īà¤ıà¤ķ":10437,"à¤Īà¤Ĩà¤Ĺ":10438,"Ġà¤īà¤¨à¤ľ":10439,"Ġà¤¶à¤Ĭà¤°":10440,"Ġà¤ıà¤ķà¤¤à¤²":10441,"à¤ħà¤¸à¤¦":10442,"à¤ħà¤Ļ":10443,"Ġà¤«à¤°à¤ķ":10444,"Ġà¤«à¤¬à¤ķ":10445,"à¤°à¤ķà¤µ":10446,"à¤¼à¤¾à¥¤\"":10447,"Ġà¤ħà¤¨à¤¸à¤°":10448,"Ġà¤ħà¤¨à¤ªà¤°à¤¸":10449,"à¤¾à¥¤,":10450,"à¤µà¤°à¤²":10451,"à¤µà¤°City":10452,"Ġà¤ħà¤§à¤¡":10453,"Ġà¤ķà¤¹à¤²à¤µ":10454,"à¤Ŀà¤Ńà¤°":10455,"à¤°à¤®à¤¦":10456,"Ġà¤ħà¤²à¤ķà¤¸":10457,"Ġà¤ħà¤²à¤¯à¤¸":10458,"à¤¼à¥ģà¥į":10459,"à¤¸à¤°à¤¹à¤¦":10460,"Ġà¤Ľà¤ªà¤°":10461,"à¤²à¤¨à¤°à¤¤":10462,"à¤¨à¤¤à¤²":10463,"Ġà¤¸à¤¹à¤ľà¤µ":10464,"Â¤Âŀ":10465,"Ġ212":10466,"à¤¶à¤¨à¤¸":10467,"Ġà¤Łà¤¸":10468,"à¤·à¤£à¤Ń":10469,"Ġà¤Ĩà¤¯à¤¨à¤¨":10470,"à¤Łà¤°à¤ļ":10471,"Ġà¤ĵà¤Ĺ":10472,"Ġà¤ħà¤¤à¤²à¤¸":10473,"Ġà¤ĩà¤¨à¤ªà¤°":10474,"Ġà¤¸à¤°à¤«":10475,"Ġà¤¸à¤°à¤Ĺà¤°à¤¦":10476,"Ġà¤ħà¤°à¤«":10477,"Ġà¤¤à¤°à¤Ĺ":10478,"à¥Ĥà¤ģ!\"":10479,"à¤īà¤¨à¤ľ":10480,"à¤µà¤²à¤¦":10481,"Ġà¤¬à¤¦à¤¶":10482,"à¤®à¤²à¤ı":10483,"011":10484,"0114":10485,"only":10486,"à¤ħà¤¨à¤¹":10487,"à¤¤à¤®à¤ķà¤°":10488,"à¤¤à¤®à¤Īà¤¨":10489,"Ġà¤ħà¤¬à¤ķ":10490,"à¤ĸà¤¨à¤¯":10491,"timac":10492,"Ġà¤¬à¤¸à¤ľ":10493,"inc":10494,"Ġnon":10495,"à¤ıà¤¸à¤ıà¤ļà¤¸":10496,"Ġà¤µà¤¸à¤ħà¤¤":10497,"à¤Ńà¤µà¤®":10498,"Ġà¤ħà¤ľà¤¦à¤¹":10499,"Ġà¤Ķà¤¹à¤¦":10500,"Ġà¤Ĩà¤¸à¤µà¤¨":10501,"à¥ĭ);":10502,"Ġterrorism":10503,"Ġà¤Ĳà¤¬à¤¦":10504,"à¤ĭà¤ļ":10505,"à¤°à¤ľà¤¹":10506,"à¤Ńà¤Ĺà¤µà¤¤":10507,"1944":10508,"1912":10509,"lae":10510,"Ġà¤¦à¤¸à¤¤à¤°à¤¸":10511,"à¤ħà¤ªà¤ķà¤°":10512,"à¤Ńà¤°à¤ª":10513,"ences":10514,"Ġà¥¤à¥¤":10515,"otal":10516,"stra":10517,"Ġcent":10518,"à¤ħà¤ľà¤¯":10519,"ĠAa":10520,"à¤°à¤¹à¤£à¤ķà¤°":10521,"à¤ľà¤¤à¤®à¤¨":10522,"Ġà¤¤à¤²à¤«":10523,"Ġà¤ıà¤²à¤ļ":10524,"isual":10525,"ĠTab":10526,"206":10527,"à¥ĩà¥¤\"-":10528,"Ġbz":10529,"à¥ĭ.-":10530,"'',":10531,"ĠBaI":10532,"ĠBREAK":10533,"Ġmunicip":10534,"Ġ138":10535,"Ġ149":10536,"à¥ªà¥¯":10537,"Ġà¤®à¤²à¤®à¤²":10538,"à¤¯à¤£à¤ª":10539,"ĠLAN":10540,"Ġeach":10541,"à¤¾!)":10542,"Ġà¤ıà¤«à¤Ł":10543,"Ġà¤ħà¤¹à¤®à¤ķ":10544,"ĠESend":10545,"Ġà¤¹à¤¡à¤¡":10546,"139":10547,"ĠWi":10548,"Ġ228":10549,"à¥Ī?\"-":10550,"Ġà¤Ńà¤¡à¤ķà¤¤":10551,"pression":10552,"à¤įà¤ª":10553,"Ġà¤ħà¤Łà¤ªà¤Ł":10554,"Ġ290":10555,"à¤īà¤¡à¤¸":10556,"à¤¶à¤¹à¤µà¤¤":10557,"Ġà¤·à¤£":10558,"Ġà¥¦à¥¨":10559,"Ġà¥¦à¥«":10560,"à¤ħà¤®à¤°à¤ª":10561,"vey":10562,"Ġà¤¤à¤«à¤°à¤ķ":10563,"pport":10564,"hange":10565,"Ġ343":10566,"Reply":10567,"à¤łà¤¹à¤°à¤ķà¤°":10568,"Ġà¤įà¤²":10569,"Ġà¤įà¤§":10570,"akar":10571,"Ġà¤¤à¤²à¤¬à¤Ĺ":10572,"Ġà¥§à¥¯à¥®à¥®":10573,"Ġ0930":10574,"à¥§à¥¯à¥¯à¥®":10575,"Intimac":10576,"SET":10577,"sys":10578,"à¤°à¤ľà¤¨à¤¨à¤ķ":10579,"Ġà¤¹à¤¬à¤¶":10580,"1012":10581,"Ġlib":10582,"Ġà¤®à¤¦à¤¨à¤²":10583,"Ġwarfare":10584,"network":10585,"Ġenc":10586,"Ġicons":10587,"à¤®à¤¸à¤²à¤¹à¤¤":10588,"second":10589,"rillic":10590,"Ġà¤Įà¤¨":10591,"Ġasympt":10592,"ĠTYPING":10593,"Ġdocument":10594,"ĠBASED":10595,"Ġmunicipalities":10596,"ĠESendOptions":10597,"Intimacy":10598,",...)":10599,"COUNT":10600,"FILE":10601,"Là¤¤":10602,"MM":10603,"Ox":10604,"Res":10605,"SQL":10606,"bug":10607,"dk":10608,"gh":10609,"lor":10610,"nal":10611,"tain":10612,"ÌĪ":10613,"à¤¾}":10614,"à¤¾:%":10615,"à¤¾\",":10616,"à¥ĩà¥Ģ":10617,"Ġà¤ķà¤ĩà¤¯":10618,"à¤¤à¤ªà¤¤":10619,"à¤¤à¤ľà¤²":10620,"à¤¸à¤¬à¤¨":10621,"Ġà¤¹à¤¥à¤ķ":10622,"à¤®à¤²à¤¨":10623,"à¤²à¤°à¤µ":10624,"Ġà¤®à¤²à¤¨":10625,"Ġà¤®à¤ĺ":10626,"à¤¦à¤Ī":10627,"à¤ªà¤«":10628,"à¤ªà¤¥à¤¨":10629,"Ġà¤ľà¤¯à¤ķ":10630,"à¤ľà¤¸à¤µ":10631,"Ġà¤¬à¤ª":10632,"Ġà¤¬à¤Łà¤²à¤°":10633,"à¥ĤâĢĻ":10634,"Ġà¤¦à¤¦":10635,"Ġà¤¦à¤¡":10636,"Ġà¤īà¤ĺ":10637,"à¤Łà¤§":10638,"à¤Łà¤ĩ":10639,"à¤Łà¤²à¤¨":10640,"à¤Łà¤ķà¤¨":10641,"à¤ıà¤²à¤¬":10642,"à¤ıà¤¤à¤¬":10643,"à¤§à¤§":10644,"à¤§à¤¨à¤¤à¤®":10645,"à¤·à¤¹":10646,"à¤ļà¤ķà¤®":10647,"à¤ļà¤®à¤ķà¤¤":10648,"Ġà¤Ĩà¤°à¤£":10649,"Ġà¤¯à¤¶à¤ª":10650,"à¤ĸà¤¶":10651,"à¤Ńà¤ľ":10652,"à¤Ńà¤°à¤¨":10653,"Ġà¤ıà¤¹":10654,"Ġà¤ıà¤Ĩà¤Īà¤¸":10655,"Ġà¤ıà¤ıà¤®à¤¯":10656,"Ġà¤ļà¥Ŀ":10657,"à¤Īà¤ľà¤¹":10658,"Ġà¤¶à¤¹à¤ľ":10659,"à¥Ģà¤ĤâĢĿ":10660,"à¤ĩà¤Ļ":10661,"Ġà¤¥à¤²à¤¸":10662,"à¤Ľà¤Ľ":10663,"à¤ħà¤°à¤¤":10664,"à¤ħà¤ĸà¤£":10665,"à¤Ĩà¤ĩà¤²":10666,"Ġà¤ħà¤§à¤®":10667,"à¤ĵà¤¤":10668,"à¤ĵà¤ı":10669,"Ġà¤¡à¤¯":10670,"à¥ī-":10671,"à¤Ŀà¤ªà¤¨":10672,"à¤¼à¥Ģ;":10673,"Ġà¤ĺà¤®à¤£":10674,"à¤µà¤¨à¤Ńà¤°":10675,"à¤¶à¤¨à¤®":10676,"Ġà¤ħà¤µà¤°à¤ķ":10677,"Ġ\"#":10678,"Ġ\"--":10679,"Ġà¤¸à¤®à¤¯à¤ª":10680,"à¤ĩà¤¨à¤«":10681,"Ġà¤¤à¤°à¤²à¤¤":10682,"à¥Ģ):-":10683,"Ġsal":10684,"Ġsepar":10685,"à¤Ĳà¤ľ":10686,"Ġà¤Ĩà¤°à¤Ĩà¤Īà¤¡":10687,"Ġà¤ħà¤ªà¤ĺ":10688,"Ġà¤ħà¤¬à¤¦":10689,"à¤Łà¤ķà¤®":10690,"à¥¦à¥©":10691,"à¤Ĭà¤Ĺ":10692,"à¤Ńà¤µà¤¶":10693,"à¤·à¤®à¤¯":10694,"Ġtrack":10695,"process":10696,"Ġà¤īà¤²à¤ľ":10697,"Ġà¤ĭà¤ļ":10698,"à¤ħà¤¤à¤¤":10699,"à¤¬à¤¸à¤µà¤¨":10700,"lack":10701,"Ġà¤¸à¤²à¤¹":10702,"à¤²à¤®à¤£":10703,"Ġà¤ħà¤ªà¤°à¤¦à¤¨":10704,"Ġà¤ķà¤Łà¤ĺà¤°":10705,"Ġà¤¦à¤²à¤Ĺà¤¤":10706,"ĠSocial":10707,"ĠSOCKS":10708,"Ġ151":10709,"ĠAt":10710,"Ġback":10711,"Ġbeen":10712,"Ġ25000":10713,"ĠFTP":10714,"à¤¦à¤°à¤¤à¤®":10715,"Ġ166":10716,"rael":10717,"ĠDiff":10718,"ĠRFC":10719,"ĠNone":10720,"Ġweather":10721,"à¤¶à¤¯à¤Ĺ":10722,"Ġekiga":10723,"à¥®à¥¬":10724,"à¤¨à¤Łà¤ĸà¤Ł":10725,"utlook":10726,"à¤ıà¤ļà¤ıà¤¸à¤Ł":10727,"Ġ=%.":10728,"à¤īà¤²à¤Ŀà¤¨":10729,"à¤®à¤°à¤£à¤¶à¤ķ":10730,"ograph":10731,"Ġilae":10732,"271":10733,"terror":10734,"light":10735,"à¥¨à¥¦à¥¦à¥¯":10736,"à¥ĢâĢĻ,":10737,"à¤³à¤®":10738,"ĠKDE":10739,"ISDN":10740,"ditional":10741,"Ġà¤ħà¤«à¤¸à¤°à¤¶":10742,"SIP":10743,"à¤Ĩà¤°à¤¡à¤¬à¤²":10744,"ify":10745,"à¤¡à¤ĭà¤Ĩ":10746,"à¥§à¥¯à¥¯à¥¨":10747,"keycap":10748,"à¤§à¤¶à¤¤à¤ķ":10749,"Ġà¥Ľà¤®":10750,"Ġà¥§à¥¯à¥ªà¥®":10751,"Ġà¤Ŀà¤ªà¤Łà¤¤":10752,"Ġà¤ªà¥ľà¤¤":10753,"ĠIPv":10754,"translation":10755,"ĠSpelling":10756,"ĠËļ":10757,"Ġà¤ªà¤Łà¤ķà¤¥":10758,"rbvisit":10759,"epartment":10760,"1440":10761,"Ġselect":10762,"imple":10763,"marks":10764,"NUMBER":10765,"ĠJavaScript":10766,"\"(":10767,"119":10768,"512":10769,"816":10770,"850":10771,"BB":10772,"Là¤ķ":10773,"LAN":10774,"Microsoft":10775,"OST":10776,"PD":10777,"Pa":10778,"REL":10779,"SM":10780,"TON":10781,"Tube":10782,"bol":10783,"cx":10784,"catal":10785,"dL":10786,"dm":10787,"den":10788,"dis":10789,"eor":10790,"fr":10791,"gra":10792,"gbb":10793,"ny":10794,"oad":10795,"rrg":10796,"val":10797,"Ø§":10798,"à¤°Comment":10799,"à¥ĩ:-":10800,"à¤¿âĢĺ":10801,"Ġà¤ķà¤¥à¤ķ":10802,"à¤¨à¤ªà¤¨":10803,"à¤¨à¤¦à¤¨":10804,"à¤¨afghanistan":10805,"à¥Ģ\"\"":10806,"à¤¤à¤®à¤¤":10807,"à¤¤à¤¬à¤¨":10808,"à¤®à¤¯à¤¦":10809,"à¤®à¤¶à¤°":10810,"à¤²à¤Ľ":10811,"à¤²à¤°à¤¸":10812,"à¤²à¤ķà¤²":10813,"à¤²à¤µà¤¸":10814,"à¤²à¤ļà¤ķ":10815,"à¤²Comment":10816,"Ġà¤ªà¤Ĺà¤²":10817,"à¤µà¤·":10818,"Ġà¤®à¥Ľ":10819,"à¤¦à¤¯à¤µ":10820,"à¤ªà¤¦à¤®":10821,"Ġà¤ħà¤°à¤®":10822,"Ġà¤µà¤°à¤®":10823,"Ġà¤¨à¥Ľà¤°":10824,"à¥ĭà¤Ĥà¥ĩ":10825,"à¥ĭà¤Ĥà¤¿":10826,"Ġà¤¬à¤°à¤¨":10827,"Ġà¤īà¤ľà¤¬":10828,"à¤¡à¤ªà¤Ł":10829,"à¤¡à¤°à¤¤à¤²":10830,"à¤¥à¤ķà¤¨":10831,"Ġà¤Ĩà¤¸à¤°":10832,"Ġà¤¯à¤µà¤¨":10833,"Ġà¤ĩà¤ĭà¤¯":10834,"à¤«à¤°à¤¸à¤¨":10835,"Ġà¤ĸà¤ªà¤°":10836,"à¤ĩà¤³":10837,"à¤Ľà¤°à¤¦":10838,"à¤ħà¤Łà¤®":10839,"à¤ħà¤¦à¤¬":10840,"à¤ķà¤°à¤ª":10841,"à¤Ĩà¤¹à¤¤":10842,"à¤Ĩà¤®à¤µ":10843,"à¤µà¤°à¤Ĺ":10844,"à¤µà¤°à¤ļ":10845,"Ġà¤ħà¤§à¤ĭ":10846,"à¤īà¤ķà¤²":10847,"à¤īà¤¤à¤°à¤¨":10848,"à¤ĵà¤¹à¤¦":10849,"à¤°à¤£à¤¸":10850,"à¤ĩà¤¸à¤Ĺà¤¢":10851,"à¤Ŀà¤ķà¤¨":10852,"Ġà¤§à¤ľ":10853,"à¤¸à¤°à¤ª":10854,"à¤¯à¤¤à¤¦":10855,"à¤¤à¤¨à¤¯":10856,"Ġ213":10857,"à¤¶à¤¨à¤ħà¤ª":10858,"Ġà¤Łà¤¹à¤²à¤¨":10859,"à¤¬à¤°à¤Ĺ":10860,"Ġà¤ħà¤µà¤²à¤®":10861,"à¤¦à¤°à¤ª":10862,"à¤¦à¤°à¤«":10863,"Ġà¤ħà¤Ńà¤¦":10864,"à¤§à¤¨à¤®":10865,"à¤°à¤Ńà¤µ":10866,"à¤ıà¤ķà¤¬":10867,"Ġso":10868,"Ġà¤ħà¤ļà¤®":10869,"Ġà¤ħà¤ªà¤¯à¤¶":10870,"Ġà¤¬à¤ļà¤ķ":10871,"Ġ'à¥¤":10872,"à¤¾-âĢľ":10873,"à¤Ĺà¤²à¤°":10874,"Ġà¤ķà¤²à¤Ĺ":10875,"Ġà¤īà¤ļà¤ĭ":10876,"à¤¬à¤²à¤®":10877,"Ġà¤Ĺà¤°à¤ľà¤¤":10878,"à¤ķà¤Łà¤®à¤¯":10879,"à¤ķà¤Łà¤°à¤®à¤¨":10880,"à¤¹à¤¨à¤¸":10881,"Ġà¤Ķà¤ķ":10882,"Ġà¤Ķà¤ª":10883,"Ġà¤¤à¤¬à¤¸":10884,"à¤Ĩà¤°à¤Ĩà¤°":10885,"à¤¯à¤ªà¤Ł":10886,"alendar":10887,"Ġdes":10888,"Ġduration":10889,"1925":10890,"1921":10891,"ites":10892,"à¤¹à¤°à¤£à¤¤à¤¯":10893,"à¤ıà¤²à¤Ĩà¤°":10894,"à¤ıà¤²à¤ıà¤«":10895,"Ġà¤ıà¤¸à¤Ĩà¤°à¤Ĩà¤ĩ":10896,"à¤ħà¤Ńà¤¯":10897,"Ġ1835":10898,"arques":10899,"âĢĿ-":10900,"à¤°à¤ªà¤Łà¤²":10901,"Â¥Âĩ.":10902,"Ġà¤®à¤ķà¤Ī":10903,"Ġprot":10904,"à¤ħà¤ľà¤Ĺà¤°":10905,"ĠClass":10906,"Ġ2024":10907,"ĠAc":10908,"heme":10909,"à¤īà¤ªà¤ª":10910,"128":10911,"à¤ħà¤ķà¤¸à¤°":10912,"à¤ľà¤®à¤¬à¤°":10913,"off":10914,"103":10915,"ĠBlu":10916,"Ġfolders":10917,"ĠRGB":10918,"ĠNet":10919,"à¥®à¥¨":10920,"ĠHousing":10921,"à¥Ńà¥©":10922,"ently":10923,"ivia":10924,"à¤¦à¤µà¤Ī":10925,"Ġlink":10926,"urin":10927,"ĠZà¤ľ":10928,"à¤®à¤¶à¤¹":10929,"Ġ236":10930,"ĠWar":10931,"ason":10932,"Ġà¥ªà¥¨":10933,"Ġcomarques":10934,"ĠXX":10935,"ayaa":10936,"trop":10937,"à¤ıà¤®à¤Īà¤ľ":10938,"und":10939,"à¥§à¥®à¥¦":10940,"Ġà¤ĵà¤µà¤°à¤²":10941,"ÃīÃī":10942,"Ġà¤ľà¤¨à¤ķà¤ª":10943,"Ġà¤Ĩà¤Ĺà¤°à¤ķà¤°":10944,"ever":10945,"Ġjapan":10946,"Ġ1865":10947,"Ġ1868":10948,"ugzilla":10949,"à¤īà¤ķà¤¸à¤¨":10950,"Ġzip":10951,"à¥§à¥¯à¥¯à¥§":10952,"ĠQual":10953,"libisofs":10954,"Ġà¤ĸà¤Łà¤ķà¤¤":10955,"Start":10956,"Ġlatin":10957,"à¤Ńà¤Łà¤ķà¤¨":10958,"screen":10959,"place":10960,"lude":10961,"à¤Īà¤ĵà¤Ĩà¤Ī":10962,"Ġspaces":10963,"Spot":10964,"recurrpage":10965,"Ġà¤īà¤«à¤¨à¤¤":10966,"small":10967,"Ġà¤ıà¤¸à¤ıà¤¡à¤¬":10968,"dbus":10969,"DDRESS":10970,"MYK":10971,"austria":10972,"Ġhyper":10973,"Ġhypothes":10974,"DEVICE":10975,"Ġgconfd":10976,"Ġchrom":10977,"bolivia":10978,"catalonia":10979,"rrggbb":10980,"%à¥¤":10981,",)":10982,"-${":10983,"212":10984,"214":10985,"814":10986,"DT":10987,"GAL":10988,"JIS":10989,"NHS":10990,"On":10991,"PC":10992,"RW":10993,"Setting":10994,"Simple":10995,"VAR":10996,"WS":10997,"bor":10998,"bus":10999,"cd":11000,"cl":11001,"cz":11002,"hen":11003,"now":11004,"rome":11005,"sen":11006,"shell":11007,"safe":11008,"task":11009,"with":11010,"xviii":11011,"ËĿ":11012,"âĤ":11013,"Ġview":11014,"à¥įà¤¿":11015,"Ġà¤ķà¤¸à¤¤":11016,"à¤¨à¤¦à¤°":11017,"à¤¨à¤®à¤²":11018,"à¤¨world":11019,"à¤¤à¤¤à¤°":11020,"à¤ķà¤¬à¤°":11021,"à¤ķà¤¦à¤¨":11022,"à¤ķà¤¶à¤ķ":11023,"à¤¯à¤ªà¤¨":11024,"à¤¯à¤Ĺà¤£":11025,"à¤¸à¤ŀ":11026,"à¤®à¤¸à¤°":11027,"à¤®à¤µà¤²":11028,"à¤®à¤ªà¤Ł":11029,"Ġà¤¸à¥ľà¤ķ":11030,"à¤²à¤¢":11031,"à¤²à¤ĺà¤°":11032,"à¤²à¤¡à¤ķ":11033,"à¤²à¤ĸà¤£":11034,"à¤µà¤¹à¤¤":11035,"à¤µà¤²à¤¤":11036,"à¤¦à¤°à¤£":11037,"à¤¦à¤²à¤¨":11038,"à¤ªà¤¶à¤¨":11039,"à¤ªà¤Łà¤ķ":11040,"Ġà¤ľà¤ļ":11041,"Ġà¤ħà¤¯à¤¨":11042,"à¤ľà¤ĺà¤°":11043,"à¤ľà¤ªà¤¥":11044,"à¥ĭà¤ĤâĢĿ":11045,"à¤¶à¤ķà¤²":11046,"à¤¬à¤Ļ":11047,"à¤Łà¤ľà¤¨":11048,"à¤Łà¤¸à¤°":11049,"Ġà¤°à¤ľà¤¸":11050,"à¤§à¤ļà¤¨":11051,"à¤ļCity":11052,"à¤¡à¤¨à¤°":11053,"à¤¥à¤ķà¤°":11054,"Ġà¤Ĩà¤¡à¤µ":11055,"Ġà¤Ĩà¤īà¤Łà¤°":11056,"à¤£à¤¬":11057,"Ġà¤¯à¤¡":11058,"Ġà¤Ĺà¤Ĳ":11059,"à¥Īà¤Ĥà¤ĥ%":11060,"Ġà¤ıà¤¯":11061,"Ġà¤ıà¤°à¤°":11062,"à¤Īà¤µà¤°":11063,"à¤°à¤¤à¤ĭ":11064,"à¤«à¤°à¤¨":11065,"à¤ĩà¤°à¤ķ":11066,"à¥Įà¥¤":11067,"à¤ħà¤Łà¤ķ":11068,"à¤ħà¤¦à¤®":11069,"à¤°à¤ķà¤ª":11070,"à¤ķà¤¤à¤°à¤¨":11071,"à¤µà¤°à¤µà¤°":11072,"à¤ĵà¤ıà¤²":11073,"Ġà¤īà¤ªà¤µà¤¨":11074,"Ġà¤īà¤ªà¤¦à¤°":11075,"à¤¢à¤ĭ":11076,"à¤¸à¤°à¤µ":11077,"Ġà¤Ľà¤²à¤¨":11078,"à¤°à¤¸à¤ĸ":11079,"Ġà¤²à¤Ĺà¤¯":11080,"à¤µà¤¨à¤ª":11081,"à¤¶à¤¨à¤Ĺ":11082,"à¤°à¤¯à¤£":11083,"à¤ķà¤°à¤£à¤ķà¤°":11084,"Ġà¤¸à¤°à¤ª":11085,"Ġà¤¸à¤°à¤ªà¤Ł":11086,"à¥Īà¤Ĥ,-":11087,"à¥Ĥà¤ģâĢĿ":11088,"à¤ĩà¤²à¤®":11089,"à¤®à¤°à¤ķà¤°":11090,"tis":11091,"à¤²à¤ķà¤®":11092,"inian":11093,"à¤®à¤¸à¤Ń":11094,"Ġà¤ªà¤¦à¤¯":11095,"à¤ıà¤¸à¤ıà¤®à¤Ī":11096,"à¤Ńà¤µà¤ľà¤¨":11097,"Ġà¤Ķà¤·":11098,"à¤Ĩà¤°à¤Ĩà¤°à¤¬":11099,"Ġthan":11100,"Ġ545":11101,"à¤®à¤¹à¤ķ":11102,"à¤®à¤¹à¤¸":11103,"Ġà¤ĭà¤Ĩ":11104,"Ġà¤®à¤¤à¤ªà¤¤":11105,"Ġà¤Ĩà¤Īà¤ıà¤«":11106,"Ġdise":11107,"Ġdraw":11108,"Ġasp":11109,"1914":11110,"1902":11111,"1905":11112,"1927":11113,"à¤ıà¤®à¤ıà¤®à¤ª":11114,"Ġà¤ķà¤łà¤ĺà¤°":11115,"à¤ıà¤²à¤ıà¤®":11116,"aba":11117,"Ġà¤ıà¤¸à¤Īà¤ľ":11118,"Ġ1843":11119,"Â¤Â°)":11120,"ato":11121,"Ġà¤ıà¤¨à¤Ĩà¤°à¤Ĩà¤Ī":11122,"à¤°à¤®à¤£à¤¶":11123,"à¤īà¤¦à¤¹":11124,"Ġca":11125,"ĠAl":11126,"Ġà¤ıà¤®à¤ľ":11127,"https":11128,"1213":11129,"output":11130,"Ġà¤ıà¤²à¤Ĩà¤Īà¤¸":11131,"à¤¦à¤²à¤¦à¤²":11132,"ĠPC":11133,"ĠMMR":11134,"117":11135,"à¥«à¥¦à¥¦":11136,"Ġ162":11137,"Ġ163":11138,"rac":11139,"Ġfull":11140,"Ġmodel":11141,"ĠUI":11142,"1889":11143,"Ġ172":11144,"elp":11145,"ĠLE":11146,"à¥®à¥ª":11147,"à¤ıà¤ļà¤ıà¤®":11148,"idget":11149,"132":11150,"rig":11151,"Ġà¥©à¥Ń":11152,"Ġ265":11153,"0816":11154,"ĠZà¤¨":11155,"à¤®à¤¶à¤Ĺ":11156,"Ġ275":11157,"à¤²à¤¦à¤¹":11158,"asks":11159,"Ġyaa":11160,"Ġà¥«à¥¨":11161,"ĠiT":11162,"à¤ĭà¤£à¤¦":11163,"à¤ĭà¤£à¤ķà¤°":11164,"Ġresult":11165,"à¤¬à¤¢à¤¤":11166,"ĠXimian":11167,"thr":11168,"like":11169,"à¥ĩà¤ĥ-":11170,"lick":11171,"Ġ1851":11172,"Ġà¤Ńà¤Ĺà¤µà¤¨":11173,"forge":11174,"forward":11175,"ours":11176,"Ġà¤ĵà¤²à¤®à¤°":11177,"hared":11178,"ipe":11179,"à¥§à¥¯à¥¯à¥¬":11180,"à¤ıà¤¨à¤Ĩà¤°à¤Ī":11181,"à¤ıà¤¨à¤Ĩà¤°à¤ıà¤®":11182,"à¤ĩà¤ªà¤°à¤²":11183,"1013":11184,"ĠService":11185,"à¤Łà¤¦à¤ķà¤²":11186,"scape":11187,"plugin":11188,"Ġpercent":11189,"Ġà¤īà¤Ľà¤²à¤ķà¤°":11190,"Ġactive":11191,"Ġsourceforge":11192,"xxxxxxxxxxxxxxxx":11193,"Ġplugins":11194,"Ġ','":11195,"ĠEditor":11196,"Preview":11197,"ĠLFSR":11198,"ĠGroupWise":11199,"Ġindex":11200,"stitute":11201,"cxindia":11202,"/>":11203,"480":11204,"Com":11205,"Lib":11206,"PER":11207,"Xlib":11208,"cdr":11209,"ki":11210,"local":11211,"note":11212,"ok":11213,"qa":11214,"wa":11215,"wn":11216,"Â©":11217,"à¤¾Í¾":11218,"à¥ĩà¥Ī":11219,"à¤Ĥà¥ĭ":11220,"à¤¨à¤²à¤ķ":11221,"à¤¤à¤ħ":11222,"à¤¤à¤Ĺà¤¡":11223,"à¤ķà¤¶à¤¤":11224,"à¤ķà¤®à¤¹":11225,"à¤¸à¤¹à¤°":11226,"à¤¹à¤ĵ":11227,"à¥ģâĢĿ":11228,"à¤Ĺà¤ı":11229,"à¤Ĺà¤ķà¤£":11230,"Ġà¤¨à¤²à¤ķ":11231,"à¤ľà¤Ńà¤ķ":11232,"à¥ĭà¤Ĥ:":11233,"à¥Ĥ?":11234,"Ġà¤¤à¤°à¤¤":11235,"à¤¶à¤°à¤¤":11236,"à¤¶à¤Ĺà¤µ":11237,"à¤¶à¤°à¤¬à¤¤":11238,"Ġà¤²à¤ļà¤ķ":11239,"à¤Łukraine":11240,"à¤ıà¤¹à¤¸":11241,"à¤¡à¤²à¤ķ":11242,"à¤¥à¤ªà¤°à¤ķ":11243,"à¤ĸà¤°à¤¤":11244,"Ġà¤ļà¤®à¤ļ":11245,"à¥Īà¥¤]":11246,"à¤°à¤¤à¤²à¤¬":11247,"à¤«à¤µ":11248,"à¤ĩà¤¹":11249,"à¤ħà¤¯à¤¸":11250,"à¤¼à¤¾%":11251,"Ġà¤ħà¤¨à¤¥à¤ķ":11252,"à¤Ĩà¤°à¤¤":11253,"à¤Ĩà¤¬à¤¨":11254,"à¤µà¤°à¤°":11255,"à¤¤à¤°à¤ªà¤¶":11256,"à¤ĵà¤Ī":11257,"à¤¾,âĢĵ":11258,"à¤°à¤£à¤°":11259,"âĢ²":11260,"à¤ľà¤¨à¤µ":11261,"à¤ľà¤¨à¤®à¤¤":11262,"à¥ī,":11263,"à¤Ŀà¤ªà¤ķ":11264,"Ġà¤§à¤¸":11265,"Ġà¤§à¤µà¤¨":11266,"Ġà¤ħà¤²à¤¬à¤°":11267,"à¥ĩà¥¤âĢĻâĢĻ":11268,"Ġà¤Ľà¤¦à¤®":11269,"à¤Ĺà¤°à¤¸":11270,"à¤°à¤¸à¤²":11271,"à¤¸à¤®à¤®":11272,"à¤¸à¤®à¤ľ":11273,"à¤¸à¤®à¤·":11274,"à¤²à¤¤à¤µ":11275,"à¤¨à¤¤à¤ķ":11276,"à¤ŀà¤¨":11277,"Ġ217":11278,"Ġà¤īà¤¤à¤ķ":11279,"Ġà¤Ĩà¤¯à¤¶":11280,"Ġà¤ķà¤®à¤°à¤¬":11281,"à¤Łà¤°à¤ıà¤ķ":11282,"Ġà¤ĵà¤ł":11283,"à¤¦à¤¨à¤µ":11284,"à¤®à¤ķà¤¶":11285,"à¥Ĥà¤Ĥà¤ĥ":11286,"Ġà¤ĵà¤°à¤²":11287,"à¤¶à¤ķà¤ľ":11288,"à¤¶à¤ķName":11289,"à¤īà¤¨à¤ĭ":11290,"à¤īà¤¨City":11291,"Ġà¤¬à¤¦à¤¸":11292,"à¤¯à¤°à¤¨":11293,"Ġà¤®à¤¨à¤Ĺà¤¢":11294,"à¤ħà¤¨à¤µà¤°":11295,"Ġ329":11296,"à¤¨à¤µà¤ª":11297,"input":11298,"à¤ıà¤¸à¤ıà¤®à¤ıà¤¸":11299,"à¤ıà¤¸à¤Īà¤ľ":11300,"Ġà¤ĺà¤°à¤ĺà¤°":11301,"à¤ķà¤Łà¤¦":11302,"à¤Ĩà¤Īà¤«":11303,"à¤¬à¤¦à¤¸":11304,"Ġà¤¡à¤°à¤ª":11305,"Ġà¤¨à¤µà¤ªà¤°":11306,"1923":11307,"1909":11308,"1904":11309,"lac":11310,"ors":11311,"à¤¤à¤°à¤£à¤ķà¤°":11312,"Ġ1833":11313,"Ġ1846":11314,"arently":11315,"à¤¿-\\\\":11316,"Ġ1024":11317,"Ġà¤ıà¤¨à¤ıà¤¸à¤¡":11318,"à¥ĭà¤Ĥ),":11319,"ĠSystem":11320,"Ġà¤ĳà¤«à¤°":11321,"Ġcri":11322,"Ġcustom":11323,"Ġcodec":11324,"Ġà¤ªà¤Łà¤µà¤°":11325,"Ġ15000":11326,"ĠCc":11327,"reme":11328,"ĠAn":11329,"à¤¯à¤¶à¤µ":11330,"ĠImp":11331,"à¤īà¤ªà¤¬":11332,"Ġdown":11333,"à¤¦à¤²à¤ª":11334,"Ġplease":11335,"Ġpoll":11336,"à¥«à¥¯":11337,"ĠBr":11338,"ration":11339,"rainian":11340,"ĠDr":11341,"ĠDepartment":11342,"1800":11343,"Ġ174":11344,"ĠLevel":11345,"Ġà¤ıà¤«à¤ıà¤®":11346,"ĠOP":11347,"Ġ+)'":11348,"140":11349,"Ġ246":11350,"à¤ķà¤ķà¤ķ":11351,"Ġà¤µà¤ļà¤¨à¤ªà¤¤":11352,"à¤ķà¤¥à¤ķà¤²":11353,"Ġline":11354,"à¤¾:\\\"":11355,"ĠZà¤ªà¤°":11356,"ĠWay":11357,"ATCA":11358,"ĠVoIP":11359,"Ġvideo":11360,"Ġform":11361,"Ġrun":11362,"Ġà¥ªà¥¦à¥¦à¥¦":11363,"amil":11364,"à¤ªà¤Łà¤¨à¤®":11365,"Ġà¥¬à¥¨":11366,"Ġread":11367,"à¤¹à¤¨à¤¤à¤ķà¤¶":11368,"oxy":11369,"Ġà¥§à¥«à¥¦":11370,"Ġà¤Ľà¤łà¤µ":11371,"à¤Ĩà¤Īà¤ıà¤¸à¤ª":11372,"Ġà¤¶à¤ªà¤¥à¤ªà¤¤":11373,"Ġà¥Ńà¥¬":11374,"Ġ`(.":11375,"Ġà¥®à¥¦à¥¦":11376,"Ġà¤Ńà¤Ĺà¤¤à¤°":11377,"ROUN":11378,"à¤¤à¤ĸà¤ªà¤°":11379,"ï¿½ï¿½":11380,"Ġà¤įà¤°":11381,"Ġà¥§à¥¯à¥§à¥¯":11382,"ueType":11383,"à¥§à¥¯à¥¯à¥«":11384,"à¤ķà¤ªà¤Łà¤ª":11385,"à¥§à¥¯à¥Ńà¥©":11386,"à¤ļà¤®à¤ķà¤¦":11387,"à¤Ĺà¤Ĺà¤ĺ":11388,"à¥§à¥¯à¥®à¥§":11389,"Ġà¥¨à¥¨à¥ª":11390,"guimenu":11391,"Ġà¤²à¤µà¤£à¤¤":11392,"ignature":11393,"HOST":11394,"Spec":11395,"evelop":11396,"rapati":11397,"à¥§à¥¯à¥©à¥¬":11398,"Ġ!!":11399,"Format":11400,"Ġbugzilla":11401,"Ġimplies":11402,"USER":11403,"ĠForum":11404,"ĠApparently":11405,"ĠArch":11406,"ology":11407,"Ġ'(.":11408,"Ġà¤ıà¤ħà¤°à¤²":11409,"GtkSource":11410,"JavaScript":11411,"Ġchoo":11412,"waters":11413,"ĠAssessment":11414,"ĠEntering":11415,"Ġvariant":11416,"ĠITEM":11417,"panama":11418,"ĠLeaving":11419,"ponents":11420,"ĠQuality":11421,"czech":11422,"210":11423,"416":11424,"714":11425,";\"":11426,"Alt":11427,"Copyright":11428,"ECT":11429,"FTP":11430,"Manager":11431,"Not":11432,"RFC":11433,"Xml":11434,"Ximian":11435,"ating":11436,"ble":11437,"ky":11438,"nel":11439,"oot":11440,"perm":11441,"sol":11442,"ues":11443,"và¤ķ":11444,"ys":11445,"Ġà¦":11446,"à¥ĩ....":11447,"à¥į/":11448,"à¤¿âĢĶ":11449,"Ġà¤ķà¤¸à¤ķ":11450,"Ġà¤ķà¤«à¤¨":11451,"à¤¨à¤Ĺà¤£":11452,"à¥Ģ....":11453,"à¥ĢâĢĿà¥¤":11454,"à¤¤à¤«à¤²":11455,"à¤ķà¤¦à¤°":11456,"à¤ķà¤Ĩà¤īà¤Ł":11457,"à¥ĭ..":11458,"à¤¯à¤ªà¤¤":11459,"à¤¯CategoryName":11460,"à¤®à¤Ĺà¤¤":11461,"à¤µà¤§à¤¨":11462,"Ġà¤®à¤°à¤¯":11463,"à¤¦à¤¸à¤°":11464,"à¤¦City":11465,"à¤ªà¤ĺ":11466,"à¤Ĺà¤Ŀ":11467,"à¥ĩà¤Ĥà¤¾":11468,"Ġà¤ľà¤¤à¤¨":11469,"à¤ľà¤µà¤°":11470,"à¤¶à¤µà¤¨":11471,"à¤¶à¤¹à¤¨":11472,"à¤¬à¤ľà¤°":11473,"Ġà¤²à¤®à¤¹":11474,"à¤Łà¤Ľ":11475,"Ġà¤°à¤¯":11476,"à¤§à¤Ł":11477,"à¤·à¤¯à¤®":11478,"à¤ļà¤°à¤µ":11479,"à¤ļà¤ķà¤¨":11480,"à¤¡à¤¦":11481,"à¤¡à¤°à¤¤":11482,"à¤¡à¤¨à¤ķ":11483,"Ġà¤Ĩà¤ŀ":11484,"à¤£à¤¤à¤®":11485,"Ġà¤Ńà¤°à¤µ":11486,"à¤ĸà¤¸à¤°":11487,"à¤ĸà¤°à¤¨":11488,"Ġà¤Ĺà¤²à¤Ĺ":11489,"à¤Ńà¤ľà¤¨":11490,"à¥Īà¤Ĥ/":11491,"Ġà¤ļà¤ķà¤®":11492,"à¤°à¤¤à¤¯":11493,"à¤ĩà¤Ń":11494,"à¤ĩà¤ŀ":11495,"à¤ĩà¤°à¤µ":11496,"Ġà¤ıà¤ķà¤¦":11497,"Ġà¤¸à¤®à¤¶":11498,"à¤¾à¤Ĥ!":11499,"à¤¾à¤ĤâĢĶ":11500,"à¤Ľà¤²à¤¨":11501,"Ġà¤ħà¤¨à¤¯":11502,"à¤łà¤Ĺà¤¨":11503,"à¤¤à¤°à¤Ĺ":11504,"à¤¤à¤°à¤§":11505,"à¤īà¤µ":11506,"à¤īà¤²à¤°":11507,"à¤īà¤Ńà¤¯":11508,"à¤ĵà¤īà¤¸":11509,"Ġà¤¡à¤¨":11510,"à¤ĩà¤¸à¤ª":11511,"à¤Ŀà¤ªà¤Ł":11512,"à¤¾à¤ģ:":11513,"à¤¸à¤°à¤¸à¤°":11514,"à¤¯à¤®à¤ª":11515,"à¤¹à¤¤à¤®":11516,"Ġ224":11517,"à¤®à¤¨à¤°":11518,"à¤ĺà¤µà¤¨":11519,"Ġà¤Īà¤¯":11520,"à¤Łà¤°à¤¡":11521,"à¤Łà¤°Comment":11522,"à¤Łà¤°unit":11523,"Ġà¤ĩà¤¨à¤¡":11524,"à¤ķà¤°à¤£à¤®":11525,"à¤ĩà¤¨à¤¬à¤°":11526,"Ġsend":11527,"à¤¤à¤ķà¤ķ":11528,"Ġà¤¶à¤ķà¤ĭ":11529,"à¥¦à¥¬":11530,"à¤¡à¤°à¤¬à¤°":11531,"à¤²à¤ķà¤£":11532,"inal":11533,"à¤Ĭà¤¨à¤²":11534,"à¤Ĩà¤°à¤ıà¤¸à¤ıà¤¸":11535,"à¤Ĩà¤Īà¤Īà¤¸":11536,"à¤Ĩà¤Īà¤ıà¤ļà¤¸":11537,"pread":11538,"Ġà¤¶à¤¬à¤ĭ":11539,"à¥ĩà¤Ĥ.%":11540,"Ġà¤Ĩà¤Īà¤®":11541,"Ġà¤Ĩà¤Īà¤µ":11542,"Ġdao":11543,"Ġau":11544,"1906":11545,"las":11546,"orb":11547,"à¤¼à¥Ī-":11548,"à¤ıà¤²à¤Ĩà¤Ī":11549,"Ġà¤¹à¤¸à¤¬":11550,"Ġà¤ıà¤¸à¤ıà¤¸à¤ıà¤²":11551,"à¤µà¤¶à¤°":11552,"Ġ7000":11553,"Ġ181":11554,"Ġ182":11555,"Ġ1848":11556,"Ġ_%":11557,"Ġnamed":11558,"Ġcar":11559,"ĠCON":11560,"Ġ2047":11561,"rep":11562,"à¤ħà¤ļà¤®":11563,"à¤ħà¤µà¤¡":11564,"à¤°à¤ĸà¤°à¤¤":11565,"ĠPine":11566,"ĠPKCS":11567,"ĠTime":11568,"):%":11569,"Ġbar":11570,"102":11571,"ĠBrowser":11572,"Ġà¤ļà¤ķà¤¬à¤¸":11573,"Ġfalse":11574,"ĠDisc":11575,"Ġ[(":11576,"Ġ171":11577,"Ġ179":11578,"à¥¬à¥§":11579,"à¥ľà¤ķà¤°":11580,"ĠLondon":11581,"Ġear":11582,"ĠGPS":11583,"Ġinst":11584,"à¤ıà¤ļà¤Ĩà¤Īà¤µ":11585,"Ġgu":11586,"Ġgiv":11587,"134":11588,"Ġà¤ľà¤¯à¤ļ":11589,"Ġ(%.":11590,"iiià¤ĸ":11591,"urge":11592,"urvey":11593,"Ġ285":11594,"239":11595,"ĠZà¤µ":11596,"ĠZà¤¦":11597,"ĠWork":11598,"0916":11599,"0716":11600,"Ġà¥«à¥§":11601,"ister":11602,"ade":11603,"chler":11604,"280":11605,"Ġrranjan":11606,"0316":11607,"857":11608,"à¤Ĩà¤°à¤ıà¤ıà¤¨":11609,"mpeg":11610,"ISCII":11611,"à¤ħà¤¸à¤®à¤®":11612,"Ġà¤ıà¤®à¤ıà¤¸à¤Ī":11613,"iled":11614,"ources":11615,"Read":11616,"ticle":11617,"Ġone":11618,"Ġ0845":11619,"à¥§à¥¯à¥Ńà¥«":11620,"IPCC":11621,"DEC":11622,"ills":11623,"à¤¯à¤°à¤µà¤¸":11624,"à¥§à¥¯à¥®à¥ª":11625,"Ġà¥¯à¥Ń":11626,"Ġà¥¨à¥¬à¥ª":11627,"à¥§à¥§à¥®":11628,"ĠIncap":11629,"Ġeditor":11630,"string":11631,"Ġà¤ķà¤²à¤¨à¤µ":11632,"ible":11633,"Ġdirection":11634,"xiiià¤ĸ":11635,"solar":11636,"SUB":11637,"ification":11638,"STARTTLS":11639,"Ġdisease":11640,"-.":11641,"-à¥¤":11642,"-://..":11643,"323":11644,"5000":11645,"616":11646,":,":11647,"?.":11648,"AV":11649,"Action":11650,"BD":11651,"HEL":11652,"NUM":11653,"PDF":11654,"QXml":11655,"RT":11656,"Str":11657,"Tree":11658,"VAL":11659,"YE":11660,"ZZ":11661,"].":11662,"bps":11663,"dictionary":11664,"eve":11665,"gets":11666,"kde":11667,"new":11668,"oM":11669,"ozone":11670,"pdf":11671,"surin":11672,"web":11673,"Äĺ":11674,"Å¯":11675,"Ð§":11676,"Ġiii":11677,"à¤°à¤ĸà¤¤":11678,"à¤°à¤ĺà¤°":11679,"à¤Ĥ!":11680,"à¤¨à¤°à¤¦":11681,"à¤¤City":11682,"à¤ķComment":11683,"à¥ĭà¥ĩ":11684,"à¥ĭà¥ĩà¤Ĥ":11685,"à¥ĭâĢĺ":11686,"à¥ĭâĢĶ":11687,"à¤¯à¤ĭà¤®":11688,"à¤¸à¤²à¤¤":11689,"à¤¸Constellation":11690,"Ġà¤¹à¤¦à¤¯":11691,"à¤®à¤°à¤¦":11692,"à¤¹à¤¸à¤¨":11693,"à¤²à¤¸à¤²à¤¸":11694,"à¥ģà¥ģ":11695,"Ġà¤ªà¤¨à¤¦":11696,"à¥Īà¤ģ":11697,"à¥Ī\",":11698,"à¤µà¤ı":11699,"à¤Ĺà¤¹à¤®":11700,"à¥ĩà¤Ĥà¥ĩ":11701,"à¥ĩà¤Ĥà¥į":11702,"Ġà¤ľà¤®à¤¤":11703,"Ġà¤ħà¤¶à¤¨":11704,"à¤ľà¤Ĺà¤®":11705,"à¤¼...":11706,"à¥ĭà¤Ĥ]":11707,"à¤¶à¤¯à¤ª":11708,"à¤¶à¤¯à¤µ":11709,"à¤¬à¤¤à¤°":11710,"à¤Łà¤ªà¤¨":11711,"à¤Łà¤ħ":11712,"à¤Łà¤ł":11713,"à¤Łà¤ĸà¤¨":11714,"à¤ıà¤®à¤°":11715,"à¤ıà¤¨à¤°":11716,"à¤ıà¤ļà¤ķ":11717,"Ġà¤°à¤£à¤ķ":11718,"à¤§à¤Ĺà¤¡":11719,"Ġà¤Ķà¤°à¤¸":11720,"à¤·à¤®à¤°":11721,"à¤ļà¤ªà¤Ł":11722,"à¤ļà¤®à¤ļ":11723,"à¤¡à¤ĸ":11724,"à¤¡à¤µà¤°":11725,"à¤¡à¤°à¤¶":11726,"à¤¥à¤°à¤¸":11727,"Ġà¤Ńà¤®":11728,"Ġà¤Ńà¤°à¤¹":11729,"Ġà¤Ĺà¤ľà¤¬":11730,"Ġà¤Ĺà¤¬à¤¨":11731,"à¤Ńà¤²à¤¨":11732,"Ġà¤ĩà¤¬à¤¨":11733,"Ġà¤ļà¤¹à¤²":11734,"à¤°à¤¤à¤ª":11735,"à¥Ģà¤Ĥ),":11736,"Ġà¤ĸà¤«":11737,"Ġà¤ĸà¤Ļ":11738,"Ġà¤ıà¤ķà¤®à¤¯":11739,"Ġà¤ıà¤ķà¤°à¤¸à¤¤":11740,"Ġà¤ĩà¤¸à¤¤":11741,"à¥ĥ,":11742,"à¤ħà¤¬à¤°":11743,"à¤ħà¤ķà¤¸":11744,"à¤ħà¤¦à¤²":11745,"à¤ķà¤°à¤¹":11746,"à¤¼à¤¾/":11747,"Ġà¤ħà¤¨à¤®à¤¨":11748,"à¤¾à¥¤âĢĻâĢĻ":11749,"à¤Ĩà¤ĩà¤ľ":11750,"à¤¤à¤°à¤ĸ":11751,"à¤¤à¤°à¤ķà¤°":11752,"à¤ªà¤°à¤¸à¤¨":11753,"Ġà¤§à¤¤":11754,"à¤¸à¤°à¤«":11755,"à¤¸à¤°à¤ªà¤°à¤¸":11756,"à¤¯à¤®à¤°":11757,"à¤¯à¤®à¤£":11758,"Ġ244":11759,"Ġ2200":11760,"Ġ216":11761,"à¤¶à¤¨à¤Ĺà¤¢":11762,"à¤®à¤¨à¤®à¤°":11763,"à¤¯à¤¹à¤ķ":11764,"à¤¬à¤°à¤Ĺà¤¦":11765,"Ġ\";\"":11766,"Ġà¤®à¤¹à¤¦":11767,"Ġà¤ĵà¤µà¤²":11768,"Ġà¤ĵà¤¬à¤²":11769,"Ġà¤ĵà¤Ļ":11770,"Ġà¤īà¤¦à¤§":11771,"à¥ĩ)-":11772,"Ġà¤ħà¤¤à¤ĭ":11773,"à¥Ĥà¤Ĥ...":11774,"Ġsame":11775,"Ġà¤ħà¤ļà¤ĭ":11776,"Ġà¤Ŀà¤²":11777,"Ġà¤ªà¤¡à¤ĭà¤¤":11778,"Ġà¤Ĩà¤°à¤ıà¤«":11779,"Ġà¤Ĭà¤¤":11780,"Ġà¤Ĩà¤¤à¤ĭ":11781,"à¤Ĺà¤²à¤ĸ":11782,"à¤ħà¤¨à¤µ":11783,"à¤ķà¤¨à¤°":11784,"Ġà¤ķà¤²à¤Ī":11785,"à¥¦à¥®":11786,"à¤ħà¤²à¤µà¤°":11787,"Ġà¤¸à¤ļà¤¦":11788,"Ġà¤Ķà¤¸":11789,"Ġà¤Ķà¤¤à¤°":11790,"à¥Ī?)":11791,"pris":11792,"allet":11793,"Ġà¤Ĩà¤Īà¤ıà¤¸à¤¡":11794,"ĠdB":11795,"Ġden":11796,"Ġaut":11797,"1901":11798,"1933":11799,"à¤ľà¤²à¤®":11800,"à¤¹à¤²à¤ª":11801,"eech":11802,"à¤¼à¥ĩà¤Ĥ/":11803,"ops":11804,"à¤ıà¤²à¤ľ":11805,"ĠâĢĿ,":11806,"entic":11807,"Ġ1842":11808,"Ġ060":11809,"Ġ<<":11810,"level":11811,"à¤²à¤°Name":11812,"à¤ıà¤¨à¤Ĩà¤°à¤¸":11813,"à¤°à¤ªà¤¥":11814,"à¤¶à¤²à¤ª":11815,"à¥Ī-âĢľ":11816,"Ġà¤ķà¤¨à¤ĸ":11817,"ĠShift":11818,"Ġcap":11819,"Ġà¤ªà¤Łà¤Ł":11820,"ĠCalendar":11821,"ĠAB":11822,"à¤¤à¤¬à¤ķ":11823,"Ġà¤ķà¤¬à¤¡":11824,"ĠInt":11825,"Ġ1250":11826,"Ġà¤¤à¤²à¤¶":11827,"à¤ħà¤ļà¤¯à¤¨":11828,"à¤īà¤ªà¤ķà¤²":11829,"à¤¤à¤ľà¤µ":11830,"121":11831,"Ġà¤Ĩà¤¦à¤°à¤ª":11832,"-->":11833,"olia":11834,"Ġà¤ıà¤²à¤Ł":11835,"ĠMin":11836,"Ġpath":11837,"à¤¿à¤ĥ-":11838,"Ġà¤ķà¤¡à¤µ":11839,"à¤Ļà¤ķà¤°":11840,"Ġmg":11841,"Ġ137":11842,"ĠREM":11843,"ĠNOT":11844,"158":11845,"ĠEPA":11846,"ĠETree":11847,"uke":11848,"135":11849,"252":11850,"à¤¸à¤«à¤¦à¤°à¤ľ":11851,"Ġlong":11852,"Ġlinux":11853,"Ġ281":11854,"ĠZà¤²":11855,"ĠZà¤¬":11856,"emph":11857,"ĠWorld":11858,"Ġ229":11859,"Ġà¤ħà¤¸à¤°à¤¦":11860,"Ġtools":11861,"à¤Ĩà¤īà¤Łà¤¬":11862,"Ġà¥ªà¥©":11863,"à¥Ģ',":11864,"Ġà¥¬à¥§à¥¦":11865,"0416":11866,"ays":11867,"ovid":11868,"Ġconn":11869,"lient":11870,"ulf":11871,"ĠKOI":11872,"ĠJabber":11873,"spam":11874,"Ġ1879":11875,"384":11876,"Ġjpg":11877,"Ġ1863":11878,"Ġà¤ªà¤£à¤ľ":11879,"Ġà¤Ńà¤Ĺà¤¤à¤¸":11880,"à¥§à¥¯à¥¯à¥©":11881,"874":11882,"Ġext":11883,"Ġexponents":11884,"ulture":11885,"Ġà¥¯à¥«":11886,"Ġà¥§à¥¯à¥ªà¥¨":11887,"à¤ħà¤łà¤ĸ":11888,"Ġunknown":11889,"egr":11890,"à¤İà¤¸":11891,"Ġchecksum":11892,"Ġâĺ»âĺ»âĺ»âĺ»âĺº":11893,"PAGE":11894,"ĠMacG":11895,"msg":11896,"OUD":11897,"bookmarks":11898,"ĠUSENET":11899,"à¤Ĩà¤¯à¤°à¤¨":11900,"--------------------------------":11901,"ĠArmy":11902,"à¤ķà¤¸à¤¨à¤¶":11903,"à¥§à¥¯à¥«à¥¬":11904,"Ġlzma":11905,"Ġconfiguration":11906,"ĠSecurity":11907,"CLOUD":11908,"ophase":11909,"etworkManager":11910,"cepted":11911,"TWES":11912,"CRLF":11913,"Ġentry":11914,"ĠPRINT":11915,"Ġdivisions":11916,"à¤ħà¤¸à¤¹à¤¨à¤¶":11917,"ĠSASL":11918,"Ġgiven":11919,"ĠIncapacity":11920,"suriname":11921,"-à¥¤à¥¤":11922,"213":11923,"316":11924,"413":11925,"716":11926,"916":11927,">,":11928,"DIR":11929,"Download":11930,"Ed":11931,"Enc":11932,"Enter":11933,"National":11934,"NNTP":11935,"Outlook":11936,"PP":11937,"Pref":11938,"XDG":11939,"bat":11940,"big":11941,"bir":11942,"dB":11943,"dx":11944,"host":11945,"mh":11946,"mong":11947,"non":11948,"pi":11949,"pand":11950,"rc":11951,"sud":11952,"sanch":11953,"ten":11954,"uj":11955,"vers":11956,"vador":11957,"Ġob":11958,"Ġlayer":11959,"Ġover":11960,"à¥ĩà¤ĥ%":11961,"à¤¨à¤ªà¤¦":11962,"à¤¨france":11963,"à¤¨iran":11964,"à¤¤à¤ķà¤¤":11965,"à¤¤à¤²à¤¬":11966,"à¤ķà¤ķà¤²":11967,"à¥ĭà¥ĭ":11968,"à¤¯à¤¯à¤µà¤¸":11969,"à¤¸à¤Ī":11970,"à¤¸à¤°à¤®":11971,"à¤¸puertorico":11972,"à¤®à¤Łà¤°":11973,"à¤®à¤¬à¤²":11974,"à¤²à¤¸à¤®":11975,"à¤²à¤«à¤²":11976,"à¥Ī|":11977,"Ġà¤®à¤«":11978,"Ġà¤®à¤ĭ":11979,"à¤¦à¤®à¤¸":11980,"à¤ªà¤ªà¤°":11981,"à¤Ĺà¤łà¤ķ":11982,"à¥ĩà¤Ĥà¤Ĥ":11983,"Ġà¤ħà¤Īà¤¯":11984,"Ġà¤µà¤¸à¤¨":11985,"à¤ľà¤ł":11986,"à¤¼à¥Ī.":11987,"à¥ĭà¤Ĥà¥Ģ":11988,"à¥Ĥ;":11989,"à¥¤-":11990,"Ġà¤¦à¤²à¤¬":11991,"à¤¬à¤ķà¤Ł":11992,"à¤Łà¤ªà¤°":11993,"à¤ıà¤¤à¤°":11994,"à¤ıà¤ħà¤°":11995,"à¤ıà¤Łà¤®":11996,"Ġà¤ķà¤°à¤¯":11997,"à¤ļà¤ķà¤²":11998,"à¤ļà¤ĭ":11999,"à¤¡à¤ıà¤¸à¤Ĩà¤Ī":12000,"à¤¥à¤ĵ":12001,"Ġà¤Ĩà¤īà¤¨":12002,"Ġà¤Ĩà¤ĭ":12003,"Ġà¤Ĩà¤ĩà¤°":12004,"Ġ(<":12005,"Ġà¤ļà¤ªà¤°":12006,"Ġà¤ļà¤ĭ":12007,"à¤Īà¤ıà¤¸à¤¸":12008,"Ġà¤¶à¤®à¤¶":12009,"à¤°à¤¤à¤®à¤¨":12010,"à¤ªà¤¨à¤ĭ":12011,"à¤ħà¤Ĺà¤µ":12012,"à¤ħà¤¯à¤¶":12013,"à¤¼à¤¾!":12014,"à¤Ĩà¤£":12015,"à¤Ĩà¤°à¤£":12016,"à¤īà¤Ľà¤²":12017,"à¤ªà¤°à¤¬":12018,"à¤ľà¤¨à¤ª":12019,"à¤ľà¤¨à¤¸à¤®":12020,"à¤Ŀà¤²à¤ķ":12021,"Ġà¤§à¤°à¤£":12022,"Ġà¤ħà¤²à¤ĸ":12023,"à¤²à¤¨à¤¬":12024,"à¤¸à¤®à¤°à¤ķ":12025,"à¤ŀà¤²à¤¯":12026,"Ġà¤Łà¤¹à¤²":12027,"à¥Ģ,-":12028,"à¤®à¤¤à¤ķ":12029,"à¤¬à¤°à¤¯":12030,"Ġà¤ħà¤µà¤ª":12031,"à¤¸à¤¨City":12032,"Ġ\"=":12033,"à¤Łà¤°à¤°":12034,"Ġà¤ĵà¤«":12035,"à¤¦à¤°à¤¬à¤¨":12036,"à¤°à¤µà¤Ĺ":12037,"à¤µà¤¤à¤ª":12038,"à¥Ĥà¤Ĥ)":12039,"à¥Ĥà¤ģ...":12040,"à¤ĩà¤²à¤ľ":12041,"à¤ĩà¤²à¤Ł":12042,"Ġà¤¬à¤¦à¤ĸ":12043,"à¤¤à¤ķà¤Ĺ":12044,"à¤¾-?":12045,"à¤Ĺà¤²à¤Ĺ":12046,"Ġà¤¬à¤²à¤ĭ":12047,"Ġà¤ľà¤¨à¤Ń":12048,"meric":12049,"à¥Īà¤Ĥ.-":12050,"tinu":12051,"Ġ380":12052,"à¤¨à¤µà¤Ń":12053,"à¤¡à¤°à¤Ł":12054,"à¤²à¤ķà¤¦à¤®":12055,"inet":12056,"Ġnbsp":12057,"à¤Ĭà¤¤":12058,"erse":12059,"erences":12060,"à¤¯à¤ªà¤µà¤¸":12061,"à¤Ĩà¤Īà¤Ĩà¤Īà¤ıà¤¸":12062,"à¤Ĩà¤Īà¤ĵà¤¸":12063,"à¤Ĩà¤Īà¤ıà¤¨à¤¡":12064,"Ġà¤ĭà¤ª":12065,"Ġà¤ĭà¤¨à¤®":12066,"Ġdat":12067,"Ġdeb":12068,"Ġag":12069,"1926":12070,"à¤ľà¤²à¤ľ":12071,"orp":12072,"icons":12073,"à¤ıà¤®à¤µ":12074,"Ġki":12075,"Ġ620":12076,"entime":12077,"à¤°à¤Ĺà¤°à¤¤":12078,"Ġ1817":12079,"Â¤Âķ:":12080,"à¥ĩ?-":12081,"arI":12082,"Ġà¤ķà¤Łà¤¹à¤²":12083,"à¤¸à¤¬à¤®":12084,"à¤¸à¤¬à¤Ł":12085,"Ġà¤łà¤¹à¤°à¤ķà¤°":12086,"à¥Įà¤Ĥ.":12087,"Ġà¤ıà¤¨à¤ıà¤®à¤¸":12088,"Ġcue":12089,"Ġpres":12090,"ĠCPU":12091,"Ġà¤Ĺà¤£à¤ªà¤¤à¤°":12092,"Ġ208":12093,"ĠAlt":12094,"Ġà¤ıà¤®à¤ıà¤²à¤¡":12095,"à¤ħà¤µà¤°à¤ķ":12096,"Ġà¤«à¤²à¤ª":12097,"1250":12098,"ĠPIN":12099,"ĠTalk":12100,"ĠMem":12101,"ĠMSL":12102,"Ġplay":12103,"Ġbow":12104,"105":12105,"âĢĺâĢĻ":12106,"dium":12107,"Ġmode":12108,"à¥ªà¥ª":12109,"à¤¯à¤£à¤®":12110,"ĠGdk":12111,"Ġhours":12112,"utt":12113,"Ġgl":12114,"ĠOrg":12115,"à¤¨à¤Īà¤ĭ":12116,"Ġ247":12117,"133":12118,"Ġlicense":12119,"Ġ286":12120,"238":12121,"2312":12122,"à¤®à¤¶à¤µà¤°":12123,"fox":12124,"emon":12125,"Ġ278":12126,"ush":12127,"ATION":12128,"Ġimage":12129,"Ġà¥ªà¥¬":12130,"Ġà¥ªà¥Ń":12131,"0313":12132,"1940":12133,"uman":12134,"Ġà¥§à¥®à¥«à¥Ń":12135,"MAX":12136,"Ġà¤®à¤ĸà¤®à¤²":12137,"Ġmeas":12138,"à¤ķà¤łà¤«":12139,"Ġ1859":12140,"à¤Ĩà¤ĩà¤ıà¤¸":12141,"ford":12142,"IDE":12143,"Ġà¤®à¤łà¤µ":12144,"à¥¨à¥¦à¥§à¥§":12145,"à¤ıà¤¸à¤Ĩà¤Īà¤¬":12146,"cons":12147,"Ġà¥§à¥¯à¥®à¥«":12148,"matical":12149,"à¤¸à¤¹à¤¨à¤¶":12150,"à¥§à¥¯à¥Ńà¥¨":12151,"à¥§à¥¯à¥Ńà¥§":12152,"672":12153,"à¤ĩà¤ªà¤°à¤¬":12154,"keyboard":12155,"Ġlaunchpad":12156,"Ġà¥§à¥¯à¥Ńà¥¯":12157,"ĠInstitute":12158,"irefox":12159,"Ġà¤®à¤¦à¤¨à¤®":12160,"Ġbytes":12161,"uthentic":12162,"odim":12163,"à¤ĭà¤Ĩà¤ĭ":12164,"election":12165,"WebDAV":12166,"Print":12167,"ĠDisabled":12168,"anagari":12169,"Ġoffice":12170,"ancel":12171,"Ġgrammatical":12172,"Ġwidgets":12173,"Ġrecurs":12174,"Ġincrement":12175,"ĠMessages":12176,"oggle":12177,"Ġsalvador":12178,"eorge":12179,"Ġhypercub":12180,"Ġdownload":12181,"GtkSourceView":12182,"Ġsending":12183,"mongolia":12184,"':":12185,",...":12186,",`.":12187,"/_":12188,"862":12189,"914":12190,":/":12191,"And":12192,"Back":12193,"Cy":12194,"CUR":12195,"EW":12196,"GnuPG":12197,"Hebrew":12198,"Latin":12199,"MIN":12200,"NOR":12201,"PAN":12202,"Pine":12203,"Qa":12204,"RE":12205,"RDF":12206,"SO":12207,"Search":12208,"TTY":12209,"Zà¤¹":12210,"Zip":12211,"]\"":12212,"]à¥¤":12213,"ae":12214,"dec":12215,"draw":12216,"ient":12217,"ience":12218,"kr":12219,"luke":12220,"mk":12221,"mic":12222,"oy":12223,"qaa":12224,"roller":12225,"tar":12226,"vo":12227,"ËĻ":12228,"âĪ":12229,"Ġobject":12230,"à¤°à¤Ĺà¤¨":12231,"à¤°à¤²à¤®":12232,"à¥įà¥ĩ":12233,"à¤¿à¥Ģ":12234,"à¤¨à¤¬à¤¦":12235,"à¤¨à¤ľà¤¦":12236,"à¤¤à¤Ńà¤°":12237,"à¤¤email":12238,"à¤ķà¤¥à¤ķ":12239,"à¤¯à¤¦à¤¨":12240,"à¤¸à¤¹à¤®":12241,"à¤¸à¤ļà¤²":12242,"Ġà¤¹à¤ľà¤°":12243,"à¤®à¤ªà¤¨":12244,"à¤®à¤ľà¤²":12245,"à¤®à¤Łà¤ķà¤°":12246,"à¤²à¤¦à¤°":12247,"à¤²à¤Ńà¤°":12248,"à¤²à¤Ļ":12249,"Ġà¤ªà¤ķà¤¤":12250,"à¥ĪâĢĻà¥¤":12251,"à¤µà¤ĺà¤°":12252,"à¤µà¤Ńà¤ķ":12253,"à¤µà¤¦à¤²":12254,"à¤¦à¤·":12255,"à¤¦à¤°à¤¸":12256,"à¤ªà¤¯à¤¨":12257,"à¤ªà¤¦à¤¤":12258,"à¤ªà¤ªà¤¡":12259,"à¤Ĺà¤¤à¤°":12260,"à¤Ĺà¤¬à¤¨":12261,"à¤Ĺà¤§à¤°":12262,"à¥ĩà¤Ĥ:-":12263,"Ġà¤ħà¤¸à¤ķ":12264,"à¥ĭà¤Ĥ...":12265,"Ġà¤¬à¤°à¤®":12266,"Ġà¤¤à¤ķà¤¤":12267,"Ġà¤¤à¤Īà¤ª":12268,"à¤¬à¤µà¤°":12269,"à¤¬à¥ľ":12270,"à¤Łà¤ªà¤¤":12271,"à¤ıà¤¤à¤¦":12272,"à¤ıà¤Ĩà¤°à¤¸":12273,"à¤ıà¤ıà¤¸à¤ª":12274,"à¤§à¤°à¤®":12275,"à¤§à¤²à¤ķ":12276,"à¤·à¤·":12277,"à¤¡à¤£":12278,"à¤£à¤ªà¤°":12279,"à¤£à¤¦à¤¯":12280,"Ġà¤Ńà¤ľ":12281,"à¤ĸà¤°à¤¹":12282,"Ġà¤Ĺà¤Ĭ":12283,"Ġà¤Ĺà¤ľà¤ª":12284,"à¤Ńà¤°à¤®":12285,"Ġà¤ĩà¤ª":12286,"Ġà¤ļà¤ªà¤²":12287,"à¥Ģà¤Ĥà¤ĥ%":12288,"à¤ªà¤¨à¤¹":12289,"à¤ħà¤¯à¤¤":12290,"à¤ħà¤ľà¤¬":12291,"à¤ħà¤ªà¤¯":12292,"à¤ħà¤¦à¤¤":12293,"à¤ħà¤¯à¤¥":12294,"Ġà¤«à¤¤à¤µ":12295,"Ġà¤ħà¤ªà¤¨à¤¤":12296,"à¤°à¤ķà¤Łà¤¤":12297,"Ġà¤ħà¤¨à¤¤":12298,"à¤¾à¥¤âĢĻ":12299,"à¤Ĩà¤·":12300,"à¤Ĩà¤¥":12301,"à¤Ĩà¤¹à¤°":12302,"à¤Ĩà¤®à¤²":12303,"à¤Ĩà¤¶à¤¯":12304,"à¤īà¤¥à¤Ĺ":12305,"à¤¾,'":12306,"à¤ªà¤°à¤ļ":12307,"à¤¯à¤ķà¤ħà¤²":12308,"Ġà¤¡à¤«":12309,"à¤Ŀà¤°à¤¨":12310,"à¤¢à¤ķà¤°":12311,"à¤Ĺà¤°à¤¨":12312,"à¤°à¤¹à¤°à¤£":12313,"Ġà¤¤à¤ķà¤ķ":12314,"à¤¤à¤¨à¤²":12315,"à¤ªà¤¤à¤¤":12316,"à¤¼à¤¿âĢį":12317,"à¤¶à¤¨Name":12318,"à¤®à¤¨à¤µà¤®":12319,"Ġà¤Łà¤ļ":12320,"à¤ĺà¤ķà¤°":12321,"Ġ\"[":12322,"Ġà¤ĵà¤¶":12323,"à¤¦à¤¨à¤¯":12324,"à¤®à¤ķà¤£":12325,"à¤µà¤¤à¤ķ":12326,"à¤ĩà¤¨à¤¹":12327,"à¤ĩà¤¨à¤µ":12328,"Ġà¤¹à¤°à¤ª":12329,"Ġsam":12330,"Ġà¤Ŀà¤®":12331,"Ġà¤¸à¤®à¤Ŀà¤ĭà¤¤":12332,"à¤Ĳà¤¹":12333,"à¥Ģ.),":12334,"à¤Ĺà¤²à¤®à¤¯":12335,"Ġà¤ķà¤²à¤¸":12336,"à¤¨à¤µà¤¶à¤ķ":12337,"Ġne":12338,"Ġà¤ľà¤²à¤Ń":12339,"à¤ıà¤¸à¤ıà¤ļà¤ľ":12340,"Ġà¤µà¤¸à¤ĭ":12341,"à¤ħà¤²à¤°":12342,"à¤ħà¤²à¤¬à¤°":12343,"erial":12344,"à¤ķà¤¸à¤¬":12345,"à¤Ĩà¤°à¤Ĩà¤Īà¤¡":12346,"ames":12347,"pre":12348,"Ġà¤ħà¤®à¤°à¤¸":12349,"à¤¬à¤¦à¤¦":12350,"à¤ĭà¤ĭ":12351,"à¤Ľà¤²à¤Ĺ":12352,"ales":12353,"1910":12354,"oriz":12355,"à¤¯à¤¸à¤µà¤¸":12356,"à¤ħà¤ªà¤ĺà¤Łà¤¨":12357,"à¤ħà¤°à¤Ĺ":12358,"à¤ķà¤®à¤ª":12359,"à¤ıà¤²à¤ĵ":12360,"à¤Ĺà¤¨à¤¯à¤¨":12361,"abs":12362,"ench":12363,"Ġ184":12364,"Ġ1806":12365,"Ġ1840":12366,"Ġ1845":12367,"Â¤Â°:":12368,"atural":12369,"à¤īà¤¤à¤°à¤¤":12370,"à¤ªà¤¦à¤¸":12371,"Ġcentime":12372,"à¤Ĩà¤¤à¤ª":12373,"Ġà¤¨à¤ľà¤®":12374,"recent":12375,"ĠAccess":12376,"à¤¸à¤¹à¤ķà¤°":12377,"ĠIC":12378,"ĠIf":12379,"Ġà¤µà¤ľà¤¹à¤¸":12380,"Ġà¤Ĩà¤²à¤ļà¤¨":12381,"à¤ħà¤µà¤Ĺà¤¤":12382,"olicy":12383,"à¤¦à¤²à¤ľ":12384,"ĠPay":12385,"ĠType":12386,"ĠTerror":12387,"ĠTLS":12388,"ĠMicrosoft":12389,"hern":12390,"ĠpH":12391,"Ġ161":12392,"Ġ1630":12393,"ĠBa":12394,"Ġà¤Ĩà¤¹à¤µ":12395,"ĠDev":12396,"Â¤Â®:":12397,"ĠRA":12398,"ĠRC":12399,"ĠRec":12400,"1885":12401,"Ġ178":12402,"Ġwant":12403,"Ġwodim":12404,"Ġemail":12405,"à¤¾à¤Ĥ,âĢĶ":12406,"à¤ħà¤«à¤¸à¤°":12407,"Ġhindi":12408,"Ġxz":12409,"Ġgrowisofs":12410,"enty":12411,"ĠOffice":12412,"Ġ241":12413,"Ġà¥§à¥¯à¥§à¥¦":12414,"Ġà¤īà¤Ńà¤¯à¤ļà¤°":12415,"ries":12416,"Ġ267":12417,"237":12418,"ĠZà¤ª":12419,"172":12420,"à¤£à¤ķà¤£":12421,"Ġà¤¬à¤ķà¤¬à¤ķ":12422,"240":12423,"Ġ221":12424,"omes":12425,"Ġtoken":12426,"andank":12427,"ĠYork":12428,"ĠVisual":12429,"Ġvap":12430,"à¤įà¤¡":12431,"chandank":12432,"Ġret":12433,"thing":12434,"Ġà¥¦à¥§":12435,"igr":12436,"Control":12437,"Ġà¥Ńà¥¨":12438,"Ġà¥Ńà¥®":12439,"aster":12440,"à¥Ĥà¤ģ?.":12441,"à¤Ńà¤¯à¤Ļ":12442,"Ġ348":12443,"Ġà¤īà¤¬à¤²à¤¨":12444,"Ġà¤įà¤®":12445,"aijan":12446,"à¤¸à¤ĭà¤¦":12447,"à¤Ĺà¤¹à¤¬à¤°":12448,"estore":12449,"ĠChrom":12450,"Ġexe":12451,"à¥§à¥¯à¥Ńà¥¬":12452,"ccount":12453,"............":12454,"à¤ľà¤¯à¤¨à¤Ĺà¤°à¤®":12455,"à¥ĪâĢĿ.":12456,"à¤ĵà¤µà¤°à¤µ":12457,"à¤ĵà¤µà¤°à¤¡":12458,"âĢĭâĢĭ":12459,"ĠStart":12460,"Ġà¤ħà¤ªà¤¹à¤°à¤£à¤ķà¤°":12461,"Ġà¥¯à¥©":12462,"MIMEEnc":12463,"ĠYouTube":12464,"ensity":12465,"Ġà¥§à¥¯à¥©à¥¨":12466,"Ġalert":12467,"ĠUniversity":12468,"lung":12469,"Ġspace":12470,"Ġà¤Ŀà¤ªà¤Łà¤ķà¤°":12471,"à¥§à¥¯à¥©à¥§":12472,"Ġcomple":12473,"ĠComic":12474,"à¥§à¥¯à¥¨à¥ª":12475,"Webcam":12476,"Ġà¤ħà¤µà¤¨à¤®à¤¨":12477,"erbaijan":12478,"ĠIsrael":12479,"KeyPref":12480,"à¥į:âĢĵ":12481,"Ġaccount":12482,"Ġzooming":12483,"tract":12484,"OfTheMeeting":12485,"tacts":12486,"azerbaijan":12487,"ĠĠĠĠĠĠĠ":12488,"Ġà¥łà¤£":12489,"Ġmultip":12490,"TrueType":12491,"vidual":12492,"Ġ093047":12493,"Ġseparator":12494,"ĠImport":12495,"ROUND":12496,"ĠArchived":12497,"YEAR":12498,"IDEO":12499,"uthentication":12500,"Cyrillic":12501,"chandankumar":12502,"MIMEEncKeyPref":12503,"MIMEEncKeyPrefs":12504,"'(":12505,"-âĢľ":12506,".?":12507,"218":12508,"3000":12509,"320":12510,"550":12511,"875":12512,"864":12513,"AD":12514,"Aut":12515,"ADDRESS":12516,"First":12517,"GU":12518,"General":12519,"GObject":12520,"HC":12521,"HE":12522,"HEX":12523,"It":12524,"Kit":12525,"KDE":12526,"KEY":12527,"OCT":12528,"PF":12529,"RSET":12530,"WOR":12531,"Widget":12532,"[(":12533,"cos":12534,"disc":12535,"eme":12536,"hma":12537,"nm":12538,"ness":12539,"oon":12540,"ois":12541,"yz":12542,"Â´":12543,"Â¸":12544,"ÙĦ":12545,"Ġoxide":12546,"Ġà¤Ĵ":12547,"à¥į!":12548,"à¤¨à¤Ľ":12549,"à¤¨à¤ļà¤¨":12550,"à¥Ģ:%":12551,"à¥Ģ......":12552,"à¤ķà¤«à¤°":12553,"à¥ĭ......":12554,"à¤¯à¤¶à¤ķ":12555,"à¤¯à¤ĭ":12556,"à¤¯à¤°à¤ķà¤¤":12557,"à¤¯à¤ľà¤¨à¤¸":12558,"à¤¸à¤ĩà¤«":12559,"à¤®à¤Łà¤®":12560,"Ġà¤¸à¤¤à¤¨":12561,"à¤¹à¤¬à¤²":12562,"à¥ģà¥Ī":12563,"Ġà¤ªà¤ĭ":12564,"à¤µà¤ªà¤¤":12565,"Ġà¤®à¤ĩ":12566,"à¤¦à¤§":12567,"à¤¦à¤ªà¤°":12568,"à¤¦à¤¹à¤°":12569,"à¤¦à¤Ĺà¤°":12570,"à¤¦à¤¤à¤¨":12571,"Ġà¤ħZ":12572,"à¤ľà¤®à¤¹":12573,"Ġà¤¬à¤Łà¤µ":12574,"Ġà¤¦à¤°à¤¦":12575,"à¤¶à¤°à¤¨":12576,"à¤¶Name":12577,"à¤¬à¤¤à¤¨":12578,"Ġà¤²à¤ĭ":12579,"à¤Łà¤¤à¤°":12580,"à¤ıà¤ªà¤¨":12581,"à¤ıà¤¹à¤¤":12582,"à¤ıà¤¯à¤°à¤²":12583,"à¤ıà¤ķà¤¤à¤°à¤«":12584,"à¤§à¤®à¤¤":12585,"à¤¡à¤ªà¤°":12586,"à¤¡à¤°à¤®":12587,"à¤¡à¤Ĩà¤°":12588,"à¤¡à¤Ĺà¤¨":12589,"à¤¥à¤Ī":12590,"à¤£à¤Ńà¤ķ":12591,"Ġà¤¯à¤ª":12592,"Ġà¤¯à¤®à¤°":12593,"Ġà¤Ĺà¤¹à¤®":12594,"à¥Īà¥¤,":12595,"à¥Īà¥¤'à¥¤":12596,"à¤«à¤Łà¤¨":12597,"à¤«City":12598,"à¤«à¤°à¤¨à¤Ĺà¤°":12599,"à¥Ģà¤Ĥ]":12600,"à¤¾à¤Ĥ\"":12601,"à¤Ľà¤¯":12602,"à¤ħà¤¤à¤¨":12603,"à¤ħà¤ĸà¤°":12604,"à¤°à¤ķà¤£":12605,"à¤Ĩà¤µà¤²":12606,"à¤ĨName":12607,"à¤Ĩà¤ĩà¤°":12608,"à¤ĵà¤¯":12609,"à¤ĵà¤ķà¤¨":12610,"à¤ĵà¤°à¤²":12611,"Ġà¤¬à¤¨à¤ķ":12612,"à¤ľà¤¨à¤ķà¤ª":12613,"à¥Īà¤Ĥà¥¤'":12614,"à¤°à¤®à¤®":12615,"à¤°à¤®à¤Ĺ":12616,"à¥ĩà¥¤--":12617,"Ġà¤Ľà¥ľ":12618,"Ġà¤Ĩà¤ªà¤¤à¤ķ":12619,"à¤°à¤¹à¤Ł":12620,"à¤¤à¤¨à¤ķà¤°":12621,"à¥Ī.\"":12622,"à¤°à¤¸à¤¹":12623,"à¤¸à¤®à¤²à¤µ":12624,"à¤¨à¤¤à¤¯":12625,"à¤ŀà¤¦":12626,"à¤ŀà¤µà¤²":12627,"à¤¶à¤¨à¤ľà¤¬à¤¤à¤ķ":12628,"Ġà¤Łà¤¹à¤²à¤¤":12629,"Ġà¤Īà¤¯à¤°":12630,"à¤Łà¤°à¤ªà¤¨":12631,"Ġà¤®à¤¹à¤¨":12632,"Ġà¤ĵà¤ı":12633,"Ġà¤ĵà¤µà¤°à¤ķ":12634,"005":12635,"à¥ĩ).":12636,"Ġà¤ĩà¤¨à¤µ":12637,"à¥Ĥà¤Ĥ:":12638,"à¤¾):":12639,"Ġà¤Ĩà¤¦à¤¤à¤¨":12640,"à¥Ĥà¤ģà¤ĥ":12641,"Ġsv":12642,"à¤¤à¤ķà¤£":12643,"à¤¤à¤ķà¤¬à¤°":12644,"à¤®à¤²à¤¦":12645,"à¤®à¤°à¤ľ":12646,"à¤ħà¤¨à¤µà¤°à¤¤":12647,"Ġà¤ķà¤²à¤ª":12648,"Ġ310":12649,"Ġ345":12650,"à¥¦à¥¨":12651,"à¤¡à¤°à¤ª":12652,"à¥ĩà¤Ĥà¥¤âĢĻ":12653,"à¤¬à¤¨à¤°":12654,"à¤ıà¤¸à¤ıà¤®à¤Ł":12655,"anj":12656,"anis":12657,"Ġà¤Ķà¤Ł":12658,"à¤Ĩà¤°à¤¡à¤¬":12659,"à¤Ĩà¤Īà¤Ĩà¤Īà¤ª":12660,"à¤Ĩà¤Īà¤Ĩà¤°à¤¸":12661,"à¤Ĩà¤Īà¤Ĩà¤Īà¤ıà¤®":12662,"à¤µà¤ķà¤ķ":12663,"à¤µà¤ķà¤¯à¤¨":12664,"à¤¦à¤®à¤ķà¤¤":12665,"Ġtem":12666,"à¤¬à¤¦à¤¤à¤®":12667,"à¤¯à¤µà¤µà¤¸":12668,"à¤¶à¤¤à¤ªà¤¤":12669,"Ġ530":12670,"alaya":12671,"Ġà¤¤à¤¤à¤ĭ":12672,"Ġà¤Ĩà¤Īà¤Ĩà¤°à¤¸":12673,"à¤ļà¤²à¤ª":12674,"lathr":12675,"...]":12676,"Ġà¤Ĩà¤®à¤°à¤£":12677,"à¤ľà¤¹à¤¦":12678,"Ġ605":12679,"htrapati":12680,"à¤¹à¤°à¤£à¤¤":12681,"à¤ķà¤®à¤¯":12682,"à¤ıà¤²à¤µ":12683,"Ġà¤ıà¤¸à¤ıà¤¸à¤¬":12684,"Ġ1815":12685,"arnet":12686,"à¤°à¤¥à¤®à¤¦":12687,"atm":12688,"à¤Łà¤®à¤®":12689,"à¤ıà¤¨à¤ıà¤®à¤¸":12690,"Ġà¤ıà¤¨à¤ı":12691,"Ġà¤ıà¤¨à¤ıà¤¸à¤ıà¤¸":12692,"options":12693,"start":12694,"ransport":12695,"Ġcal":12696,"à¤ľà¤Ĺà¤ľ":12697,"reak":12698,"oma":12699,"Ġ1230":12700,"Ġdoc":12701,"à¤ħà¤µà¤¬":12702,"à¤¨à¤¹à¤Ł":12703,"127":12704,"1257":12705,"à¤¶à¤¬à¤²à¤ķ":12706,"ofile":12707,"ofuser":12708,"ĠPHP":12709,"ĠTh":12710,"ĠTra":12711,"ĠTCP":12712,"ĠMarcus":12713,"Ġpack":12714,"104":12715,"107":12716,"ĠFour":12717,"ĠFAQ":12718,"Ġ1645":12719,"Ġfield":12720,"ĠDevelop":12721,"ĠNot":12722,"1850":12723,"Ġ1730":12724,"153":12725,"Ġget":12726,"Ġgsi":12727,"ĠEmpathy":12728,":%.":12729,"Ġà¤ıà¤ļà¤ıà¤«à¤¸":12730,"à¤ľà¤ªà¤¤à¤°":12731,"Ġà¤īà¤§à¤®":12732,"à¤¸à¤«à¤²à¤ķ":12733,"urb":12734,"235":12735,"2301":12736,"à¥Ī:\\\"":12737,"Ġ232":12738,"Ġ237":12739,"ĠâĢ¦!":12740,"Ġ2100":12741,"à¤²à¤¹à¤ľ":12742,"à¤Ĩà¤īà¤Łà¤Ĺ":12743,"add":12744,"0216":12745,"ĠVPN":12746,"Ġà¤ħà¤Łà¤ķà¤¨":12747,"Ġà¥ªà¥ª":12748,"Ġcommand":12749,"ĠXXX":12750,"Ġrequest":12751,"overs":12752,"Ġconf":12753,"aph":12754,"osmol":12755,"hats":12756,"Ġà¤ıà¤¯à¤°à¤Ł":12757,"à¤ıà¤®à¤ıà¤¸à¤Ī":12758,"Ġà¤µà¤²à¤¯à¤¨":12759,"Ġà¥Ńà¥ª":12760,"Ġà¤²à¤ªà¤ķà¤¤":12761,"Ġmeans":12762,"Ġà¥®à¥§":12763,"ONE":12764,"à¤Ĩà¤ĩà¤ıà¤¸à¤ĵ":12765,"364":12766,"368":12767,"ĠNameOfThe":12768,"Ġ1864":12769,"Ġann":12770,"Ġà¥§à¥¬à¥¦à¥¦":12771,"à¤īà¤Ĺà¤²à¤¨":12772,"à¥§à¥¯à¥¦à¥¦":12773,"libburn":12774,"Ġà¥¨à¥«à¥¦à¥¦":12775,"à¥§à¥¯à¥Ńà¥¦":12776,"Ġà¤°à¤£à¤Ń":12777,"à¤¤à¤Łà¤°à¤ķ":12778,"Ġleft":12779,"State":12780,"Ġà¤ľà¤¸à¤µà¤¨":12781,"à¤Ĩà¤Īà¤Ĩà¤°à¤ıà¤®":12782,"Ġitems":12783,"Ġà¥§à¥¯à¥©à¥¦":12784,"à¥ĩâĢĿ?":12785,"à¤¨à¤Ńà¤¶":12786,"Ġà¤²à¤ªà¤ķà¤ķà¤°":12787,"ĠUnited":12788,"plos":12789,"à¤¬à¤¦à¤¨à¤¸":12790,"à¥§à¥¯à¥¬à¥®":12791,"Ġspec":12792,"ĠMach":12793,"Ġeng":12794,"LongDayName":12795,"vention":12796,"ĠSpeech":12797,"Ġrecurrpage":12798,"à¤¯à¤ªà¤°à¤Ł":12799,"arkar":12800,"ĠSTUN":12801,"ĠDNA":12802,"à¥Ī....à¥¤":12803,"Ġfilter":12804,"Ġgradient":12805,"defin":12806,"belize":12807,"Ġà¤²à¤Ļà¤ķ":12808,"Ġiva":12809,"Ġyears":12810,"Ġserver":12811,"***":12812,"anizer":12813,"ĠInternational":12814,"osition":12815,"Ġworkperm":12816,"ĠStandards":12817,"luoroc":12818,"ĠUkrainian":12819,"Ġbelow":12820,"Resp":12821,"ĠWayland":12822,"preview":12823,"lathrate":12824,"osmoline":12825,"ĠNameOfTheUser":12826,"Ġworkpermits":12827,"';":12828,")%.":12829,"450":12830,"614":12831,"8000":12832,">'":12833,"?,":12834,"Bl":12835,"Button":12836,"Brasero":12837,"Clean":12838,"En":12839,"Ent":12840,"Feb":12841,"MC":12842,"Office":12843,"Pl":12844,"Qu":12845,"Sh":12846,"SMS":12847,"Split":12848,"Survey":12849,"TC":12850,"Te":12851,"World":12852,"\\ï¿½":12853,"aaoM":12854,"ball":12855,"climate":12856,"ges":12857,"glac":12858,"ium":12859,"kit":12860,"lub":12861,"lzip":12862,"ole":12863,"picture":12864,"rs":12865,"ris":12866,"ress":12867,"sk":12868,"serv":12869,"uction":12870,"wind":12871,"Â½":12872,"Ä¹":12873,"Ġel":12874,"Ġolder":12875,"ŀÃī":12876,"à¤¾>":12877,"à¤°à¤ľà¤°":12878,"à¤¨à¤°à¤¹":12879,"à¤¨à¤®à¤¤":12880,"à¤¨star":12881,"à¥Ģà¥ĭ":12882,"à¤¤à¤¸à¤¨":12883,"à¤¤à¤¤à¤ķ":12884,"à¤ķà¤ľà¤¨":12885,"à¤ķà¤²à¤¯":12886,"à¤ķà¤¬à¤¨":12887,"à¥ĭ\",":12888,"à¤¯à¤Ĩ":12889,"à¤¯à¤ł":12890,"à¤¯à¤¯à¤®":12891,"à¤¸à¤Ĩà¤¦":12892,"à¤®à¤ľà¤¹":12893,"Ġà¤¸à¤¯à¤¤":12894,"à¤¹à¤Łà¤¨":12895,"à¤²à¤ĸà¤¨":12896,"à¤²à¤ªà¤¥":12897,"à¥ģ!":12898,"à¥ģà¥Ģ":12899,"à¤µà¤ĺ":12900,"à¤µà¤Ľà¤¨":12901,"Ġà¤®à¤¸à¤µ":12902,"à¤ªà¤Ĺà¤¡":12903,"Ġà¤µà¤·":12904,"Ġà¤µà¤²à¤¨":12905,"Ġà¤µà¤¯à¤¨":12906,"Ġà¤µà¤¡à¤²":12907,"à¤ľà¤°à¤¸":12908,"à¤ľà¤¯à¤¸":12909,"à¤¼âĢĻ":12910,"Ġà¤¬à¤²à¤¬":12911,"à¥Ĥ),":12912,"à¥Ĥà¥°":12913,"Ġà¤¤à¤Ī":12914,"Ġà¤¤à¤ªà¤¨":12915,"Ġà¤¤à¤ªà¤¤":12916,"à¥¤,":12917,"Ġà¤¦à¤¤à¤°":12918,"à¤¶à¤·":12919,"à¤¶à¤Łà¤°":12920,"à¤¬à¤ľà¤¨":12921,"à¤Łà¤ıà¤Ĺ":12922,"à¤ıà¤ĭ":12923,"Ġà¤°à¤Łà¤¨":12924,"à¤§à¤¤à¤®":12925,"à¤§à¤«à¤²à¤ķ":12926,"à¤¡à¤²à¤¨":12927,"à¤¥à¤ļ":12928,"Ġà¤Ĩà¤ľà¤¨":12929,"à¤ĸà¤¹":12930,"à¤ĸà¤°à¤ªà¤¤à¤µ":12931,"Ġà¤Ĺà¤®à¤²":12932,"à¤Ńà¤¬":12933,"Ġ(>":12934,"Ġ({":12935,"à¤Īà¤¢":12936,"Ġà¤īà¤¨à¤¤":12937,"à¤ĩà¤µà¤²":12938,"Ġà¤ıà¤ķà¤¹":12939,"Ġà¤ıà¤ķà¤²à¤µ":12940,"Ġà¤¸à¤®à¤°à¤¸":12941,"Ġà¤¸à¤®à¤³":12942,"à¤ħà¤Łà¤°":12943,"à¤ħà¤°à¤¸à¤¨":12944,"à¤ħà¤Łà¤µ":12945,"Ġà¤«à¤¯":12946,"Ġà¤«à¤Łà¤¤":12947,"à¤łà¤ł":12948,"à¤īà¤°à¤ķ":12949,"à¤īà¤ĸà¤¡":12950,"à¤ĵà¤ªà¤°":12951,"à¤ĵà¤Ŀ":12952,"à¤°à¤£à¤¶":12953,"à¤°à¤£à¤ļ":12954,"à¤¯à¤ķà¤ķà¤¤":12955,"à¤¿à¤Ĥà¤Ĥ":12956,"à¤ĥ\"":12957,"à¥Īà¤Ĥà¥¤.":12958,"à¤Ŀà¤ķà¤¤":12959,"à¤¾à¤ģ...":12960,"Ġà¤§à¤µà¤²":12961,"à¤¢à¤¬":12962,"à¥ĩà¥¤âĢĻ":12963,"Ġà¤Ľà¤²à¤ª":12964,"Ġà¤Ľà¤°à¤¹à¤°":12965,"à¤¹à¤°à¤µ":12966,"Ġà¤ĺà¤Ĺ":12967,"à¤¯à¤®à¤¬à¤¦":12968,"à¤¸à¤®à¤¯à¤ª":12969,"à¤®à¤¨à¤¦à¤¨":12970,"Ġà¤ħà¤µà¤¬":12971,"à¤°à¤¯à¤¸":12972,"Ġà¤ĵà¤ıà¤¨à¤ľ":12973,"à¤¦à¤°à¤¨":12974,"à¤µà¤¸à¤ĭ":12975,"Ġà¤¸à¤°à¤µà¤°":12976,"Ġà¤¸à¤°à¤ķà¤¤":12977,"à¤Łà¤¨à¤¯":12978,"à¤Łà¤¨à¤Ń":12979,"Ġà¤¹à¤°à¤ļ":12980,"..)":12981,"à¤°à¤¶à¤®à¤¨":12982,"Ġà¤ħà¤ªà¤°à¤ķ":12983,"Ġà¤łà¤¦":12984,"Ġà¥ļ":12985,"à¤ħà¤¨à¤ªà¤¢":12986,"à¤ľà¤¬à¤¡":12987,"à¤°à¤¨à¤°":12988,"Ġà¤ħà¤¬à¤¸":12989,"à¤ķà¤¨à¤«":12990,"Ġà¤ħà¤Ĺà¤°à¤¬à¤¤":12991,"à¥Īà¤Ĥ.%":12992,"à¥Īà¤Ĥ.?":12993,"tific":12994,"à¤¨à¤µà¤¦":12995,"à¤ıà¤¸à¤ıà¤ª":12996,"anic":12997,"à¤Ĭà¤¥":12998,"à¤ħà¤²à¤Ļ":12999,"à¤ħà¤²à¤Ĺà¤°à¤ľ":13000,"Ġà¤¬à¤°à¤ľ":13001,"Ġà¤ħà¤ľà¤¸":13002,"ameter":13003,"à¤Ĩà¤Īà¤¨":13004,"à¤¼à¥Įà¤Ĥ":13005,"Ġà¤īà¤²à¤ĭ":13006,"Ġà¤īà¤²à¤Łà¤¤":13007,"âĢĻ-":13008,"Ġà¤Ĳà¤²à¤¨":13009,"Ġà¤ĭà¤ªà¤¯":13010,"Ġà¤Ĩà¤Īà¤°":13011,"Ġdialog":13012,"Ġdensity":13013,"1916":13014,"1913":13015,"itr":13016,"orer":13017,"Ġke":13018,"Ġ640":13019,"Ġà¤¸à¤²à¤¹à¤ķ":13020,"enu":13021,"à¤°à¤²à¤µ":13022,"à¤Ķà¤ķ":13023,"à¥Ĥà¤Ĥà¥¤âĢĻ":13024,"à¤īà¤¤à¤ª":13025,"Ġà¤ıà¤¨à¤¹":13026,"Ġà¤ķà¤¨à¤«":13027,"à¤ªà¤¦à¤ļ":13028,"Ġ159":13029,"Ġ1565":13030,"ĠCC":13031,"ĠCreat":13032,"ĠCMYK":13033,"Ġ950":13034,"Ġà¥¨à¥¨à¥¦":13035,"ĠAM":13036,"ĠAi":13037,"obe":13038,"ober":13039,"Ġ1226":13040,"//.":13041,"à¤īà¤ªà¤¸à¤°":13042,"ĠPart":13043,"ĠPerson":13044,"ĠPlace":13045,"ĠTR":13046,"hers":13047,"1101":13048,"Ġbind":13049,"Ġbox":13050,"eter":13051,"etect":13052,"Ġ1650":13053,"dial":13054,"'';":13055,"ĠBugzilla":13056,"radia":13057,"Ġms":13058,"Ġmigr":13059,"ĠDate":13060,"Ġà¤Ńà¤Ĺà¤µà¤¦à¤Ĺ":13061,"Ġ1330":13062,"ĠRSS":13063,"Â¥ÂĢ.":13064,"à¥ľà¤ļ":13065,"Ġemissions":13066,"ĠGSM":13067,"à¤ıà¤ļà¤¬":13068,"à¥Ī!-":13069,"ĠOR":13070,"edefin":13071,"ivà¤ķ":13072,"Ġusing":13073,"rist":13074,"Ġà¥©à¥§à¥¦à¥¦":13075,"MENT":13076,"ĠZà¤¤à¤¥":13077,"à¥Ī:à¥¤":13078,"222":13079,"ĠWP":13080,"uses":13081,"Ġà¤ħà¤ķà¤¬à¤°à¤¨":13082,"0714":13083,"ocol":13084,"Ġà¥«à¥¯":13085,"0516":13086,"Ġie":13087,"Ġim":13088,"Ġ351":13089,"Ġ3500":13090,"à¤įà¤°":13091,"Ġà¥¬à¥©":13092,"278":13093,"0413":13094,"ova":13095,"index":13096,"thday":13097,"855":13098,"devel":13099,"aper":13100,"apify":13101,"ctober":13102,"Ġstates":13103,"asthma":13104,"à¥ŀà¤°":13105,"à¤ħà¤¹à¤®à¤ķ":13106,"extreme":13107,"hany":13108,"Ġà¤ľà¤¨à¤ķà¤²":13109,"Ġ(&)":13110,"à¤¤à¤¦à¤¨à¤¨":13111,"Ġà¤Ĩà¤ĩà¤ıà¤¸":13112,"Ġà¤įà¤¡":13113,"context":13114,"helf":13115,"iphany":13116,"Ġà¥§à¥¯à¥®à¥¬":13117,"Ġ394":13118,"Ġ0900":13119,"ĠQShortcut":13120,"istance":13121,"à¤ıà¤¨à¤Ĩà¤°à¤ĵ":13122,"Stream":13123,"Ġà¥©à¥¦à¥¨":13124,"à¥§à¥¯à¥®à¥¨":13125,"perature":13126,"Ġà¥§à¥¯à¥Ńà¥§":13127,"ĠStatus":13128,")],":13129,"Ġà¥Ľà¤°":13130,"comp":13131,"Ġsecant":13132,"road":13133,"ĠtimeFeb":13134,"guilabel":13135,"Ġqaa":13136,"Ġnetwork":13137,"Ġà¥§à¥¯à¥©à¥§":13138,"Ġâĺ»âĺ»âĺ»âĺ»âĺ»":13139,"TYPE":13140,"macs":13141,"Ġheapify":13142,"Ġsomething":13143,"University":13144,"ĠWebKit":13145,"Ġrecurr":13146,"Ġà¥§à¥¯à¥¦à¥Ń":13147,"ĠApplication":13148,"ĠmaM":13149,"Ġà¤ħà¤¸à¤¹à¤¨à¤¶":13150,"iversary":13151,"INGTON":13152,"Ġacid":13153,"à¤¶à¤ªà¤¥à¤ªà¤¤":13154,"SHORT":13155,"à¤įà¤¸à¤Ĩà¤°":13156,"ÃīÅĩ":13157,"InsertInsert":13158,"Apply":13159,"COMP":13160,"Ġgramm":13161,"Ġdioxide":13162,"à§į":13163,"untary":13164,"ĠPRODUCT":13165,"Ġà¤Ŀà¤¨à¤Ŀà¤¨":13166,"Twenty":13167,"Ġcubic":13168,"ĠREMINGTON":13169,"birthday":13170,"Ġcentimeter":13171,"ĠFourth":13172,"Ġanniversary":13173,"ĠMachine":13174,"Entry":13175,"\\ï¿½\\":13176,"à¤®à¤ľà¤¹à¤¬":13177,"à¤Łà¤ıà¤Ĺà¤¸":13178,"radiative":13179,"Ġmigrator":13180,"\"/":13181,"713":13182,"866":13183,":--":13184,"Al":13185,"Air":13186,"AUT":13187,"All":13188,"BR":13189,"Can":13190,"COP":13191,"Char":13192,"Change":13193,"Dele":13194,"George":13195,"HT":13196,"Item":13197,"Ky":13198,"Là¤¶":13199,"Language":13200,"NM":13201,"NetworkManager":13202,"Other":13203,"Pop":13204,"PST":13205,"SIN":13206,"UGIN":13207,"WE":13208,"Zà¤«":13209,"aign":13210,"del":13211,"gb":13212,"jk":13213,"kcm":13214,"kish":13215,"ose":13216,"pse":13217,"sq":13218,"tl":13219,"table":13220,"ua":13221,"ument":13222,"var":13223,"xv":13224,"âģ":13225,"ĸł":13226,"à¤°à¤¨à¤ķ":13227,"à¤°à¤¶à¤ķ":13228,"Ġà¤ķà¤ı":13229,"à¤Ĥ%":13230,"à¤¨à¤£":13231,"à¤¨africa":13232,"à¥Ģ(":13233,"à¤ķà¤¹à¤²":13234,"à¤¯à¤ĩ":13235,"Ġà¤¹à¤µà¤²à¤¦":13236,"Ġà¤¸à¤ħà¤°":13237,"à¤¹à¤¬à¤°":13238,"à¤¹à¤łà¤¯":13239,"à¤²à¤°à¤¶":13240,"à¥ģ),":13241,"à¥Ī''":13242,"à¤µà¤ķà¤²":13243,"à¤µà¤Ĺà¤¨":13244,"à¤¦à¤¥":13245,"à¤¦à¤¯à¤¨":13246,"à¤¦à¤¹à¤²":13247,"à¤ªà¤¸à¤²":13248,"à¤ªà¤²à¤¸":13249,"à¤Ĺà¤«à¤¨":13250,"Ġà¤ľà¥ľ":13251,"Ġà¤ħà¤°à¤¦":13252,"Ġà¤µà¤ĸ":13253,"à¤ľà¤¹à¤²":13254,"à¤¼à¥Ĭ":13255,"Ġà¤¬à¤¬à¤²":13256,"Ġà¤īà¤®à¤¸":13257,"à¤¶à¤ªà¤°à¤¸":13258,"à¤¬à¤²à¤ķ":13259,"Ġà¤²à¤¥":13260,"à¤ŁGenericName":13261,"à¤ıà¤²à¤¨":13262,"à¤ıà¤Ĩà¤Īà¤¸":13263,"à¤§à¤ķà¤²":13264,"à¤§à¤ĭ":13265,"à¤·à¤ĵ":13266,"à¤·à¤¯à¤¤":13267,"à¤·à¤ľà¤Ĺ":13268,"Ġà¤ķà¤°à¤ķà¤Ł":13269,"à¤£à¤µà¤µ":13270,"à¤£à¤Ńà¤Ł":13271,"à¤ĸà¤ĸà¤ķ":13272,"Ġà¤Ĺà¤°à¤¬":13273,"Ġà¤Ĺà¤ľà¤°":13274,"à¤Ńà¤µà¤¸":13275,"à¤Ńà¤¯à¤Ń":13276,"Ġ(#":13277,"Ġ(âĢľ%":13278,"Ġà¤ĩà¤®à¤¸":13279,"Ġà¤ıà¤²à¤®":13280,"Ġà¤ļà¤®à¤¨":13281,"Ġà¤ļà¤®à¤Ĺ":13282,"à¤Īà¤ł":13283,"à¤«à¤¨à¤®":13284,"à¤ªà¤¨à¤ķ":13285,"à¤ĩà¤°à¤®":13286,"à¤ĩà¤¬à¤¨":13287,"à¤ĩà¤°à¤«":13288,"à¤Ľà¤²à¤ķ":13289,"à¤Ľà¤Ĭ":13290,"à¤ķà¤°à¤¬":13291,"à¤ķà¤°à¤¬à¤°":13292,"à¤ķà¤°à¤¬à¤²":13293,"à¤°à¤ķà¤¯":13294,"à¤Ĩà¤¸à¤ķ":13295,
[...]
